#version: 1
Ġ t
h e
Ġ a
i n
Ġt he
e r
o n
r e
Ġ s
n d
Ġ w
Ġ o
e d
a t
Ġ ,
Ġ c
e n
o r
e s
i t
Ġ f
i s
a n
Ġ b
a r
in g
a l
Ġ in
Ġo f
Ġ .
Ġ p
Ġa nd
o u
a s
Ġt o
Ġ m
i c
Ġ d
Ġ h
i on
l e
r o
Ġ re
en t
i l
Ġ T
Ġt h
s t
Ġ e
o m
Ġ S
Ġ l
e l
Ġ A
a c
Ġ n
a m
Ġ "
a d
Ġ 1
Ġ C
e c
e t
Ġ g
l y
i d
Ġ on
Ġw as
i m
o l
u r
Ġf or
i v
Ġ =
Ġ M
o t
i g
i r
u t
o w
Ġ he
u s
Ġ I
Ġ B
a y
Ġa s
t er
it h
Ġs t
ĠT he
at ion
Ġth at
v er
Ġ '
Ġ H
Ġw ith
Ġb e
c e
Ġ is
u l
u n
Ġ P
e m
c h
Ġ 2
Ġw h
er s
Ġa l
Ġc on
Ġ R
Ġa n
Ġ it
c t
t h
Ġ D
es t
r a
Ġb y
o s
Ġ W
he r
Ġ G
Ġa t
Ġ. Ċ
Ġp ro
Ġ F
r i
Ġ (
a v
is t
a g
Ġ L
u m
a nd
i f
o p
Ġ N
a in
Ġ y
o d
ro m
Ġ )
Ġc om
o re
l d
Ġ E
Ġ v
Ġ1 9
Ġ J
il l
Ġ r
p p
Ġs u
an t
Ġf rom
at e
a k
ou r
0 0
re s
Ġh is
ig h
es s
e w
Ġo r
Ġe x
i es
Ġa re
or t
a b
q u
ar t
Ċ Ċ
o c
al l
Ġd e
s e
u d
Ġ O
Ġs e
Ġc h
it y
iv e
er e
ar d
Ġs h
ec t
ic h
Ġp l
g h
b er
p t
Ġw ere
r ou
on g
m ent
Ġ k
ac k
Ġ le
at ed
e ar
â Ģ
i p
i al
u re
as t
Ġh ad
am e
g e
Ġs p
u st
ou t
igh t
o v
Ġ U
ĠI n
Ġ K
av e
el l
e nd
Ġn ot
Ġ u
ou ld
Ġwh ich
o st
in e
Ġ us
ĠS t
a p
id e
Ġthe ir
ion s
Ġ âĢ
or d
Ġhe r
i an
ic al
i a
Ġ= Ċ
ou n
t her
Ġin c
om e
i re
f f
. ĊĊ
a re
ar y
Ġ un
c c
Ġa b
r it
Ġa d
o k
Ġcom p
o g
Ġb ut
ou s
Ġin t
or m
r u
Ġcon t
s o
p er
r y
Ġ 3
or k
Ġh ave
T he
Ġw he
Ġc an
ac t
ig n
Ġ en
Ġ Ġ
d u
p l
is h
i e
i z
ag e
Ġa r
ĠC h
en ce
Ġc l
as s
f ter
Ġal so
l ow
ir st
im e
r an
at er
Ġ im
Ġit s
Ġ V
u e
Ġre s
Ġ j
Ġh as
Ġth is
u b
Ġy ou
ĠH e
Ġ2 0
ĠT h
Ġthe y
ic e
al ly
Ġ2 00
ul t
Ġwh o
w o
on d
i le
Ġw e
Ġf irst
ac h
k e
Ġp er
ation s
e p
it ion
ou nd
Ġs c
ow n
m er
Ġa pp
in d
he d
Ġon e
Ġre c
Ġm ore
Ġo ut
an ce
ac e
l ud
ĠI t
f er
Ġm an
Ġd is
Ġg o
el y
Ġo ther
ou gh
ar k
Ġ ro
Ġo ver
Ġs he
ĠâĢ ĵ
ab le
or y
re e
Ġp art
Ġ 4
Ġ ;
Ġn e
Ġbe en
i b
on e
ct ion
Ġu p
Ġb ec
' s
f orm
Ġa g
ak e
res s
Ġ 5
Ġp re
Ġt e
Ġd es
Ġs er
ur ing
Ġ :
r ic
Ġt wo
v el
oun t
Ġinc lud
as e
Ġpl ay
ad e
a il
Ġ Y
Ġw ould
v e
Ġint o
Ġt ime
Ġe v
Ġm e
Ġw ork
en s
re at
Ġhe l
l es
ent s
Ġ20 1
Ġ1 8
or s
it e
w n
f ul
c es
in t
Ġa fter
w e
Ġal l
Ġf e
Ġab out
n e
em ber
Ġat t
ĠA l
Ġy ear
Ġim p
an g
t e
ing s
rou gh
o ok
c ed
Ġas s
o y
Ġthe m
Ġhel p
Ġcom m
l and
Ġin ter
am p
re n
nd er
p h
at es
Ġs a
Ġh im
Ġn ew
ol d
as ed
ur n
Ġs o
Ġof f
il d
m an
on s
os e
ic k
w ard
Ġs ome
Ġ qu
rou nd
w ay
Ġc o
it ed
i ous
f t
Ġp r
al s
Ġb et
ĠU n
Ġwhe n
Ġk n
i ed
o od
Ġy our
a us
i ke
Ġ 6
g an
h n
o b
Ġcon s
Ġre p
il m
ic t
re d
Ġt r
ot h
Ġs ec
Ġp e
Ġd o
ri b
an s
Ġa cc
is s
Ġre m
ol low
Ġd ec
ver y
Ġpro du
Ġc ol
Ġth an
Ġth rough
h ip
Ġpro v
Ġsu ch
ĠA n
ri end
I n
k s
if ic
Ġad d
at t
f ore
ĠTh is
Ġthe re
Ġm ost
Ġu nder
i x
at h
or ld
Ġre l
Ġa ct
Ġ 7
. Ċ
Ġd uring
il y
at ing
Ġf l
Ġp o
t s
ub l
Ġag ain
we en
v ed
Ġd ay
Ġon ly
Ġp os
Ġf ilm
le ct
n ing
i ew
as on
ro p
e ver
s s
ter n
Ġin d
Ġe ar
Ġch ar
Ġf in
ation al
Ġh ow
er ed
Ġb u
ul ar
Ġsp ec
Ġn um
Ġre t
or th
ĠM ar
ĠA r
Ġbet ween
Ġwh ile
Ġ 8
Ġw ill
he s
Ġf ollow
Ġa m
u g
r on
Ġf riend
a w
Ġs y
Ġwhe re
ĠS he
ĠE n
Ġt ra
en er
Ġ ra
Ġm ade
Ġre g
Ġe m
Ġg ame
if e
Ġe nd
Ġan y
u al
c k
Ġc ould
Ġsu b
ĠN ew
he n
Ġus ed
ĠS e
t ed
ter s
Ġ 9
vel op
Ġsu pp
Ġ19 9
ic s
Ġm us
Ġre le
r am
Ġm ov
Ġth ree
l l
Ġin v
it ies
Ġd if
Ġfor m
id ent
Ġl oc
mer ic
Ġc ent
x t
j ect
s p
Ġc re
Ġb l
Ġex p
Ġs ong
Ġbe fore
Ġh igh
is e
Ġl ater
u res
ou th
em ent
Ġsa id
Ġs m
in s
Ġs ur
t on
r al
Ġb ack
ĠS p
t en
e g
ol og
i o
is ion
Ġw rit
el f
Ġyear s
ĠC om
u p
ver s
Ġte am
iv ed
Ġthe n
Ġw ell
Ġ ent
oc k
Ġa c
am es
ĠA meric
a ir
Ġsec ond
Ġde f
ot her
it s
er t
Ġn o
i el
op le
o ol
ow er
Ġus e
Ġs et
Ġl ike
Ġst ud
Ġbe ing
ak ing
00 0
Ġle ad
aus e
Ġe ff
ers on
Ġl ar
is hed
or n
Ġde velop
Ġinclud ing
Ġman y
Ġsh ow
Ġc all
ar s
at ive
ĠJ o
i et
od e
Ġrec ord
Ġf ound
l ed
Ġd id
Ġ1 0
Ġ -
Ġf our
in es
y s
Ġp res
Ġp ol
a u
Ġp ubl
b um
t ing
Ġnum ber
ro w
ĠL e
i k
Ġthe se
ĠThe y
at her
al e
ĠO n
Ġse ason
an y
Ġass ist
ĠĠ ĠĠ
Ġb oth
Ġ /
Ġin st
at ure
Ġper form
ĠS h
Ġt ran
Ġchar ac
i er
Ġse ver
Ġ $
Ġe p
Ġl ong
Ġar t
Ġm in
iv ers
Ġs ign
ur y
Ġp h
ĠA s
a j
rou p
Ġc ar
Ġpe ople
Ġm on
g et
in ce
Ġm ain
Ġm ay
Ġ 000
er m
Ġh on
ment s
a z
Ġagain st
ĠW h
Ġal bum
iz ed
ain ed
Ġm et
ver n
v en
are d
ire d
st em
y p
Ġdes ign
Ġre ce
Ġm ake
Ġo p
a h
g g
Ġm y
as h
c l
s on
Ġde p
ĠH ow
Ġe ach
b s
ir d
in ed
il ity
v iew
ov e
ou se
Ġs ing
Ġ if
Ġbec ame
Ġdif fer
iv er
Ġp op
r is
i ence
Ġf am
Ġex t
Ġwh at
Ġcont in
Ġcomp le
in k
d er
ire ct
ĠS c
t il
ib le
t y
ro ss
Ġd own
f l
Ġm ed
Ġ 0
a pp
Ġo wn
Ġst art
ĠA t
a pt
Ġep is
u ally
cc ess
ĠUn ited
at ch
an ge
Ġres p
an c
e y
ĠC on
ch ool
Ġ1 7
Ġd et
Ġb el
Ġ1 2
Ġb ro
an k
m y
ig in
u ch
an n
iel d
Ġ1 5
id ed
e k
ĠA d
ĠEn g
a x
ĠB rit
c o
Ġsever al
ĠâĢ Ķ
is m
Ġser v
Ġp ass
Ġw ay
Ġg u
Ġex per
Ġmus ic
em b
Ġun til
im es
Ġser ies
n ess
v ent
ut ion
Ġa round
le y
Ġw ar
Ġa ir
ĠR e
an e
Ġc ount
Ġb r
Ġst r
Ġd ist
Ġdes c
o ber
Ġj ust
o ot
u es
is ed
Ġ19 8
ĠA I
Ġsupp ort
i ent
en g
Ġm od
u c
Y ou
Ġassist ant
ill ion
Ġl ife
Ġg roup
ĠI nd
Ġv ar
ĠC l
Ġs im
Ġw orld
iv es
en e
Ġret urn
ĠJo hn
ru ct
Ġsy stem
Ġhelp ful
Ġg ener
er n
Ġkn own
Ġr un
Ġfriend ly
Ġcon c
ist s
pt ion
Ġfollow ing
Ġ19 4
u ed
Ġsu ccess
t le
ul l
Ġpro g
Ġ est
om et
Ġhon est
u nd
Ġpro m
Ġg r
Ġbe gan
Ġne ed
et s
ant s
i am
ic es
ial ly
Ġor igin
ur al
Ġh ist
Ġbec ause
Ġp erson
Ġth ough
el s
th ough
Ġsh ip
Ġ1 6
n er
Ġsm all
ĠD e
Ġ ed
Ġn ear
op i
Ġd irect
Ġop en
Ġres ult
ĠG opi
ĠAmeric an
ĠB l
Ġcall ed
Ġtran s
b le
i um
Ġepis ode
ĠW ar
Ġear ly
Ġs ame
Ġm il
Ġbu ild
al th
Ġ Z
Ġa ut
Ġpo int
Ġ19 7
ĠA ust
Ġex pl
ĠF or
Ġ1 1
Ġc rit
os ed
Ġl and
iv ing
ĠC ol
ward s
Ġ19 6
er man
ĠA fter
am ed
p r
iv en
Ġal ong
Ġdiffer ent
un e
ical ly
r act
ĠC an
Ġb o
Ġe le
Ġgo vern
ĠM ay
av ing
er v
Ġinc re
Ġc are
ec hn
us s
Ġpart ic
g y
Ġin form
Ġl it
Ġm ark
Ġ [
ĠHow ever
Ġs k
iz e
Ġal low
ion al
l ing
- s
aj or
ĠU S
c on
Ġev en
- b
Ã ©
Ġen g
ac ed
g er
e b
ĠP ro
ra ph
Ġcon st
en c
Ġo per
Ġre f
Ġv is
g ed
Ġcharac ter
ar ch
Ġm illion
Ġw ater
en ces
Ġw ant
Ġrele ased
Ġcons id
Ġeff ect
Ġs oc
- t
Ġre st
Ġto ok
os s
at ely
en n
Ġe very
Ġm uch
ag es
Ġdesc rib
re t
ut e
Ġc ity
in c
Ġ Q
: ĊĊ
ĠI s
Ġhe ad
Ġd r
Ġoff ic
Ġt ri
ĠSt ates
end ed
e x
or p
id es
i qu
ĠP l
ra nd
Ġb re
Ġsh ould
Ġg reat
Ġrep ort
ord ing
ĠB e
ĠG erman
ect ion
ect ed
Ġo cc
Ġ very
s ide
Ġad v
Ġb ook
Ġf ind
ĠBrit ish
. .
Ġcomm un
iv ely
Ġs ent
Ġp ower
Ġre qu
Ġare a
Ġh ome
Ġch ild
Ġ1 3
ak es
Ġh and
ĠW orld
Ġs l
ce pt
m ed
l ish
Ġw in
Ġre al
Ġatt ack
Ġpubl ic
ra ft
Ġpl ace
Ġl ast
Ġfam ily
ĠF ran
od y
ain s
Ġst ate
ore d
Ġt urn
in a
ug ust
l ine
Ġor gan
Ġst ory
Ġcl ass
Ġb att
ur ch
it al
' t
ĠW e
Ġcont ro
pt ember
at s
ĠB r
en se
in ess
Ġs chool
Ġapp ear
Ġo b
h ing
Ġ1 4
Ġt ake
Ġr ight
ĠA ugust
Ġg et
Ġb est
Ġc ur
Ġl ook
Ġn ow
al k
ĠSe ptember
ar l
Ġa v
ĠAl l
Ġan n
Ġus ing
Ġpro t
Ġf un
Ġt echn
ĠJ u
Ġl ist
Ġle ft
Ġf ew
c ess
olog y
p le
Ġapp ro
g in
iss ion
Ġb us
Ġ19 5
Ġth ose
Ġan other
Ġev ent
- f
ĠAust ral
ian s
Ġrece ived
Ġto p
Ġm ar
al es
Ġo ur
Ġs ince
re en
Ġs ix
Ġd el
her n
Ġlar ge
Ġprog ram
ĠO ct
in ing
ĠN ov
Ġn ame
Ġc amp
Ġm ajor
ĠY ork
Ġst ill
Ġprov ide
Ġpos s
Ġc our
Ġo pp
ar n
Ġt yp
Ġk m
b y
Ġc he
âĢ Ļ
v es
ĠD ec
Ġ19 3
Ġf ive
Ġs ay
s elf
- p
Ġk e
Ġre view
ĠN orth
r ist
Ġb and
ĠP h
ne y
ar m
e an
Ġkn ow
ĠA nd
ĠOct ober
Ġd em
ĠB y
Ġimp ort
Ġn orth
Ġinform ation
- c
il t
if ied
ĠCom m
Ġ3 0
d ay
o int
Ġsh ort
Ġ vers
Ġtr ack
Ġgo od
Ġadd ition
Ġsing le
Ġ19 1
Ġd ue
Ġbel ie
a im
Ġmon th
it ions
v ious
el t
Ġe lect
an u
Ġplay ed
es p
ent ly
Ġgovern ment
om an
ĠJ une
Ġh um
ĠK ing
i or
at ter
Ġl ine
Ġis s
ot t
b all
t al
er y
Ġv ide
al f
Ġof ten
on y
id ge
ur ther
au gh
Ġse e
Ġre ad
Ġin fl
ĠW ill
e ad
h or
ĠJu ly
Ġn amed
ĠE u
o ad
Ġ ]
Ġsp e
Ġne xt
re ad
pr il
c hed
emb ers
r ing
ĠNov ember
Ġcon f
iet y
Ġp ort
Ġs omet
T h
av y
Ġ %
b o
s h
at a
ĠMar ch
Ġpl an
ĠA pril
Ġbe h
ivers ity
he st
i od
Ġimp ro
ĠE d
it ive
Ġ" Ċ
ĠS outh
ĠH ar
il ar
Ġo ld
Ġfin al
ro du
Ġc le
Ġinclud e
Ġle g
ĠY ou
ag ue
m p
em pt
Ġ2 5
Ġw on
ĠM c
Ġc ap
Ġde ath
Ġsu gg
Ġsugg est
Ġs ound
ĠG e
Ġwith in
ĠP r
ap an
ĠB ro
Ġb ased
Ġth ird
Ġg l
Ġloc al
Ġhe alth
Ġro le
Ġt it
o on
Ġst and
O n
Ġl ed
is ter
le t
Ġinclud ed
Ġre du
ard s
Ġm en
Ġsign ific
Ġt our
Ġv al
Ġk ill
ure d
ĠO r
ec h
. "
iv al
ro te
Ġpro cess
Ġc r
Ġe qu
Ġcent ury
Ġre fer
Ġv iew
c om
ri ed
Ġ ide
Ġre pl
re w
Ġfe el
Ġfe at
Ġc reat
an ces
Ġf act
Ġman ag
ĠJ apan
Ġt erm
Ġtr ad
anu ary
- l
ent ion
Ġa ff
Ġcomp any
or ies
Ġpre vious
Ġs outh
oc i
Ġm embers
Ġc ame
s w
Ġpro f
ĠDec ember
Ġe as
Ġpres ent
ĠI I
ert ain
Ġinv ol
Ġs ol
Ġm aking
ĠW hen
Ġp ost
Ġinter est
Ġp at
Ġpro p
b r
Ġday s
om in
t he
ĠJ anuary
Ġdis c
Ġl ight
y l
Ġqu est
es e
Ġg iven
Ġ1 00
as es
ĠĠ Ġ
as ter
Ġw ind
og raph
Ġ. ..
ĠM us
al ity
ent ial
ac hed
i pp
ĠH is
- 1
Ġg ames
Ġ19 2
Ġne ver
Ġl a
y le
Ġc apt
ĠEu rop
ĠThe re
ak en
ul ation
Ġin it
Ġwith out
iv id
Ġd am
Ġst at
ren ch
way s
Ġper iod
Ġw rote
l ess
Ġc aus
ri es
Ġpro ject
ru ction
ĠG u
Ġdo es
as k
Ġin s
Ġle vel
r ay
Ġf ore
c hes
Ġc ult
Ġl ess
Ġdescrib ed
ain ing
Ġch ang
ut es
ĠF l
Ġp ar
- m
Ġle t
ust om
Ġt w
Ġvide o
Ġatt empt
ort s
Ġto get
Ġprodu ct
Ġtoget her
ren t
n a
Ġbec ome
S t
ĠC ar
p ar
Ġhist ory
ĠCh rist
at or
Ġinfl u
pl oy
Ġs it
Ġd est
amp le
Ġbus iness
id d
ot s
Ġlit tle
Ġde b
Ġsoc ial
Ġpol it
Ġw ent
ĠO ne
Ġof fer
Ġs old
Ġspec ies
Ġto wn
ĠN ational
ir on
ĠThe se
Ġorigin al
Ġe l
Ġpr act
ord s
- d
m s
Ġs ide
Ġstr ong
Ġsignific ant
Ġam ong
Ġhe ld
Ġto tal
iv ision
at ic
ur s
Ġh ouse
e f
Ġwe ek
Ġest ab
Ġto o
ĠA m
om en
Ġcomm and
our s
Ġdevelop ment
w ork
ĠC o
Ġm ag
out e
Ġl ate
Ġprom ot
Ġh app
Ġf re
es c
pl ay
Ġf urther
Ġco ver
ĠH er
et er
Ġc ost
eb ru
Ġg un
Ġfor mer
ĠF rench
t o
m e
Ġcre ate
le v
ebru ary
Ġs um
ut ed
Ġf elt
er ing
im ent
: Ċ
Ġ &
Ġg row
Ġsim ilar
Ġbu ilt
if y
ir l
ĠM on
re am
op s
et ing
on es
st and
Ġcom b
are n
ĠF ebruary
Ġm atch
Ġt em
it ary
enc y
Ġh aving
Ġ X
Ġp ot
oun g
res ent
Ġrele ase
Ġl ow
h am
ap e
g es
Ġd ra
Ġcontin ued
iz ation
re et
Ġrel ations
oc us
Ġa way
Ġa ud
ĠEng lish
Ġcare er
Ġfe ature
Ġc ustom
Ġan im
er gy
ir c
a ut
Ġpop ular
ron t
Ġcomm on
ol l
Ġcount ry
a ign
op e
Ġ Â
Ġt imes
ail ed
Ġact iv
Ġal though
Ġst orm
om m
Ġs w
Ġcontro l
ĠN o
ĠW est
Ġvar ious
un g
Ġ2 4
. S
os p
Ġcl aim
Ġ ident
ĠE x
Ġhow ever
Ġor der
a i
Ġ2 1
Ġpartic ular
ĠWill iam
f ic
Ġapp e
Ġh ig
ĠM an
Ġas k
Ġserv ice
Ġperform ance
Ġimport ant
es tern
Ġj o
Ġex ample
r ation
Ġconsid ered
Ġl aw
Ġpos ition
Ġimp act
rop ical
u ck
Ġbuild ing
Ġvers ion
al t
Ġchild ren
Ġsa w
Ġprodu ction
ĠC ent
Ġh alf
# #
Ġan t
o f
ĠC ity
Ġp ain
ang u
Ġind ust
ĠGe or
ĠE l
Ġl im
a ff
Ġro ad
y n
Ġ19 0
ill s
Ġind ivid
ĠUn iversity
ĠT r
al d
Ġen c
iqu e
Ġ er
ab or
Ġte xt
um ent
ĠR ec
l er
Ġp ut
Ġab le
Ġf ocus
ĠB ut
Ġg ave
Ġc ast
Ġf ood
Ġm om
Ġaut hor
Ġt est
ĠEng land
ĠP ark
Ġin f
Ġcon n
o x
ac y
Ġt re
al y
ĠM ich
ĠD uring
it ing
in ation
Ġm ater
Ġinv est
Ġl ost
Ġar r
ĠB ar
ĠG o
ac es
Ġstart ed
se qu
ra p
Ġn ight
Ġm ix
ĠS u
Ġc or
Ġmov ed
ĠM in
Ġex am
ĠC ount
Ġwrit ten
amp ions
Ġb ody
Ġke ep
ĠD av
Ġspec ial
Ġcamp aign
Ġ2 2
re st
a ur
Ġf ire
f ord
Ġexper ience
Ġ ĊĊ
ĠAn g
Ġr ad
Ġp ress
ond on
is on
Ġac ross
e e
o ice
ĠC al
Ġcomp et
Ġplay er
Ġare as
Ġcl ub
i ec
Ġinter n
con om
Ġad m
Ġt ry
Ġd on
Ġfeat ures
Ġf ield
ff ic
Ġcol le
Ġg round
ell ing
pl es
ic ation
Ġre d
Ġex c
Ġf oot
Ġl ove
ro y
il le
ĠL ondon
he re
Ġann oun
Ġother s
- y
Ġre se
Ġcon d
Ġsuccess ful
Ġv ict
Ġl ik
ĠJ ack
one y
ĠW ith
Ġrelations hip
ress ion
um p
ie f
- w
Ġmater ial
a f
om b
ab ly
en ed
Ġmed ia
is ing
ĠR ep
Ġthough t
Ġch all
ĠE m
id ing
Ġs qu
Ġst e
ĠI f
Ġg en
our ces
g round
ĠA f
ri pt
Ġacc ess
he l
ĠCan ad
cc ording
s c
Ġcharac ters
ĠR iver
Ġdis co
og n
Ġrep resent
ĠA ir
Ġbet ter
ĠS m
Ġf av
id s
Ġhim self
Ġen ergy
Ġspec ific
us h
orp or
ĠH igh
Ġt er
A s
Ġth ink
a ul
Ġf ull
ens ive
sw er
Ġlar g
oy al
Ġf ather
et h
Ġen s
Ġre n
Ġfriend s
Ġ2 3
ĠB att
Ġmin utes
v iron
Ġcol l
Ġreport ed
Ġ5 0
du ct
it her
Ġb ig
Ġwant ed
Ġse en
Ġpubl ished
Ġreturn ed
Ġr ange
o le
v ing
ch ie
ag ed
Ġup on
o ver
ĠCom p
ĠA ss
Ġe ast
c er
Ġmonth s
a e
Ġdef e
lev ision
ĠF in
W h
ĠT e
ĠS w
Ġh old
ĠS y
end ing
Ġn on
Ġst ruct
Ġpro ble
ĠP ol
Ġl angu
ab ility
Ġquest ion
Ġm ot
ate g
id ence
Ġthrough out
Ġor d
ric k
Ġperson al
as ing
ubl ic
ect s
Ġw est
Ġav ail
Ġle arn
Ġmil itary
Ġg ive
Ġne g
or ing
Ġde v
Ġsomet hing
Ġtrad ition
c raft
Ġwrit ing
ol ution
Ġbl ack
Ġal ways
Ġy oung
Ġbe gin
Ġprodu ced
im ately
Ġpro per
ĠS ec
âĢĻ s
ed er
m ost
en ced
Ġint rodu
ight s
Ġfor ces
Ġcre ated
Ġe conom
ĠA b
ress ed
ic le
Ġhist or
Ġf le
Ġpoint s
ell s
Ġsong s
Ġcom e
Ġc ross
at ural
Ġtit le
ĠSt ate
Ġst ated
Ġhum an
um b
Ġ4 0
Ġm ult
Ġo pt
ur ric
Ġdevelop ed
Ġt en
Ġbatt le
ĠE ar
op h
Ġo bs
Ġprof ess
Ġf ree
Ġd ata
Ġro om
it ted
Ġv ol
ĠT o
fic ult
ĠG ener
Ġqu ick
Ġst yle
em s
Ġn ational
er c
Ġem ploy
ing ton
Ġm ust
he ad
Ġstud ents
ĠP ar
ampions hip
Ġwork ing
Ġc ase
ail s
Ġh ard
Ġp ast
Ġsu per
Ġb ar
< <
Ġ Ċ
ĠP res
av es
Ġf ac
Ġp ri
Ġoffic ial
c ent
Ġpr im
Ġ2 7
ĠWh ile
Ġbre ak
Ġpos itive
Ġrecord ed
Ġs on
o ff
Ġph ys
d om
Ġbec om
i ber
om p
em ents
ĠG l
Ġplay ers
Ġwork s
Ġ2 8
Ġdif ficult
Ġc y
Ġev ents
Ġdec ided
m ing
c ast
Ġm at
b e
a el
2 0
Ġa ge
Ġcrit ic
ĠAustral ia
Ġed uc
Ġc irc
Ġch ange
ric t
re g
Ġis land
Ġpolit ical
Ġb as
Ġd ied
- in
Ġship s
Ġe ight
> >
out hern
Ġre v
Ġposs ible
Ġc ut
Ġt ru
c ing
Ġen viron
Ġa ver
Ġcur rent
Ġprov ided
an a
Ġon ce
Ġin sp
st er
Ġgo ing
Ġt aken
- g
Ġn ort
at ors
Ġb all
Ġbeh ind
ut ure
ip s
ĠJ ames
Ġa chie
ĠM ed
Ġcle ar
Ġk ey
ur b
Ġst ru
th ing
ent al
Ġdest roy
ĠH ere
w are
ĠAmeric a
Ġfor ce
Ġrem ained
e v
Ġb ene
ĠR uss
ough t
pp ed
Ġh ours
Ġmod ern
ĠB o
Ġcont rib
Ġto wards
ou ra
Ġadd ed
Ġst ar
Ġ2 6
ĠR eg
ar a
- h
op p
z e
Ġplay ing
Ġar ch
Ġapp l
Ġ) Ċ
Ġm id
Ġre ached
Ġcommun ity
Ġm ight
Ġw omen
Ġstud y
Ġent ire
ur g
ĠS er
ĠQ u
Ġfollow ed
ap er
Ġme an
Ġle ast
Ġavail able
ist ic
Ġf all
ov ed
Ġser ved
ĠAd d
Ġl ive
Ġrese arch
ĠAf ric
et t
Ġa ction
Ġlead ing
Ġunder stand
ad es
Ġag re
sp ort
Ġcl os
ĠAr my
lect ed
Ġch art
Ġf ront
il ities
ĠS im
ĠLe ague
Ġre ally
Ġre ach
Ġ18 9
Ġsur v
ĠAl though
ĠCount y
ec ut
Ġinst ead
Ġe y
Ġfe et
Ġloc ated
Ġtra vel
us ion
Ġear l
Ġp ra
Ġd iv
o or
Ġc op
ep end
t ain
Ġe ver
ĠCh ar
Ġf ight
Ġp iec
Ġro ck
Ġf t
rough t
Ġj our
Ġannoun ced
Ġp ark
Ġst ation
st it
Ġte levision
Ġar g
e le
Ġc oun
iv il
b or
Ġass oci
Ġh it
l ished
C an
us ed
olog ical
Ġg irl
Ġmil es
ĠJapan ese
i ers
ay s
Ġsy m
urric ane
Ġgener al
Ġwork ed
ĠM or
Ġm iss
e ks
f ield
Ġtra ining
Ġ z
b ack
h od
Ġar m
Ġpre d
p s
Ġair craft
ĠG r
Ġt ro
s el
ĠP art
Ġme as
Ġwh ite
Ġbro ad
Ġm ember
Ġob ject
ĠE ast
Ġnot ed
Ġf und
pp er
Ġcon v
Ġf ar
ĠM y
Ġcl ose
Ġpartic ip
i us
Ġt ar
Ġresp ons
Ġdec l
Ġst ep
Ġt reat
Ġrec ogn
Ġperform ed
ĠR oad
ĠSt reet
n ow
ra in
- st
Ġhe re
ro wn
Ġm other
Ġl oss
Ġst ri
ĠD ivision
ĠM ad
Ġpop ulation
ap s
Ġex ist
ĠGener al
Ġf uture
Ġevent ually
Ġcaus ed
ĠA ccording
ree k
Ġf low
Ġm or
le ase
ĠIs land
an ks
Ġ esc
Ġs elf
n am
ĠA ct
o id
p ut
Ġkill ed
a id
ĠPh il
Ġn ov
Ġc al
it ar
Ġreg ular
n ed
ĠS ome
Ġcons ist
Ġeng ine
em y
j oy
Ġlangu age
ot e
ort un
Ġenviron ment
im ate
ĠGeor ge
Ġpl at
ec ess
Ġ ess
5 0
et work
ib ility
Ġf em
Ġj ob
Ġdesign ed
g o
Ġa ward
Ġreg ion
Ġt aking
Ġp ay
f or
ĠH ouse
ĠIn tern
Ġb ase
Ġask ed
c il
ell ow
Ġm em
r ated
Ġr ather
Ġestab lished
idd le
Ġco ast
Ġst ay
eng th
Ġr ace
Ġappe ared
ĠR ober
le x
med i
d en
Ġwe eks
ce ed
Ġocc ur
A n
Ġcont ent
Ġl ack
Ġse par
f ace
Ġindust ry
Ġs ite
Ġth ings
ĠâĢ Ļ
bo ard
ĠS chool
v al
c ial
ĠDav id
ĠH en
u als
g r
Ġexper i
c her
Ġh ost
ĠR ed
u ation
, "
ĠĠĠĠ ĠĠĠĠ
Ġpart y
Ġse ven
Ġso on
p or
Ġen ough
Ġin j
Ġaddition al
wo od
Ġdet erm
Ġserv ices
ĠInd ian
os ition
Ġp ers
Ġv ill
Ġph ot
k y
Ġgo al
Ġal most
Ġwe bs
ĠD o
ĠS ch
ign ed
Ġm ount
Ġsu ff
art ment
ict ion
Ġac cept
i ol
Ġexam ples
Ġopen ed
Ġ2 9
id er
Ġchall eng
ĠM e
er ous
ĠB ill
am a
Ġan swer
i ents
A fter
Ġout side
ers hip
Ġbro ther
ĠBl ack
ĠN e
Ġinvol ved
Ġn atural
Ġf ig
Ġpot ential
Ġb rought
ren g
Ġab ove
Ġin n
Ġh om
Ġt ropical
Ġacc ount
Ġpre vent
Ġ ill
Ġr oute
Ġacc ording
Ġ: Ċ
ic a
le ment
av al
in o
Ġ !
Ġform ed
ud e
esp ite
ĠAustral ian
Ġele ments
Ġdam age
ĠEurop e
Ġ Ã
ĠR ich
ĠT om
Ġtar get
ĠP er
Ġconst ruction
m en
Ġsc ene
Ġaver age
Ġla un
Ġhe avy
ĠS am
it ch
Ġv oc
ĠS qu
Ġcre w
Ġcomple ted
Ġallow ed
Ġre ve
Ġst age
u k
ĠP e
Ġrec omm
Ġv e
ĠR oyal
ific ation
Ġoff ice
-y ear
Ġresp ect
Ġt ou
ul a
Ġide a
Ġto ld
Ġm ass
Ġs at
ver t
Ġre b
ris on
Ġincre ase
Ġincre ased
Ġp ur
Ġmov e
Ġf ace
Ġcom ment
Ġe ither
Ġde ep
Ġparticular ly
g ing
Ġm oney
r or
Ġh y
Ġm m
ĠR es
m a
u el
Ġa p
i ation
u ff
ĠH ist
Ġr ound
Ã ¡
Ġaud ience
p ort
l in
it or
ĠS an
Ġs low
Ġ +
Ġs ense
Ġmark et
Ġw all
Ġsa f
Ġem ot
Ġ3 1
Ġdisco ver
Ġ18 8
Ġover all
ĠFran ce
un k
Ġd ou
ĠA g
Ġcour se
ore s
ĠTh at
Ġb ird
il es
ĠD r
im in
Ġhe art
ant ic
ograph y
am b
Ġh or
Ġg ot
Ġst reng
ĠD on
Ġam ount
ol s
Ġm ind
ĠPres ident
Ġsub ject
Ġcon duct
Ġpr iv
ĠMich ael
Ġl y
ar ing
ĠW ash
ic ated
Ġk ing
on t
ish ing
ĠP ort
Ġquick ly
ber t
ly ing
re m
Ġen joy
fer ence
Ġr is
Ġper cent
Ġdisc uss
ow s
ag ing
if t
c le
m ar
Ġapp oint
Ġw ife
ear s
Ġchang es
Ġhelp ed
h ib
Ġr ul
n al
on se
o ose
Ġcont ract
ke y
ĠSt e
Ġgr ad
ĠN or
Ġpol ic
Ġturn ed
Ġb orn
ak er
Ġ18 6
Ġ5 00
Ġun ique
Ġw alk
ĠV ir
i os
ou l
ok e
in ist
Ġsp ace
Ġtechn ology
Ġrun s
Ġl ower
ab les
Ġr ank
Ġth reat
Ġsub sequ
ĠCol le
Ġo il
Ġbelie ved
read y
Ġorigin ally
Ġfour th
Ġs il
Ġconsid er
t t
Ġgo als
is c
ĠO ther
Ġbene f
Ġd ark
Ġpe ak
Ġc ru
ill ed
Ġsc ored
um e
Ġb oy
ĠB est
i res
Ġ esp
an ced
if f
ĠD ep
Ġgun s
ĠM ary
ĠMus ic
augh ter
Ġfeature d
en es
iz ing
Ġbr ing
Ġm ess
ĠM ark
Ġsp ent
Ġdes p
os ing
Ġf if
Ġsu re
Ġtran sport
Ġpl aced
ĠH ol
on st
Ġpre m
al ed
ĠP aul
ĠC our
Ġg re
ĠAng el
Ġtradition al
- 2
ĠQ ue
ar ter
az ine
ĠWash ington
Ġreg ard
Ġgroup s
1 0
Ġgener ally
Ġopp ortun
ĠB el
Ġrel ig
Ġimpro ve
act ion
an ish
Ġwebs ite
Ġvis it
Ġlarg est
Ġcomple x
ĠB en
ĠG reat
Ġsay ing
our ce
ĠG od
ĠEurop ean
Th is
Ġfun ction
it te
Ġc ertain
o es
ĠBatt le
ic o
ĠF irst
Ġal ready
Ġspe ed
Ġsh are
Ġinclud es
sel ves
and er
ĠHen ry
if orn
ecut ive
Ġm akes
ĠL a
Ġjo ined
ĠV al
Ġn ar
ĠPl ay
Ġresp onse
Ġk ind
Ġse x
Ġrequ ired
Ġcour t
Ġearl ier
Ġra in
Ġl ength
Ġfin ished
Ġl iving
I t
it es
Ġar my
Ġtyp e
Ġ18 7
Ġl ay
Ġcomp an
Ġmult ip
Ġra il
as ion
as c
ĠH all
Ġw ood
." ĊĊ
us p
B C
ĠC up
f all
Ġcom mer
en ing
Ġd ig
ĠR oman
Ġbe aut
Ġc ook
ec ially
Ġeffect s
e um
Ġc ou
Ġm er
Ġpart s
il ed
Ġpass ed
Ġsur round
ĠRober t
ĠA lex
Ġm i
Ġab s
Ġde al
am er
Ġim medi
Ġp aren
) Ċ
oc r
air s
Ġp urch
Ġdec ision
ag o
Ġsent ence
ĠRep ublic
Ġtro ops
om as
ur ity
Ġn omin
Ġpres ident
is es
r ast
Ġh ot
Ġsh ot
- A
ollow ing
ra w
Ġdirect or
Ġim m
Ġcrit ics
Ġmet hod
Ġh ous
Ġso ft
Ġb ow
est s
Ġfav or
Ġst ates
Ġd oc
Ġpri or
k i
s y
ĠL ou
ur t
Ġneed ed
ann ed
Ġdra w
Ġe mer
ĠAr t
Ġw ords
Ġvict ory
Ġc red
Ġrefer ence
ĠS o
Ġconc ern
Ġrepl aced
ĠCal iforn
Ġplat form
Ġopen ing
Ġnov el
Ġesp ecially
Ġhapp y
Ġiss ues
Ġhig her
w est
ri an
od es
f ect
ĠM al
at ory
Ġcent er
Ġs ize
u le
ra b
Ġw at
ĠWh at
Ġkn ew
ir t
Ġn etwork
g ar
res h
Ġg old
Ġfor ced
ri ef
ĠIntern ational
Ġdis play
Ġs al
Ġdis p
ir th
Ġfin anc
Ġits elf
ĠH am
ve y
Ġest im
ar ily
Ġfre qu
Ġlik ely
Ġse qu
it ation
ĠT im
ĠS oc
Ġind epend
ĠM ag
ad ron
Ġintern ational
om s
Ġsu st
ĠCaliforn ia
ĠG ame
ĠInd ia
Ġw id
Ġdet ails
Ġcount ries
Ġb i
n y
ĠS en
ĠU se
Ġshow s
ĠM art
Ġcent ral
ĠCh ampionship
Ġad apt
Ġd one
Ġwhe ther
Ġtem per
Ġinit ially
ĠSc ott
ĠM ac
ib r
ĠB er
ĠCh urch
ĠM et
ut ions
Ġcomple te
un t
ec k
Ġappro ach
Ġv iol
ect ive
Ġpro b
Ġ6 0
v ille
ul ly
) .
Ġeduc ation
at ives
Ġev idence
Ġse a
ou d
ĠSt ud
Ġl ab
Ġstru gg
Ġw oman
Ġfoot ball
m on
Ġhig hest
re l
en a
Ġlit er
Ġn ature
Ġpl ant
ĠKing dom
Ġt akes
Ġch urch
Ġinter view
Ġappear ance
ar ies
b ers
Ġ <<
Ġredu ce
Ġatt ract
Ġs outhern
Ġm ph
ĠS l
ac ing
c he
Ġus ually
) ,
Ġl o
Ġl ines
Ġus er
Ġme et
Ġstruct ure
Ġme ans
all ed
ĠS ing
- up
st on
ĠM il
as ons
ĠC he
Ġend ed
ĠCanad a
Ġf r
Ġse arch
Ġr an
` `
Ġstud io
Ġqu ality
; Ċ
Ġthem selves
ail y
Ġp ow
he ast
Ġinvest ig
itte e
Ġindivid ual
le g
ĠWh ite
ĠUn ion
Ġinc orpor
Ġab ility
ic les
Ġm ach
Ġcol or
ain t
ĠP al
Ġs ection
Ġsur face
Ġlong er
ell ed
ĠW il
ĠB ay
ĠAt l
Ġreview s
ant ry
' m
Ġun its
Ġincre asing
ele br
Ġn ecess
Ġsomet imes
Ġb omb
Ġens ure
n el
Ġprov ides
Ġd ro
ĠComp any
Ġc at
Ġloc ation
Ġiss ue
Ġcomp l
Ġfilm s
ĠN avy
er ved
Ġbegin ning
Ġdesp ite
h a
ĠBro wn
Ġgrow th
Ġrun ning
Ġm ention
er ve
it z
ra g
Ġbo x
ens ion
Ġpol ice
Ġd i
Ġprofess ional
e al
Ġse em
ĠTh omas
ĠAss oci
Ġs usp
Ġhigh way
ĠM o
Ġlar ger
re c
ic ations
' re
ĠA c
Ġan al
Ġnort hern
ric s
Ġc ause
ĠF rom
Ġt ax
N A
ĠColle ge
Ġcomple t
ĠVir gin
h ood
Ġb ur
Ġv oice
id a
Ġw ide
Ġw a
ĠChar les
Ġproduct s
ĠGo vern
Ġpo or
ĠK e
Ġterm s
Ġ â
, Ċ
ĠCour t
ed y
l ight
Ġteam s
ac her
ĠO ver
ĠMc C
Ġc ivil
Ġdid n
ran ch
Ġb rand
g en
Ġpract ice
Ġinflu ence
Ġlevel s
ĠSt ar
ĠD em
ul f
ĠâĢ ľ
il i
Ġbe g
ĠU K
ĠP at
Ġprevious ly
Ġvar iety
Ġtrans fer
Ġlim ited
ĠSm ith
Ġindivid uals
Ġphys ical
ess ion
a ult
Ġt ell
Ġl ot
ac hes
Ġsc ore
ĠC ong
it er
C h
Ġmov ie
Ġenc oura
ĠÂ °
Ġactiv ities
Ġd ate
Ġpra ised
ĠA pp
Ġsystem s
id ents
Ġfor ward
Ġs we
Ġrem ain
ĠGerman y
Ġwh ose
6 0
Ġway s
Ġs ales
Ġord ered
Ġcult ure
ĠM ex
ĠR oute
Ġdem and
Ġatt ention
Ġsign ed
Ġst aff
re y
ĠÂ £
ĠM ount
ĠA ward
Ġmov ement
ĠT wo
Ġt alk
is ions
or ial
r ack
ĠD espite
Ġmod el
in ct
Ġsc reen
A l
Ġf ailed
is l
iv ity
ĠR ock
Ġh urricane
por ary
Ġneed s
ic ed
z z
Ġcontin ue
Ġr out
Ġpress ure
Ġsum mer
Ġrem aining
ĠCon t
Ġbecom ing
Ġde ad
Ġle aving
ĠG old
Ġle ave
ord er
ĠJ os
Ġcond itions
ĠV ict
ĠChrist ian
Ġra p
Ġp ick
Ġc and
Ġproble ms
Ġrecord ing
Ġcan n
Ġ ult
t ies
ir ing
Ġwind s
ĠRich ard
Ġw ord
Ġmus ical
inc ip
Ġv ot
I I
ĠD an
Ġarr ived
ition ally
ber g
-b ased
Ġcreat ing
im um
Ġw atch
Ġ ?
ĠI m
Ġ i
Ġb rief
ound s
Ġfe ed
at ively
n es
Ġcon fl
Ġestab lish
augh t
St ep
ĠJ ust
Ġtri ed
Ġac qu
ĠP eter
ut h
- S
Ġintrodu ced
Ġf arm
Ġrequ ire
it ude
Ġsc ript
ri ption
Ġbook s
ĠFran k
ĠG rand
ch ange
Ġdirect ed
ines e
ul ated
Ġfor t
ĠB ra
Ġcy cl
ĠC oun
Ġs un
osp ital
Ġrel ated
ĠW estern
Ġwh om
Ġval ue
ĠH ot
k n
ut er
Ġas p
Ġdeb ut
Ġpl ans
Ġin side
an ia
Ġon line
Ġwho le
on na
Ġar ran
Ġbr idge
qu e
Ġc elebr
Ġr iver
Ġ3 5
h y
ĠT ra
b and
r ate
hest er
Ġrad io
Ġtou ch
Ġsay s
Ġg reen
Ġus es
ir m
Ġassoci ated
Ġcomp ared
Ġmean ing
ab it
Wh at
Ġgu itar
Ġcompan ies
ven ue
Ġ ver
it ect
ĠM r
ĠH ill
eder al
Ġconn ect
e es
Ġsp ir
3 0
Ġh op
Ġp en
Ġimp lement
Ġan c
Ġright s
Ġchang ed
Ġbel ow
Ġj ud
Ġd aughter
Ġpur p
w h
h old
Ġs n
Ġtrans l
Ġn ine
Ġbo ard
Ġappro x
ig an
Ġs ens
Ġeconom ic
Ġd en
Ġbeh av
Ġclaim ed
Ġint eg
Ġfl ood
b ed
Ġres ources
Ġcommer cial
Ġal tern
et ic
Ġconst ruct
ic ate
Ġcon cept
u f
Ġd og
Ġre ason
Ġsc ient
Ġexp and
Ġcoll abor
Ġmark eting
ar i
al ion
Ġsh oot
ĠC ast
ĠSp anish
Ġad op
um ents
um n
ov iet
Ġdis s
Ġs le
ce an
u ing
Ġtru e
Ġpre p
Ġb ad
ĠT ran
e xt
Ġto day
ĠD ay
i j
arl iam
Ġcrit ical
Ġ #
Ġ18 5
Ġfinanc ial
ys is
ĠC ons
ĠA wards
ĠT imes
Ġoper ations
- M
Ġeffect ive
ĠCh inese
Ġdist rib
Ġbuild ings
Ġy et
Ġcar ried
Ġle ague
eg et
ĠBrit ain
a res
Ġfem ale
Ġp ack
Ġcol lect
Ġpr ison
ĠR ob
Ġpl ot
Ġrem ains
Ġanim als
us e
y ing
ro l
Ã Ń
Ġsym b
Ġfore st
Ġconfl ict
Ġnum bers
Ġbl ood
Ġocc up
Ġmom ent
Ġsuggest ed
Ġst ars
Ġestim ated
Ġneg ative
arliam ent
A t
o o
Ġcap ital
re ct
Ġmanag ement
Ġtyp es
ĠL ily
Ġf resh
Ġt rib
Ġqu arter
Ġpr int
Ġart icle
Ġcont act
Ġg ra
Ġs ources
ent y
ol ic
Ġpriv ate
Ġwrit er
i ant
Ġve h
Ġr ate
ĠL os
Ġlead er
Ġt ask
Ġfin ally
ĠSu per
o e
ĠS erv
Ġmag azine
Ġeff orts
ĠG reen
ĠD is
ly mp
Ġf ans
ĠT ex
Ġconc lud
ĠCh ic
f ort
Ġoff ers
Ġback ground
r id
Ġprog ress
Ġsk ills
Ġprot ect
Ġp il
Ġde g
ĠF ilm
Ġmin or
Ġw or
Ġcar ry
ĠS ar
ĠC ro
Ġan g
Ġd er
ĠS oviet
ĠVict or
as y
Ġmain t
S ure
p e
ĠFor ce
Ġtry ing
Ġc up
Ġf ail
Ġhe av
d own
ĠE v
ĠN Y
Ġprop osed
ĠP ac
ĠS al
Ġth r
? Ċ
Ġlook ing
Ġ8 0
Ġexp ected
Ġinst r
led ge
Ġb al
Ġent ered
Ġto w
ĠIt al
Ġprov iding
ous ly
Ġagre ed
Ġwe ap
u it
âĢ Ŀ
Ġter rit
Ġsy n
d e
Ġnear ly
Ġper fect
ĠCh ina
ur ies
Ġdiscover ed
Ġopt ions
Ġf ast
ĠO lymp
Ġide as
-t ime
Ã ¼
is er
ed s
Ġw estern
ĠEar th
ĠE mp
ĠK ore
Ġme eting
ĠĠĠĠ ĠĠĠ
ĠFl or
ast ic
Ġrec ip
ce ption
Ġl og
ĠAssoci ation
Ġn orm
Ġ4 5
c an
Ġg rand
Ġun s
ar ning
Ġb irth
Ġint ended
ag on
Ġnew s
ĠD u
Ġant i
ĠCl ub
Ġbl ock
Ġsh own
Ġoffer ed
Ġm ur
iqu es
Ġs ource
Ġdefe ated
ĠB ur
k en
ĠSec ond
Ġmultip le
il s
Ġmar ried
im s
ĠPart y
Ã ¶
Ġcle an
Ġpat tern
Ġad j
Ġproble m
m it
ad ed
Ġstreng th
Ġl if
r d
Ġsmall er
Ġimmedi ately
Ġt ips
Ġg e
re ak
Ġrecomm end
as tern
Ġh ope
Ġm ental
Ġparen ts
Ġresult s
ight ly
Ġvill age
Ġs ect
Ġhigh ly
Ġpre c
orp s
am s
Y es
Ġdis e
kn own
Ġstat us
end er
Ġele ction
Ġsupport ed
ĠCoun cil
Ġinit ial
Ġapprox imately
Ġsc enes
at in
in n
ĠChic ago
ĠVirgin ia
Ġchalleng es
em ic
Ġ3 2
Ġex erc
al ing
op er
ĠU p
e ff
Ġepis odes
ĠLou is
r ong
A A
ri al
Ġd ram
m at
Ġ3 00
ent h
Ġcont ains
ĠAdd itionally
ct or
Ġco ach
The re
Ġm ax
ĠAfric a
in al
ĠJack son
ech an
Ġdestroy ed
Ġprob ably
Ġl ives
Ġus ers
Ġdo ing
Ġlet ter
Ġhand s
Ġcom es
Ġmix ed
v ement
Ġcomm ission
Ġnum erous
Ġappoint ed
rit e
Ġd ivision
Ġf it
Ġmov ing
Ġl atter
Ġcustom er
ro ll
Ġprodu ce
Ġpower ful
Ġp aper
Ġem b
Ġle arning
O ne
Ġwh y
ĠCent er
> Ċ
Ġeas tern
Ġf ell
est ival
Ġsec ret
Ġeas y
ĠIn ter
b on
he t
H e
ict ed
hip s
Ġcult ural
Ġbl ue
4 0
Ġadm inist
Ġst ories
ĠT our
Ġsold iers
Ġsit uation
Ġg iving
Ġv eget
ĠB u
ĠI r
Ġne igh
Ġey es
ĠO ff
ĠT er
Ġsc he
Ġqu al
Ġdirect ly
Ġarch itect
Ġact ive
ĠM any
Ġth us
Ġs ch
Ġint ens
ad o
r ight
ĠS un
ĠIt s
ad d
ĠK h
Ġpl anned
ĠM ill
ru g
Ġaward ed
ep h
c y
Ġset t
Ġfl av
et y
Ġp an
Ġm ission
iz es
Ġprogram s
ĠIn c
Ġtrack s
Ġport ray
Ġav oid
1 9
ri age
ĠSe a
on ic
is f
Ġam b
Ġb it
ipp ed
Ġart ist
Ġmost ly
Ġcons um
Ġv ia
Ġ18 0
Ġactiv ity
Ġstr ateg
Ġtr ade
Ġbroad cast
u x
ri a
Ġst op
te en
ĠFran c
s en
ard en
cl usion
ter ed
ĠT ur
ĠL ater
Ġris k
ist ics
Ġd ance
Ġm iddle
Ġcustom ers
ĠF le
ad y
ud d
l or
Ġeff ort
Ġprim ary
ig ade
erv ation
Ġcapt ured
ĠJohn son
if ul
Ġw ear
? "
b our
ĠU nder
ĠEn ter
ĠIn st
Ġadd ress
Ġ18 4
Ġpr incip
ĠHist ory
W hen
Ġdoc ument
Ġfle et
Ġpiec e
k a
ot hes
land s
w ell
ĠD ist
Ġra ised
Ġu nd
Ġsoc iety
Ã ³
ĠT V
Ġrec ent
et her
Ġallow ing
Ġst ore
Ġext ended
Ġdep art
D uring
Ġmanag er
Ġlook ed
uc le
Ġwrit e
sy ch
- -
ĠSc ot
Ġnecess ary
ĠN ot
ĠM ost
Ġfeel ing
hen s
Ġdis app
Ġwith d
Ġher self
Ġappear s
ĠL ake
Ġsc ience
en ge
os es
Ġadv ance
re me
Ġly rics
Ġke pt
ĠPac ific
ic ro
Ġcolle ge
Ġp ath
ĠO per
ĠTex as
ip ment
Ġrequ est
Ġstand ard
Ġmor ning
ire ction
o ly
ivers e
Ġform s
Ġan aly
ĠJ im
Ġpe ace
ĠS ong
Ġth ick
ĠIn f
Ġk il
Ġm atter
Ġc er
ĠL ove
Ġc ases
opp ed
ĠD es
ĠCong ress
m ark
ĠEd ward
Ġcompet ition
ĠC amp
Ġp air
ĠP et
Ġt ree
ol k
h ouse
Ġcon vers
ĠJ ew
ĠG roup
Ġoffic ers
Ġcol on
Ġd ed
Ġeff ic
ĠG re
ru pt
um ber
ĠItal ian
Ġl ived
i en
ĠĠ Ċ
ĠMon t
Ġdem onst
Ġsim ple
Ġc orn
Ġsome one
Ġhe ard
Ġevery thing
Ġp ict
Ġstart ing
ĠRuss ian
ĠFlor ida
Ġpre fer
ir al
Ġs en
Ġschool s
ĠT w
Ġcont em
Ġattack s
Ġth ing
Ġfl ag
st e
ĠP ri
Ġrem oved
ĠO ld
og ue
b urg
ĠO l
Ġdep ression
ro om
Ġpres ence
Ġ `
Ġme ant
ĠQue en
ĠEar ly
Ġtra ffic
Ġad ult
Ġsuff ered
ĠL ord
Ġelect ric
Ġle aves
ag ement
Ġwin ning
Ġact ions
Ġfif th
- cl
Ġiss ued
ic ip
Ġser ious
Ġprodu cer
ful ly
i est
stit ute
Ġcl osed
Ġbatt les
c ome
Ġp urs
Ġtra in
Ġ7 0
ib ly
Ġreve aled
Ġthem e
end s
Ġallow s
Ġgl ob
u ated
Ġd ang
Ġfl ight
Ġrelig ious
Ġ3 7
Ġmajor ity
con t
ĠL aw
Ġpiec es
ĠB ack
ĠK n
Ġenc oun
ĠEmp ire
Ġrespons ible
Ġtechn iques
ĠAngel es
Ġm ob
ĠM el
Ġst ra
ĠAd m
Ġnear by
Ġim age
Ġlaun ched
ell ig
ĠCent ral
b ury
ul ate
Ġn ames
ist ed
Ġredu ced
ad ium
Ġ ice
Ġbelie ve
Ġwe ight
Ġcover ed
ud get
le ction
Ġgre ater
st ant
Ġh ar
ĠR o
Ġm el
p ly
Ġjour ney
Ġcl im
Ġbenef its
Ġcop ies
Ġs ister
od ies
Ġinsp ired
ut en
ĠBill board
in ent
Ġcoun ter
w ide
ph as
Ġpromot e
Ġresp ond
on a
in i
Ġshow ed
ĠT own
Ġf ru
Ġmaterial s
Ġcom ing
Ġleg al
ĠW ood
ĠM iss
- n
e ed
ĠO ut
Ġ9 0
ap ed
om er
Ġext ra
and on
ro ad
Ġim ag
ĠB ig
Ġon to
Ġbusiness es
Ġc m
Ġmed ical
Ġgr ant
igh ter
ro s
ĠThe ir
ĠAtl antic
Ġg as
Ġorgan ization
Ġacc omp
Ġdel iver
Ġpolic y
ĠM ax
Ġcont ext
Ġd omin
Ġnew sp
Ġoccur red
Ġident ify
Ġw ild
is her
ĠC le
ĠAfric an
-t o
Ġanal ysis
Ġex hib
Ġsec urity
ĠCar ol
Ġequ ipment
Ġtre es
Ġwe ather
et te
Ġart ists
Ġperform ances
Ġdam aged
Ġrep e
Ġ ing
Ġt able
8 0
Ġcolle ction
m ore
ĠR ail
Ġresult ed
Ġatt end
Ġm echan
! "
Ġse lected
ĠD el
z y
ĠCanad ian
Ġser ve
Ġear ned
ĠG reek
Ġsepar ate
an i
yp e
Ġl ink
Ġsp read
Ġdou ble
Ġ ri
ĠB oth
oc ks
Ġstud ies
Ġt al
ĠF ort
Ġsing er
ĠB oy
r ad
ĠM ore
z a
ĠAn t
Ġsubsequ ently
c el
i ate
Ġcomp osed
ĠS k
Ġun able
ill ing
u ge
Ġm ale
Ġrefer red
ĠFranc is
Ġact ually
iz ations
B y
ĠF ollowing
Ġresult ing
Ġ *
Ġt ur
Ġbecom es
Ġsp ot
Ġany thing
it t
ĠB ow
ĠRe v
Ġrespect ively
ar ian
ĠII I
ĠT or
Ġrecord s
Ġlearn ed
Ġsp l
Ġrap id
Ġt ons
Ġsust ain
ul ations
Ġc as
Ġmet al
l o
und red
Ġcontin ues
Ġset ting
Ġproper ty
m ond
Ġnot es
ĠT est
Ġhelp s
Ġget ting
- 3
Ġess ential
Ġb ank
Ġinter act
Ġb atter
Ġfight ing
ĠM ur
Ġu pper
Ġy ards
ĠB ob
W e
Ġquest ions
Ã ¤
ol f
ound ed
ĠDem ocr
Ġstud ent
Ġr at
l ike
s hip
Ġse nd
ĠAn other
Ġsupp l
Ġs em
Ġoffic er
it a
os en
Ġ18 3
Ġ ut
Ġjour nal
Ġknow ledge
Ġexperi ences
ĠMart in
ĠK ent
Ġleg isl
Ġexp ress
ron ic
A S
ar ters
ĠDep artment
Ġcont rast
Ġcand id
Ġd irection
ĠM er
ĠAc ad
ã ĥ
Ġdefe at
ian ce
Ġem phas
ĠB et
Ġco ol
ĠY ear
ĠC am
Ġsu it
ĠC r
Ġ3 3
Ġinter s
ill a
Ġfig ure
Ġpl ants
Ġoper ation
Ġpresent ed
r ative
Ġs ides
Ġdef in
ri er
V D
à ¤
Ġd oll
Ġche ck
T o
Ġd u
Ġe gg
Ġref used
uf act
Ġro ll
Ġref lect
Ġtreat ment
1 2
ĠR ad
Ġal one
ĠY our
Ġn ation
ĠP re
Ġmat ches
Ġdist ance
Ġpo em
Ġattempt ed
Ġmach ine
Ġun it
Ġab andon
vent ion
Ġlarg ely
Ġmanag ed
Ġvis ual
Ġplay s
ĠN ort
Ġcomplet ely
Ġsound s
Ġ3 6
ĠA v
ut ch
Ġimport ance
n ers
ĠS ir
Ġ 00
Ġmention ed
ĠMin ister
Ġl oved
Ġass igned
Ġwar m
Ġcont ain
Ġann ual
-c ent
- C
F or
Ġren ew
for ce
-1 9
Ġ7 5
Ġman ufact
i able
- e
ĠC or
Ġattack ed
Ġconst it
Ġlist ed
r ical
Ġse ek
Ġp it
Ġp lease
ĠS um
' ll
ibr ary
Ġsl ightly
Ġtyp ically
Ġro y
p ass
Ġhe at
nam ent
Ġf ish
Ġult imately
Ġrest aur
ĠP enn
ĠS at
Ġbeg ins
Ġele ment
Ġinc hes
Ġmess age
On ce
Ġdig ital
th let
in ter
Ġp le
Ġcann ot
Ġh our
row d
Ġinst it
ĠHigh way
ĠSqu adron
Ġb urn
Ġspir it
- B
Ġd om
ous and
anc ing
Ġdr um
Ġd aily
Ġcor rect
Ġb le
Ġdist inct
Ġra re
il ies
ĠM ass
br idge
ĠSt ep
Ġthe at
ran ge
ĠC ath
ce nd
Ġin put
Ġ {
Ġc it
Ġh yp
Ġcer em
ĠC are
Ġcomp os
ut y
Ġp aid
ri e
Ġn ut
y r
gy pt
s et
un ch
Ġp al
Ġh air
Ġh ospital
Ġcent re
Ġrank ed
ins on
ĠS ol
ĠT ime
Ġpos itions
ĠMex ico
ĠF ore
Ġnot hing
Ġconduct ed
ic an
ĠZ eal
M S
ĠW ales
r ig
ĠU s
Ġres ist
ever al
y a
Ġf aced
or ation
ĠL u
ĠC orps
Ġ ir
Ġadd ing
Ġc ateg
Ġear th
Ġup d
Ġn ucle
Ġbe at
Ġche m
Ġs and
Ġb udget
av ig
Ġd raft
g l
Ġsch ol
ol ved
- se
. com
ĠL uc
m osp
Ġb reat
r as
Ġg raph
Ġc ities
Ġ4 00
Ġr ating
Ġfore ign
ĠL eg
ant asy
in ary
o oth
us band
Ġar rest
aren t
Ġcomb ined
ec ause
ĠAn n
ĠM a
ĠM att
ĠT re
ĠTe am
Ġpract ices
i ated
im al
ĠD VD
ĠZeal and
Ġpro te
Ġo ption
ĠV iet
Ġen h
Ġst ress
Ġdecl ared
Ġelect ed
Ġexper iment
Ġch oice
ĠE gypt
ĠMich igan
, 000
or ter
Ġcomment ed
-cl ass
in em
ĠAr ch
Ġsk in
Ġhor se
-s h
ĠG ar
ĠW al
Ġre in
Ġunderstand ing
us hed
ub e
Ġf ully
Ġit ems
Ġrece ive
Ġfam ous
l oad
Ġatt ended
ĠS ur
Ġaccept ed
ĠS ince
Ġinst ruct
g est
Ġinter p
ĠH el
ann el
g a
e en
od d
Ġcomb at
ir med
Ġre ject
Ġvoc als
ag er
is ation
art s
Ġwin ter
ĠH aw
it tle
O ver
Ġb ed
Ġw orth
Ġ15 0
Ġmar riage
ad a
ish op
i h
Ġbe y
Ġt ast
Ġs ave
ric ult
Ġto ols
Ġc ell
Ġprim arily
Ġproject s
- old
ing u
Ġbird s
ertain ly
ĠL et
Ġa head
- F
Ġcost s
m as
Ġdr ive
anc y
w rit
Ġcontro vers
Ġdro pped
ĠW all
Ġbey ond
Ġse g
Ġinflu enced
wh ile
Ġb ul
ĠPar is
ĠV er
Ġstat ement
Ġconc ent
Ġroy al
Ġc old
ĠEx p
urb an
ĠF er
am ent
Ġmain tain
Ġ3 4
Ġaff ected
Ġcommun ication
Ġb ott
Ġconstruct ed
Ġsecond s
Ġcast le
ant ly
Ġconc ert
Ġevery one
Ġaut om
Ġcommand er
Ġstep s
ĠC arl
Ġhous es
ĠNew s
in y
um ed
Ġadv anced
Ġd yn
Ġdis m
Ġp et
Ġcaus ing
Ġf air
Ġfl oor
ash ion
Ġjo in
Ġr ule
ĠScot land
Ġg rew
ond er
Ġsh ared
H ow
ist ry
al a
Ġc ry
ĠO x
Ġadv ant
ĠP ost
ess ions
ĠFin al
Ġmeas ure
Ġanc ient
Ġsqu are
Ġp sych
ro g
ĠA ut
Ġf ederal
il ing
Ġend ing
ĠMus eum
Ġcontro ll
ear ch
Ġsp orts
Ġtrans form
ĠB ook
Ġch o
ĠC apt
ĠServ ice
Ġd ry
ab y
Ġset tle
ĠĊ ĠĠĊ
Ġacc ur
rop ri
er o
Ġsim ply
Ġbeaut iful
ĠE r
Ġd rug
ĠL ong
Ġt im
C ertainly
Ġad vert
Ġmax imum
Ġat mosp
Ġfeat uring
Ġpurp ose
Ġindepend ent
Ġtemper ature
Ġview ers
Ġm ill
_ _
Ġopportun ity
Ġa ware
u ate
Ġgrow ing
Ġbre ed
Ġhy d
sh ire
u ce
Ġt ells
ĠComm un
t rack
Ġr ough
Ġpol l
ĠF ox
al le
Ġwid ely
Ġh undred
Ġ4 9
ĠCh ris
Ġrelationship s
Ġold er
Ġsoft ware
ĠB us
un ction
Ġcou ple
ĠSp ec
ac ity
ak ers
ĠB ost
Ġac ad
ĠI re
Ġserv ing
Ġh usband
Ġres idents
Ġst ating
ĠDe f
ĠP an
Ġsle ep
v ant
ĠL atin
Ġrel atively
Ġc ard
on ents
Ġch ap
w in
ĠJ er
ag n
ĠM ajor
ĠO h
d d
ĠR em
Ġpo et
Ġsu c
- day
Ġmark ed
Ġeas ily
Ġtr ust
Ġdevelop ing
red ients
Ġc rowd
Ġch ampionship
in ks
Ġdise ase
Ġwall s
per or
Ġ3 8
Ġofficial s
Ġth ousand
ĠG ood
Ġed ition
Ġtw enty
Ġwrit ers
Ġwork ers
Ġch ief
ie uten
ĠD ar
Ġthem es
ĠWilliam s
Ġey e
Ġemot ional
a wn
ask et
Ġent er
Ġv irt
ĠD ou
ĠT ri
b it
Ġc amer
ĠCl ass
Ġbehav ior
ĠSoc iety
Ġb ound
W ith
Ġcal c
Ġw it
ĠC ap
Ġpr ice
og rap
res p
ceed ed
ĠC ross
ĠB C
Ġcon clusion
Ġfact ors
Ġad vent
Ġb illion
Ġcond ition
Ġanim al
ĠRec ords
yl v
ing er
Ġact or
Ġpl aces
Ġport ion
- 4
ĠS il
Ġel se
Ġen emy
ĠM od
an es
Ġkil omet
Ġcl imate
Ġse vent
Ġvoc al
ot a
Ġexp ect
Ġattempt s
Ġfocus ed
Ġte acher
Ġfam ilies
Ġcon ver
Ġd ream
Ġg ained
ress ive
Ġbro ke
Ġpass eng
Ġfound ed
Ġcomp uter
Ġa im
Ġs av
Ġf ear
Ġh abit
- H
Ġte ach
ĠSec ret
om y
Ġex cept
Ä ĩ
Ġpre par
id ers
Ġreport s
Ġimpro ved
th ur
Ġchar ge
Ġeffect ively
ific ations
ĠD et
Ġhe ro
ĠF oot
ian o
ĠW ind
y les
ill ery
T V
ĠComm ission
ffic ient
Ġg ar
ĠM anc
Ġcom fort
Ġtw ice
ann a
ĠG ames
Ġplan et
Ġj ump
ĠJ ones
Ġsymb ol
b ur
Ġim ages
Ġind ic
Ġon es
ieuten ant
Ġc ode
Ġlead ers
ĠSw ed
Ġcapt ure
ĠAcad emy
Ġsaf ety
Ġm is
Ġop in
Ġinterest ed
Ġ17 9
ĠC reek
ĠSt one
ĠSt an
Ġachie ve
Ġhistor ical
Ġtri al
ĠF our
ĠSy stem
Ġmag n
Ġo x
ĠK enn
ĠAl so
pr ise
Ġact ing
Ġpass age
ĠComm ittee
Ġpow ers
Ġcall ing
ed d
Ġh ol
Ġre form
ers ey
ĠBost on
Ġch oose
Ġsat isf
Ġre act
Ġalong side
Ġm ist
Ġpass ing
l am
ste in
c hest
ĠA p
ĠW ork
Ġbro wn
Ġch ick
b ook
- P
cl us
Ġsurround ing
ĠIt aly
u nder
Ġsuggest s
Ġb order
Ġexpl ore
ĠO p
Ġinn ov
ĠD en
Ġsupp ly
ĠT en
ĠInf antry
Ġ3 9
ĠP arliament
Ġdiv ided
ĠDe velop
Ġprom pt
ĠS outhern
Ġheav ily
hed ul
Ġf ix
Ġm aster
Ġbu y
Ġesc ape
ĠJ eff
ĠGeor g
ĠPro v
Ġ18 1
Ġthe ory
ĠF orm
Ġs ought
ĠL and
Ġb ill
Ġobs erved
Ġpain t
k in
Ġ x
Ġc ert
Ġident ified
Ġlaw s
v est
Ġint ellig
Ġacc ident
Ġdou b
Ġrem ember
Ġst reet
ĠA rab
Ġcould n
Ġf uel
m in
il ly
on n
ĠC rit
A r
ad ing
Ġexperi enced
ĠI d
y m
Ġh un
Ġv ess
Ġcontem porary
Ġlab el
Ġt rou
ĠL o
l a
am m
Ġd ress
- D
ĠPr ince
Ġopportun ities
ĠMad onna
Ġreach ing
ĠE ach
Ġmain ly
Ġ18 2
Å į
Ġcycl one
Ġexpl ained
az z
Ġeconom y
Ġtransfer red
Ġwat ers
ĠA re
Ġinj ury
ain e
ĠBr idge
Ġg ives
Ġswe et
Ġhealth y
ac ement
Ġar ms
c ers
if ically
r ich
it an
Ġdo or
A R
Ġun c
Ġcount y
Ġweap ons
Ġstru ck
Ġgreat est
ĠF red
Ġinstr ument
ĠO tt
ĠM iddle
Ġg ain
Ġfollow s
Ġdec re
Ġneg ot
Ġspe ech
Ġprop os
ans ion
Ġcommun ities
qu arters
Ġh arm
Ġglob al
Ġwe ak
t own
Ġ4 2
Ġst one
Ġe at
Ġhom es
Ġshe ll
Ġconclud ed
Ġapp rec
Ġst ream
ĠJos eph
Ġf a
ol t
v is
Ġc aught
Ġro b
Ġt ail
Ġem p
Ġh all
m itted
ay er
Ġ rom
Ġsc hedul
Ġse lect
u ous
i as
ĠAmeric ans
ĠLe e
he w
ĠCol umb
Ġdist rict
Ġmur der
ĠIre land
ĠOn ce
Ġmet res
ĠG ra
Ġfig ures
ou red
ĠB BC
Ġfavor ite
ors es
ĠL ife
Ġs ort
ĠE ll
ĠSer ies
ĠH or
Ġemploy ees
Ġer a
Ġex ec
ĠS ant
Ġag g
B ut
Ġb ra
Ġfrequ ently
ĠL ine
Ġrec over
ĠT op
Ġexp ressed
e ing
in ner
ĠManc hester
-s c
Ġc ells
Ġsh ape
Ġworld wide
Ġres c
ĠCh ief
ol a
ĠS aint
Ġpil ot
Ġsex ual
Ġwe aken
Ġcit iz
' ve
Ġa st
Ġlaun ch
Ġchall enge
ran ce
Ġcapt ain
Ġdeterm ined
Ġstr ate
Ġun iversity
h i
Ġl oad
in et
ĠCh arl
Ġstrate gy
Ġqu ite
ĠR y
Ġaff ect
ut ation
ĠV an
Ġpeak ed
- le
ad el
ew ay
am ing
Ġn avig
Ġconf irmed
Ġorgan izations
Ġtri p
Ġgo es
k ing
ab eth
W rite
orp ed
Ġto ward
Ġ4 8
Ġ12 0
rick et
Ġch ance
m ission
1 5
ĠOx ford
Ġ iron
Ġcurrent ly
Ġc atch
Ġv ac
ul s
Ġprom inent
ph y
Ġprem i
per ial
Ġp un
ĠJ ul
Ġalbum s
Ġset s
ĠCapt ain
ĠD irect
Ġplan ning
tain ment
ĠDe v
i ences
ruct ure
ĠVal ley
pp ing
Ġro les
Ġd rop
Ġpre t
ell a
ĠM em
ĠS ub
Ġsuccessful ly
A nd
Ġf illed
un te
Ġdet ailed
Ġread ing
ĠL ittle
os aur
Ġlead ership
Ġclaim s
Ġocc asion
uck y
Ġflav or
ra el
ic ious
ĠBr ad
A F
Ġvers ions
r at
Ġprov ed
Ġr ang
um an
ĠTh ree
Ġch osen
Ġrepresent ed
ĠSh ow
Ġun f
h aps
Ġenvironment al
Ġrec ently
ĠB at
Ġd ial
- G
H L
Ġse asons
l ers
ĠI mp
-l ike
w ater
ap ers
ĠW ay
Ġy ellow
Ġhe ar
Ġe t
ar p
Ġsc oring
on ent
Ġdoes n
Ġcre ation
Ġe th
am in
ĠBatt alion
Ġf an
ed om
s ylv
Ġt un
Ġoffic ially
Ġf at
el d
ip l
ct ions
Ġredu cing
ĠJo e
Ġcap acity
Ġcommon ly
Ġstra ight
Th at
Ġpromot ed
Ġse ems
Ġbro ken
## ##
ĠL ight
Ġ5 5
av en
ĠA venue
e per
ir ation
i ations
Ġbelie f
? ĊĊ
Ġmin ute
Ġnorm al
ge nd
Ġcomp ar
Ġsaf e
Ġst ock
Ġph il
Ġf ellow
Ġvis ited
Ġend s
ent ed
Ġex ecutive
Ġr ise
Ġgl ass
stit ution
Ġinst all
Ġsubsequ ent
Ġlim it
Ġveh icles
ĠEl iz
ĠCon f
Ġs alt
us es
Ġown ed
ĠEnter tainment
m es
Ġpain ting
Ġdesign ated
ify ing
Ġform ation
Ġsen ior
ĠS and
Ġspl it
ĠHar rison
p ool
Ġf ashion
ed ition
Ġ Î
Ġill ust
Ġsec ure
out s
ig g
Ġseem ed
Ġreg ions
Ġex act
it ors
Ġmethod s
ĠR am
Ġdeg ree
Ġdeterm ine
ĠAr m
ay lor
Ġinn ings
ĠF re
-y ard
Ġreturn ing
ĠCath olic
Ġread y
Ġrem ark
ĠE very
Ġdef end
Ġk ick
a ud
om a
Ġinterest ing
Ġc ars
ĠSar ah
Ġs now
ĠC re
B A
Ġfind ing
ir ty
Ġcreat ive
Ġsignificant ly
Ġgu est
and a
Ġim pl
Ġhigh light
Ġturn s
z en
est ic
Ġdesign s
ĠP erson
`` `
h ol
igh th
Ġsum m
Ġsm ooth
Ġconn ection
ĠM at
ĠNort hern
Ġrece ption
ĠG al
ag a
Ġbel ong
Ġn aval
Ġp ric
ĠR ay
Ġappl ication
ĠS und
Ġdef ense
Ġr ing
stand ing
Ġ Ð
Ġ{ Ċ
ĠStep hen
ĠH al
- 5
ĠAl b
ĠChrist mas
Ġtit led
Ġshort ly
Ġfl u
ĠI ll
Ġcont est
oun ger
Ġapp arent
Ġele v
st one
av a
Ġ ur
A T
Ġgu ard
ĠB re
Ġmot iv
- re
idd en
ĠD utch
Ġro w
Ġatt rib
t ure
Ġappear ances
Ġbas is
Ġdescrib es
Ġs out
Ġthere fore
Ġhon or
ĠWe ek
Ġm ent
row s
Ġinv asion
Ġagre ement
ĠDist rict
Ġsever e
at ures
ĠP op
ĠL iber
Ġaltern ative
ĠVictor ia
ĠC ivil
Ġl osing
t ime
ick ets
Ġag ricult
c ks
oth ing
ĠIn stitute
Ġst ations
Ġmus eum
Wh ile
Ġadvant age
Ġt orped
Ġla id
p ris
ĠD i
Ġachie ved
Ġ4 7
ĠHist or
Ġapp ropri
ĠCro at
ĠL ive
Ġdep th
Ġterm in
Ġhold ing
ĠBr igade
Ġf irm
oc ated
Ġsix th
sylv ania
im ens
ild ing
Ġ6 5
ĠBl ue
Ġun known
Ġc ris
ro t
Ġch air
ã Ĥ
F A
Ġpurch ase
Ġnomin ated
Ġord ers
Ġk g
Ġcontrib uted
Ġhe ight
Ġb odies
Ġent ertain
ĠReg iment
ĠL ike
ĠHol ly
Ġfin ish
Ġauthor ity
Ġcol ors
Ġorgan ized
Ġcon sequ
ĠSen ate
ĠH ome
ĠPro du
Ġs ac
Ġhouse hold
ri f
Ġ4 1
ĠFle et
is hes
Ġinc ident
Ġsp ring
-cent ury
ĠT em
Ġreal ized
Ġmod els
i Äĩ
Ġsur re
emb ly
az ing
ĠO cean
Ġstrateg ies
ĠDan iel
is ters
ĠF ar
Ġin h
Ġident ity
Ġopt im
Ġm outh
Ġstruct ures
Ġf lying
Ġbal ance
Ġcol umn
oc key
ĠR os
ter m
Ġj u
Ġsound track
ĠGovern ment
ĠB ecause
Ġfail ure
Ġadj ust
am ber
Ġfind s
Ġloc ations
Ġterrit ory
Ġ6 00
Ġr ich
ograp her
Ġconcern s
ĠF estival
ĠJ ud
Ġdel ay
Ġext ensive
ĠY oung
g ian
ĠAs ia
Ġarg ued
Ġ urban
ĠE astern
ap es
ĠN ight
Ġv ote
ĠJ on
Ġshe l
ĠFoot ball
e ption
Ġtransport ation
Ġt all
Ġ4 4
Ġatmosp here
at o
ot ic
Ġdec or
âĢĻ t
ell er
Ġcomb ination
Ġde ploy
Ġtour nament
pl ace
Ġval ues
ord in
Ġdr ink
Ġstand ing
im ents
ĠR et
Ġded icated
Ġeng aged
in er
ĠScott ish
Ġed itor
Ġcall s
Ġnewsp aper
ĠH a
ĠD un
Ġn ative
T C
ĠH urricane
- L
Ġasp ects
Ġaccomp an
Ġcar bon
Ġcas ual
Ġmount ain
Ġsil ver
Ġp age
Ġprot ection
ĠF e
Ġem ail
Ã ¨
Ġsp ort
Ġw ing
ĠN orm
ism s
Ġthe rap
Ġis ol
Ġch ose
Ġabandon ed
-in ch
Ġany one
Ġart illery
ur a
ack s
ad s
Ġexist ing
ĠPe ople
Ġ5 2
Ġdesc ription
ĠCarol ina
Ġag o
Ġs ail
o ch
pt on
Ġcre am
Ġre ign
Ġconsist ed
ĠD am
im p
er ts
Ġbut ter
i i
int end
ĠAdm iral
el ess
Ġobject s
Ġspec ifically
Ġl abor
ĠAt t
amp ion
ĠC at
ĠBe fore
- sp
Ġact ors
ĠJ ac
Ġdeb uted
iven ess
z il
Ġsp ect
ĠTh rough
Ġwe alth
Ġh orses
ick et
k ins
Ġb rain
ĠS everal
Ġadop ted
ĠM ike
Ġa ired
Ġsupport ing
k es
Ġa w
Ġreal ity
ĠP ers
Ġdiffer ence
el ve
att le
Ġb ass
ĠT aylor
ĠGu ard
Ġw rong
i ro
Ġenjoy ed
ĠEliz abeth
Ġeng agement
Ġsing les
b a
ĠPol ish
Ġpass es
Ġrain fall
Ġass ault
Ġprep ared
- T
Ġhum ans
Ġw ave
Ġ4 6
asket ball
in ning
ĠM ov
Ġass ess
um es
Ġ4 3
Ġsequ ence
Ġbeaut y
ĠE ven
Ġcl oud
Ġnew ly
Ġcritic ized
Ġfac ilities
Ġl at
Ġrecip e
" "
ĠO f
Ġcent uries
Ġsit es
Ġview s
as ks
ĠMar sh
Ġco al
Ġed ge
ĠR og
Ġfru it
Ġmeas ures
Ġsk y
ĠU l
Ġro of
- th
Ġv an
cher s
Ġst ick
ac ter
Over all
u pp
ian a
ĠB ond
Ġposs ibly
or ters
ĠH ard
ĠC ard
Ġtre nd
Ġc e
Ġcoun cil
ĠG irl
Ġm ut
opp ing
Ġa id
Ġliter ature
ul pt
ĠAnd rew
ĠP en
Ġnot able
ĠB ey
Ġmaint ained
Ġun p
ĠF urther
ors hip
ĠF am
ĠR om
o h
Ġp ul
Ġst ret
ĠSp ain
ĠBo ard
ĠH y
ĠIs rael
ic y
re hens
Ġy ounger
ĠDu ke
ean while
Ġsa uce
or ough
er a
Ġperform ing
ĠF ield
Ġe c
Ġclos ely
Ġv o
bo x
Ġdr iving
Ġg arden
Ġpattern s
Ġbr ight
Ġstr ing
ĠC orn
ĠG all
Ġc ab
ver se
ĠE lect
Ġwas n
Ġing redients
Ġopp osition
ot ed
Ġadminist ration
Ġr ival
Ġ6 4
l ines
ĠIr ish
ĠO s
ĠSt orm
Ġarran g
Ġb ought
Ġnar row
Ġl iber
Ġnort heast
ĠRuss ia
Ġrul es
Ġf ought
Ġt one
- R
Ġre asons
st ream
ĠB ru
Ġplatform s
Ġequ al
f riend
du c
ĠGovern or
Ġa thlet
Ġro t
ĠRes earch
Ġph r
Ġrail way
Ġre ar
ĠWil son
Ġmiss ing
Ġst opped
z er
Ġap art
Ġsol o
t ar
Ġscient ific
Ġse lection
Ġparticip ated
Ġauthor ities
it ter
in th
Ġexc ell
S o
ĠE nd
Ġdep ict
or age
ĠHar ry
ĠStud ios
Ġform at
Ġprodu cers
Ġentire ly
Ġgovern or
Ġrepe ated
on c
ĠR od
ĠL ew
ĠO b
is a
Ġemer g
Al though
ĠN ow
Ġregard ing
. C
Ġconn ected
Ġhistor ian
The se
Ġh a
Ġstri ke
Ġw ounded
Ġs ession
ĠC D
ut ing
Ġf ile
ipp ing
Ġbo at
us hing
Ġnucle ar
c are
g ers
ĠR el
Ġsing ing
g u
Ġcomm it
Ġeng aging
resp ond
ĠCo ast
ĠCast le
c ript
Ġan x
Ġexp ansion
Ġd iam
Ġrestaur ant
el ly
ĠCh ild
Ġproper ties
Ĥ ¬
ĠW ater
Ġclass es
Ġtow er
Ġext rem
Ġph one
Ġcont ained
ograph ic
Ġsh all
Ġspe ak
Ġopp osed
ĠBe at
ĠH omer
ĠTran s
Ġclass ic
Ġresist ance
ent ially
ock ed
it led
ĠF antasy
Ġslow ly
Ġbow l
ĠJ enn
ĠIsland s
Ġmem ory
k er
Ġwit ness
Ġj oint
Ġwas te
im a
- 6
Ġd iet
Ġpolic ies
Ġbott om
Ġex ception
Ġper man
Ġlet ters
Ġhelp ing
" ,
Ġc art
Ġb an
Ġmot or
Ġstart s
J o
or a
ĠS ound
Ġs ad
ĠPl an
ĠAlex ander
ĠM ah
Ġexpand ed
Ġinit i
Ġkill ing
w ar
Ġland ing
F rom
ĠThe n
Ġman age
agon ist
ĠT ropical
Ġroad s
g n
u zz
Ġrem ind
Ġgrant ed
ĠH ung
Ġret ired
Ġr hy
Ġwat ched
r ant
Ġ }
Ġgu ide
Ġ ign
olog ies
Ġrecogn ized
Ġoper ated
ĠBack ground
ĠPenn sylvania
Ġpro s
Ġdism iss
Ġsustain able
is ers
ĠW ild
Ġs elling
Ġs om
ĠJ ersey
ĠP ublic
ur ation
ĠAl bert
ort ed
Ġphil os
Ġmob ile
u able
ak ed
Ġcom edy
ĠSqu are
Ġfeed back
Ġr ates
den ly
Ġcomm ittee
c ious
j o
Ġeffic ient
Ġ <
v ements
Ġrele vant
ĠRev olution
Ġperson nel
Ġche ese
est ion
Ġf ired
Ġacad emic
ĠPro t
Ġemot ions
ĠL ind
ĠC ub
ĠI S
Ġmot ion
Ġregard ed
ĠT echn
Ġinc ome
Ġb ag
ĠL y
- off
Ġm icro
A ccording
Ġdram a
Ġinterest s
Ġtast e
Ġisland s
Ġnot e
ĠRepublic an
/ 2
E S
ĠHe ad
Ġbas ic
Ġpart ner
ol i
ĠFrancis co
E R
Ġcamer a
S he
v in
n s
w ise
ĠM id
Ġt end
Ġexpl ain
ch ar
ĠBra zil
iss ions
Ġincreasing ly
enc ies
Ġex change
Ġmy th
m et
Ġcons ists
ce ived
ĠOff ice
Ġel imin
Ġland s
Ġregular ly
ĠAll ied
Ġcons ecutive
Ġfilm ing
om ic
Ġpar alle
Ġf iction
rodu ction
ĠTh ough
Ġegg s
Ġsc ulpt
Ġup gr
- 7
ĠCh art
Ġexpl os
u gh
Ġpers p
Ġoff ensive
ĠJ our
ĠR h
Ġd ish
Ġrep utation
- term
od s
Ġs ell
om pl
on el
Ġa wards
or al
al i
re ts
ĠB ul
Ġv en
Ġcerem ony
com ing
Ġm o
Ġsc ale
es ter
Ġlook s
Ġcitiz ens
Ġdev ices
k ed
Ġev ac
Ġobs erv
an th
Ġf ly
c hen
g ent
Ġrem ove
- 9
ĠB as
Ġf ranch
Ġpart n
ens es
Ġob t
as p
ĠB art
Ġrec ru
Ġun ivers
Ġacqu ired
Ġdet ail
Ġmed ium
Ġhyp othes
ĠW rit
Ġfeel ings
Ġhot el
in ity
Ġse at
Ġcaus es
adel ph
ol n
oc al
Ġrecomm ended
Ġpurch ased
ĠHe alth
Ġintens ity
Ġpict ure
' ,
olog ist
Ġhapp ened
os is
) ĊĊ
od ay
Ġest ate
um in
Ġl ic
ĠT ech
ĠP ot
Ġtit les
ĠP ress
Ġun us
Ġ17 8
ĠOper ation
ĠM ir
ing ly
Ġg all
ĠInst ead
ĠJ ane
ĠT urn
ĠV ol
it age
-t he
Ġbrief ly
ĠM en
Ġschol ars
Ġoper ating
Ġreject ed
ĠKore an
Ġcan cer
Ġdev ice
Ġtouch down
Ġrece iving
ĠPro g
Ġindust rial
adelph ia
ĠDevelop ment
S h
E n
Ġcor respond
Ġf il
Ġn ob
ap h
Ġl oyal
Ġ20 2
ĠAs h
Ġc ore
a o
Ġ17 7
ĠM D
Ġclos er
l im
ĠB ank
Ġfund ing
Ġexc ited
we et
Ġrem ov
Ġco ff
ĠS her
b reak
ĠPr ime
i ency
ĠJ es
Ġfilm ed
ĠM ot
ĠV en
ĠSoc ial
Ġt act
ist an
ĠCon n
ĠWh o
Ã ¢
re ets
Ġprote in
R e
meric an
ren ce
2 00
Ġk it
Ġvol unte
Ġs oul
Ġst yles
Ġfl o
Ġyour self
1 8
Ġvol ume
ĠP oint
Ġarchitect ure
ĠW W
ĠAr thur
ĠOh io
Ġinvol ves
Ġvisit ors
ĠGeorg ia
u a
ĠBro ad
ĠP o
ĠS om
Ġsqu adron
Ġthink ing
Ġ |
Ġ8 00
Ġland sc
Ġ9 7
ac hel
ex p
Ġor chest
v a
as hed
Ġdistrib ution
Ġexerc ise
ĠSecret ary
Ġar med
Ġtw elve
Ġfield s
Ġlead s
Ġturn ing
Ġvide os
ĠS up
ĠPhil adelphia
riend ly
Ġcorn er
Ġshow ing
Ġrepl ace
Ġacc ompl
Ġper haps
er al
Ġb ranch
Ġre action
Ġfav our
Ġste el
as ure
Ġhyd ro
ĠS S
or us
Ġp iano
Ġcon ference
ĠE p
ĠT ro
Ġwe b
Ġg ets
Ġal le
ĠDo ctor
S p
F ollowing
- and
r ons
Ġschedul ed
Ġdiffer ences
Ġpart ies
Ġcont aining
o ir
ĠRec eption
Ġgen re
Ġsurre nder
he m
Ġrapid ly
Ġcross ing
Ġsuppl ies
Ġtra v
Ġwithd raw
ad ow
Ġprot ected
Ġ5 4
ĠC y
Ġopin ion
Ġv ary
st ruction
A C
h an
Ġhead quarters
Ġpopular ity
iver pool
ĠR ome
ĠCl ark
Ġneigh bor
el er
Ġrenew able
t hen
Ġ5 3
Ġinst ance
Ġintellig ence
ĠRe view
Ġarr ival
Ġaccompan ied
os a
Ġcomp osition
Ġut il
F L
ĠColumb ia
Ġintern al
un a
Ġext ract
inc oln
Ġsumm ary
Ġshoot ing
Ġsur vey
u ccess
Ġac id
Ġreturn s
Ġwalk ing
ĠJew ish
Ġh ang
ĠComm on
du le
Ġband s
Ġcol lected
Ġmod er
Ġres emb
an o
ap ore
ĠM ake
ĠU N
ig er
ĠW ars
w all
Ġres ident
Ġtechn ical
im et
Ġsu d
un ning
ĠBro ok
il ton
Ġkilomet res
Ġbatter y
Ġeven ing
aval ry
bur gh
Ġsu gar
ĠD ark
Ġassist ance
Ġs essions
Ġviol ence
ot es
se y
Ġinter change
re p
ĠL ar
Ġinvestig ation
ĠSte ve
he im
Ġsol ution
Ġc raft
Ġappl ied
Ġ16 0
ĠIn t
ĠN ever
ĠE duc
Ġgrad ually
ĠCam bridge
Ġag ent
go ing
ur ance
ĠM ul
Ġflood ing
ĠDis ney
Ġmer ch
Ġsw im
ĠM ic
Ġo cean
l aim
Ġchick en
i at
Ġwear ing
Ġtra il
ĠHolly wood
rest ling
Ġmix ture
ĠAl bum
Ġchart s
ĠH on
Ġinf antry
Ġ5 6
1 1
Ġdescrib e
Ð ¾
Ġex clus
Ġappro ached
os ure
Ġadv ice
oc ol
Ġc rop
- r
- 8
ĠD ie
Ġr ac
intend o
aw a
co ver
Ġfa ith
Ġte le
it ely
Ġrecogn ition
Ġserv es
Ġyou th
Ġwatch ing
Ġw ants
Ġtra ins
ĠInd ust
Ġgen us
Ġintrodu ction
ĠComm and
Ġtest ing
Ġdef ensive
Ġm ig
Ġcomp rehens
Ġ25 0
Ġg one
Ġsol id
Ġcritic ism
ony m
ĠOlymp ic
ĠCol l
Ġeng age
Ġfl at
ĠH ay
Ġret ire
Ġsevent h
ten ance
ĠJ r
ĠL incoln
ĠSpec ial
Ġover l
un ior
. 5
ĠPro f
Ġcook ing
Ġhead s
Ġst ages
Ġveget ables
ul es
ĠL ab
Ġlik ed
) ;Ċ
ĠC ur
ĠH it
Ġshow c
Ġw onder
Ġ5 7
Ġp itch
Ġsur pris
ĠW at
t ic
omm od
Ġnorth west
h us
Ġcom ic
ew here
ut ies
Ġcap able
el ine
Ġloss es
op her
ast y
Ġsub stant
ĠG ulf
ĠB urn
ĠE arl
ag ues
et ts
Ġact ress
Ġdra wn
ĠOr der
St ation
Ġfund s
I f
ĠDemocr atic
Ġeng ines
ĠSing apore
ad er
ide o
ĠOr igin
Ġ8 5
ĠG il
b ar
ĠJ ean
Ġbe ar
Ġman ner
ĠT am
z ant
Ġtorped o
or gan
Ġd rew
as ters
ĠG i
ĠK en
ĠSum mer
Ġf ine
ĠP u
ect or
Ġoffer ing
ĠSh ort
Ġparalle l
Ġflow ers
b ing
ĠH un
Ġrel ief
Ġdown load
ir a
Ġcommission ed
Ġto ol
Ġtrans ition
Ġpropos al
Ġst ood
ã ģ
ĠN intendo
Ġexcell ent
Ġso il
Ġme at
Ġappe al
Ġappropri ate
Ġown er
ĠSt and
ĠSund ay
Ġexist ence
ĠC ook
ag an
ĠL iverpool
ak a
y er
Ġsh ark
Ġking dom
ath an
Ġexp edition
Ġal ign
oss ible
Ġout put
Ġth row
Ġpromot ion
ic it
iv ered
ĠProdu ction
Ġuse ful
Ġb ond
ĠSc ience
ck now
Ġear n
2 5
ĠE st
Ġcr ime
ĠCh ap
Ġview ed
ic ian
ĠB alt
Ġbe ach
Ġchem ical
Ġ ic
Ġcarry ing
Ġocc as
Ġsm iled
Ġl ibrary
Ġtechn ique
Ġh ired
Ġn or
Ġrev olution
Ġg ather
Ġr ural
Ġdes cend
Ġdec k
ĠD own
Ġcampaign s
Ġo l
Ġgu id
Ġe ld
ars h
Ġqu ant
m outh
ĠF all
Ġne ut
- ch
ĠSy d
if orm
- on
Ġreb u
m un
ĠCon ference
ĠB rian
ĠM ain
Ġstud ied
r ations
ĠM os
ol ut
Ġpolit ics
Ġt asks
Ġc ricket
Ġpublic ation
Ġdep ending
Ġgr ass
Ġv ir
ach us
Ġsym pt
og ether
ĠO ur
Ġt y
Ġ5 1
Ġmov ements
Ġmom ents
Ġste am
Ġcomm itted
Ġst orage
Ġsem i
s es
Jo hn
ĠEm peror
ĠPlay Station
he red
ĠBy zant
Ġdef ence
Ġdep end
The y
id ges
Ġ7 6
ĠGold en
Ġsol ar
Ġun l
ĠO k
ĠK a
Ġdang erous
Ġappl ications
Ġv ent
ĠG ro
ĠL ady
Ġess ay
Ġsh ut
rou d
ib b
Ġinj ured
ĠAnd erson
ĠGr ant
a fter
ĠT y
iv als
Ġdep artment
Ġemploy ed
ĠRad io
ĠS et
ĠW alk
Ġv ul
Ġbase ball
Ġextrem ely
Ġr ide
Ġsp end
Ġsecond ary
Ġpro ceed
Ġtown s
ĠMill er
- of
Ġappro ved
Ġpe pper
il a
so le
ĠM u
Ġab ilities
enc ing
ĠAr ts
D espite
k o
u ations
Ġbatt alion
ĠD aily
t hes
Ġcandid ate
ic ine
ĠS us
ĠSp ring
Ġcop y
Ġrespons ibility
b ell
Ġf rag
Ġfre edom
un icip
ĠRail way
ĠF ound
ĠB ad
Ġbrother s
Ġcons ult
ĠN ick
Ġrough ly
ĠR ol
Ġfranch ise
Ġm ap
Ġev olution
we ight
Ġbenef it
ĠJ an
orpor ation
I s
ĠB ell
Ġdel ivered
rop ol
Ġa cknow
-f riendly
ĠLew is
Ġd ates
Ġacc ommod
iss ance
le ts
ĠOlymp ics
Ġra ise
B S
Ġhypothes is
ĠF air
ĠP rem
Ġcontroll ed
Ġrecommend ations
rast ructure
Ġrese ar
Ġinsp iration
Ġpartn ership
at i
re ll
e or
ov es
Ġenh ance
Ġp ages
Ġrequ ires
c a
ĠF ire
ĠS R
Ġdec line
Ġreg ister
achus etts
Ġcru cial
ens us
Ġconver ted
Ġsqu ad
Ġaut h
Ġam azing
r ating
ĠW omen
Ġsect ions
ĠN HL
Ġgame play
Ġp ull
Ġrelig ion
u ct
Ġcr imin
Ġprodu cing
Ġact s
Ġal t
ĠĠĠĠĠĠĠĠ ĠĠĠ
ole c
ĠW he
ill er
em ies
Ġdist ingu
ĠPro ject
Ġl ap
l av
Ã ¸
Ġprot agonist
ĠMed ia
ĠSup reme
ĠDav is
Ġâ Ī
the less
at re
olut ely
ĠP ict
Ġseg ment
a is
Ġunder t
U n
Ġexper t
Ġwind ow
Ġval uable
ĠCare y
Ġsurround ed
ĠS ix
p o
Ġwa it
Ġdes ire
ĠB al
Ġmet ers
Ġveh icle
ĠB ern
Ġm ort
Ġbur ied
b ound
m b
Ġcollabor ation
ĠNor way
ĠPhil ipp
ĠSer b
Ġan sw
ĠN ap
Ġs ight
o ard
ĠH an
ĠSt ation
Ġdef ined
Ġh its
1 00
ĠPr inc
Ġv on
Ġb low
Ġkeep ing
Ġst adium
ĠMass achusetts
Ġrespond ed
Ġrel ax
ĠOn ly
Ġadapt ed
ĠGerman s
Ġchar ged
Ġcirc um
Ã¡ n
Ġc inem
tern al
ut s
Ð µ
Ġoccup ied
ĠBe ach
Ġeas ier
Ġ9 9
Ġk id
Ġn ick
Ġsp ons
g or
ĠL es
Ġdom estic
ĠK im
Ġform al
Ġpo ly
Ġcasual ties
Ġaff ord
Ġmil k
n ic
r um
ĠB all
on ia
ĠSyd ney
Ġsp ok
Ġdec ades
Ġhand le
A N
ĠKent ucky
Ġcom ments
ĠAir port
ĠMar ia
Ġdec isions
Ġent rance
ĠAn na
Ġar ray
Ġble nd
Ġdecl ined
Ġdisapp oint
Ġnar rative
g al
Ð °
Ġbring ing
ĠInd epend
ĠS a
ili ar
Ġemer ged
ord an
Ġt ank
ĠWal ter
Ġen l
Ġstory line
Ġthousand s
ord ers
on ald
Ġocc urs
An swer
Ġread ers
ret t
rel ated
Ġmass ive
Ġcoast al
og a
ival ent
Ġun cle
ost er
Ġsupp osed
Ġ5 9
ĠD ream
Ġchar ges
Ġhealth care
Ġsche dule
Ġsp ending
Ġin ner
Ġrout es
er ted
ĠO ffic
h at
Ġuns uccess
Ġ9 5
Ġact ual
ĠB and
ĠB ase
em an
Ġchang ing
onc Ã©
oy s
Ġ7 7
Ġpat ients
qu ality
Ġanx iety
th m
Ġinters ection
ĠA ri
Ġre venue
ro f
Ġdeath s
ri ers
ĠG er
Ġtr uth
Ġpret ty
aw are
ĠH MS
Ġch ain
Ġlangu ages
Ġs or
os ite
ran ean
Ġbreat h
Ġst reets
m ath
Ġcamp us
Ġmain tenance
Ġlist en
Ġd ie
Ġinst alled
ie val
lud e
Ġdec ade
A ll
ĠP ower
Ġconstit ution
ĠL ieutenant
ord on
Ġindepend ence
h ost
os h
Ġdesc ript
Ġf ict
ĠUp on
Ġcred it
Ġn est
Ġn eck
j a
ys elf
Ġarrest ed
Ġc ited
Ġsettle ment
ar r
el a
ĠK ir
and y
Ġbo ats
ĠR oss
Ġpick ed
w here
20 1
Ġfe els
Ġgener ate
Ġparticip ate
" Ċ
Ġent ry
Ġstrugg le
Ġf oss
ĠB or
Ġev al
Ġimpro ving
Ġl b
N o
Ġaccount s
Ġadult s
Ġsympt oms
Ġleg s
Ġthreat ened
E x
-le vel
ĠA D
Ġgirl s
ĠAb b
ĠN az
Ġmount ed
Ġthough ts
Ġw ides
- 0
Ġwin ner
ĠT oday
h ire
int on
Ġt aught
Ġz one
Ġcomprehens ive
Ġsee ing
Ġa er
Ġso le
ab led
Ġ5 8
Ġ6 6
Ġinvest ment
Ġearl iest
Ġprofess ion
Ġcon qu
ĠBow l
ĠS el
Ġgener ation
Ġpop ulations
ĠAm ong
Ġren amed
ĠP ass
Ġf al
Ġposs ess
Ġarran ged
Ġconst ant
Ġinform ed
Ġstand ards
p read
Ġinv ited
Ġsub s
" .
-b y
w orth
ĠBar b
ĠM eanwhile
Ġme ets
Ġencoura ge
Ġroom s
Ġmov es
Ġsust ained
Ġret ail
Ġun iverse
Ġcoff ee
Ġinstruct ions
Ġsub mar
ĠOtt oman
â Ĥ¬
Ġincorpor ated
Ġ7 4
B e
ins ula
ram s
ĠJ ay
Ġsp oke
Ġsuc ceeded
Ġ6 7
Ġinvol ving
Ġliter ary
Ġh ill
Ġposs ibility
Ġob st
Ġcateg ory
ad or
Ġdis hes
ans as
ful ness
Ġdyn am
Ġint ense
Ġw ings
ist ol
ĠC ape
ĠPort ug
ĠM oon
ĠPol and
ĠI V
oph y
Ġpat ient
Ġte en
Ġp ure
Ġb asketball
ĠKore a
ĠA C
Ġover se
-m in
Ġlast ed
Ġpromot ing
ĠN ame
Ġpost ed
Ġph ase
b ro
i ot
ig en
Ġconcern ed
Ġl ake
ĠEng ine
g on
edd ing
le ton
ĠG reg
Ġcr ash
Ġh am
Ġinj uries
Ġpract ical
Ġsent ences
Ġmiss ed
Ġbig gest
Ġcred ited
ĠW ell
ino is
oura ge
re al
Ġadop t
Ġh uge
Ġreg ional
Ġwalk ed
Ġ7 00
Ä ģ
Ġchalleng ing
ĠB udd
Ġw el
man n
og le
Ġres erve
igh ters
Ġmusic ians
b ody
Ġstand s
ec e
Ġ7 2
ĠBey oncÃ©
ĠC E
Ġbre ad
Ġsol utions
Ġk ids
ip e
Ġabs or
Ġm ode
Ġse es
Ġr u
Ġtyp ical
ile y
Ġp ounds
Ġex cess
Ġexerc ises
Ġover w
Ġsuggest ions
Ġinterp ret
ro v
Ġg ross
ĠViet nam
Ġsche me
b l
ĠC irc
Ġdeb ate
Ġstay ed
Å ¡
ĠC ult
Ġrefer ences
1 6
Ġinf rastructure
ĠT ony
Ġconv in
ivers ary
Ġv ision
ĠJust ice
Ġc rown
Ġac res
Ġf aster
Ġref ers
Ġfle w
Ġfor g
re es
u an
Ġpred ict
Ġask ing
Ġt ables
ab il
ĠR hod
Ġind icated
Ġro se
t a
Ġemerg ency
Ġpass ion
il ation
Ġrequire ments
ac c
ĠB on
ĠEduc ation
ĠSp ace
Ġast ron
ak i
in als
l an
ĠMo ore
' d
Ġtri es
I N
ĠInd ones
Ġ6 2
Ġpersp ective
w ich
Ġplay off
-A merican
ĠJour nal
Ġen emies
Ġhous ing
- J
ĠMc G
- N
ĠH art
ĠTur k
Ġout d
Ġvol can
r m
Ġ6 3
Ġw aves
Ġwrit es
iter ranean
a ired
Ġsurv ived
ĠA ge
Ġdest ruction
ĠDes ign
Ġdescrib ing
Ġhold s
ĠâĪ Ĵ
ie ge
ĠSt adium
Ġgood s
ĠD ue
Ġperson ality
ĠSt ew
ĠFore st
Ġs ale
het ic
Ġcy cle
ĠDirect or
Ġdisco very
arl ic
ĠD ig
ĠThe atre
ps ons
Ġadvert ising
Ġprincip al
Ġfac ing
Ġreview er
ĠAn th
Ġwides pread
ĠAb out
ĠIm perial
id ay
Ġportray ed
Ġqu iet
ĠV ar
Ġsurv ive
Ġs am
ĠJes us
ĠRy an
Ġtem ple
Ġoper a
Ġret reat
ac he
Ġc ul
Ġcon vey
Ġweaken ed
Ġwill ing
ĠT ar
Ġcharacter istics
Ġsub st
erv ative
i y
ĠE ric
Ġdo ctor
Ġsurv iv
Ġsh op
Ġcomp ris
Ġt on
Ġf estival
Ġsuit able
Ġsignific ance
Ġsout heast
ell o
n ight
ĠV ill
le e
Ġsh if
ĠWh it
ĠR ose
ĠMary land
Ġb aby
Ġdist urb
Ġw ars
Ġm ales
are t
ĠJ ordan
- W
it o
Ġth in
form ation
Ġco vers
bour ne
ĠSim psons
Ġpre ced
Ġother wise
iec e
Ġd uty
r ates
Ġf olk
Ġar c
Ġwa iting
ĠT a
Ġrout ine
ion e
pt y
. ,
it able
Ġ7 3
Ġpoet ry
Ġsect or
Ġent itled
Ġm yself
Ġret ained
I A
ĠIn it
G N
Ġpasseng ers
ĠConf eder
Å Ĥ
Ġr ice
l ife
ort ion
Ġh idden
ĠMed iterranean
Ġl ose
ph one
Ġprison ers
ev in
ĠCol onel
Ġprep are
ĠAd am
Ġchild hood
Ġdial ogue
b ec
Ġd uties
ĠG ram
ĠN aval
Ġacc used
Ġvul ner
Ġfact or
ĠK ong
ĠFin ally
Ġd ipl
aw s
ĠC ra
Ġopp osite
Ġrul ed
Ġ8 7
ĠSong s
ĠCol or
ĠM aster
Ġobt ained
c ol
Ġatt ached
Ġf ram
Ġfall ing
ĠK at
ĠSt aff
Ġsu fficient
Ġconsist ing
Ġdifficult y
e z
Ġadm itted
a ug
Ġcl othing
Ġf asc
Ġh ip
ĠTran sport
Ġle gend
Ġtemper atures
ĠMar c
ĠMem orial
Ġsh ots
ĠK ey
ab ilities
ĠN ic
Ġpre y
ĠV ideo
Ġdeliver y
Ġn one
Ġperman ent
Ġcontrovers y
Ġext ension
Ġimplement ed
Ġclub s
ĠC a
Ġl iqu
Ġcompos er
Ġstreng then
app ed
Ġ11 0
ĠI ra
b an
ĠM TV
ĠDe ath
. m
Ġcross ed
Ġent hus
Ġsett led
Ġfict ional
Ġpers u
Ġdel icious
-min ute
1 4
ol ly
Ġunus ual
Ġvess els
ent le
Ġspirit ual
Ġrom antic
ch o
Ġinstr uments
Ġseek ing
ĠMex ican
Ã³ n
ĠN ether
Ġcontrib ute
Ġsur prise
ĠSu pp
ĠW eb
Ġown ers
Ġprem ise
ĠIs lam
Ġpl ane
ub b
Ġold est
R A
Ġtalk ing
Ġvot ed
Ġground s
Ġfem ales
I S
om ing
res ents
ro c
sen al
ĠA st
Ġclass ical
y gen
ĠV is
Ġmed al
ĠAl f
Ġneighbor hood
ind er
ĠH ou
Ġfre eway
Ġsh ares
Ġfle x
u is
Ġkn ots
Ġm olec
Ġar ts
Ġremain der
ĠF ace
Ġland fall
Ġreg iment
Ġsit ting
c les
Ġh al
Ġb ot
Ġconsider able
Ġt orn
Ġt anks
Ġtru ly
Ġbre aking
Ġf er
Ġphot ograph
Ġg rown
Ġsp in
Ġalle ged
ay a
Ġent ering
Ġengine ering
Ġt ied
am i
Ġcol our
ĠU r
el son
pt ions
Ġlay er
Ġval id
Ġdo ct
Ġdr iver
Ġweap on
ĠOr gan
Ġfl our
ert o
n o
Ġprocess es
Ġm ir
Ġv ast
w an
Ġwar ning
Ġmar gin
Ġadvent ure
Ġperiod s
Ġteach ing
Ġp arliament
Ġpen al
ath y
Ġ13 0
ĠMount ain
ĠN etwork
ch ang
u ro
Ġfun ctions
ĠP it
Ġoccasion ally
Ġover come
st ate
Ġb es
ic ing
re te
Ġsent iment
Ġtechn ologies
Ġbehav i
ĠAl an
ĠProf ess
Ġaud io
w ick
Ġ17 5
Ġequ ivalent
Ġide al
Ġal co
Ġbelie ves
à ¸
ĠL ast
ĠRhod es
O N
Ġl ies
ĠR oy
Ġmin ister
w estern
ĠL isa
Ġencoura ged
Ġgraph ics
Ġrep resents
Ġsim pl
ol ve
ĠS av
Ġpro ced
ĠG ordon
Ġbl og
Ġd ens
Ġst ores
Ġb om
Ġdi agn
Ġnomin ation
Ġcon g
Ġd iverse
ac les
ou p
Ġhead ed
Ġequ ipped
Ġf ur
Ġsupp orters
ur day
ĠF ord
Ġav o
Ġimm ig
Ġob l
Ġstrong er
Ġde leg
Ġencoun tered
?" ĊĊ
Ġint ention
ĠFam ily
ĠG ib
hed ral
Ġn ice
el le
iv a
ran e
Ġpric es
Ġfac ility
Ġp ushed
ĠT reat
Ġsc en
Ġill ness
Ġvirt ual
ov en
Ġsepar ated
ĠSim on
Ġgener ated
Ġdown town
Ġp ig
Ġprot est
ĠB ir
ĠM erc
Ġmag ic
ial s
ĠB a
Ġrec alled
Ġrepl acement
Ġwood en
Ġgreat ly
Ġrein force
ĠG et
Ġp roud
Ġhistor ic
Ġhost ed
Ġhop ed
Ġsh ore
Ġsouth west
o z
Ġg al
ĠM eg
Ġbreed ing
Ġjob s
B N
pr int
ĠApp le
Ġsur f
ĠG en
ĠUl t
Ġoverw hel
h ar
og en
ĠAd ams
ĠCon stitution
Ġdoll ars
Ġsm art
in ations
ĠOver all
Ġeduc ational
ĠL ow
Ġmaint aining
Ġs ed
Ġt ag
ot o
Ã ±
on ies
Ġpl ate
ro id
Ġinvol vement
ly n
ĠIll inois
ĠTim my
Ġmiss ions
reg on
Ġal ive
f low
us ing
Ġ$ <<
Ġcreat ures
Ġr ated
O S
Ġcris is
ĠCon stant
ĠNor we
ĠPl ot
Ġimp ossible
ph oon
ĠAr gent
! ĊĊ
ĠN BA
ok ing
ĠIndian a
ĠLe on
w ing
Ġmil it
gor ith
act ive
n ce
Ġden ied
or ous
l i
ĠMc K
ĠM icro
or row
ĠBus iness
Ġrep air
Ġtest s
ĠB ry
ĠF ederal
ĠGl ob
j i
ĠDou gl
Ġcomplet ion
ĠR ain
Ġconvers ation
he astern
on to
Ġcan c
ĠHam ilton
ast s
Ġestablish ment
Ġscient ists
ĠAss embly
ĠH and
ul ating
Ġexp ensive
ĠF rid
Ġk ne
ĠSim ilar
ack ed
Ġm ine
Ġassoci ation
O f
vel and
Ġimmedi ate
at ically
Ġass umed
Ġdepart ure
ĠA k
ĠJac ob
em ed
Ġprov ince
ĠCh annel
ird s
Ġe ating
Ġ7 9
Ġag ree
Ġder ived
ĠT ake
Ġsp aces
ĠMul der
Ġhe aring
ĠAnd y
ĠS ab
Ġp ush
ĠHow ard
Ġoper ate
Ġacc laim
ib ilities
ĠC art
ĠA P
Ġaware ness
Ġnot ing
Ġcert ified
ĠMil itary
Ġwor st
Ġg iant
Ġtherap y
ĠV II
ĠP ur
Ġs an
Ġstrong ly
/ 4
Ġp in
ĠSwed en
w ord
Ġst ead
us ic
## #
ĠC ab
Ġindust ries
Ġupd ated
Ġw et
ra v
ĠS ky
Ð ¸
ĠSing les
Ġas h
ĠKenn edy
Ġlandsc ape
ĠMag azine
Ġout break
ĠI v
Ġt urb
Ġsh arp
Ġal ien
est yle
im ited
ĠH ug
ĠSp orts
Ġfr ust
az a
ure au
ĠP ear
Ġaccur ate
ĠB ang
Ġinter ior
Ġacknow led
Ġg ift
ĠD NA
Ġcirc ulation
Ġg arlic
ocol ate
r im
ĠB os
ĠC op
Ġtra ined
Ġcomfort able
Ġrat ings
-- --
Ġanc est
Ġch ampion
Ġsuff ering
P lease
Ġvis ible
Ġw ine
im b
Ġlat est
ard ens
is p
n oon
Ġresc ue
Ġrepresent ing
ĠN ations
Ä ĥ
r ors
y ard
osaur us
Ġcl ients
Ġinc l
or ney
Ġfin ishing
Ġres erv
Ġspe aking
ĠSat urday
Ġinc red
Ġbeg un
Ġne ither
1 3
Ġrec o
ĠSc ient
Ġmem orial
Ġr ub
Ġsh aring
Ġv eter
B I
l ights
Ġas ks
ar ia
ĠIra q
Ġb at
Ġch annel
Ġrem ix
Ġh at
Ġ7 8
ĠU TC
Ġd ating
Ġnot iced
ĠMar s
Ġattrib uted
C l
ĠTh ird
P h
Ġair port
Ġsign s
ĠO regon
Ġpat rol
Ġr um
bor ne
Ġ Ø
Ġlink ed
Ġsp r
S ince
he mat
ĠA cc
Q u
ĠG ill
ĠP ak
ĠD er
Ġs ons
ĠNorwe gian
ic ide
Ġext reme
ĠF eder
ok ed
ol es
ĠB rand
Ġconsist ent
Ġstri p
Ġtem porary
r us
Ġcour ses
e velop
Ġvot es
ro oms
Ġcry st
- St
ĠK evin
enn is
ĠCent re
ĠG un
Ġtheat re
Ġrel ative
Ġentertain ment
Ġjud ge
ĠH o
ĠE s
Ġapp ly
Ġ8 9
Ġdocument ary
Ġ8 2
ĠEm ily
Ġexpl an
u v
Ġcour ts
Ġdefin itely
Ġhabit at
Ġind icate
ew hat
ust er
ĠAn ton
Ġboy s
Ġunc ertain
-1 0
Ġadv oc
Ġarm or
Ġbl ocks
Ġnot ice
C on
Ġclass ified
Ġstret ch
app ing
Ġant icip
Ġer u
ĠB ush
ĠD rag
Ġ ille
ĠHaw ai
ĠMor gan
Ġanim ated
Ġe ighth
Ġmult i
Ġth irty
Ġweek end
els h
Ġal gorith
Ġm ood
w ith
ĠBru ce
Ġbr igade
Ġj oy
ĠA R
Ġout er
ĠStan ley
Ġw edding
ain ts
i ens
ĠCon c
Ġencoun ter
op es
ĠCle veland
Ġcon vent
Ġmod ified
Ġint ent
Ġd ated
Ġtransl ation
Ġretire ment
Ġsequ el
Ġpre gn
Ġte eth
a ire
Ġs ailed
Ġ6 8
ĠHit ler
. g
Ġdiscuss ed
ast ed
y e
ĠDougl as
Ġattract ed
Ġdraw ing
Ġauth ors
Ġeffic iency
- E
ĠA z
Ġarg ument
er ies
n old
ĠF A
Ġpain ted
Ġinv ent
ĠSp e
Ġgra v
Ġmy st
Ġvict ims
ĠL enn
ĠE ver
Ġsurv iving
f ire
Ġf ill
ĠÃ Ĺ
E C
M A
p oint
ĠS ud
ag le
ĠA ud
Y our
z ing
Ġasp ect
Ġlong est
Ġpul led
Ġst able
ĠFound ation
ĠFred er
ĠWeek ly
Ġrequest ed
oy d
y o
ĠNether lands
Ġass emb
Ġelect ronic
az e
Ġf ab
ĠH oly
.. .
Ġpaint ings
it le
ĠR aj
Ġinflu ences
ac le
Ġdistrib uted
Ġmed itation
ĠF ree
Ġer ror
Ġox ygen
ĠPol ice
ĠU t
Ġincorpor ate
Ġinflu ential
Ġinstit utions
AA F
ut her
ĠAs ian
ĠFrid ay
ĠPhil ip
ĠRol ling
ĠTem ple
ĠBeat les
Ġaim ed
Ġannoun ce
Ġart icles
Ġ vert
Ġclass ification
Ġrecover ed
ĠE xt
Ġ6 9
-f oot
ĠF ame
Ġmin imum
Ġprefer red
ĠB i
Ġmed ieval
ran s
ask a
Ġadapt ation
Ġart work
ĠD og
Ġclear ly
Ġp hen
ĠB arn
ĠR un
Ġabs ence
ĠTor onto
Ġbo il
ri x
ĠRe al
Ġr aces
ĠPh ill
ĠP ier
Ġexp ression
re ck
w en
Ġb ath
ĠJ ason
Ġdis aster
- known
Ġcontrib utions
ĠI GN
Ġrel ie
Ġw al
ol ph
Ġhapp en
Ġpict ures
ĠâĢ Ŀ
ĠL abor
ĠY e
ĠT ok
Ġ9 6
a ver
ark ed
Ġelectric ity
o en
Ġmin imal
Ġpurp oses
ĠOp en
Ġpra ise
sp ec
Ġdeg rees
Ġfall s
S ome
ap se
Ġ9 8
ĠN ich
Ġpercent age
Ġrest rict
ra it
Ġh ug
Ġrest ored
Ġform ing
." Ċ
Ġaut hen
ĠBet ween
s ewhere
ĠSc ully
Ġc oc
Ġw ins
r ine
ĠWW E
ĠB ah
ĠR ow
Ġcontin uing
Ġsit uations
ook ing
p on
Ġwind ows
Ġunder st
ĠE le
ĠN C
Ġlo op
Ġtre ated
ĠRog er
Ġcl othes
Ġcrimin al
Ġsyn thes
ĠC orporation
Ġme al
ĠH ospital
Ġcomp onents
Ġdem ol
ic ians
Ġconvin ced
og y
Ġdoc uments
Ġland ed
ĠPrem ier
An other
ĠBr istol
Ġch orus
omp son
Ġprogram me
ĠF ive
Ġdep icted
ĠMar g
Ġlegisl ation
Ġel abor
Ġ8 8
ĠS n
Ġb on
Ġsuper ior
S c
ĠFin n
rom e
Ġaud iences
Ġab oard
Ġpoint ed
Ġsom ewhat
ĠMatt hew
Ġw ickets
ri p
uc ks
ĠP C
Ġpl us
Ġafter noon
Ġfl ash
itz er
ĠL ibrary
ĠM om
ger y
ĠByzant ine
Ġf ishing
Ġun ion
ag re
et ime
ĠH in
Ġcl in
Ġd inner
av ed
Ġcommand ed
Ġt elling
ĠGo ogle
Ġimag ery
Ġconf ident
Ġfam iliar
âĢ Ķ
ĠC as
ĠI ron
ĠO ak
ult ane
Ã §
ĠHe art
Ġann iversary
om ot
Ġexp osed
ĠN elson
Ġhundred s
Ġ17 0
ĠN FL
Ġh oney
ĠSt ory
Ġcons p
er g
ur ches
ĠL anc
Ġmount ains
ĠAll en
m ates
How ever
Ġs ke
b re
Ġ14 0
ĠAn ne
ĠM it
Ġdiv isions
Ġp ed
Ġpo ems
Ġpo ol
Ġco oper
Ġse eds
ro it
Ġaccess ible
ĠMor ris
ĠN ob
ĠIS BN
Ġrhy thm
ĠW elsh
ĠJew s
Ġanim ation
Ġimp ressed
Ġref uge
ĠM ond
Ġf urn
D S
ac ent
ĠN ar
Ġche st
Ġpenal ty
ĠSant a
Ġon going
writ er
ĠBel g
ĠPat rick
Ġpresident ial
Ġfrequ ent
ĠGre ece
Ġbo ost
Ġdr iven
Ġengine er
Ġno ise
Ġto ll
Ġtermin us
Ġm unicip
2 4
er r
Ġass ign
ann y
ĠJ ess
ĠDe an
Ġmor al
ĠB enn
ĠUS A
Ġtri als
ĠCrit ical
Ġdiss ip
Ġto mat
ĠK elly
Ġclaim ing
- play
Ġent ers
Ġres olution
ort ing
ĠProg ram
ig ins
ro ke
ĠW inter
Ġattempt ing
Ġdog s
- out
ĠHou ston
. A
st art
ĠAg ain
Ġelect ions
Ġfound ation
Ġhistor ians
Ġpow der
em or
Ġco ins
Ġdipl om
ĠBer lin
ĠTh us
Ġmon arch
ĠAr senal
ĠP ow
ĠD or
Ġchap ter
Ġs ter
r ac
Ġinh abit
Ġl augh
ĠPal ace
Ġco ordin
Ġh urt
we alth
ĠL i
Ġchair man
Ġter ror
Ġread er
Ġun n
olog ists
ow a
Ġmark ets
Ġp ump
Ġmus h
Ġstrugg led
ĠTe levision
Ġpred ecess
ĠBro ther
Ġdang er
os lav
p ower
ĠD omin
um ph
Ġphr ase
ĠPu erto
ron ze
Ġm it
al o
ĠO d
Ġexp osure
Ġtext ure
ob ile
Ġcompet e
Ġd ub
Ġdec ide
__ __
Ġem pty
Ġ/ /
Ġproper ly
orpor ate
ĠCh ron
Ġag ency
rib ed
Ġ17 6
ĠJ am
Ġc avalry
Ġjust ice
Ġst range
te enth
Ġele ven
Ġ9 3
ĠRob inson
atter ed
Ġdis pl
Ġphot os
i ary
-f ree
Ġsubject s
Ġparticip ants
ear ing
Ġthr one
Ġdelay ed
em et
ur d
Ġoff ices
C A
ach ment
ac on
Ġ6 1
ropol itan
Ġsav ed
Ġdes ired
Ġpasseng er
iss ue
Ġdet er
ri or
Ġcare fully
ĠMar ine
Ġappear ing
roll ed
ĠP rom
Ġarrang ement
Ñ Ĥ
Ġl oud
- quality
ick s
back s
Ġtran sp
ĠT ru
( "
f are
Ġem br
W ow
ac re
Ġcolon ial
Ġexact ly
Ġev olved
Ġdismiss ed
Ġhun ting
Ġpremi ere
Ġun iform
Ġ8 4
Ġmoder ate
Ġtop ic
Ġcircum st
ĠD esc
Ġmem or
Ġr ivers
ĠAd vent
Ġst ir
Ġarch ae
Ġg ate
Ġsec ured
Ġsub t
st orm
ĠT al
Ġconf idence
Ġag ents
Ġext ent
ĠR ang
Ġsurviv ors
Ġvis iting
b urn
ot ype
Ġdet ect
Ġfoot age
Ġst em
Ġf ulf
Ġb oss
Ġde eper
ĠD E
ĠC all
Ġj azz
Ġrele ases
Ġs ick
um a
-sh aped
Ġconsid ering
so ft
Ġout l
emet ery
Ġbatt ing
Ġf ro
Ġtravel ed
Ġart istic
Ġdifficult ies
ĠCar ter
Ġisol ated
Ġt ie
ĠB ishop
Ġap artment
Ġm and
b al
ish ment
ĠB ab
Ġcru iser
Ġre un
Ġtal ent
Ġl ists
Ġcon ven
ew ork
Ġsh ift
ĠTurk ish
Ġinnov ative
iet ies
Ġdep os
á »
ĠTh ompson
Ġbel t
Ġdisplay ed
Ġol ive
Ġreve als
ant a
Ġresear chers
r ator
Ġkit chen
Ġ Å
ĠR a
Ġte a
r ust
ĠT ower
Ġimpro vement
Ġcol ony
Ġrem ote
Ġtrad itions
( )
b ra
s k
Ġalco hol
ĠC O
ar th
ĠC R
ar ant
ĠC ry
Ġcompet itive
Ġfl ank
ag u
Ġpl astic
ition al
Ġnov els
Ġ à
Ġto ys
amp s
ann els
ĠDet roit
Ġr it
ĠS in
Ġcommun icate
m ith
Ġmov ies
ĠAut hor
Ġfl ed
ĠCo oper
Ġn erv
it ate
ĠD ick
Ġw ire
ur er
ĠHar ris
Ġde emed
Ġw ider
ĠRuss ell
Ġafter wards
ĠExp ress
ĠC ru
Ġcross es
ot ten
com es
Ġopp onents
ect ions
ou st
ĠSwed ish
Ġdrum s
Ġjournal ist
ic op
it ting
ĠH end
ĠT rib
Ġattack ing
- air
Ġbattles hips
Ġbreak s
Ġrem n
Ġcar rier
ĠC z
Ġagricult ural
Ġc ards
Ġco in
Ġin her
Ġlight ing
Ġr ising
Ġconsequ ences
Ġrepl ied
ep ing
Ġis n
p an
Ġemot ion
ĠF ront
ĠO bs
Ġd at
exp ected
Ġsubstant ial
w as
ĠAnth ony
Ġev il
Ġf ighter
ur rent
ĠAr men
Ġcontrovers ial
ĠChild ren
ĠPark er
iv an
Ġa x
iz on
Ġl ob
ĠNorm an
ĠColor ado
Ġcharacter ized
Ġf itted
Ġins ights
Ġpro sp
ateg ory
Ġnick n
Ġre nder
ens ions
Ġse ats
se a
ĠC ould
Ġbomb ard
ur ally
Ġdesign er
at hered
g us
Ġass ass
Ġcover ing
iam i
Ġdeploy ed
Ġjo ining
Ġpubl isher
ĠRec ording
Ġt ough
Ġinstit ution
F C
ĠMod ern
ĠW y
Ġincre ases
ĠH uman
ĠT s
Ġ8 6
Ġr ig
Ġtarget s
ct ic
ĠK now
ĠCommon wealth
Ġd ies
Ġresident ial
1 7
ĠTr ack
Ġcons ervation
Ġgu ests
Ġsum mar
Ġcover age
Ġincorpor ating
Ġre ward
Ġ9 4
ĠSt art
Ġn et
Ġsc ar
] Ċ
m ad
Ġt ight
ach ing
g ie
Ġfal se
Ġst uff
ĠP y
Ġamount s
Ġathlet es
Ġpremi ered
un c
Ã© e
Ġexist ed
Ġconnect ions
Ġexec uted
Ġc a
Ġreco very
Ġt ension
or ious
ĠCom b
Ġsk ill
ĠS omet
Ġto y
ec raft
f e
ate ver
ĠSil ver
Ġdro ve
Ġal ter
Ġconc rete
ul ous
Ġfit ness
oun ced
Ġformer ly
oc ation
st ers
ir ts
ix on
Ġsat ell
Ġo dd
h r
Ġg entle
el lect
if er
T A
form ula
Ġb ran
Ġcl ar
Ġtop ics
P A
if ies
Ġn inth
Ġpr on
Ġterrit ories
ĠR en
e qu
ĠL yn
Ġlight s
Ġmeet ings
-se ason
Ġcandid ates
Ġ- -
ĠCont in
ĠW right
Ġfew er
ann er
cl aim
ĠM ach
Ġm amm
Ġmess ages
Ġdist ract
ĠMus lim
it ud
ran g
Ġco at
ri ent
Ġapparent ly
Ġbelief s
Ġdec ides
Ġdiv or
ĠId ent
ĠN BC
Ġf aces
Ġneut ral
Ġunsuccess ful
Ġliqu id
h att
Ġpr ime
og an
ĠB ou
i ac
Ġ9 00
Ġcolle agues
Ġearth qu
ĠShort ly
ĠY an
Ġscen ar
Ġsim ultane
ĠBu ilding
l ie
Ġto t
Ġtransl ated
ob i
p et
Ġo ven
ĠSt ock
Ġm ile
Ġsw itch
end ment
ink ing
Ġwhere as
Ġ9 2
en h
Ġsuc ceed
Ġtru ck
-l ife
ĠW in
Ġadd s
Ġr acing
Ġaccomp any
ĠInd ians
ĠP A
Ġprogram ming
B ased
ĠMel bourne
ĠN iel
Ġfr ame
Ġpost s
Ġpot entially
Ġal leg
Ġdis rupt
Ġinst ruction
ar on
Ġreported ly
ĠUS S
Ġconvers ion
Ġsh opping
ĠTw itter
Ġun expected
Ġcult ures
Ġus age
-g ame
Ġleg acy
Ġnegot iations
Ġsurv ival
ĠM as
ĠV ice
Ġrail road
Ġsuccess or
Ġt ub
Ġvess el
Ġch annels
al ities
o ons
ug by
ĠCl inton
ĠBat man
Ġbirth day
Ġgen etic
ru ption
ĠN ative
Ġcur ren
Ġw ish
Ġconv ection
Ġdrug s
Ġhor ror
ut t
ĠAd v
ibb ean
n ings
un es
ax on
it ated
Ġtrou ble
Ġun like
cont in
ot ton
Ġcompar ison
Ġexpl oring
b les
Ġconsum ption
Ġfun ny
Ġredu ction
Ġd anc
im ore
-sc ale
us cript
ĠAl ice
ĠComm ander
Ġens uring
Ġpos it
Ġcons cious
Ġfix ed
Ġp y
app y
in ces
int s
ĠR achel
- K
ock ing
ĠCharl ie
L e
o is
Ġreb ell
Ġs iege
Ġmed icine
Ġnorm ally
Ġpurs ue
Ġmon it
il ty
ĠWar ner
ĠMr s
Ġput ting
ec ond
Ġcut ting
ĠE vent
Ġappro val
Ġeld er
Ġn ations
Ġorgan ic
Ġcult iv
Ġgold en
Ġcon vention
ot al
Ġconc erts
Ġmem ories
Ġper mission
or ph
- related
f ish
Ġappoint ment
Ġmanufact uring
Ġrepresent ative
M E
Ġfollow ers
r ants
ĠPer form
Ġforest s
Ġb anks
Ġsc ared
ap ing
Ġmy ster
Ġstat istics
e enth
= <<
Ġprepar ation
Ġres ign
Ġval ley
-st yle
C C
ĠR ey
f ather
ĠM P
ĠX box
ific ial
-h our
ĠDig ital
ĠD ave
ĠSe attle
ik a
ĠG arden
ĠTr ust
Ġstrugg les
Ġ id
ĠP ope
ĠUn ivers
Ġagricult ure
Ġcho ices
Ġk iss
Ġv ital
ĠM ort
Ġlo an
ol as
Ġang ry
Ġeth nic
Ġlow est
Ġf old
ĠM iami
- cont
Ġcal m
Ġcircumst ances
Ġcreat es
ĠAr k
Ġtrack ing
Ġcoll aps
Ġindic ates
igen ous
Ġimp ressive
in ction
Ġbr idges
Ġver se
- one
ug oslav
Ġstudy ing
H ere
ĠL in
ic he
ĠCroat ian
ĠFace book
Ġprofess or
Ġ8 3
I D
ĠHot el
ĠBul gar
Ġd ri
Ġcomple ting
Ġher itage
ol ving
ĠM ix
ĠRober ts
Ġex it
iz z
Ġpersonal ized
Ġprevent ed
Ġp ace
Ġro cks
ograph ical
us al
Ġunder w
Ġw ore
os y
Ġem issions
Ð ½
ĠAust ria
ĠH ell
ĠCar ibbean
Ġimpact s
im eter
ĠMin istry
Ġlist ening
ĠA ff
ĠG ri
m ate
ĠPrinc ess
Ġcent ers
O T
ĠC S
Ġdiscuss ion
Ġexpl o
- ray
ĠB ed
Ġd ancing
Ġv ice
m ph
Ġres igned
ĠSam uel
ĠĠĠĠĠĠĠĠ ĠĠĠĠĠĠĠĠ
Ġp uzz
ĠGu y
r in
Ġtem por
iv ia
d on
ĠEn ergy
ĠThere fore
O R
Ñ Ģ
ĠSom ers
Ġunder ground
d a
Ġcomm emor
Ġbattles hip
Ġmain stream
ab ama
Ġclos ing
U S
Ġadv is
Ġj ur
ĠCh amber
Ġag ed
or i
Ġnewsp apers
ĠMur ray
Ġrare ly
ĠO t
ĠKn ight
ĠHin du
ik ing
Ġform ally
ĠSt at
Ġanaly ze
Ġch urches
Ġnot ably
ol is
ĠCon struction
Ġwhe el
ĠPol it
Ġrecord ings
Ġy ield
it ure
ĠStew art
Ġle ct
Ġstrateg ic
Ġphot o
Ġsy mp
- he
a ft
ĠWith in
Ġdef ended
Ġgar rison
Ġch ocolate
Ġprefer ences
Ġacc eler
Ġcommit ment
Ġexpl ains
w a
Ġmur d
Ġneigh b
l ist
Ġus ual
ĠUn like
Ġover s
Ġcomple ment
at oes
l s
L ily
Ġg ay
Ġlist ing
Ġre aches
ĠEv ans
ĠEx per
Ġb en
Ġfarm ers
Ġsit uated
qu ir
ĠK ar
Ġcon sole
Ġpro hib
Ġref lected
ber ry
ĠDie go
Ġch ronic
Ġro ots
ĠR ick
ĠĠĠĠ Ġ
Ġpro l
Ġth rew
st s
Ġimp rison
Ġinstrument al
ĠB ol
ĠChampionship s
ĠM ind
Ġcare ful
Ġy es
, âĢĿ
ha ust
Ġg ang
Ġj unior
Ġris ks
Ġj ew
Ġmark s
Ġt ort
ĠSt ev
Ġeffect iveness
Ġr idge
ĠCroat ia
ak s
che ll
Ġexc iting
ok es
Ġh ole
ĠKh an
ĠAdm inist
ĠQue ens
Ġb ell
ĠR AAF
Ġor ange
ĠA round
ĠBalt imore
ĠCount ry
Ġstar red
ang le
Ġelect ron
ĠD C
Ġfore cast
el ines
ĠB illy
Ġconst antly
Ġimpro vements
ĠR AF
Ġf ra
Ġphen omen
od a
Ġmar ry
act s
ĠR on
Ġb are
Ġoccas ions
Ġhel icop
Ġf est
ĠY ugoslav
Ġm art
Ġdram atic
Ġex ternal
ĠC rown
ĠFurther more
Ġthere after
ib l
ĠB ased
ĠIntern et
ĠM L
ĠSt r
Ġpay ment
ĠR aw
Ġloc omot
Ġre ven
Ġinter cept
Ġman uscript
Ġfocus ing
Ġfriends hip
Ġtrib ute
Ġg athered
Ġh ockey
ĠH ans
ĠI owa
ĠLe v
Ġround s
le te
o a
own ed
ĠB an
Ġcontin u
ag raph
az on
bor ough
j amin
st ruct
ĠPl ace
Ġmat hemat
ĠK u
Ġt ack
ĠDe ad
ĠL ist
Ġint ellect
x ual
ĠL ane
Ġju ice
ĠL ate
Ġmanag ing
ĠMc D
ĠD iv
< end
< start
ener al
Ġdise ases
Ġfasc in
ĠC ategory
-h and
ou ri
ĠA le
ĠE conom
ĠSp ears
Ġpart ially
ĠMiss iss
ĠOb ama
Ġcoll apse
Ġpart ly
ames e
ĠMarsh all
Ġb ats
Ġex ecut
Ġrest ric
Ġsign al
ĠB uff
Ġadminist rative
Th ank
ĠN at
ĠSh akes
Ġsu icide
E D
Ġdemand s
ĠY es
Ġgr ade
il st
Ġdiam eter
Ġstorm s
Ġfe ud
ant e
Ġhousehold s
Ġm al
Ġpo ison
Ġsuggest ing
b ow
Ä ±
ĠMal ays
Ġarr ive
ĠNiel sen
Ġfor get
Ġmon ument
Ġor b
Ġstrugg ling
Ġemphas is
Ġm ac
ĠD ance
ĠâĢ ĺ
ĠEr n
ĠA h
Ġflow er
ĠRet urn
Ġteacher s
ull ivan
ĠG ab
ĠI ce
Ġdeb t
ag en
ĠAl abama
ĠH orn
r idge
ĠGi ants
ĠS on
Ġb aking
e ign
ĠCommun ity
ĠG aga
Ġdyn asty
!" ĊĊ
ind ing
ĠN ev
Ġprompt ed
``` ĊĊ
I V
ĠH old
Ġun w
l ah
onym ous
Ġdepart ed
Ġmat ters
ĠCan al
Ġm arch
Ġposs ession
Ġtact ics
Ġdomin ated
ĠFor ces
Ġloyal ty
Ġsur gery
Ġcontrol s
- a
od ge
Ġoper ational
ter y
Ġob tain
ĠRe lease
Ġcertain ly
Ġp airs
ĠA my
ĠNever theless
Ġadj acent
Ġgovern ments
Ġsh ipping
Ġapprec iate
for ced
Ñ ģ
Ġa f
Ġcrop s
Ġman ip
Ġviol ent
Ġw ond
ĠRep resent
ĠUS D
Ġfor cing
ĠC ost
ĠHe avy
Ġdisp ute
Ġemploy ee
Ġsud denly
rou s
Ġan ch
Ġprom ised
Ġown ership
I T
d ie
pe are
ĠAl ong
ĠIndust ry
ĠR oc
fl u
Ġfrequ ency
ag ram
Ġdevelop ers
ĠF al
ĠM un
el and
Ġf ighters
Ġ3 60
ĠAng lo
Ġatt ending
ĠLenn on
ather ine
Ġst rict
ĠC old
ĠM ess
ra k
Ä į
Ġout comes
Ġvill ages
Ġdeep ly
Ġobject ive
Ġsh ield
. e
ĠW ing
Ġb acter
Ġcomp onent
Ġwithd rew
ig ate
ĠFreder ick
ĠSm all
Ġwealth y
ĠAlbum s
Ġthe ater
d ale
ĠAre a
ĠCz ech
Ġconv oy
Ġob vious
z ona
ĠMar io
ĠServ ices
Ġexplan ation
Ġpublic ly
Ġel sewhere
Ġg od
hatt an
Ġconcent ration
Ġsubmar ine
Ġtrend s
ness ee
Ġc ub
ĠLa ure
id ae
iz er
pp ers
Ġ0 9
ĠWrit ing
ĠC amer
Ġrec onst
Ġtal ks
ĠMin nes
Ġf iled
ĠI ran
Ġfl ights
ĠA S
le ased
Ġshell s
is k
ĠLaw rence
Ġex haust
Ġprec ip
Ġcelebr ated
Ġfall en
Ġmag ical
Ġphot ography
Ġpresent ation
ĠPlay er
Ġl ots
Ġs oph
Ġswim ming
Ġreview ers
Ġindic ating
Ġknow ing
Ġpan el
ĠIn n
qu es
Ġch opped
Ġout f
Ġdefin ition
Ġhigh lights
ĠCons ider
ĠHor se
ĠK ansas
Ġfin ale
o om
Ġappro aches
Ġth ir
Ġupgr aded
] ĊĊ
Ġab use
Ġsign ing
Ġb ases
Ġse ed
l ock
enc er
Ġcur ious
Ġexhib ition
Ġra id
ĠR ub
ĠS oph
Ġexpect ations
and al
e u
gh an
Ġact ed
Ġcl ient
Ġrad ar
Ġgr at
os m
ĠMic hel
Ġc ake
Ġv ivid
ĠD ur
ĠShe l
ĠSomers et
Ġdemonst rated
A d
ĠEgypt ian
Ġrep airs
Ġspec imens
Ġcirc le
Ġin aug
Ġprocess ing
ĠTreat y
Ġg ram
Ġnut rit
Ġrec re
Ġunderst ood
ad i
Ġknow s
ĠR oll
ĠSen ator
Ġhand ling
Ġstat ue
ug g
Ġguid ance
Ġinvol ve
Ġsur ge
f ound
ĠV inc
Ġbeh alf
Ġemploy ment
Ġmeas ured
ĠH amp
ĠK al
Ġprincip les
L C
Ġm oon
Ġoccup ation
ipp i
ĠBro s
Ġinteract ive
ud a
Ġmo ist
Ġserious ly
ĠH u
Ġj ack
ol ves
ĠH ind
ess ed
ĠBelg ium
ĠF I
ĠPri or
Ġcan al
Ġcred its
Ġcru isers
Ġsp an
Ġsupport s
b orn
ĠH em
ĠB eg
ĠMicro soft
Ġfocus es
ĠN ash
Ġc ra
Ġsend ing
Ġs ample
Ġschol ar
Ġtarget ed
ĠH ong
Ġdistinct ive
Ġref ere
f ast
ĠCre ate
Ġmon itor
Ġrestaur ants
h ist
in um
Ġmusic ian
u ary
Ġp apers
Ġb one
Ġby pass
Ġdr ivers
Ġsurpris ed
ĠPerson al
Ġback ing
Ġvict ories
ĠThrough out
Ġp ap
ate ful
ĠWind ows
Ġfound er
Ġp ink
Ġwe igh
ĠEm ma
ĠS now
ĠTen nessee
Ġc ous
Ġth orough
Ġfac il
ĠAn im
ĠAri zona
ĠL as
ĠTre k
Ġstri king
P S
est ed
yl er
Ġbran ches
Ġcateg ories
Ġopp onent
Ġoutd oor
Ġtrav elled
Ġtw in
ĠMan hattan
Ġcreat ure
Ġphilos ophy
Ġsub mitted
/ /
it i
sh ore
Ġc uis
Ġdoub t
Ġg rab
Ġins urance
Ġstat ements
ĠN on
Ġvar iations
s ki
vel t
Ġinterp re
rodu ct
ĠH ills
bs olutely
G iven
z ed
ĠFrank lin
Ġarr iving
Ġhol iday
ick ing
ĠD al
ĠShakes peare
ĠYan ke
ĠBl ood
Ġc ogn
Ġenthus i
ur ring
Ġinhabit ants
a way
im ize
ĠNap ole
Ġvulner able
ine a
ĠBen jamin
ĠChrist opher
Ġg ap
Ġgu arant
ĠPen insula
Ġconflict s
Ġover t
ow ed
Ġle m
Ġrepl acing
N ew
Ġhum or
Ġnavig ate
ĠMan agement
ĠCo le
ĠR and
Ġdel iber
Ġtun nel
Ġdrink ing
ĠAlf red
ĠMinnes ota
. âĢĿ
Ġcast ing
Ġh ab
ut ers
Ġfun eral
ĠMed al
ĠWalk er
Ġcritic ised
Ġmultip l
ĠP ubl
Ġsh r
ĠGil bert
Ġs oup
as ant
ra id
Ġb ay
ĠB anks
S e
im m
ĠGram my
Ġlim its
Ġrest oration
Ġsub sc
gr ad
Ġclim b
ĠB ox
ĠPal est
Ġt icket
Ġab und
Ġconf ront
er k
ĠM es
Ġdisco vers
on ial
Ġgu ilty
Ġra nd
et ch
ĠV I
Ġprint ed
ĠSim p
Ġdream s
Ġret ain
Ġsett ings
Ġmind fulness
- k
s ky
ĠF riend
" I
-p art
ĠLuc as
Ġdem ocr
Ġelimin ated
Ġh ook
ĠL am
Ġfavor able
Ġ} Ċ
ĠS alt
Ġc iting
Ġvir us
ĠD isc
ĠGu ide
eng er
Ġattend ance
Ġrel iable
ĠW restling
Ġamong st
Ġtrib es
h t
ĠB ull
Ġb ones
Ġexplos ion
Ġsuper v
Ġchar ity
Ġconcept s
Ġdes ert
Ġst ability
Ġprof ile
Ġtur rets
Ġ0 8
Ġalign ment
Ġf iring
Ġmay be
Ġregister ed
Ġv s
ĠConn ect
ĠGuard ian
Ġart ificial
Ġdev ast
ĠW olf
-st ep
ol id
ĠI an
Ġpal ace
) :
ig e
ĠIn vest
ĠNaz i
Ġfoss il
ar o
oose velt
ov a
ĠB eck
Ġsusp ended
n amese
Ġaff airs
ĠPort land
Ġcar go
Ġexclus ive
Ġh ull
Ġrat io
ĠO m
S P
M y
ĠK it
Ġassist s
Ġspot ted
ra wn
Ġinvestig ate
Ġbene ath
Ġc ock
Ġfab ric
Ġtreat y
Ġem peror
ra pped
ĠJos h
ĠT un
Ġsp ac
- ex
onna issance
ĠL ad
ĠPhilipp ines
ĠSimp son
Ġsc re
E m
Ġr id
Ġsal ad
ĠT ag
ĠPro duct
Ġt ender
et he
ĠB uck
ĠH ockey
Ġd ressed
Ġpar ish
Ġrang ing
ĠA thlet
Ġper ceived
Ġfood s
Ġmus cle
T S
ĠTown ship
Ġext end
est one
Ġ12 5
ĠJohn ny
Ġcompet ed
Ġd ust
Ġdestroy ers
angu age
Ġaff air
ģ Ħ
ĠN AS
Ġsh orter
se x
-w ar
Ġparen t
Ġsu p
Ġpres erved
it als
Ġdomin ant
ĠG ate
Ġpro ve
Ġtravel s
ra ge
Ġvert ical
Ġrel uct
re ne
Ġor bit
Ġbr ings
Ġpo ver
Ġw rest
; ĊĊ
âĢĻ re
ĠSe ason
Ġmix ing
Ġsol ve
lah oma
Ġfif teen
Ġl inks
Ġup coming
O r
Ġfact ory
Ġment ions
Ġpover ty
ĠB ureau
ĠL l
Ġrand om
Ġvict im
ĠMississ ippi
Ġshe ar
inc ial
Ġg host
Ġtravel ing
L et
el ing
Ġ urg
Ġenviron ments
Ġres idence
id al
ĠLeg acy
I nd
Ġinteract ions
g ate
Ġatt itude
Ġg ro
ĠMiss ouri
Ġpl ain
Ġshould er
Ġimplement ation
Ġpil ots
ph a
ĠBl ues
Ġdesign ation
ĠH ud
ĠAustral ians
Ġsubs id
ĠDen mark
the l
ĠSte ven
ĠF und
ĠPers ian
Ġdirect ors
Ġhon our
Ġintern et
Ġra b
I C
om es
hel m
Ġcirc uit
Ġspe aker
ĠMond ay
ĠTok yo
ĠR oosevelt
ĠViet namese
Ġear ning
Ġ16 5
ĠK ings
ĠLouis iana
a un
ate ur
Ġdefe ating
Ġprof it
ĠF arm
-m ile
al ions
ĠRem ember
Ġ3 50
Ġt ut
Ġv el
or er
yl an
ĠS oon
Ġst ake
Ġven ue
Ġas ide
Ġqu e
Ġb id
Ġins ects
Ġconnect ing
Ġmar ine
Ġproduct ivity
Ġres on
Ġpoor ly
Ġdisc ip
h u
ĠPh oen
as hes
d y
mun ition
ĠF ried
Ġplan ets
ran k
ĠS uch
Ġprofession als
Ġsk ull
ĠHer o
Ġm ines
ĠR est
Ġd ad
Ġter rain
es ign
Ġtrad ing
od ore
Ġs ank
Ø §
Ġreve al
is d
Ġinter action
in ister
ĠBr un
on th
ĠL ith
Ġsequ ences
l en
ĠHistor ic
th at
c ription
o il
Ã º
Ġc od
Ġcelebr ate
Ġres umed
we ek
ĠL ook
Ġind eed
Ð¾ Ð
Ġc ash
Ġp up
. 2
Ġprepar ing
Ġarg ues
Ġc ow
ĠG ray
m i
ĠJim my
ĠK arl
Ġbul k
Ġfor ty
at us
ĠT an
id ency
Ġbus y
Ġun com
ĠMarg aret
Ġr anks
Ġsy nd
ard o
Ġbr ill
Ġexper ts
Ġtour s
ĠR u
Ġpred omin
Ġstay ing
ist ent
Ġ9 1
ĠS ony
Ġcomp rom
Ġdiam ond
anc ell
Ġdecre ase
Ġiniti atives
Ġpar agraph
Ġro ot
Ġansw ers
Ġcomp ens
Ġmin ing
Ġperson ally
-l ong
ĠAlex and
Ġpri ze
Ġassist ed
br id
Ġt or
Ġvis its
N ow
ues e
Ġsold ier
f ly
Ġ0 7
Ġ16 4
Ġl ux
ĠB h
Ġobst acles
Ġrepeated ly
Ġab ol
Ġfru its
Ġt ickets
Ġv ibr
ĠD est
ĠR ab
ĠOk lahoma
Ġcr ust
Ġbound aries
Ġcolon ies
ĠDep ression
Ġprior it
Ġrecip es
ĠC ow
ĠIndepend ent
Ġesc aped
A L
ic ity
ro ph
sequ ently
viron ment
Ġacc um
Ġall ies
Ġsatell ite
- per
oc c
Ġst im
ĠPak istan
Ġhop ing
ĠM ack
Ġfor th
Ġtempor arily
ant ed
spec ies
Ġall iance
Ġ7 1
ĠMay be
ens on
ĠR ace
ip h
ĠH ave
Ġd uration
Ġtri ple
Ġvis ually
t ics
Ġdeal ing
Ġdisplay s
Ġfe ather
Ġweek ly
ĠA BC
ĠM other
ĠMont real
ĠN ag
ĠSec urity
ĠCamp bell
Ġam munition
ock et
Ġb ike
ag ers
ed ia
Ġelabor ate
Ġre vers
Ġor igins
Ġto x
ell i
itzer land
ple te
Ġf ert
Ġs unk
ĠMit chell
Th rough
ot ion
Ġfif ty
T ube
ĠIn s
Ġm erc
itud es
ĠW ard
ig ation
ĠC her
ĠP ed
Ġsimultane ously
Ġt ip
ĠH aving
Ġch amber
Ġf ault
- v
ĠCub a
Ġet c
Ġt enth
Ġman s
Ġf ier
Ġmin i
Ġpl acing
Ġlif estyle
Ġille gal
um ble
ĠF a
ĠKe ep
in ian
ĠK urt
Ġexec ution
ĠLab our
Ġvar i
an ium
H is
Ġreal istic
ĠD ra
Ġh orn
Ġdis order
th a
âĢ ĵ
ĠJo h
Ġbad ly
ĠFl ight
ĠR ap
Ġimm ers
Ġrev ised
Ġf ant
Ġspok en
Ġcap s
-p erson
ĠCamp aign
Ġshel ter
Ġw orn
ol en
io x
p art
r ings
Ġcomp ilation
Ġcut s
Ġpack age
Ġwork sh
Ġg ust
rodu ced
ĠWar ren
Ġjud g
C ould
Ġgre y
Ġle mon
ov ing
Ġrul ing
Ġdisc ount
l ar
od ox
Ġfast est
Ġr iders
n i
ĠSp ir
Ġsor ry
Be fore
ann on
ĠWh y
Ġaltern ate
ro se
ĠC ut
Ġelect rical
Ġestablish ing
- man
ĠGra ham
Ġdemonst rate
Ġhead ing
Ġsever ely
Ġl in
Ġless ons
Ġremember ed
Ġthan ks
Ġb ronze
ĠÃ Ĩ
-b eing
ĠW here
Ġd im
e ared
ĠR ing
b u
A dd
less ly
osy stem
u ating
w w
Ġe ase
Ġinterview s
Ġp ale
Ġpred icted
Ġmotiv ated
O C
Ġbound ary
Ġsur ve
-s elling
ĠR ico
ĠV eg
Ġser ial
ĠMag n
Ġcond em
Ġen able
Ġpark s
Ġtrad ed
b led
em en
ĠC hel
Ġh ide
Ġ Ä
Ġag es
Ġj unction
Ġsearch ing
Ġwal ks
Ġcomp ounds
Ġtax es
Ġg arn
Ġp ill
Ġparticip ation
Ġpit ched
Ġs isters
it is
Ġrec y
az ines
f ers
ĠD w
Ġbomb ers
ĠB aby
Ġinterpret ation
Ġorigin ated
Ġp ip
Ġtour ism
Ġ0 5
Ġdescript ions
Ġf ract
Ġinter face
Ġmyster ious
Ġv ic
R ead
at ched
Ġa est
Ġcook ed
Ġl es
Ġshowc ase
Ġp ione
Ġaff ili
Ġarchitect ural
augh ters
ir acy
ĠInter state
M any
ĠN ik
Ġdens ity
Ã© s
ĠHar v
ĠE P
Ġman eu
Ġtour ing
Ġagg ressive
ĠS ue
ĠTam il
Ġmach ines
Ġplat inum
Ġpromot ional
ĠSw itzerland
Ġcoach ing
Ġmel ody
ig s
Ġdoll ar
ĠImp act
ĠTechn ology
Ġcanc elled
Ġobject ives
Ġvar iable
b ishop
ĠCh and
Ġd in
Ġexpl icit
Ġobserv ations
Ġrecogn ised
Ġup set
k ay
ĠS ullivan
Ġl ie
ĠAf ghan
ĠMed ical
ĠR an
ĠYou Tube
Ġpubl ishing
N e
et on
Ġgr ay
-l ane
U s
ĠPri ze
Ġrad iation
Ġsac rif
ot yp
Ġdist ant
Ġg ender
Ġra ising
ĠM S
Ġsk i
A bsolutely
u z
Ë Ī
ĠG rey
ĠL ink
ter ior
ĠW ed
Ġrepresent ation
A D
enn a
Ġ0 6
ĠC ob
ĠL ang
ĠPh ys
Ġafter math
Ġannounce ment
Ġbon us
Ġhost s
T wo
anth a
ro d
Ġsculpt ure
Ġen force
Ġrebu ilt
Ġsl aves
ĠRail road
Ġg if
Ġorchest ra
Ġexc av
Ġmerch ant
Ġrespect ive
ĠR at
Ġlack ed
ok er
ĠP ap
Ġcuis ine
Ġp od
lud ed
ow ered
or ia
oust ic
reg ation
ĠKir k
ĠPortug uese
Ġim perial
Ġqual ified
Ġl ieutenant
fic ial
ĠMay a
Ġte x
Ġconf irm
h and
ĠD ylan
ĠM aur
ĠRec ord
Ġcontin uous
Ġvo iced
Ġ10 5
ĠT el
Ġgrad uated
Ġren ov
c ar
Ġpoll ution
ot te
ĠDon ald
ĠUs ing
re ated
Ġ8 1
Ġbreat hing
Ġarrang ements
Ġport ions
Ġrestric ted
ist a
j an
ĠPit ts
Ġafford able
Ġemp ire
A P
ag s
w ords
Ġcl ock
Ġf ears
ay ing
m ers
Ġbut ton
Ġconf ron
Ġdistingu ished
Ġf antasy
Ġpre v
Ġwh atever
ĠDemocr ats
Ġhydro gen
F in
Ġcup s
Ġm ature
Ġpublic ations
er ia
ĠFeder ation
Ġit em
Ġn urs
Ġdis agre
Ġtra pped
O K
M I
T om
m und
Ġform ula
Ġphotograph s
Ġtest ed
Ġfil ter
au x
ir ates
ĠSimilar ly
Ġcons ervative
Ġcrew s
Ġg ardens
Ġnomin ations
Ġreal ize
Ġs ang
Ġsatisf action
Ġb er
Ġlaw yer
Ġsh apes
Ġ10 1
Ġsc ores
ĠAn y
ĠEd ge
ĠInit ially
Ġdynam ic
Ġiniti ative
Ġlay ers
writ ing
ant on
ĠCl ar
Ġrank ing
Ġn ose
Ġer rors
Ġplayoff s
f olk
ĠSc he
ĠN atural
Ġburn ing
Ġs q
ed ing
ĠEx pl
ĠJu an
ĠRe f
Ġdark ness
ĠP lease
ad ers
ult y
ĠTra ining
. 00
ag h
i ar
Ġimp ression
Ġsam ples
ĠAtl anta
Ġbow ling
Ġexper iments
Ġw reck
Ġmonit oring
ag ger
ĠA y
ic ut
ĠL at
Ġdest ination
Ġk ings
ĠP rop
Ġclos est
Ġremn ants
Ġsub stitute
Ġb old
Ġprop ag
Ġwor ry
art ney
st an
ĠT ry
ĠTh ose
Ġcompl iment
Ġinnov ation
Ġmain land
Ġprom ise
ĠEn s
M ost
hold ers
n g
Å «
ĠD S
Ġshe et
Ġsign ature
ĠC yr
Ġthreat s
ĠConfeder ate
ĠE ff
Ġcount ies
Ġdemand ed
Ġintens ified
ĠLuc y
ĠT ogether
Ġs ung
ĠHal o
Ġch a
Ġflag ship
Ġlast ing
Ġpart ners
ĠP il
Ġflav ors
Ġun less
Ġsecret ary
Ġl anes
uk i
ig ious
ĠS E
ĠT on
Ġcontrib ution
Ġh arsh
p ent
. D
Ġb rick
oc a
Ġw ished
H er
ĠSe ven
Ġachie ving
Ġpol ar
ax y
ĠDrag on
ĠPhoen ix
Ġb oot
Ġcreat ivity
Ġhe s
Ġ17 3
ĠR ights
ens ively
Ġco inc
ment ed
Ġf illing
Ġimplement ing
ming ham
ĠR idge
Ġcan cel
Ġre verse
Ġunivers ities
r ise
ĠF ood
Ġcoun sel
Ġrel ation
ĠDr ive
ĠL aur
Ġport s
ĠHung ary
Ġcreat or
Ġdo ors
Ġre he
Ġreact ions
Ġwood s
ous es
Ġnetwork s
ke eper
ĠInd ies
ĠMount ains
Ġhor izon
ap olis
Ġ à¤
ĠA M
ĠAdminist ration
Ġbom bs
Ġexpl oration
iz za
u its
Ġcom ed
Ġrecogn ize
Ġguitar ist
Ġl ift
ĠBar ry
Ġann ually
O ther
ĠP ay
ab ase
b oy
ĠN eg
Ġin land
Ġsh oes
Ġwould n
ĠJ ake
Ġbelie ving
art ed
c ru
im en
ĠCy cl
Ġchalleng ed
Ġd ense
Ġfe e
Ġqu een
rib le
ĠM anu
Ġg ene
Ġins isted
Ġrefer ring
m akers
ĠB ible
Ġarr ives
Ġbehavi our
Ġcivil ian
Ġmembers hip
P l
Th anks
bo ards
ĠAust rian
ĠIdent ify
ĠJon athan
ĠMov ie
ĠS oul
tar io
Ġt issue
-St ar
ĠL iz
Ġpsych ological
-p ound
ĠPer ry
Ġexpl aining
Ġmag azines
Ġo w
Ġpat ron
Ġst ored
Ã¼ r
Ġbl ind
Ġquarter back
ul um
Ġbu ying
Ġexperiment al
Ġremov al
S everal
Ġearthqu ake
be at
Ġl unch
pl ed
ĠK l
ĠL em
Ġrec all
Ġres il
vent h
Ġwh ilst
9 0
Ġfound ing
Ġmilit ia
pt ic
ĠV i
ĠW or
Ġarm ored
am ental
r un
Ġ11 5
ĠBase ball
ĠS weet
Ġsimilar ly
Ġvar ied
cover ed
ĠEvent ually
ĠM ong
ĠTer rit
Ġconf ig
Ġn at
### Ċ
ĠD yn
or ne
ĠD all
at ers
av el
u ction
ĠB eng
Ġpred ators
Ġr iding
Ġa ims
Ġuncle ar
Ġd iver
Ġland mark
Ġ17 4
ĠChristian ity
Ġcomb ine
Ġsm ile
out ing
ri ors
ĠAm azon
Ġec osystem
Ġflow s
Ġgr ateful
a it
ver eign
Ġhop es
ik ely
ĠNe xt
ĠCh oose
Ġex ists
Ġvo ices
te xt
Ġmen u
ru p
Ġmay or
Ġsur pass
Ġst ops
ĠMur phy
Ġcar riers
Ġdeter ior
Ġel ig
ri k
urs day
ĠM ik
ĠMos c
Ġint ric
Ġloc k
ĠL ost
Ġb ull
Ġdel imited
Ġm ild
al ph
g i
ues day
ĠMar ie
Ġacknowled ged
Ġtex ts
ro ck
Ġappe aling
Ġconvent ional
ĠOrigin al
ĠAn aly
ĠMark et
Ġmechan ical
] ,
ĠEd in
ĠP ars
ĠProfess or
Ġgen res
Ġsm oke
ĠAbb ey
Ġan th
Ġjur isd
Ġme als
Ġvol umes
ĠH op
ĠLe x
Ġinter vention
b el
Ġfore ver
ep s
ĠChe ck
ĠF at
ĠL ocal
Ġimpact ed
3 5
lud ing
Ġ17 2
ĠAb d
ĠTr acy
ec ution
ed ed
Ġrepresent atives
as m
ih anna
Ġal tered
Ġinteg rated
Ġoverse as
ĠM and
Ġnerv ous
A m
ens ed
ĠA ld
ĠOn tario
Ġarm ies
Ġdon ated
Ġpredecess or
Ġlearn s
Ġrest ore
* 2
Ġ16 8
itar ian
ĠH ann
Ġag encies
Ġposit ively
ĠF el
ĠT ype
Ġrad ical
Ġtransport ed
as er
ĠBroad way
ĠPe ace
Ġaf raid
Ġbe am
Ġwebs ites
ĠDe b
Ġp upp
att y
Ġaccur acy
Ġl ad
ast ing
d in
ĠA T
Ġadd ressed
Ġinc ent
Ġthe rm
ut ter
Ġaud ition
Ġweak ness
ĠL ess
Ġso vereign
Ġw orship
ik es
ĠG oth
Ġneigh bour
Ġw ake
Ġ rib
Ġ15 5
ĠUnivers al
Ġop ens
ĠAn c
ĠL t
ĠPlay ers
Ġex ceed
Ġgrad uate
h ard
le m
ĠSy ria
Ġa qu
Ġapproach ing
ĠF if
ĠR ena
Ġcop per
ĠM aj
Ġd ivers
Ġt ape
Ġy ard
Ġen cl
Ġgen u
ades h
gg ed
Ġportray al
ast e
ĠBob by
asc ar
Ġgu y
Ġsc rap
Ġsett lers
Ġprov ision
-st ar
Ġmer ely
ĠD ub
Ġarm ament
Ġass embly
ĠW ol
ĠWil helm
Ġth under
Ġto oth
- con
Ġfind ings
Ġphys ics
ou ver
Ġkill er
per t
ĠEdin burgh
Ġkne e
Ġrang es
Ġ, Ċ
Ġbl ues
! Ċ
-c ol
if fer
nes day
Ġdis l
- 20
Ġrec onnaissance
ĠF em
ĠL ear
Ġfeed ing
Ġl ung
Ġrebell ion
Ġsub species
aff e
f le
ĠB aker
ĠJ oy
ĠP a
ĠFore ign
Ġm ask
ut ton
ĠEd wards
ĠP ract
Ġachie vements
Ġprote ins
ĠN ear
Ġdec e
à ¥
ĠBe aut
ĠRes erve
Ġelev ation
Ġmemor able
Ġburn ed
war f
ĠE th
ĠGirl s
ĠHar vey
Ġcomp ound
Ġleg it
-p rof
ark s
omet ric
Ġcogn itive
Ġsw ing
b i
ĠHawai i
Ġgrat itude
Ġnorth ward
ang er
ĠN a
Ġre ct
ip er
it ched
Ġauthen tic
Ġcomment ary
Ġcr ack
Ġun e
ĠS le
Ġvolunte ers
T W
ĠDel aware
ĠO pp
Ġhuman ity
ĠEn vironment
Ġaccident ally
Ġmyst ery
ro at
Ġdecre ased
Ġgener ations
ĠBoy s
ĠIndones ia
ab s
c ase
Ġdes per
Ġstrengthen ed
Ġbe ef
Ġj ury
Ġmill ions
Ġsymb ols
Ġto pped
um ing
ĠBern ard
ĠS ign
ric ks
Ġsustain ability
is ition
ĠWork s
Ġc am
Ġremark ed
it ement
Ġf ate
Ġv ine
l ain
ul ates
ult an
ĠG ary
Ġbrill iant
Ġhit ting
Ġsh ock
Ġun con
``` Ċ
Ġcho osing
Ġorgan isation
Ġv oy
oc y
ĠJer ry
ĠOl iver
ak h
Ġaccommod ate
Ġaut obi
Ġpro of
Ġprodu ces
Ġste ep
ĠD a
Ġcar ries
Ġgl ac
g s
ne ver
ĠKe ith
ĠL ib
Ġbomb ing
7 5
Ġb ars
or ient
ĠHe y
Ġmyth ology
Ġsal ary
Ġwor se
Ġpartic les
Ġreport ing
-1 8
Ġconf usion
Ġexp enses
Ġgl ad
Ġ16 6
Ġf isher
R ec
Ġdevelop ments
Ġprint ing
ĠQu estion
Ġbl ank
Ġcomp eting
Ġh o
ĠTom my
Ġw restling
et a
ĠBir mingham
Ġtub es
ĠLes lie
ĠS ug
ĠWay ne
Ġatt ained
Ġbi ographer
Ġsuper n
ĠSy mph
Ġ15 2
Ġdra in
Ġoff ense
ĠAust in
ĠEnter prise
r ace
Ġt ap
ĠYanke es
Ġout come
out ed
ĠG ene
Ġdef ending
Ġsc attered
ĠNC AA
ĠTur key
ĠM uch
Ġle af
Ġpe aking
ĠB omb
ĠR ihanna
ĠTh ursday
Ġavail ability
Ġcon vert
Ġyoung est
uss ion
Ġ16 3
Ġbatter ies
ĠK r
ĠT ob
ĠT ol
Ġste pped
ot ing
ĠConnect icut
ĠSh aw
ram a
ĠM ission
ĠT odd
ĠTransport ation
Ġcloud s
- Ch
j e
Ġwest ward
ham mad
up iter
ĠFin land
ĠTr ump
Ġoverwhel ming
Ġper mitted
ar ry
Ġconcent rated
-p oint
ĠWith out
Ġbatt alions
Ġequ ally
anc ouver
ĠGall ery
ĠGr ace
ĠMc M
as a
ĠS af
Ġbe ats
Ġdemol ished
ĠB ath
Ġcommun ications
Ġenl isted
Ġopin ions
-f or
A M
ĠT uesday
ĠMar vel
Ġvot ing
-F iles
ĠE y
Ġpart ial
Ġrestrict ions
Ġsc r
Ġarm our
Ġlif etime
ĠH ope
el i
ist ing
ĠP le
um s
ĠC ass
ĠK er
ĠSp art
Ġcollaps ed
Ġfail ing
Ġpers ons
d ed
Ġdeterm ination
. 0
= "
aj a
ĠCom mer
Ġdu o
Ġev ident
Ġtransform ed
on ica
Ġ0 4
ĠL ion
ĠM int
ĠT ig
Ġpark ing
ĠPear l
Ġcap abilities
Ġre ly
Ġu pl
p y
ĠHer itage
ĠMosc ow
Ġsupp lement
ĠS i
Ġball s
th rough
Ġdeb ris
Ġen abled
-1 5
ĠVill age
Ġac oustic
Ġe cho
ĠEn c
ĠIslam ic
Ġcous in
Ġloc ally
Ġpar am
Ġsw ord
le ans
Ġpl ates
Ġproduct ions
Ġsens itive
Ġtheat rical
Ġty phoon
Ġwithdraw al
Ġunl ikely
at ra
ter bury
Ġaer ial
Ġhigh ways
Ġreg ime
ĠCE O
Ġhol es
Ġinit iated
-d ef
Ġc ave
ĠGri ff
Ġde als
Ġed ited
ill es
Ġcontrib uting
ĠAr nold
Ġcou p
Ġind ex
ab et
Ġn it
b es
ĠMad ag
-m aking
n ik
ĠAg ency
ĠC elt
Ġc her
Ġst ones
ĠMon te
Ġbrand s
Ġlegisl ature
Ġstrong est
am an
ĠS out
ĠSw iss
Ġv it
im mer
ĠLe gend
Ġf iles
-m onth
au c
ĠHud son
Ġd aughters
Ġdel ight
Ġc orporate
Ġd ict
ĠS ig
Ġend ors
Ġm ad
Ġremov ing
Ġb orrow
ric ts
ĠArgent ina
Ġn avy
st rong
Ġfin ance
Ġst unning
th on
Ġthe ore
Ġcamp s
Ġnavig ation
ol ar
ĠD iam
ĠV ancouver
Ġinstall ation
Ġ10 9
ĠRep ort
Ġres ource
ĠAnd re
Ġg ear
Ġprior ity
ĠHamp shire
Ġp m
ĠDef ence
Ġinn oc
ĠÎ ¼
-l aw
ĠSpir it
Ġmus cles
Ġquestion ed
Ġang le
umb led
= 2
ons cious
ĠEn t
ĠK an
ass ion
ri fic
ĠY ears
Ġer ected
Ġve gan
ang el
Ġaccompl ish
Ġen v
Ġh ills
Ġstar ring
Ġupd ates
-w est
E FA
it ious
ĠBr ig
ĠD ak
Ġly ing
Ġobs c
Ġagg reg
Ġpow ered
ipp er
ĠSw ift
ĠTra il
ĠG ard
ĠMc L
ĠWed nesday
Ġconsum ers
Ġcr imes
Ġdiscuss ing
Ġpres erve
Ġrece ives
B l
ist ant
ĠN ixon
ĠVictor ian
Ġc ater
Ġh ung
er ver
ĠJ upiter
ad ows
ou ch
Ġcelebr ation
Ġincred ible
ĠBook s
ĠDe ep
Ġher bs
ash a
ul us
ĠAll ies
Ġlog o
Ġphr ases
ĠMor rison
Ġc ourage
Ġconsid ers
ap le
ĠBl u
ĠColl ins
ĠZ e
Ġk W
Ġtalk ed
ent ence
ĠD om
O ut
ĠCh ampions
ĠMark eting
Ġb ishop
Ġt ired
ĠOr leans
Ġaut umn
Ġpen et
Ġra ids
7 0
enn ium
ĠJ ama
ĠVinc ent
r Ã©
ĠB reak
O M
ad al
Ġse ized
Ġsud den
ĠIn v
Ġhe m
Ġmeas uring
Ġten ure
ĠTri ple
Ġchap el
Ġsp ots
Ġst olen
iz ers
ĠH ugh
Ġm ail
ay an
ĠW ag
Ġoper ates
Ġperfect ly
Ġ0 3
ĠProt est
ĠTurn er
Ġadopt ion
Ġin fer
Ġwonder ful
The n
Ġact ively
Ġclean ing
Ġliber al
Ġtest im
at isf
ect ing
ound ing
rep rene
ĠHarv ard
Ġch ampions
Ġpay ing
ol ute
ĠH D
ĠM ans
ĠS ay
Ġalgorith m
Ġseg ments
Ġwor ried
Ġan ime
-s ized
ur as
Ġcl iff
Ġpeace ful
Ġse ar
Ġto ler
ĠU k
ass ador
ra ined
Ġben ch
In t
al g
Ġdef ences
ĠPl ant
Ġent ity
Ġestim ates
Ġinter rupt
ĠG h
ĠMadag ascar
ĠPr iv
Ġcab inet
Ġreflect s
ĠHon or
ĠNapole on
Ġflood ed
Ġphys ically
Ġstation ed
II I
ĠCan terbury
Ġt u
on ut
ĠA x
Ġc otton
ĠL iving
Ġfort ress
ĠSte el
Ġhighlight ed
- pl
m other
Ġreb els
ĠCra ig
ĠN ine
Ġexhib it
Ġorgan isms
Ġprot ests
ell ation
Ġexc itement
Ġprecip itation
Ġprevent ing
t es
Ġthan k
end ar
Ġb anned
Ġcompl icated
h in
ĠYork shire
Ġat omic
enes is
ĠP in
Ġexclus ively
red its
Ġfair ly
ĠC it
Qu estion
ĠG or
ethe less
Ġrec on
a very
ĠOut standing
Ġg ran
Ġst reak
iet h
ur ers
ĠO sc
ĠP ink
Ġsuccess ion
Ġt ale
m n
Ġd ough
ĠOffic er
Ġball ad
Ġevac uated
Ġorgan ised
ĠP S
Ġdissip ated
Ġshall ow
od ed
un s
ĠF ather
Ġident ical
Ġunderw ent
ĠCon vention
Ġacc ord
Ġbas in
Ġengine ers
Ġm ud
4 5
Ġoptim ize
h aw
Ã ¦
ĠBrother s
Ġdress ing
Ġpot atoes
ur i
Ġadvert is
Ġg aining
Ġcann on
Ġt ies
-b u
ĠK ate
Ġth rown
Ġthe ories
in is
ows ki
ĠM ust
ĠPot ter
Ġc orps
Ġg ods
Ġsuppl ied
l ad
urric anes
Ġlimit ations
ad ier
ĠH ur
Ġrequ iring
Ġs id
al ysis
ation ally
i oc
ĠSus an
Ġhand led
Ġstr ings
s m
ĠJ un
Ġcolumn s
p ro
Ġc yl
Ġfund amental
Ġhab its
Ġsl ight
z es
Ġcompet itors
Ġinteg ration
Ġch at
ĠB ach
ĠCh ampion
ris ing
ĠStud ies
ĠY ellow
Ġaccompany ing
Ġster e
Ġtour ist
Ġ10 8
ĠAnton io
Ġbe ars
Ġinvest ors
Ġprom in
Ġra w
Ġto mb
Ã¶ n
ĠPitts burgh
Ġexpl ored
Ġp unk
ĠCamer on
ĠL en
ĠS em
Ġexpert ise
Ġp and
-g o
aut ical
Ġman if
Ġqu ad
ot he
ĠC ase
ĠMcC artney
Ġreform s
ĠG iven
ĠN ature
ĠPr im
Ġcle ared
ĠHung arian
Ġarg uments
Ġback ed
Ġdanc ers
Ġst rand
Ġunivers al
) .ĊĊ
am as
Ġc able
u art
Ġsl ave
ub ble
ĠElect ric
Ġbag s
Ġhand ed
Ġind igenous
3 6
os ph
ĠR ud
Ġkid n
leg raph
Ġen zy
Ġret ro
Ġmon aster
Ġp el
Ġun t
ĠAl aska
Ġchar ter
al og
her s
ĠC hes
anc he
rat ropical
Ġprincip le
Ġsh aped
ĠAl i
ĠAuthor ity
Ġart if
Ġbeat en
Ġrul er
Ġre ass
c ott
ig ger
Ġbe ans
Ġf ame
Ġcon j
Ġdub bed
Ġemer ging
ĠJ en
Ġn om
ĠF act
ĠO range
Ġhy brid
ĠC hen
ey er
ĠIs a
ĠK ap
ĠP ic
Ġsum mit
Ġtur ret
ons in
ĠRepublic ans
ĠTro phy
Ġess entially
F irst
ĠT ai
Ġord inary
Ġpregn ant
Ġturb ines
. I
ĠDall as
H S
Ġsh adow
Ġpres ents
Ġsens ory
Ġcinem a
atch ing
ĠE mer
Ġgu ess
Ġst uck
Ġ17 1
ĠM ason
Ġbre ast
Ġimm une
Ġmans ion
Ġst om
ers e
ĠC ustom
ĠF lying
Ġch ore
Ġhapp ens
Ġreview ed
Ġvac c
int ed
p iece
ĠNich olas
erv ing
ĠLu ke
Ġgr id
Ġshif ted
Ġspec imen
ĠC ode
Ġap olog
ĠAp oll
Ġveget able
L A
ĠLar ry
Ġdestroy ing
ĠCh ile
ĠUt ah
Ġcapt uring
Ġdecor ated
Ġh az
Ġintellect ual
ĠB ird
ĠB our
c ribed
Ġbe ating
Ġcharacter istic
Ġcon ce
Ġte asp
b ot
ĠHar bor
- est
h um
v et
Ġwar fare
ener ate
ir s
Ġwaters hed
ĠClass ic
Ġabs ent
isc onsin
ĠNor folk
Ġdri ft
Ġre nd
Ġwar nings
Ar thur
f eld
h ou
Ġlabor atory
ĠPerform ance
Ġassemb led
Ġthir teen
ah a
ĠBo at
ĠT yler
Ġch ances
Ġch ron
Ġmechan ism
Ġ16 2
Ġlegisl ative
he rent
ĠJ ar
Ġcirc ular
Ġded ication
Ġy oga
Ġâ Ĥ
c ially
ill o
ut o
ĠDw ight
ĠMay or
Ġg odd
Ġwel come
j u
Ġobs ervation
Ġtomat oes
duct ed
en ess
Ġ12 7
ĠD ale
ĠF BI
Ġex chang
Ġins ight
an im
Ġc ad
Ġthere by
an as
ov iÄĩ
Ġ24 0
Ġadv ised
Ġcorrect ly
he ll
Ġext ratropical
Ġgrow s
E N
ĠC atherine
ĠV e
Ġg est
Ġsal v
Ġce ased
Ġexpand ing
Ġfurn iture
Ġg low
Ġparticip ating
en z
ĠM alt
ĠPet ers
Ġam ateur
Ġbig ger
Ġl ighter
Ġpan els
Ġse am
ro gen
ĠCh arts
Ġant ib
Ġdep ends
Ġdoct ors
Ġgr ace
Ġinterpre ted
Ġt ent
f ront
ĠN ation
Ġarg uing
Ġcrit eria
Ġz ero
P R
ĠBos n
ĠCult ural
Ġc ens
her ic
ic ial
Ġconclud e
Ġt ang
l ass
Ġe cc
ĠE sc
ĠGu inea
Ġtrib e
pl er
Ġminor ity
ing ers
C omp
i ors
Ġpurs uit
Ġbattle cru
ĠS ac
Ġkill s
i ability
Ġf les
-air craft
ist ical
ĠK am
Ġcon fer
Ġdis char
Ġfact s
Ġpropos als
Ġprov incial
ĠE ve
5 00
P C
er ning
ĠCrit ics
Ġgra ve
Ġh ind
ri en
ĠT ak
Ġcollect ions
n els
Ġ16 1
Ġkn ocked
ĠSam antha
Ġext ending
Ġj et
on ian
ĠChel sea
ĠCont rol
ĠGre ater
ĠSt ill
-s ide
Ġbe er
Ġjud ges
Ġtour ists
s is
Ġ10 4
ĠDesc ription
ĠG ot
Ġis ot
Ġs izes
ĠGl en
Ġintric ate
Ġvar iation
ĠMet eor
Ġdis band
Ġstruct ural
oc ity
Ġdepict s
Ġdist ricts
Ġhar vest
r ary
ĠF ro
Ġpar ody
Ġrenew ed
is ons
Ġassess ment
et o
th lete
Ã °
ĠR ic
ĠRang ers
Ġdat abase
Ġconstitution al
Ġs ings
ist ance
ortun ately
Ġfra ud
Ġair line
Ġb ills
ĠEx ecutive
ĠIs ab
ĠL iter
Ġp ine
ens is
ĠHe b
Ġe co
Ġlab our
Ġmon ster
Ġret rie
imet res
ĠBenn ett
Ġconf used
M ar
ing ham
Ġbreak fast
Ġrespons ibilities
amb ers
um my
ĠBrazil ian
Ġcart oon
Ġm aps
Ġmist ake
Ġse as
are st
ĠIsrael i
ĠPri x
ĠR alph
Ġt rough
Â °
ĠAl tern
ĠCat hedral
ĠP ast
ĠS id
Ġnob le
Ġsurrender ed
ĠP am
Ġgirl friend
Ġt rick
Ġtradition ally
Ġdo zen
Ġfascin ating
W ill
ĠF u
Ġblock ed
Ġpre st
B ob
em ploy
Ġdev oted
Ġf inger
ĠChron icle
Ġbot tle
ab ling
er b
Ġaut on
Ġl iv
Ġprov inces
le ted
ĠDef ense
ĠH ob
Ġdivor ce
Ġp ond
cel and
ĠD anish
Ġchem istry
-w rit
est on
h ow
th odox
v ar
Ġsimilar ities
usal em
ĠW ii
Ġab st
Ġc ats
Ġon ion
ac o
t i
Ġad equ
Ġcomplex ity
ĠDiam ond
ĠFle ming
ĠHug hes
ĠW isconsin
Ġbr ig
Ġcolor ful
Ġconsist ently
Ġfest ivals
ber ries
et ary
os ion
osp el
se ud
ĠR io
Ġc ensus
Ġexperi encing
Ġmom my
Ġpra ising
Ġscre ens
- fl
] .
ick ed
ĠB ak
ĠK o
ĠL im
ĠQueens land
Ġcompet itions
ĠE c
Ġwid th
ĠE ug
ĠJ unior
ĠT oy
Ġf rog
Ġgodd ess
Ġp ushing
Ġrel atives
all ing
g om
Ġcor on
Ġcul min
Ġpro ceeded
Ġv ig
U pon
ĠCl ay
Ġcontract s
Ġpri est
Ġsp ark
ĠA irl
Ġtow ers
ch a
en os
in ery
ĠB ald
ĠBrad man
ĠN i
ĠU pper
Ġspecial ized
ong e
âĢ ľ
ĠW oman
Ġs aving
claim ed
à ®
ĠF il
Ġass ets
Ġconsum er
Ġind irect
Ġl ady
ĠBroad cast
Ġrelie ved
is an
ĠH alf
ĠSt ra
Ġmagn itude
Ġrec urring
- Z
ĠTh under
Ġdis orders
Ġsp ices
t ical
Ã© t
ĠNe il
Ġr ings
is ive
ĠAt hens
Ġencoun ters
ĠT NA
Ġaff ects
Ġqual ities
Ġw icket
M usic
am ine
ĠAl t
ĠTr ade
Ġincl usion
O ur
ia h
ĠC raw
Ġan ger
Ġto ss
ĠL ock
Ġab road
Ġintrodu ce
Ġkeep s
Ġpo le
ig a
or rect
ĠBel gian
Ġc reek
Ġen orm
Ġpro x
E T
J ust
Ġ16 9
ĠTer ry
Ġequ ation
Ġpl enty
Ġrehe ars
ĠC urt
ĠJeff erson
Ġh osp
h o
ĠV el
Ġbi ological
Ġinf ection
emb le
ĠC reat
ĠCl oud
ĠLiber al
Ġd ried
Ġdiplom atic
Ġm ouse
Ġpract icing
Ġprison er
Ġupd ate
3 00
ĠP oly
Ġdisapp eared
Ġfour teen
Ġtri ps
m m
Ġpet ition
Ġreinforce ments
Ġtou red
Ġwar ned
ff ield
ur red
ĠSt ore
ĠU EFA
Ġachie vement
Ġn inet
Ġre ver
f rom
ĠE t
Ġch ase
Ġdisappoint ed
Ġfarm ing
Ġin du
L ike
Ġarg ue
Ġisol ation
Ġsm ell
Ġspeed s
ĠPict ures
i ating
Ã «
Ġcost ume
-d r
ĠC ricket
ĠEm my
ĠIn formation
Ġcorrespond ing
Ġd rown
Ġoccas ional
Ã ¥
ĠN S
Ġd ual
Ġscreen play
ĠWall ace
Ġrep et
ĠStud io
Ġam ph
Ġd ur
Ġgraph ic
Ġbacter ia
Ġd ying
Ġobl ig
Ġult imate
ĠDar win
ĠMalays ia
ĠP ad
Ġsix teen
Ġjew el
Fin ally
re ate
. E
st ar
Ġass ert
Ġep ic
ĠÃĨ thel
Ġcons olid
ell ar
Ġed ges
Ġqual ifying
Ġrequ ests
av ia
ĠF ull
Ġmagn etic
ĠF isher
Ġsh irt
Ġt iny
" ĊĊ
uls ion
ĠF low
Ġconduct ing
ĠBe h
Ġidentify ing
- way
D o
l on
cast le
ĠLl oyd
Ġnat urally
Ġvary ing
ash i
ĠAm b
Ġs our
est y
Ġdesc ent
Ġdispl aced
Ġdra gon
Ġh ur
Ġsub tle
us hes
ĠBur ton
ĠFall s
ĠY outh
ĠS au
Ġfunction al
Ġmer ged
Ġre organ
Ġrom ance
ĠS ox
Ġdestroy er
Ġprotect ing
3 2
ik o
iz ard
ĠHar old
Ġapp s
Ġ0 2
ĠCommun ist
ĠE qu
ĠPict ure
Ġadm inister
Ġcivil ians
on ium
ĠH av
Ġcommand ing
Ġdirect ions
Ġtri umph
Ġwithd rawn
ĠV ers
ed ge
hy d
ĠC BS
Ġfavour ite
Ġfe ared
and o
le nd
Ġgrand father
Ġl oose
Ġprop ortion
Ġsl avery
Ġrel ocated
ces ter
ĠInst agram
ĠJer usalem
ĠP ant
ĠSt ef
Ġres olved
oth y
Ġadv ancing
Ġm os
Ġrival ry
Ġ16 7
Ġw ors
ĠAng l
1 20
ĠI celand
Ġinter medi
Ġprof ound
Ġr ust
av or
Ġadd iction
Ġencoura ging
Ġext ensively
Ġfeather s
ĠM eth
Ġst yl
Ġton nes
o ffic
u rop
Ġhapp iness
Ġw ard
op y
ĠPr incip
Ġm es
Ġregard less
Ġ12 1
ĠA er
Ġguid elines
Ġr ushing
Ġb in
Ġbox es
Ġconc erning
Ġconstit u
P G
ÃŃ a
Ġman ga
Ġre jo
ĠCh all
Ġdrum mer
Ġrein forced
ĠI l
ĠSe e
the m
Ġad s
Ġair field
Ġbr ush
Ġc ant
Ġsail ing
Ġsatisf ied
Ġsent enced
Ġthrow ing
Ġ15 4
ĠP erc
ĠPat ri
Ġboil ers
Ġcomm enced
Ġgu ided
Ġsubst ance
ch i
ch ild
ĠH az
-M an
ĠHard y
- O
h ill
v as
ĠGlob e
ĠMar ge
ĠS ak
Ġto m
ĠH ad
Ġele ph
Ġfram ework
aid en
Ġpar as
Ġt ears
Ġtele phone
ĠPr uss
Ġesc ort
Ġpolit ician
ĠP oll
Ġaccompl ished
Ġany where
Ġsepar ation
ig hed
p ine
ĠHow e
Ġapp les
ĠOs lo
Ġcon ceived
Ġdes k
Ġse al
-f ive
ubl in
ĠSc ar
ĠSh ak
Ġbra ve
Ġhost ile
Ġ10 2
Ġin quir
c ut
ĠProv ince
Ġmultipl ayer
- end
ug hed
Ġcook ies
Ġl ip
Ġrepe at
Ġstom ach
ang ular
ĠAirl ines
Ġle ver
Ġinters ects
Ġvill ain
N C
c ell
Ġatt orney
Ġflu id
Ġinsp ire
Ġrac ial
< formula
ung le
Ġla ughed
Ġur ged
ur p
ĠHe at
ĠJust in
. R
ĠGu itar
ĠY am
Ġc osm
Ġic onic
Ġsign als
ĠD anny
ĠF ish
ĠInc lude
Ġf iber
Ġmonth ly
à ¦
ĠCh ang
ĠSc iences
Ġout standing
Ġ Ù
Ġbare ly
. 1
ĠFl ore
ĠN eb
Ġur anium
Ġ10 6
ĠK yle
Ġjurisd iction
Ġlic ense
Ġr ugby
form ed
ĠVeg as
Ġcommand ers
Ġin hib
sp ired
Ġb orders
Ġmor ph
P ro
ĠA L
ĠFriend s
Ġconsider ation
Ġl un
Ġsh aft
Ġ15 3
ĠA ction
Ġlay out
rit ic
y d
ĠPortug al
ĠU C
Ġconc ise
Ġn autical
p arts
Ġput s
-e ast
ĠNew ton
ĠSymph ony
Ġsil ent
Ġsp ell
ĠOr chest
Ġhapp ening
Ġmist akes
ik i
Ġpros per
ĠT ree
Ġl iver
Ġ _
ĠClar ke
Ġdescript ive
Ġfac ulty
Ġlik es
Ġp izza
ĠO wen
Ġhabit ats
Ġport rait
. V
rel s
ĠQue bec
Ġproced ures
Ġsole ly
Ġveter an
Ġvirt ually
af e
elt a
o at
Ġhelicop ter
Ġple ased
Ġs in
. 4
p ike
ĠG ay
Ġg aming
Ġp ier
Ġrele g
Ġest imate
-g ener
ĠB orn
ĠOn line
Ġshe ep
ĠG round
ĠW ells
Ġapp le
Ġrev olt
ĠMu hammad
Ġapprec iation
Ġext inct
rib e
ĠAm endment
ĠD ays
heim er
ĠT erm
Ġmot if
ĠCh air
ĠSol ar
read n
ĠMet ropolitan
AT O
ĠJ ava
ĠS ara
Ġattract ive
Ġic on
ĠOrigin ally
Ġign ored
D I
ic ular
Ġco aches
Ġcontain er
Ġhard ware
Ġsl iced
Ġt el
row ing
Ġenh anced
Ġrecru it
ĠP ack
Ġpric ing
ble m
by e
op les
ob a
Ġorgan ize
Ġpolit icians
Ġvot ers
ĠH as
ĠP ut
ĠShe ffield
Ġh unt
Ġmush rooms
ĠStev ens
TW C
ĠReg ional
Ġauthor ized
Ġsusp ected
Ġ4 50
Ġed iting
Ġpurs ued
E l
] :
ĠD id
Ġtask ed
Ġwild life
d s
ĠBry an
in stein
ĠL ower
Ġcr ashed
Ġdraft ed
Ġf ires
Ġlaws uit
Ġcomp are
Ġdem ographic
Ġ11 3
ĠA qu
ĠJo an
Ġexception al
Ġresc ued
Ġsettle ments
- week
uck er
ĠG ran
ĠK ane
ĠOrgan ization
ĠPet e
Ġg ym
Ġsh ops
al id
ancell or
ĠDav ies
ĠIndones ian
Ġattract ion
Ġkilomet ers
ĠW onder
Ġcerem onies
Ġcong ress
Ġdem o
Ġnumber ed
Ġsuff er
m aster
ĠJud ge
Ġd warf
ĠAn swer
Ġwrit ings
ard ed
ett a
ĠA ges
u y
um m
Ġ11 2
ĠAfter math
Ġevent ual
-r un
osa urs
ur st
ĠChrist ians
ĠH om
ĠT ed
Ġnut s
ag les
ĠBrook lyn
ĠJ TWC
Ġair ing
Ġmechan isms
Ġv amp
-H ung
el ia
get t
rew s
ĠReg ister
Ġbet ray
Ġre h
Ġbelong ing
Ġcre st
Ġd ess
Ġview ing
Ġopp osing
Ġp or
am ic
ra ine
ugh t
ĠAfghan istan
ĠM ult
ĠG ang
Ġfor b
Ġhom eless
Ġspac ecraft
he nd
r h
ĠSe ga
Ġtre asure
ÃŃ n
Ġce iling
ĠHun ter
Ġback st
Ġvis uals
Ġremark able
ĠFour th
ĠOther s
Ġper f
l ate
ling ton
us ive
ĠA ra
Ġc ust
R em
ip her
oun ce
ĠRich mond
ĠRo om
Ġc attle
Ġo kay
ĠO il
Ġevery day
. M
ach ute
g redients
ĠGe off
Ġdiscuss ions
os c
ru b
ĠC ad
ĠF itz
Ġathlet ic
Ġbi ography
Ġent reprene
Ġgather ing
Ġhard er
Ġso ap
Ġtrans mission
add y
ose xual
ĠBurn s
Ġha un
Ġmig ration
Ġel ite
Ġmolec ules
Ġsuggest ion
-g un
J ack
arm a
ĠBarb ara
ĠN ancy
Ġcalc ulated
Ġclos ure
Ġcompos itions
Ġcycl ones
V P
land ers
Ġflex ible
Ġkn ife
et ween
he ld
ĠE is
Ġam id
Ġboy friend
Ġcol ours
Ġconn ects
Ġsout heastern
Ġvolcan ic
ri el
ĠCons ervation
ĠL oc
Ġcomp elling
Ġsc ream
ĠF uture
ĠM end
Ġaddress ing
Ġsk illed
Ġteasp oon
ail ing
Å ĵ
Ġb io
Ġver te
Ġd imin
Ġt ube
âĢ ¢
Ġavo ided
min ster
Ġbut t
Ġcomment ing
Ġmed als
. 3
er als
ĠIv an
Ġinc idents
Ġsp ray
reg ular
u fficient
ĠD J
ĠSe an
Ġjump ing
Ġmamm als
Ġsc andal
Ġadvent ures
Ġdec ay
ĠBuff alo
ĠM all
Ġaccur ately
Ġval ued
any on
ĠHer ald
Ġdark er
Ġtreat ments
ĠApoll o
ĠT ang
Ġe ager
Ġg am
ĠConstant in
Ġcor rid
Ġexam ination
ik ed
is ode
or ic
ĠRe ich
Ġaffect ing
Ġinter ven
Ġaccept ance
-w inning
ass ed
ĠForm ation
ĠMin or
Ġgen es
Ġhe aling
Ġscholars hip
Ġvibr ant
ack ing
ar ly
ĠGreat est
ĠP att
ĠP sych
ĠSo ft
Ġsp ar
Ġun ve
l ims
ĠJ e
ĠJohn ston
ĠN ord
ĠS yn
Ġavo iding
ĠCr us
ĠD ata
Ġanticip ated
Ġcollabor ated
Ġcompan ion
Ġvoy age
lev ard
umber ed
Ġsaf ely
v y
Ġd ining
Ġinher ited
Ġscient ist
Ġsym ph
ĠCyr us
Ġcab in
Ġtrav elling
ĠC and
ĠD ublin
Ġcompl ained
Ġmurd ered
O L
on z
ov ak
ĠJoh ann
ĠLabor atory
Ġr ivals
he ro
-1 7
imens ional
ĠArm strong
ĠMag ic
ĠV oice
Ġabs olutely
Ġdep uty
Ġl iner
Ġres id
Ġt weet
Ġtransform ation
( '
ne x
Ġcryst al
ĠGr ade
ĠSerb ian
ĠW es
Ġprog ressed
Ġrele asing
M L
ĠIndepend ence
Ġabsor bed
Ġcoc onut
Ġdr inks
Ġscenar io
Ġsub mit
-up s
at ar
struct ions
w right
ĠFer r
. '
gom ery
ĠAtt orney
ĠC amb
Ġautom atically
Ġstead y
g ow
ĠS ide
Ġcooper ation
Ġl over
cl ing
Ã© n
ĠSomet imes
Ġagre es
Ġdet ected
H ey
ĠAb u
Ġlif ted
Î ±
Ġf ox
se ason
ĠF ern
ĠSp ot
Ġdesign ers
Ġg olf
Ġhous ed
ust ers
ĠArt icle
Ġspe akers
19 9
R C
ĠNAS A
ĠBr ight
Ġrecru ited
ook s
ĠFre edom
Ġcollect ing
Ġdis contin
ĠCh ick
ĠEd ition
ĠZ one
Ġemb arked
Ġmark ing
alt ies
d am
m ont
ult s
Ġth inks
it ime
ĠAnt ar
ĠM iles
-G eneral
Ġ15 8
ĠP rest
Ġn aming
Ġoff shore
ou b
rib ution
Ð »
Ġ; Ċ
ĠSt ars
ag g
qu er
ĠIn side
Ġinh ab
Ġmechan ics
Ġcommer cially
Ġdocument ed
R E
ri ents
Ġ22 0
ĠOl ivia
Ġen com
Ġgif ts
Ġless on
Ġsurf aces
os al
ĠLeg isl
ĠOsc ar
it ol
nd a
um er
Ġspec ified
eng u
Ġdr ives
co very
iel der
Ġ14 5
ĠAff airs
Ġconscious ness
Ġele g
Ġgall ery
Ġtw ist
"" "Ċ
Ġin ch
Ġt une
at hetic
con n
Ġcl oth
Ġcomp at
Ġh ier
: //
b age
ĠSh ah
Ġread s
Ġspir its
ĠPars ons
Ġpersu aded
ĠBarn es
work s
ĠC emetery
ĠP as
Ġpr ide
Ġa ft
Ġanaly tics
Ġchart ed
Ġpit cher
Ġstri kes
am pton
w er
ĠJo int
ĠM ang
Ġc ro
Ġreve aling
ĠP ick
Ġconv ince
Ġimprison ed
Ġle an
Ġoccur ring
Ġp enn
Ġprogress ive
Ġr ush
Ġvent ure
. 6
ĠAct or
ĠRepresent atives
Ġdef ine
Ġsusp ension
-2 00
ĠA ren
ĠS hip
Ġle ather
ĠCharl otte
ĠF un
Ġcor ruption
ult ure
Ġacqu isition
Ġdisturb ance
Ġindepend ently
-1 2
iss a
iz able
k h
ress ing
ring e
ut or
Ġgarn ered
Ġsl ide
Ġtr unk
Ġresil ience
Ġst y
Ġconsum ed
Ġrit ual
ro ts
Ġch rom
Ġf u
Ġfund ed
Ġpl ug
Ġrefuge es
Ġrev ival
ach t
ep hew
Ġf o
Ġfe es
ight ing
ĠSt uart
-l ived
rest rial
Ġconsp iracy
Ġcurren cy
Ġh iding
Ġt ong
g el
Ġdepict ing
Ġshark s
Ġvolunte er
ĠAll iance
ĠMcK in
Ġmet ric
Ġr amp
ĠBalt ic
Ġvar ies
ĠS ultan
Ġbr ut
Ġintellig ent
Ġsil ence
O P
ah l
rack s
Ġcom ics
av ian
ĠP ul
Ġbit ter
Ġexpl ores
Ġprov isions
Ġreven ge
Ġsp awn
our t
ĠLe af
Ġal mond
Ġmem oir
ab lish
Ġ11 1
Ġhe nce
Ġphenomen on
Ġtrail er
ĠâĢ ²
ĠC er
ĠMore over
ĠSat urn
Ġf ed
Ġsquad rons
or f
ĠN ATO
Ġhang ing
h is
ĠE ight
ĠRena issance
ĠW alt
Ġeduc ated
Ġmut ual
Ġprot otype
Ġrespons es
ĠâĤ ¹
Ġinvent ory
Ġtr igg
Ġ13 5
ĠC anyon
Ġflo ors
Ġst raw
cel ona
v o
ĠE U
ĠKa iser
ĠR uth
ĠT u
Ġper c
op ic
rap y
w ind
ĠF ighter
ĠProtest ant
Ġnight s
ĠL ov
Ġal ert
Ġlack ing
ĠMont gomery
Ġunder lying
ĠMet ro
ĠRe ad
Ġchampionship s
Ġfant astic
Ġl oves
Ġmotiv ation
Ġperform ers
ash ing
ission ed
s or
Ġphot ographer
Ġproced ure
Ġr ushed
Ġwitness es
our se
ĠCard iff
Ġnecess arily
b ie
id en
ij ing
ĠC ome
ĠRoman ian
Ġch ips
Ġf ib
Ġl aps
Ġnickn ame
Ġparliament ary
Ġtorn ado
eff ective
y an
ĠA ber
ĠRog ers
Ġbur ial
Ġback up
Ġconsider ably
Ġhy per
Ġl uck
B ecause
ĠK rist
Ġbu ff
Ġcont rad
ĠAnc ient
Ġed itions
Ġefficient ly
Ġen abling
Ġfles h
Ġlux ury
ank a
ell ers
on so
s a
ĠBo eing
ap ter
ĠColle ction
ĠCom edy
ĠMus lims
ĠRob in
Ġsurround ings
In structions
re ction
ĠG a
Ġprov en
ane ous
ass y
ĠOrchest ra
Ġcomp aring
Ġenorm ous
Ġex terior
Ġl ibr
Ġtem ples
Ġunder water
ir ms
orient ed
Ġalt itude
Ġcost umes
Ġear s
Ġthan ked
ro e
ĠCare er
ĠD raft
ĠHe arts
Ġint rig
Ġpand emic
Ġst all
ac ular
ov ic
âĢĻ ve
Ġcomp uters
ĠLiber ty
ĠT ow
Ġcl ay
Ġconv icted
Ġroll ing
h l
Ġcamer as
Ġd iox
in z
roll ing
ĠCent ury
Ġper ception
ab a
av an
ĠW atch
st al
ĠSp ider
Ġc el
Ġjump ed
Ġappl ic
ĠB eth
Ġelder ly
Ġmir ror
Ġdr unk
Ġterrit orial
Ġven ues
-h igh
Ġtouchdown s
D on
ch ing
ĠC avalry
Ġgu ards
Ġbene ficial
Ġreg ulations
D A
Ġwitness ed
ĠM aine
Ġincorpor ates
idd les
Ġ ib
ĠTh anks
ĠScient ology
Ġhe ating
Ġm ant
op ard
Ġpriorit ize
Ġs inking
Ġtechn ological
ars on
cl iff
Ġash ore
enc ers
ĠB ears
ĠProv ide
Ġd a
Ġl ion
Ġstream s
arch y
ĠAct ress
ĠTh ames
Ġbur st
Ġcontact ed
Ġ15 6
Ġapprec iated
Ġra ins
G B
M c
ild a
onn ie
op l
ĠBrook s
ĠC arm
ĠYe ah
Ġren t
Ġres olve
- round
act ions
Ġa thlete
Ġs hed
inc inn
istic ated
or g
ĠBar on
Ġcalc ulate
Ġrem inis
Ġseem ingly
Ġweaken ing
al ia
it ic
ĠS ic
Ġt ab
- inc
ink le
it ative
Ġpost er
Ġr ational
m al
ĠGl as
Ġpriv ile
" )
j ust
ĠF ab
ĠH unt
Ġcat hedral
Ġpredomin antly
. 9
n ut
ĠComp uter
Ġesc orted
Ġt um
Ġtrans it
- V
act ic
ĠConstant ine
ĠFI FA
Ġb apt
Ġcons ensus
ec hes
£ o
ĠInc re
ĠM obile
ĠS ection
Ġspons ored
/ 3
m usic
u per
ĠSc ots
Ġgrav ity
Ġpurch asing
Ġsacrif ice
ĠF is
Ġcompl aints
Ġdepend ent
Ġteam mate
ĠB ert
ĠTh ank
il let
ĠChap el
Ġclim bing
Ġju ven
Ġqu arters
Ġsav ings
-d own
au ge
ĠLe ad
ĠX X
Ġcent ered
col m
Ġac ids
Ġâ ģĦ
R S
ĠLeon ard
ĠVen ice
Ġany more
Ġdisapp ear
Ġ Ï
ĠB ranch
ĠEv il
ĠT alk
Ġrep orter
---- ----
res ident
ĠE ss
ĠImp ro
ĠMon th
Ġgu ys
Ġstud ios
Ġd ive
-w h
ĠK y
ĠMad ison
Ġd iversity
Ġhug ged
-p owered
ett es
ist ence
le ys
Ġbelong ed
Ġen act
Ġfair y
Ġfer ry
Ġpreced ing
Ġrad ius
Ġwork er
C ont
ĠS aw
Ġconc urrent
Ġl akes
Ġ15 9
ĠN am
Ġm emb
Ġpr ince
Ġreg ist
Ġwin ners
ĠMarc us
ĠGame Sp
ĠEngine ering
ĠP ok
h all
qu est
ĠCap ital
ĠRom ney
Ġfro zen
Ġt ensions
Ġvel ocity
ist le
r ade
us c
Ġelect ro
ul u
ĠCh ad
ĠLe o
Ġare na
Ġcirc les
Ġinv aded
Ġprec ise
ed a
ĠC inem
ĠNov a
ĠSerb ia
ĠTai wan
Ġelig ible
ĠÎ¼ m
ar c
Ġg rain
Ġimmig rants
- te
enn ial
ĠMor ning
ĠS ri
Ġkey board
Ġprom ising
Ġtra its
ĠE ld
d ing
ĠNew castle
ĠPolit ical
Ġencoura ges
Ġo ct
Ġsum mon
at ile
ĠL S
Ġenjoy ing
Ġevac uation
Ġref lection
Ġthunder storm
- ran
D own
ard ing
d iv
ĠB es
Ġcru ise
-c alled
ĠRe agan
Ġbroad er
ĠG ates
ĠM ail
B ack
p ath
ro x
ĠSte in
Ġdefend ers
Ġhistor ically
- al
ol ia
ĠGu ild
Ġcur ve
ĠOper a
Ġencom pass
Ġman ages
Ġvis ibility
as ury
ur se
ĠK id
Ġbackground s
Ġbond s
Ġexam ined
Ġwars hips
incinn ati
Î ¿
ĠEd die
ĠT it
Ġbatt ed
Ġhar bour
Ġs ne
Ġw ishes
it ating
Ġinc orrect
Ġun h
ab ad
ree ks
ĠBar celona
ĠSpring field
ĠAthlet ic
Ġat e
In gredients
ĠFinn ish
Ġser ver
= 4
En ter
É Ļ
ĠPark s
Ġpe oples
ra ham
ĠAgain st
ĠBe ijing
Ġbreak down
Ġcivil ization
Ġnut rients
ord inary
Ġabs olute
Ġalleg ations
Ġcontin ent
Ġdig it
Ġrot ation
ĠEns ure
ĠSal v
ed e
ol ine
uk a
Ġa rose
Ġunder go
Ġcal endar
Ġdiox ide
Ġspec ulation
ab e
ott o
á º
ĠSt rong
ĠW elling
Ġpack aging
A b
I m
ĠJos Ã©
ĠSher man
Ġexecut ives
Ġwas hed
ĠK ill
Ġmolec ular
Ġpat ri
Ġdiscip line
Ġexhib its
imens ions
ĠPan zer
ĠQu est
ĠErn est
ĠSh iva
Ġrock et
Ġterm inal
Ġundert aken
g ement
Ġs tern
G u
ced es
Ġher b
Ġs ulf
T im
b ut
imin ary
ĠConstantin ople
ĠE C
Ġan ts
Ġtrack ed
ay ers
the ning
ĠAlbert a
ĠK on
Ġpun ishment
Ġref uses
Ġveget ation
am ount
ĠR av
Ġcur ric
Ġpre val
ĠM embers
Ġm asc
ar ians
n t
ĠChe m
Ġvic inity
wh ich
ĠM ia
n an
ĠJ ose
ĠMac Arthur
ĠMar ines
Ġclin ical
Ġdro pping
Ġext ends
Ġmeasure ments
Ġslow er
Ġposition ed
Ġpen insula
Ġst abil
Ġas cend
-p roduction
e em
ount ed
ĠB ody
Ġcast les
Ġh ub
Ġjudg ment
Ġmoist ure
-h alf
Ġbe aring
en burg
Ã ł
Ġcrit ically
U C
g ary
ĠR ight
ĠT itan
ĠW ord
Ġtransl ate
as ures
ĠCa es
ĠPed ro
Ġconqu est
Ġdrop s
Ġless er
Ġroll er
-b l
ele ction
ĠTig ers
Ġbar rier
Ġc emetery
Ġinvest ed
Ġlength s
Ġmake up
Ġo v
Ġwork out
lect ric
Ġab d
Ġav iation
Ġdist inction
Ġh aven
Ġinaug ural
id ia
Ġdam aging
Ġillust rated
Ġox id
Ġreg ulation
Ġvers us
h art
om ous
ri um
Ġelimin ate
Ġexpress ing
Ġsusp ect
it ational
Ġ11 8
ĠShe p
Ġastron om
Ġkind s
Ġmar ched
d i
per ed
Ġcustom s
Ġdecl ar
h m
om on
ĠC incinnati
ĠV ick
Ġcomp iled
Ġoper ator
elf are
Ã ´
ĠD uch
ĠGlob al
Ġembr ace
Ġmet ab
Ġsupport ive
Ġtel esc
-f our
er ness
ĠHistor ical
Ġassoci ate
Ġmanag ers
Ġs ew
-play ing
-t ype
f u
it ects
st r
ĠRe ed
ĠV erm
ĠV illa
Ġswe pt
Ġ13 2
ĠS T
ĠS onic
Ġa uction
Ġenforce ment
Ġimpro v
. 8
art ime
el in
p oon
ĠMach ine
ĠSh ield
Ġhighlight ing
Ġlin ear
Ġmeaning ful
Ġvers es
ĠE RA
Ġrender ed
Ġv ow
ent ieth
or igin
ĠSt ri
Ġfin est
Ġb ol
W A
ic ating
ĠHel en
Ġrevolution ary
pl ate
ĠCo al
Ġadapt ations
Ġdemand ing
ĠB ot
ĠBou levard
Ġf ron
Ġimag ination
Ġp ocket
Ġsc ope
ĠAr ctic
ĠM i
Ġcomprom ise
Ġly rical
Ġpossess ed
Ġdisp ers
Ġj e
em porary
Ġtheat ers
M ore
ĠKenn eth
Ġimpl ications
Ġrel ied
c ons
ri ans
ĠTh an
Ġacqu ire
Ġir regular
-1 6
-sp e
Ġ11 7
ĠC hester
ĠWat ers
Ġexcess ive
Ġgenu ine
Ġhe ir
Ġpre ference
I L
ĠN av
Ġb ust
Ġwh is
C ol
ne ys
uc he
| |
ĠLe ices
ĠV ic
ĠIs le
ĠN athan
ĠSch um
Ġwh ales
or ge
ĠF ly
ĠR ice
ĠTour nament
Ġbombard ment
Ġm arsh
az ed
og g
p ost
Ġ97 8
ĠCom ics
ĠRevolution ary
Ġint im
Ġreason able
att s
m aker
Ġ11 4
ĠP el
Ġbe ings
Ġcare ers
Ġdis abled
Ġm ic
Ġpsych iat
Ġrequire ment
Ġsummar ize
. B
ĠC N
ĠC ov
ĠSp rings
Ġdel ays
Ġdiv ide
Ġheav ier
Ġmanufact urer
âĤ¬ Åĵ
Ġ10 7
Ġcommun ist
Ġfin als
Ġpast a
Ġ13 1
ĠV o
Ġacclaim ed
Ġmel od
Ġprosp ect
Ġrecommend ation
Ġwh ale
Ġbattle field
Ġcl ergy
un ge
ĠHeavy weight
Ġrow s
Ġsun light
P art
b ul
ir i
ĠBrown s
ĠCh an
ĠW el
Ġe agle
Ġimag ine
at on
Ġalgorith ms
Ġcha os
Ġelev ated
Ġgram mar
Ġpay ments
en berg
od ied
ĠCarl os
Ġfund ra
Ġmush room
Ġsoph isticated
it ness
ol ars
w orld
ĠBC E
Ġat op
y ll
ĠF oster
Ġdra g
ious ly
Ġemb arr
ge ant
Ġrelax ation
Ġshould ers
Ġ12 2
ĠArch bishop
ĠGoth ic
ĠM aced
ĠR us
Ġst roke
2 1
ĠIsa ac
ĠNev ada
Ġflex ibility
Ġjournal ists
iffer ent
p at
ĠCorn wall
ĠR I
ĠStand ard
Ġf ingers
Ġgr ants
Ġreal izes
Ġc ere
Ġf ake
Ġin e
Ġstory t
G enerate
let t
Ġ ãĥ
ĠCult ure
Ġbl amed
Ġen ables
Ġpun ct
Ġtri o
T e
ir us
j ud
ĠInt ellig
ĠProfess ional
Ġp seud
Ġqu it
-p age
E ach
ĠL uther
Ġn ost
Ġple asure
Ġreflect ing
Con clusion
ak u
ĠArab ic
Ġadv ances
Ġcontinu ously
i ology
ĠDen ver
Ġfier ce
it ches
ĠArmen ian
ĠK el
ĠM ig
ĠThe ater
Ġcl ick
Ġreb ounds
is ations
Ġfarm s
Ġm ate
C reate
b us
ul atory
ĠAdvent ure
ĠB ark
ĠB asketball
ĠMal colm
ĠN umber
Ġd ivid
-f inal
Ġdeploy ment
Ġgreen house
ĠC ort
Â ł
ĠG host
ĠMan ager
ĠOr d
Ġincred ibly
Ġpe ppers
Ġstead ily
Ġtim ber
Ġwhe never
achel or
id o
ĠAg u
ĠContin ental
Ġcancel ed
Ġin ning
Ġn ephew
Ġst rain
Ġthreat ening
ats u
att ack
ĠVir t
Ġb ite
Ġbre eds
H C
Ù Ĩ
Ġdevelop er
Ġdist ances
Ġmet als
Ġmod es
Ġru ins
op ol
rig er
Ø ±
Ġ12 6
Ġ15 7
ĠL ud
ĠSp eed
Ġdom ain
Ġin ject
H A
st able
Ġre w
Ġz ones
am bo
og urt
ĠBrad ley
Ġconsequ ence
Ġtarget ing
ograph ics
Ġmach inery
Ġround ed
Ġsil k
ĠPier re
ĠR ivers
Ġg rap
-n orth
ĠC ris
Ġro ster
ĠLt d
ĠMeteor ological
Ġbom ber
Ġimp osed
Ġworksh ops
Ġresign ation
ĠÃ ¢
N ot
em ade
ran ger
Ġcondem ned
Ġdirect ing
Ġredu ces
ĠTrib une
Ġare n
Ġfun gus
Ġg ates
S am
ĠNorm andy
Ġal iens
Ġpublic ity
g iven
ĠCons ervative
ĠMalt a
ĠSm art
Ġcar ved
Ġin ducted
Ġon ions
Ġre ef
Ġwe ighed
ew ise
og s
ĠR ush
ĠWe ather
Ġdiv ine
Ġg ently
- rec
ish ops
mar ine
ĠCirc le
Ġadvant ages
Ġdraw s
Ġep it
Ġmount s
Ġperc ussion
em a
n ame
ĠAt hen
ĠR ou
Ġbul let
Ġeven ly
Ġexp ense
Ġsub mer
Ġtre m
arth y
Ġ å
ĠJenn ifer
Ġjewel ry
Ġmet all
Ġsec rets
Ġtot ally
C O
M om
z i
ĠB urg
ĠPrinc eton
Ġliter ally
ibl ings
v i
ĠR ound
ĠVII I
Ġloc ked
Ġsoc ieties
Ġwant ing
er ie
umber land
ĠK aren
ĠW as
Ġabund ant
Ġpr inc
Ġseason al
ĠMich a
Ġp our
Ġy e
rif ied
Ġre wards
Ġref res
Ġsub stit
o ft
ĠMy st
ĠN as
Ġke en
Ġwa ited
ĠF r
ĠLe eds
ĠP ine
Ġj ail
Ġmathemat ics
Ġstrength s
Ġveget arian
Ph one
ar us
n et
Ġ23 0
ĠGreg ory
Ġeast ward
Ġinform ative
Ġmin isters
et ers
ue z
ĠBl ock
Ġer osion
Ġprot ective
Ġt ennis
Ġter rible
- int
Ã¶ r
ĠC ena
ĠC row
Ġdeliver ing
Ġwork place
ount ain
ĠGlas gow
ĠUlt imately
Ġche er
Ġcolle ges
Ġflo ating
Ġhosp itals
os ity
ĠR esp
Ġj oke
Ġreason ing
- line
Ġint act
ĠJul ian
Ġcompos ers
Ġform ats
Ġfoss ils
Ġth roat
-c are
ĠHol land
ĠWag ner
Ġthorough ly
qu al
ral tar
ĠO cc
Ġle agues
Ġro asted
B oth
Ġo z
ne ath
qu is
v an
Ù Ħ
ĠML B
ĠT otal
Ġam pl
Ġbal anced
Ġmod ifications
Ġsubmar ines
gr ade
ĠM ann
ĠPlan et
ĠUn it
Ġche ap
, ĊĊ
y ers
Ġ @
ĠL ords
ĠSl av
Ġclim bed
Ġcont ents
Ġintern ationally
Ġreconst ruction
Ġsuper hero
ple x
ĠB apt
ĠD ennis
ĠG ru
ĠR ear
ĠRel ations
Ġeval uate
Ġsepar ately
l u
ĠAg ricult
ĠBur ke
Ġabst ract
Ġhot els
Ġprov iders
Ġret reated
Ġsleep ing
Ġun employ
ater n
it ars
ĠR onald
Ġass erted
Ġcl ip
Ġex ile
-m ill
ol o
ri ages
Ġp ars
Ġsuccess es
) .Ċ
head s
ĠFif th
ĠLu ft
Ġf are
Ġfort ifications
Ġthick ness
E d
En g
ol esc
Ġ0 1
Ġ10 3
ĠE aster
ĠSh an
ĠSud denly
Ġfrust rated
Ġorgan s
Ġplan es
Ġsn ack
ang ered
r ators
ĠRod rig
Ġkil og
Ġr ally
im ity
ĠCard inals
ĠTh r
Ġattract ions
Ġo ak
Ġtra ils
f r
ott a
yl um
ĠÄ Ĳ
. 7
ier ra
ord ination
ĠCelt ic
ĠD elta
ĠWat son
Ġintrodu cing
ic us
Ġbu ck
Ġd imensions
Ġform ations
Ġrep ublic
ber y
ĠA ub
Ġacc us
Ġflow n
Ġgar age
Ġload ed
ug s
ĠA aron
Ġpr ayer
Ġw ound
ĠĠĠĠĠĠĠĠ ĠĠĠĠĠĠĠ
G M
Ġbutter fly
Ġdepos its
Ġj am
Ġperman ently
Ġsail ors
z ig
ĠK az
ĠWest minster
Ġb inary
Ġb ore
Ġv end
- oriented
- res
2 2
Through out
up s
ĠAr c
Ġinter ference
Ġph osph
Ġw and
ĠB ud
ĠH ull
Ġbar riers
Ġcho ir
Ġpe ers
Ġprompt ing
Ġwar rant
ic hes
u ates
ĠTerrit ory
Ġbe nd
Ġdistingu ish
Ġimm un
ĠFried rich
ĠYugoslav ia
Ġintermedi ate
an ian
nam ents
âĢĻ ll
ĠW inn
Ġc in
Ġhorizon tal
Ġroad way
am ation
ig o
ĠCl aire
ĠMont ana
Ġcontin ental
Ġj ar
-c om
ĠN ad
Ġrece pt
ĠAlb any
ĠVal ent
Ġan nex
Ġemphas ized
Ġpropag anda
D P
um i
ĠSoph ie
ĠTy phoon
Ġmonaster y
Ġpregn ancy
Ġsk etch
ĠDev il
Ġaest hetic
Ġamb itious
Ġg ains
Ġl ib
Ġper pet
Ġproject ed
Ġsc ent
Ġsp ite
amp a
st ead
ĠUr ban
Ġcontroll ing
Ġeru pt
Ġpack ed
Ġscreen ing
H g
ĠDet erm
ĠE sp
Ġbed room
Ġper mit
3 3
ay ed
d o
ĠJama ica
ĠMerc ury
ĠOper ations
Ġb orough
Ġd uck
-b e
ĠH ood
ĠL P
ĠNorth west
Ġquant ities
-h op
T itle
ubb ard
ĠCur rent
ĠMo z
ĠOr thodox
ĠT ir
Ġhon ors
Ġpre l
M eanwhile
R I
U T
Ġ11 9
ĠD od
ĠS ad
Ġro ok
Ġsynd rome
ĠCo x
Ġcompris ing
Ġqu oted
end ers
ĠGib raltar
ĠV iew
Ġjud icial
-wh ite
com mun
ĠB rew
p orts
ĠChamber lain
ĠJenn a
Ġad vers
Ġarchae ological
Ġdeliber ately
Ġimp ress
Ġnever theless
Ġb icy
Ġdisband ed
Ġre vel
um ption
ĠRom ans
Ġenjoy able
Ġg amb
Ġlocomot ives
Ġposs ibilities
Ġst air
Ġsw itched
head ed
oura ble
Û Į
ĠDak ota
ĠPhill ies
ĠSe b
Ġdiss olved
Ġfav ored
Ġmanufact ured
Ġutil ized
ere k
ĠP oe
ĠR NA
Ġde alt
Ġpubl ish
Ġreserv es
Ar t
ĠW a
Ġcust ody
Ġon wards
Ġped est
pt ical
ĠG lee
D av
Ġdec isive
Ġdep iction
Ġdesign ing
Ġpurs uing
Ġreluct ant
Ġtr igger
ĠM ak
Ġcur ved
ĠPract ice
Ġdiscuss es
Ġmod est
N T
grad uate
Ġbo ards
Ġentertain ing
Ġmunicip al
ian g
olog ically
ĠCons erv
Ġcurric ulum
Ġsm oking
l ies
orm al
Ġ ×
ĠD in
ĠMeth od
ĠT ests
Ġres ort
Ġw rap
-sc reen
p m
ĠEd mund
Ġanaly zing
Ġdisp utes
Ġprepar ations
Ġ7 50
Ġmart ial
Ġphilos opher
et e
ol an
s l
Ġillust rations
Ġjo ins
____ ____
ĠC ool
ĠMus ical
Ġbus es
Ġinc om
Ġobs erve
Ġper m
Ġtables poon
E F
otyp es
ĠC arn
ĠCh uck
ĠGl ass
Ġim per
Ġre op
Ġwat ches
i op
Ã¨ re
ĠBulgar ian
ĠT int
Ġamph ib
Ġcoast line
Ġreal m
al in
Ġ15 1
ĠD ud
Ġcollect ive
Ġh urricanes
Ġun re
ade qu
ro b
ĠBer g
ĠMarsh al
Ġdoct rine
Ġearn ings
Ġgrand mother
Ġremind er
M ich
Ġdem on
Ġo rient
Ġsouth western
eli hood
ĠGl ou
ĠV ik
Ġw itch
B rien
g Ã©
ph ones
ĠN ass
Ġoutf it
Ġund ers
ch t
ecess ary
Ġprof its
Ġpy ram
Ġreg ret
Ġto pp
-d imensional
Ġch lor
Ġpur ple
Ġres erved
Ġs iblings
Ġsurve ys
Ġtou ched
ĠEll en
ĠF ellow
ĠRe ading
ĠY et
Ġd ug
Ġpuzz les
ĠDep uty
ĠF ac
ĠReg ion
Ġgu itars
Ġrun ner
Ġ12 8
Ġcub ic
Ġexplicit ly
Ġinvest ing
Ġ ion
ĠCycl one
ĠMad rid
Ġadvoc ate
Ġmet rics
Ġp ie
Ġprox imity
ass ic
Ġ ËĪ
Ġ11 6
ĠP un
Ġcomp assion
Ġgust s
Ġmanif est
al ine
ĠHer bert
ĠPr ice
ĠSe x
Ġdet ection
Ġdet ective
Ġlist ened
Ġrob ot
Ä «
Ġdam ages
Ġf ights
ĠC C
Ġh ob
Ġke ys
S ar
am ples
ar med
Ã ª
Ġsoc cer
P r
ar re
od ing
ĠDes ert
ĠF ind
ĠH ond
ĠNash ville
Ġass ume
Ġassass ination
Ġident ification
ew ard
Ġ12 3
Ġatmosp heric
Ġcitiz en
Ġj okes
Ġl ingu
Ġrem ake
- action
Ġesc al
Ġsh ipped
Ġt ire
Ġun ity
2 8
ĠJ NA
ĠM asters
ĠMil an
ĠReg ular
Ġansw ered
Ġinfl amm
Ġloc ate
Ġrout ing
O h
ĠB erm
ĠBr id
ĠPok Ã©
Ġour selves
Ġresemb le
Ġveter ans
bo at
i Ã³n
id ity
ra h
ĠChurch ill
ĠStud ents
ĠTra vel
ĠV lad
Ġres ur
Ġsac red
-l anguage
ĠEnvironment al
Ġdisappoint ment
Ġf ut
Ġnar rator
app a
l ake
ĠR osen
Ġdef enses
ĠK il
Ġeat en
Ġpres idency
Ġtra p
Ġw er
M e
ect ives
xt on
ĠCan ucks
ĠIs les
ĠOr ton
Ġarm oured
Ġloc als
Ġsong writer
Ġuncertain ty
on ely
ring ton
ump s
ĠThe odore
Ġm our
Ġsatisf ying
Ġtomat o
-north west
ch w
oc ado
qu arter
ĠAren a
ĠT as
Ġpain ter
Ġr ider
Ġresp ected
Ġth read
ab ul
ator ial
ĠH erm
pp e
ĠAngel ou
ĠFlore nce
n ot
ĠOtt awa
Ġextra ordinary
Ġlength y
Ġsu ited
ĠG ive
ir k
op ular
or o
ĠR iley
Ġb ab
Ġcon ced
Ġcream y
Ġnort heastern
Ġw artime
arm s
ash ire
st own
Ë Ĳ
ĠGro ve
Ġadvance ments
Ġca ution
Ġfem in
Ġj aw
Ġreg iments
Ð º
Ġconven ient
Ġmiss ile
ĠL is
ĠMer cedes
Ġdon ations
ss on
ĠB ron
ĠTr inity
Ġmet ropolitan
Ġn odd
Ġrel ating
1 50
T unes
Ġautom atic
Ġcompris ed
Ġdepart ments
Ġinv ented
f a
il ant
om ed
ĠHe aven
Ġassign ment
Ġm im
Ġrob ust
Ġwas h
ist ocr
ĠCol lect
ĠD j
ĠH ok
ĠSout heast
Ġin Hg
R es
f act
st ad
ĠEn joy
ĠSchum acher
ĠWood s
ĠZ ero
Ġjack et
Ġkn ock
Ġsec uring
Ġsym met
Ġtorped oes
Ġun anim
Ġimpl ies
Ġorchest ral
Ġprog ression
im ir
ĠPl at
Ġartif acts
Ġcelebr ity
Ġrel at
Ġtro op
Rem ember
anc ial
ĠSer ve
Ġadequ ate
Ġar ise
Ġdel icate
Ġj ungle
Ġproceed s
T rans
tt ps
uff y
Ġfulf ill
Ġg reet
Ġst aged
Ġtra ged
Ġc ope
Ġen rolled
Ġren owned
Ġsport ing
occ up
ĠArk ansas
ĠB ris
ĠM C
Ġair borne
ac co
ĠFl oyd
Ġvar ieties
M C
add le
fore st
Ġ13 8
ĠCry stal
ĠIndust rial
Ġbehavi ors
Ġoverwhel med
Ġtrad em
Ġvolcan o
c ore
ĠSm ack
Ġlab els
Ġpartnership s
ĠM ills
Ġacc idents
Ġaver aged
Ġd irt
Ġemotion ally
Ġf usion
Ġpath s
Ġpron ounced
Ġsing ers
f ol
ĠTr ad
Ġmoment um
ant ing
es igned
ĠCh o
ĠVi enna
Ġcomp act
Ġflood s
Ġrid ic
Ġtrib ut
- I
S ub
Ġ= =
ĠAust ro
ĠBe au
ĠBudd hist
ĠD aw
ĠLaur a
ĠY ard
oph ical
ĠEll is
ĠPark way
Ġdiagn osed
Ġhero es
Ġvac ation
Ġvine gar
-l ength
ed ar
im er
ross ing
vis or
ĠCol in
ĠG onz
Ġapp lying
Ġbank rupt
Ġcar n
Ġinflu encers
Ġpl acement
Ġw ool
In struction
ĠS ep
Ġch ains
Ġess ays
ĠDun can
ĠEconom ic
ĠL og
ĠN L
ĠRay mond
Ġaccording ly
Ġcal ories
Ġw is
is ans
Ġaccount ing
Ġassass in
Ġcand y
Ġheart s
ap hor
umn i
Ġ12 9
ĠMov ement
Ġl ov
Ġ es
ĠMicha els
ĠPalest ine
am ily
u ke
ĠL ore
Ġdiagn osis
Ġworld s
-dr iven
op t
Ġ21 0
ĠDra ke
ĠH at
ĠL amb
ĠMod el
ĠUn til
ĠW is
Ġbott les
Ġsuper st
9 5
d rop
ir ate
ograp hed
ol ith
us k
ĠI C
Ġscenar ios
Ġver b
evelop ed
ĠAv oid
ĠH ubbard
ĠK ra
ĠManu el
Ġcompens ation
Ġd awn
Ġfar mer
Ġmaint ains
Ġp aved
Ġspe eches
Ġt ear
aly mp
p it
ĠD h
ĠTh om
Ġinstruct ed
ĠAn at
ĠChe t
ĠH appy
ĠSe as
Ġfrag ments
Ġstoryt elling
Ġsurpass ed
-w ing
ian ces
ĠB ear
ĠBl air
ĠFran ces
ĠK ay
ĠT ab
E arly
if ier
ob s
re z
ĠEu ro
ĠLanc ashire
ĠP eg
Ġadv ocated
ag i
ĠPerc y
Ġp atch
Ġpriv acy
2 7
C ons
it ory
ĠT rou
Ġcompliment ed
Ġdif f
Ġeru ption
Ġreb el
Ġref riger
Ġun ited
Ġw are
O W
ĠS ans
Ġconj unction
Ġinstrument ation
Ġsusp ic
oth s
ĠB ass
ĠMcKin ley
ĠP ent
ĠSen ior
ĠSt ories
Ġd iving
Ġfunction ality
Ġtal ented
b ird
ĠAl am
ĠMill ennium
ĠS H
Ġd ock
Ġenl ar
Ġlack s
Ġtru cks
o op
ĠE agle
ĠMed icine
Ġalleged ly
Ġbl ast
Ġdiss atisf
Ġpro c
Ġth y
Ġvocal ist
ĠComm ons
ĠP age
Ġa ug
Ġall ocated
Ġalt ogether
Ġeight een
Ġgener ating
Ġhar bor
Ġrul ers
Ġatt achment
Ġdec omp
Ġdeleg ates
Ġhonor ary
Ġl ane
Ġpres ervation
Ġupgr ade
ik h
ĠCal gary
ĠMcC arthy
Ġautobi ography
Ġdisp uted
Ġneg atively
ias m
uzz le
ĠBl ake
Ġexam ine
Ġinterview ed
Ġrel ate
Ġsk illet
á» ĩ
ĠHeb rew
ĠM iddles
ĠMot or
Ġg ri
Ġp ic
Ġrit uals
av il
ĠHis pan
Ġtax on
-inc ome
Å Ł
ĠEn ix
ĠS or
Ġde er
Ġinc ons
Ġman ual
Ġopen ly
il ogy
ĠAd ela
ĠV oy
Ġcan on
Ġexhib ited
Ġfre ed
Ġh orm
Ġop ined
b ach
in us
m ill
Ġrevers ed
Will iam
ĠS ever
ĠSqu ad
Ġens ures
Ġins ufficient
in ely
Ġins ect
Ġst ance
Ġconvers ations
Ġkick ed
Ġteam mates
-m ade
Ġ13 4
ĠCap itol
ĠF ur
ĠMal ay
Ġcountry side
Ġi Tunes
Ġs aves
Ġsmall est
Ġsp ends
ll a
ĠCh oice
ĠMet ac
Ġout s
d ict
} Ċ
ĠVer onica
â Ħ
ĠAg re
ĠBel ie
ĠCh ase
Ġchap ters
Ġhom osexual
Ġinv itation
Ġpress ed
< /
z o
Ġ12 4
ĠCarol ine
ĠHend erson
ĠI b
Ġche ss
Ġfact ion
Ġinterrupt ed
Ġneighb oring
Ġpolit ically
m atic
ĠA N
ĠB ran
ĠL ie
Ġamb assador
Ġfort une
Ġsc ales
Ġselect ing
âĦ ¢
Ġdisp atched
Ġp ose
Ġsubt ropical
Ġun aware
ĠÃ ī
-1 4
in qu
Ġcraft s
Ġimport ed
Ġin adequ
Ġkind ness
Ġpos ed
B en
ĠT ask
Ġbow led
Ġeld est
Ġemphas izes
Ġenthusi astic
Ġsubmer ged
Ġsupern atural
ain ted
ĠJer emy
Ġkey words
Ġw ounds
ef in
ĠRichard son
Ġal umin
Ġcon gest
Ġcrowd s
Ġretail ers
Ġunve iled
ad vant
ĠPar alymp
Ġste al
es h
Ã £o
Ġmin eral
Ġmin im
ĠR ange
ĠTru e
ĠWelling ton
Ġcl an
Ġcons ent
Ġun rest
Ġunsuccess fully
ke ley
onn ell
ri ka
ĠGib son
anc er
h ouses
ok en
ĠSp encer
Ġder iv
Ġl ined
Ġmaneu ver
Ġne u
Ġspeak s
ke ys
ĠB ri
Ġinteg er
Ġvar iant
on ed
p ed
ĠNob el
ĠTe legraph
Ġattrib utes
-b orn
ĠCo ver
ĠH erman
ĠTh ings
Ġdis gu
igg ins
ot on
ĠCraw ford
ĠK ath
Ġcol ored
Ġconfig uration
Ġest ates
Ġpull ing
ĠR if
ĠX I
Ġan k
Ġflag s
Ġfr igate
Ġhost ing
Ġs od
Ġsong writing
. J
ĠH um
ĠMan ning
ĠSel ena
Ġcont ing
Ġtact ical
-st ory
an ch
isp here
umb ers
ĠAl pha
ĠTint in
Ġa ided
Ġreminis cent
ur bs
ĠMcD onald
ĠPokÃ© mon
Ġcap ability
Ġcoal ition
Ġex em
Ġsal mon
-b ack
ra ints
ĠMar tha
ĠT iger
Ġball oon
Ġharm ony
L ater
U nder
air y
ict ions
ĠLeices ter
ĠProt ection
ĠW ool
Ġg ig
Ġâ Ļ
m us
on ing
ĠCl if
ĠMon ster
ĠSh in
Ġspect ators
ĠFer din
ĠFilm s
ĠSmack Down
Ġar istocr
Ġl ent
Ġnom ine
Ġprint s
Ġview er
Ġâ Ĥ¬
H ist
b irds
ist ically
ĠD oc
Ġanal og
Ġo re
Ġrub ber
c at
qu et
ĠGr ad
Ġdec iding
Ġread ily
Ġv ib
Ġy d
Ġy ogurt
* *
ĠArch itect
ĠChair man
ĠD A
ĠM ut
Ġf oster
Ġn a
Ġo wing
Ġpract iced
Ġqu ote
Ġreconst ruct
ĠComp osition
ĠEs sex
Ġall ied
Ġcollabor ate
Ġcon ve
Ġperform s
Ġroll ed
Ġtong ue
Ġtrou bles
iv ic
w yn
ĠM ade
Ġmob ility
Ġro de
Ġte lev
Ġteen age
Ġtox ic
G S
ĠD ad
Ġf ails
Ġs ink
ind ed
ĠP ly
Ġcontem por
Ġcur ves
Ġinvestig ated
Ġlic ensed
Ġmar ble
Ġpe as
Ġpoint ing
Ġne arest
E r
ĠBudd h
Ġpost hum
-l ar
all ow
il ia
ĠHol mes
ĠM ile
ĠMc N
ĠW ald
Ġan them
Ġbe aches
Ġcommer ce
Ġnegot iate
Ġreserv oir
Ġsymb olic
-f inals
ail and
ĠIntellig ence
ĠVis ual
Ġgu ilt
Ġrab bit
Ġrum ors
nold s
vent ions
ĠBut ler
ĠCh in
ĠF resh
Ġmer ger
Ġover night
Ġpop ulated
ĠSc out
Ġas c
Ġwid ow
-t wo
ess es
ĠComp an
ĠL ogan
Ġcomb ining
Ġmat rix
Ġspec ulated
-the med
ops is
ĠSh adow
Ġdest inations
Ġtro phy
as ia
ĠM ater
ĠMeg a
Ġautom ation
Ġconsist ency
Ġsub ordin
an ning
Ã¤ n
ĠPhill ips
Ġd il
Ġens uing
Ġover c
Ġspecial ist
- oper
I P
orp e
ĠC ou
ĠP ra
Ġal ly
Ġbreak through
Ġfat al
Ġillust rate
H ar
om ys
ĠBeaut iful
ĠMot ion
Ġbro th
an z
Ġi P
Ġincent ives
Ġpros ecut
Ġqual ify
Th ough
e ur
he at
ĠCub an
ĠM umb
ĠNew man
Ġeval uation
Ġnum er
Ġra pper
oc ial
ĠBeng al
ĠElect ronic
ĠT ucker
Ġcame o
Ġg auge
Ġri fle
J ames
isc al
omm issioned
Ġ13 7
ĠA A
ĠAb raham
ĠL imited
b ian
h ad
ic on
Ġmanufact urers
Ġred esign
Ġstreng thening
Ġw elfare
o an
p re
w ig
ĠCab inet
ĠDel hi
ĠForm ula
ĠSt ir
ĠSur v
Ġemp athy
Ġimmig ration
Ġm ath
and in
com ed
ĠH ass
ĠS r
Ġappe aled
Ġblock ade
Ġfacil itate
Ġquant um
Ġro d
Ġtun nels
-m et
The ir
ail able
ner y
origin al
ĠRoman ia
Ġat oms
Ġauthen t
Ġens emble
Ġin ev
Ġir re
Ġlob by
Ġor al
Ġquant ity
Ġsend s
G o
l ings
Ġem ig
Ġexp ort
Ġmet aphor
Ġrev ived
= 6
est ock
is ure
ov sky
à ´
ĠK ru
ĠR aid
ĠS ally
Ġbe es
Ġcoll ision
Ġdis cl
Ġmed ian
Ġin ver
Ġinf ected
Ġmerch ants
Å ¾
ĠGar c
Ġce ase
Ġdeclar ation
Ġrefere e
ree ze
ĠM VP
ĠV ern
Ġal ike
Ġsh ower
v or
ĠGu adal
ĠHall ow
ĠT H
Ġcontest ed
Ġmathemat ical
ĠM eyer
ĠNew port
Ġcompar able
Ġintent ions
Ġmerch and
Ġrep aired
eb e
f ortunately
ich i
ĠBerm uda
Ġp ub
Ġsupp orter
ent ric
le ep
ĠHead quarters
ĠSp ort
ĠSur rey
Ġb rows
Ġf art
Ġfrust ration
u cc
ĠAdela ide
ĠF ocus
Ġb eds
Ġcle ver
Ġcorrid or
Ġsp are
Ġw eld
p ing
ĠP unk
ĠSystem s
Ġadm ired
Ġpl um
Ġpresent ing
- 30
A pp
B O
ad os
aut hor
ĠM ull
ĠStan ford
Ġevery where
Ġhel l
Ġpro claimed
Ġpromot ions
am ous
erv ice
ess a
it ations
Ñ ĥ
ĠFran co
les i
od ia
r aska
ĠHen ri
ĠSupp ort
Ġdevelop s
Ġhom emade
Ġinsp iring
Ġpuzz le
mon ton
ĠCon sequently
ĠEvery one
Ġgener a
Ġinst ances
-hand ed
eal ous
ec ific
Ġcommand s
Ġundert ook
ale y
as aki
es ters
ĠPan ama
ĠSe lect
ĠSt age
Ġcount s
P a
c ock
à ª
ĠPubl ishing
ĠWh ich
Ġcopy right
Ġenthus iasm
G eor
ul ent
ĠOt to
ĠSing h
ar ium
sw orth
w affe
ĠAnn ie
ĠMon roe
ĠS ales
Ġmuseum s
ment ation
ru it
Ġ14 1
ĠA ur
ĠO pt
ĠO w
ĠS elf
Ġam endment
Ġdef ic
Ġdraw ings
Ġm bar
Ġm ere
Ġsh ake
Ġn urse
fl ies
ĠBu ild
ĠSc reen
ĠSur vey
Ġout lets
ent e
ot ted
ĠG ust
ĠM ick
Ġdescend ed
Ġhon ored
Ġreh abil
ent ry
ish n
ond e
oot ing
ĠJ ill
ĠMar l
Ġd olph
Ġnot ion
Ġsh ocked
r ud
ĠC P
ĠFilm ing
Ġmin imize
Ġp sy
Ġsp icy
el ic
es ome
nam on
Ġclass room
Ġexp ed
Ġmass es
Ġn u
- place
S ud
offic ial
ĠG enesis
ĠN iger
Ġcent res
Ġcompris es
Ġgrab bed
Ġprel iminary
Ġunn ecessary
Ġadminister ed
Ġb out
Ġnickn amed
Ġsec ular
Ġwel comed
ĠD erek
ĠNor se
Ġneighborhood s
Ġplant ed
Ġunder neath
S A
ĠC ann
ĠDaniel s
ĠS ite
-b rown
udd y
ĠHy d
Ġaccept ing
Ġdet on
Ġexplos ive
Ġper t
Ġspread ing
hol m
oc ate
onst ruction
Ï Ĥ
ĠCon vers
ĠM oney
ĠPerson nel
Ġax is
Ġlet ting
un ct
ĠBeg inning
ĠHe ath
Ġdifferent ly
Ġl ava
Ġs ic
Ġs its
Ġterm ed
S T
ook ed
ĠR ams
ĠS ierra
Ġcyl ind
Ġd y
Ġover th
at em
on i
Ġ. .
ĠCurt is
Ġinteg ral
Ġreg ained
Ġtack le
ace ous
ul ator
ĠLe ban
ĠTim ber
Ġassess ed
Ġch ord
Ġche f
Ġfle e
Ġland ings
Ġn am
Ġtr ump
2 6
aren ts
p in
ĠAgre ement
ĠMet al
ĠRock y
Ġbur den
Ġfe ver
Ġpassion ate
Ġsl ices
Ġstream ing
int age
ĠG as
ĠI P
ĠK in
ĠP rison
ĠWol ver
Ġann oy
Ġcra zy
Ġplay able
Ġpriv ately
Ch apter
ic ism
th ood
ĠT all
Ġf ont
Ġline up
Ġphys ician
Ġpot ato
Ġsculpt ures
F urther
as ive
ĠW ings
Ġdiscover ing
Ġo d
Ġproceed ings
Ġwhe at
ug u
Ġdeleg ation
Ġh iking
Ġmel ted
Ġown s
Ġph arm
le w
ĠC ant
ĠN et
Ġdrain age
Ġgrav itational
Ġinvest ments
Ġir rit
Ġle nd
Ġpatrol s
-m eter
c ount
ri pp
ĠTas man
ĠTr uman
ĠWhe ther
Ġcorn ers
Ġs el
Ġspok es
F F
un ny
ĠFl ood
ĠN ak
ĠP i
ĠSte am
Ġen velop
Ġgross ed
Ġtim eline
aur us
im ination
ord ed
Ġc ig
Ġpers ever
Ġtri angle
ast on
h ang
um ar
âĢĻ m
Ġ" ""
ĠAv iation
Ġn ests
Ġprom ises
Ġris es
-s ix
In ter
ĠJan et
Ġd orm
Ġrecip ient
Ġwarm th
M ark
elf th
il era
ĠSp it
Ġcons ume
Ġgrad uating
Ġlem urs
V ID
k inson
op al
ran o
ĠAd rian
ĠF landers
ĠFer gus
ĠG reeks
ĠS aints
Ġhe ated
Ġintrodu ces
Ġlocomot ive
Ġmass acre
Ġtestim ony
em ia
t op
Ġ14 4
ĠMetac ritic
Ġdi ary
Ġpass word
3 8
od on
ĠCirc uit
ĠR PG
Ġnodd ed
Ġsh iny
-te am
b one
Ġ26 0
ĠMumb ai
im port
old s
oph one
pl ing
ĠCommission er
ĠExp edition
ĠN othing
Ġconv inc
Ġdead line
Ġnew found
Ġex h
Ġfoot print
anc ock
io let
Ġbusiness man
Ġincom plete
Ġsh adows
er vers
r imin
ĠL ay
Ġinst ant
Ġopt ed
Ġpre view
ov ich
ĠB uch
ĠC elebr
ĠP orts
Ġcolle ague
Ġprol ong
ad ian
el ed
ot us
ry s
ĠCont emporary
ĠId ol
ĠM am
ĠT ell
Ġbats man
Ġdemonst ration
Ġinfl ation
Ġshort age
Ġsuccess ive
Ġwar riors
ab lished
ĠBosn ia
ĠTh ailand
Ġdescend ants
Ġfat alities
Ġi Phone
Ġmob il
Ġtem po
P rior
ĠPrest on
Ġst opping
os ely
roduct ive
ĠFl ames
unc iation
ĠPh ot
Ġb arn
Ġcar rots
Ġdemocr acy
Ġdisl iked
ar ity
ig u
iv ated
raw l
ut onium
ĠNeb raska
ĠS old
ĠSp in
Ġan at
Ġar bit
Ġd ull
Ġint ro
Ġlaunch ing
Ġlegit imate
Ġmin erals
evelop ment
re qu
v able
ĠSchool s
Ġprohib ited
Ġt ide
-spe aking
ĠB irth
ĠChall enge
ĠFerdin and
Ġclear ing
Ġforg otten
Ġlisten ers
Ġout line
- owned
-c al
-s econd
r ide
ĠAP I
ĠBur ger
ĠH amb
ĠLuft waffe
Ġcor rupt
Ġfert il
st ock
t age
Î ½
ĠBang l
ĠKn ights
ĠSoviet s
ĠTo o
Ġinters ections
Ġinvestig ating
Ġm aj
Ġproduct ive
Ġri ff
ĠAdd itional
ĠChand ler
Ġcontract ed
Ġdispl acement
Ġlight ning
Ġover view
iction ary
ĠAnt i
ĠD rama
Ġdess ert
Ġir rig
Ġnorth western
Ġrun ners
j ar
ĠBe ing
ĠDud ley
ĠFis cher
ĠPow ell
Ġbattlecru isers
Ġcelebr ations
Ġgood bye
Ġimmers ive
t ra
ĠK em
ĠArch ae
Ġc aut
Ġeditor ial
M P
Sar ah
mit t
ĠBut ter
ĠLe igh
ĠM ing
ĠMar x
ĠUn iverse
Ġess ence
Ġtw entieth
u ania
ĠH il
ĠJ ur
Ġacc ent
Ġinvestig ations
Ġpl ag
Ġpost pon
Ġtim ing
-w orld
urn ed
ĠCh op
ĠP on
ĠV olt
Ġbes ide
Ġcateg or
Ġcert ific
Ġorgan izing
Ġrev ol
Ġshr imp
ab out
ec urity
Ġ >
ĠHar per
ĠSu ff
C om
ap a
h im
ob e
ĠMichel le
ĠPl aza
ĠVol unte
Ġdiscontin ued
Ġsp ores
l og
o ors
t ail
ĠColumb us
ĠForm er
ĠPly mouth
ĠT ib
Ġgrad uation
Ġinhab ited
Ġly ric
Ġpersonal ities
Ġsect ors
aud i
ĠLanc aster
ĠWW F
Ġastron aut
Ġdesper ate
Ġpod cast
Ġrefres hing
ath a
d an
ur ated
Ġ13 3
ĠLyn ch
ĠProduct ions
Ġe cl
Ġinquir y
Ġinteg rate
Ġlibr aries
Ġneighbour ing
Ġroof s
- ad
Th ree
ol ades
omet own
os hi
re ation
st ring
ĠAng le
ĠP red
Ġche cks
Ġemphas ize
Ġinter f
A ct
ĠLind a
ĠPal mer
ĠShel ley
Ġhal ted
ters hire
ĠBar rett
ĠG ardens
Ġe ject
Ġinher it
Ġstory lines
rim ination
z ens
ĠBald win
ĠBer keley
ĠChar acter
ĠFem ale
ĠK ens
ĠM k
ĠM unicip
Ġdynam ics
Ġlog ical
Ġn aked
Ġsed iment
Ġsub urb
-d isc
S E
ros se
ĠBas in
ĠCaes ar
ĠL akes
Ġaggreg ate
Ġchemical s
Ġcool ing
Ġd iced
Ġpoll s
Ġrece iver
Ġsound ed
D ue
Ġ28 0
ĠB ott
ĠO ri
Ġmort ality
Ġsex ually
H P
Sh ort
ĠB ent
Ġfinanc ially
Ġfr ight
Ġhorse power
m od
ĠAdvent ures
Ġro pe
n ew
ĠAdv ance
ĠOffic ial
ĠSh a
ĠSing le
ĠSt yle
Ġdecl aring
Ġt sp
R T
ust ral
ĠB og
ĠGener ation
ĠMax im
ĠRh ode
ĠTur ks
Ġanch or
- U
ĠAgu ilera
ĠBow ie
ĠComb at
ĠJenn y
ĠLe ader
C o
po ons
ĠE SP
Ġcapt ivity
Ġlight ly
Ġsat ir
Ġtra uma
Ġtrib al
g ic
ĠS N
ĠSh ar
Ġmurd ers
Ġup rising
. T
ener y
ph an
ĠBer ry
ĠJ azz
ĠM ol
Ġgl uten
Ġmon sters
Ġprec ision
Ġpup ils
Ġsand wich
Ġunder m
4 8
S te
Sud denly
ap or
as i
he res
omet er
ot illa
ĠA ccess
ĠBulgar ia
Ġment or
enn y
n or
o ids
ĠPer th
ĠT rain
Ġbi ology
Ġcomment ators
Ġreg ards
Ġse ating
M ay
ay ette
if ting
ingu ished
ul k
Ġc orp
Ġhe al
iss ues
um mer
ĠIn flu
Ġmunicip ality
a que
found land
th s
ĠJess ica
ĠSu z
Ġa ux
Ġbre w
Ġc af
Ġemer ge
Ġgal axy
Ġib n
Ġmonarch y
Ġsee ks
Ġthr ust
ĠR andy
Ġc ement
Ġex ceeded
Ġmist aken
Ġmit igate
Ġth rows
ĠC os
ĠDou g
ĠM ember
ĠS earch
Ġmess aging
Ġmiss iles
Ġvan illa
et ed
r ina
ĠEm ploy
ĠK le
ĠMax well
ĠU B
Ġconqu ered
Ġelect oral
Ġnutrit ion
Ġrep ly
Ġski ing
-d e
ath on
au nd
ĠApp l
ĠP aper
Ġaccommod ation
Ġancest ors
Ġexhaust ed
Ġt ended
Ġv iral
act or
ip el
sp ring
ur ren
z ac
Ġdig est
Ġdoub les
Ġoper as
Ġslow ed
Ġwar ming
Ġcinem at
Ġconclud es
Ġdece ased
Ġgener als
Ġreal ised
Ġsc rapped
-S axon
4 00
ok o
u i
ĠAss istant
ĠBapt ist
ĠCol omb
Ġc orpor
Ġsear ched
Ġthr iller
ens ing
ĠGu atem
Ġem ails
Ġqu otes
ĠDeterm ine
ĠDou ble
ĠT O
Ġconf ined
Ġsecret ly
ab i
sp ective
t aker
Ġ14 6
ĠK ub
ĠQu inn
Ġoffer ings
Ġp ound
Ġregist ration
ant om
c or
ĠBet ter
ĠQ ual
Ġattend ees
Ġstake holders
Ġsu its
oca ust
ĠCr ime
ĠDev on
ĠG am
ov o
ĠExper iment
Ġcon clus
Ġsynthes is
ibl ical
is le
let cher
ne um
ĠKe pler
ĠLeg ion
ĠObs erv
Ġinteg r
Ġj ealous
Ġpar ad
Ġwh it
- view
-p op
bro ok
ij i
ĠB od
ĠC ert
ĠK es
ĠLou ise
ĠRes ident
ĠT itle
ĠTechn ical
Ġsom ewhere
Ġt ales
ĠRem ove
Ġarch itects
Ġbas ement
Ġgall ons
Ġres ume
Ġsh aping
ĠGeoff rey
ĠH ancock
ĠPres ley
Ġconfron ted
Ġcontact s
Ġdevast ating
Ġor n
ĠSol omon
Ġbes ides
Ġtend ency
Ġtut orial
Ã© l
ĠCh i
ĠF ras
ĠIm m
ĠSp y
Ġinnoc ent
Ġmor ale
amp ed
ish i
ry ing
ĠW inc
ĠW rest
Ġbl ame
Ġm all
Ġse af
Ġvict orious
in put
sh ine
ĠAdmiral ty
ĠArt ist
Ġoper ators
Ġunh appy
- ed
M ax
ĠDer by
Ġinf ant
Ġpersp ectives
Ġr am
Ġsix ty
id el
ĠRey nolds
ĠSen ators
Ġfit ting
Ġmid night
Ġst un
Ġsub urban
p x
z h
ĠLith uania
ĠR ather
Ġret aining
Ġreven ues
Ġsens ors
Ġstat ic
Ġtherm al
ill ance
osp here
ĠLar ge
ĠMcC ain
Ġcool er
Ġh ometown
Ġla ud
Ġportray s
-part y
ĠEd gar
ĠEd monton
ĠTre asury
-s ong
E very
m ons
y on
Ġ14 9
ĠB ec
ĠIll ust
Ġaccord ance
Ġflu or
Ġload ing
Ġstri pped
al an
ĠB ast
ĠBroadcast ing
ĠP s
Ġal arm
Ġp ian
. N
r one
ĠD oll
ĠSk inner
ĠTw enty
Ġdecor ative
Ġmind s
Ġt a
ĠGriff in
ĠNew foundland
Ġaccomplish ments
Ġarc ade
Ġperform er
Ġtables poons
Ġw ages
-writ ten
er os
ran n
ĠHop kins
ĠPro s
Ġesc apes
Ġtr ace
ar in
asc ular
et ics
ĠJul ia
Ġant iqu
Ġblack s
Ġdomin ance
Ġeconom ics
Ġfre ely
Ġg rief
Ġhon ours
Ġmet eor
Ġtr im
Wh y
v ol
ĠSuper man
ĠW rite
Ġf og
Ġle ase
Ġsp ont
- election
-Hung arian
-re leased
S im
r ush
ĠUk raine
ĠW ake
Ġgen ius
-b re
as se
ĠGameSp ot
ĠMir ror
ĠT ales
ina e
ĠHallow een
ĠWind sor
Ġcat ches
Ġguarant ee
Ġreg ain
Ġresemb les
Ġto ile
P er
ĠIn sp
ĠTri p
Ġg ases
Ġo t
Ġo un
Ġunus ually
an iel
ĠP and
ĠR ugby
ĠSc andin
Ġdeterm ining
Ġind oor
Ġsan ct
Ġsh ar
be it
e ople
ĠB le
Ġcat alog
Ġcl uster
Ġend angered
Ġorgan isations
Ġp iv
Ġstretch ing
Ġtail ored
b ase
h urst
il ian
ĠFin als
ĠH ip
ĠR ever
Ġcy ber
an an
Ġ27 0
ĠBel le
ĠH oll
ĠMaur ice
ĠS ax
ĠSaf ety
Ġcomb inations
Ġsn acks
* 3
ass ing
el ong
iff s
ig on
pl ant
ĠAngel a
ĠL af
ĠSeb ast
Ġa ster
Ġd ign
Ġlaw yers
Ġmon ks
Ġremind ed
orm an
ĠGab riel
ĠMag gie
ĠStud ent
Ġrook ie
ec d
ĠD ian
ĠP R
ĠVen us
Ġinter fer
Ġrecon cil
Ġsh y
Ġt ightly
P erson
es ame
s ub
ĠGer ald
Ġcount ed
Ġmat ched
Ġrebu ild
Ġsche mes
Ġtext ures
m id
Ġconsequ ently
Ġd ors
Ġevolution ary
Ġsp ur
Ġtr am
ab el
atter ing
em ics
o que
ĠAir borne
ĠF C
ĠSw ord
Ġh ire
Ġper imeter
Ġprest igious
Ġsl ip
Ġt ends
-c omp
ĠUs her
Ġfac ial
Ġreview ing
Ġvol unt
Ch ar
ret ion
ĠB orough
Ġaddress es
Ġh ate
Ġmagn et
Ġsubsid iary
ec on
rodu ce
so on
ĠCh ancellor
Ġcomb ines
Ġeleph ant
Ġex agger
Ġodd s
Ġspect rum
g ae
ik er
p ow
ĠA sp
ĠF ear
Ġactiv ated
Ġdis advant
Ġwhe els
erv es
oc ene
ĠBrand on
ĠH off
ĠQu arter
Ġd ent
Ġfro st
Ġorder ing
Ġw rapped
U P
f old
pent er
r ase
ĠJo el
ĠL ed
ĠMan or
Ġactiv ist
Ġd rought
Ġfram es
Ġinstruct or
Ġl ime
Ġpost ing
ĠC ec
ĠC rom
Ġchar ging
Ġcompan ions
Ġdoub led
Ġflow ing
Ġlow ered
Ġsufficient ly
Ġtraged y
sp ace
Ġc ure
Ġpo ets
Ġt ill
at um
m are
ĠMount ed
ĠP D
ĠR S
Ġbass ist
Ġmotor way
ast ical
ord ered
t z
ver ning
Ġfilm makers
Ġs ab
Ġstri ps
em po
im age
ind a
om i
pl an
vern ment
ĠE agles
ĠK iss
ĠSp onge
Ġcert ification
Ġclim ax
Ġdies el
ĠAn a
ĠD awn
ĠFin ancial
ĠS P
Ġber ries
Ġj ersey
ubl ished
ĠP all
ĠP orter
ĠS A
Ġmatch ing
Ġrun way
Ġtreat ing
ãĥ ¼
ĠInd ivid
ĠNot able
Ġbo om
Dav id
g iving
ib al
int o
ĠAssoci ated
ĠBrig adier
ĠCost a
ĠMun ich
ĠS ed
Ġborrow ed
Ġcong regation
agon al
c led
ĠBa iley
ĠN y
ĠSw an
Ġep id
Ġlabel ed
Ġsp ider
Ġsubstant ially
Ġz o
-2 5
irc raft
r int
urp ose
à °
ĠEd win
Ġheav en
Ġin ability
Ġrew rite
Ġstick s
Ġt ech
R eg
cc oli
ĠPy thon
ĠTr uth
Ġcont rary
Ġill umin
E X
ĠJ unction
ĠPar achute
Ġadm ission
Ġdang ers
Ġdet ached
Ġfre ight
Ġge ographical
Ġsp here
ag us
b sp
g ence
nd um
ol ics
Ġ á
ĠAll music
ĠArmen ia
ĠKore ans
ĠRed s
Ġconv iction
Ġh ipp
Ġmar itime
b ey
ĠAugust us
ĠCl imate
Ġanal ys
Ġdecor ations
Ġske leton
Ġv in
D e
Wh ich
ene z
her d
i ov
nd ers
p op
ĠCit iz
ĠJ G
ĠVirt ual
Ġin ex
Ġtheore tical
Mich ael
art e
m o
ne g
own ers
ĠHam mer
ĠS C
Ġfail ures
Ġpig e
-pound er
ĠCommer cial
ĠNe pt
ĠSt op
ĠW u
Ġcitizens hip
Ġmon uments
Ġsusp ense
ĠDyn asty
ĠHawai ian
ĠL ag
Ġcontain ers
Ġens ured
Ġexpress es
Ġfact ions
Ġl oses
Ġph ases
In s
op us
rie ved
ĠC ond
ĠD iet
ĠK ot
ĠLith uan
ĠPre par
ĠSh ir
Ġaut o
Ġcustom ized
Ġhe ct
Ġinv ention
Ġlim estone
Ġm uzzle
Ġninet eenth
Ġsc al
au er
o j
ra its
ĠArgent ine
ĠPro per
Ġcou pled
A lex
ool s
ĠIm ag
ĠK end
ĠPop ular
Ġhand ful
Ġmanuscript s
Ġpres um
b rit
ro ve
ĠP ont
ĠTe le
Ġad olesc
Ġiron cl
Ġuncom fort
ais y
f in
ĠG and
ĠI D
ĠLu is
ĠW end
Ġb ark
Ġmicro sc
Ġnam ely
Ġnob ility
Ġprop ort
-in spired
ill as
imet ers
ir able
ĠSp ect
Ġlink ing
V A
atin um
et erm
ĠD re
ĠDemocr at
ĠG az
ĠM ead
ĠSy rian
Ġang les
Ġcomp uting
Ġille g
Ġnation ally
ili ary
mer ce
ĠIr ving
Ġaccept able
Ġs ou
Ġwe ird
E M
} ĊĊ
ĠJeff rey
Ġc ord
Ġgener ic
Ġmed ication
Ġmod ify
Ġmotor cy
Ġnegot iated
art z
ĠP irates
ĠPl ate
ĠSouth ampton
Ġan arch
Ġcou ples
Ġext inction
Ġfresh man
Ġins ert
Ġse iz
ĠAd ri
ĠFl ag
ĠG one
ĠJenn ings
ĠO ber
Ġactiv ists
Ġent ries
Ġrang ed
- range
i ott
iel berg
ke e
Â° F
ĠIn te
ĠMin ogue
ĠPier ce
ĠPow ers
Ġnit rogen
Ġp ants
Ġr ays
Ġreun ited
19 8
c r
r b
ropol is
ĠC G
ĠH ig
Ġden omin
Ġrep orters
ĠÃ ģ
[ Your
b in
ch ain
d ef
k ward
ĠCru z
ĠFor bes
ĠWars aw
E L
ang a
e at
Ġ14 8
ĠC ore
Ġdead ly
Ġend less
Ġsn ake
Ġsymbol ism
Ġunder graduate
op ing
ĠCar r
ĠPar amount
ĠRuss ians
Ġconcent rate
Ġd ances
Ġf ence
- Y
abul ary
n um
ust ain
ĠBo oth
ĠC ock
ĠGl enn
Ġevery body
Ġins cription
Ġmat urity
Ġpros ecution
Ġfl aw
È Ļ
ĠHay es
Ġc ents
Ġd irty
Ġm a
Ġsle e
-p roduced
C D
ĠS ter
ĠTun nel
Ġfront ier
Ġkey boards
Ġm ock
Ġnob ody
Ġpreced ed
Ġtradem ark
M at
ar u
ber ger
ĠE ye
ĠSh ank
Ġbath room
Ġbr ass
Ġintegr ity
Ġpublisher s
Ġsa x
- j
-t rack
.âĢĿ ĊĊ
ab l
ig ue
oc ese
uche ss
ĠJ a
ĠSus sex
Ġdefe ats
Ġliv estock
ĠAsh ley
ĠHann ah
ĠV a
Ġcontroll er
Ġcurren ts
Ġdep r
B etween
im o
ĠB alk
Ġcalc ium
S R
ong s
Å Ħ
ĠAI DS
ĠColl abor
ĠScient ific
Ġcru el
Ġd ys
Ġpar ade
Ġrank ings
Ġremark s
Ġweakness es
ĠD iana
Ġbot an
Ġscript s
Ġstar ter
as is
ing le
itte es
iv ities
ĠWill is
Ġa rom
Ġan onymous
Ġbre ach
Ġham let
Ġlo ans
Ġobserv ing
Ġpl utonium
Ġpredecess ors
Ġst ressed
ac ters
ener ation
un n
ĠH IV
ĠHer gÃ©
ĠW ang
Ġback drop
Ġele venth
Ġfu els
Ġmaneu vers
Ġn iche
Ġorient ation
Ġstruct ured
c i
ĠC yp
ĠSoft ware
Ġd ome
Ġo st
- rated
am y
ass ium
pl ane
Ġ ump
ĠL an
ĠL ila
ĠPr adesh
Ġdef ining
Ġg ly
Ġinter ventions
Ġpe er
Re ference
he y
Ñ ı
ĠBas il
ĠG ren
ĠGu ards
ĠSomet hing
Ġinadequ ate
Ġpan ic
Ġrecre ational
Ġshel ters
-bu ilt
ĠAll Music
ĠL ions
ĠW ant
Ġagre ements
Ġam ino
Ġatt ach
Ġche es
Ġint ake
Ġint u
Ġm int
Ġrelax ed
Ġunp opular
enh ower
ĠTh or
Ġdin osaurs
Ġp ork
Ġshif ts
Ġsub urbs
Ġtrigg ered
us ions
ĠB atter
ĠBu enos
ĠFran z
ĠHend rix
ĠPl aces
ĠSch w
Ġball ot
Ġendors ed
Ġgr ades
Ġl od
Ġunc onscious
Ġw ax
C omm
Ġneck l
Ġrelie ve
ax ies
Ġcheck ing
Ġex otic
Ġpromot es
Ġst iff
Ġsu cc
-s outh
ai ro
am el
l ined
ĠG av
ĠW als
Ġb urg
oot s
ĠF letcher
ĠMon ica
Ġboard ing
Ġchar m
Ġport fol
Ġrebu ilding
Ġstret ched
Ġv ault
ĠChap man
ĠMor oc
- 40
brit ies
eg a
omet ry
ĠSu ccess
Ġdemocr atic
Ġen er
Ġf res
ucle ar
ã Ģ
ĠLight ning
ĠM ath
ĠPeters burg
ĠTib et
Ġal beit
Ġav ocado
Ġblow n
Ġlung s
Ġprompt ly
Ġretrie ve
Ġunn amed
-lar gest
uch i
ĠESP N
Ġcongest ion
Ġdu et
Ġfinanc ing
Ġhum orous
Ġwater line
ĠWar wick
Ġc odes
Ġsl opes
l ay
ĠH ess
ĠKenn y
ĠL ut
ĠSt rat
Ġbes ie
Ġhelicop ters
Ġpersu ade
red it
ĠDam age
ĠR af
Ġcr ushed
Ġher ald
- work
-play er
ĠArt illery
ĠJul ie
ĠL anguage
ĠStar r
- op
-sp eed
/ 5
ios ity
ĠFergus on
ĠHol ocaust
ĠRhodes ia
Ġc ran
Ġf ost
Ġfound ations
Ġpers isted
Ġse ize
art ing
ic ia
readn ought
v ae
yl ogen
ĠO st
ĠR acing
Ġbu nd
Ġbutt ons
ur u
Ð ²
ĠEvery thing
ĠK os
ĠN one
ĠRe id
Ġaff ection
Ġanticip ation
Ġasp ir
Ġexpress ions
Ġfor ts
Ġrap e
Ġspawn ed
ĠBrit ney
ĠF iction
ĠU m
ĠWill ie
Ġcount less
Ġem bed
Ġlaugh ing
Ġpick ing
W ork
ig uous
ĠMed ic
ĠT ax
ĠTurn pike
Ġanth rop
Ġfil ters
Ġmet h
Ġteen agers
Ġthe ft
3 9
is bury
orn s
ĠC oc
ĠR ah
Ġc av
Ġn oun
Ġsovereign ty
Ġwond ering
ĠĠĠĠĠĠĠĠĠĠĠĠĠĠĠĠ ĠĠĠĠĠĠĠĠĠĠĠĠĠĠĠĠ
" :
ĠBangl adesh
ĠCal vin
ĠSound track
Ġban ana
Ġcin namon
Ġcl usters
Ġnation wide
Ġover time
ele brities
âĤ¬ âĦ¢
ĠGar field
ĠM aple
Ġabol ished
Ġentreprene urs
Ġgovern ed
Ġoccup y
c ul
red ited
ĠH M
ĠS entence
ĠUlt imate
ĠV ul
Ġal igned
Ġconduct or
Ġdisrupt ed
Ġsc ary
am ination
s uch
w oman
ĠC IA
Ġst up
ou fl
Ġ3 20
ĠAr ms
ĠValent ine
Ġaw kward
Ġconst raints
Ġmel ting
O ptions
l n
w y
ĠA ires
Ġbal let
Ġfort ified
Ġpitch ing
Ġsp ine
. L
h aul
ov an
ĠAnaly ze
ĠJosh ua
Ġan ecd
Ġcryst als
Ġleg ally
Ġsk et
() `
am us
be ing
ighth ouse
os itive
Ġ13 6
Ġ37 0
ĠBrit t
ĠBus ch
ĠLe vel
Ġimprison ment
Ġpers istent
Ġphilos ophical
- rich
ater al
f ile
the tic
ĠBright on
ĠI T
ĠP itt
Ġbet a
Ġdis k
c s
o qu
ĠSer bs
Ġenc ry
Ġmeant ime
ant o
ĠB av
ĠL odge
ĠP ix
ĠSp ielberg
Ġbelong s
Ġsens ation
ir atory
r ically
ĠBet ty
Ġc ott
Ġpat ent
Ġtravel ers
-prof it
. H
ad ic
sh i
Ġattract ing
Ġcompl aint
Ġint imate
hold er
ri et
ĠM ine
Ġcapt ures
Ġconfront ation
Ġdis asters
Ġfr ig
Ġra v
Ġrock y
Ġst umbled
sh adow
sw ick
ĠI N
ĠJess e
ĠS it
Ġassoci ations
Ġcur se
Ġdecl ining
Ġf iscal
Ġnew er
Ġopt imal
Ġserv ants
m ass
ĠL anka
Ġintim id
Ġr ic
Ġshe ets
Ġteach ings
Add itionally
ovak ia
Ġdet achment
Ġecc entric
Ġintercept ed
Ġpri ests
ach i
rag on
ul i
ĠH V
ĠHold en
ĠLind wall
Ġb inding
Ġbrig ades
Ġdif fers
Ġinf ections
Ġs us
Ġsh ade
as ma
can al
f ires
o i
ope z
so ver
ĠC rane
ĠCO VID
Ġch ambers
Ġt bsp
ĠC M
ĠJo ey
ĠRoad s
ĠSh awn
Ġcontin ually
Ġhorn s
Ġinnov ations
Ġlegend ary
Ġpsych ology
Ġst unt
ar ious
id i
ĠK ids
ĠVar iety
Ġapp rent
R L
book s
ĠAnn ual
Ġcompar isons
Ġen roll
Ġmet er
Ġrefere ndum
Ġsexual ity
Ġstat istical
agon ists
al us
ĠAng els
ĠL az
Ġab rupt
Ġacceler ated
Ġf ond
Ġp enc
Ġsqu ir
Ġtrem end
an or
and ra
mark et
ĠPer u
ĠPriv ate
Ġpartic le
Ġsh outed
an ie
s by
unk er
ĠL ac
Ġelement ary
Ġf irms
Ġh iring
Ġinf ect
Ġinf ilt
Ġlim bs
Ġnorth bound
Ġtotal ed
-c ar
edd y
id ad
ĠAn alysis
ĠE ighth
ĠEx amples
Ġac ute
Ġafter ward
Ġgo verning
Ġp unch
Ġprem ium
il is
uss els
ĠB irds
Ġb ureau
Ġch ili
Ġdo zens
Ġeleg ant
Ġn erve
Ġreg ulate
- em
= 5
R ober
rif ying
Ù ħ
ĠCath olics
ĠEngine ers
ĠH ous
ĠNon etheless
ĠS ib
Ġbu zz
Ġste ering
Ġsw ift
. O
land o
r ice
ĠCast ro
ĠEis enhower
ĠN OK
ĠSt rait
Ġbe e
Ġcomp ost
Ġdram atically
Ġsens es
Ġvari ables
) )
There fore
ace ae
ely n
ult ural
v ous
w ere
ĠD rew
ĠDist inguished
ĠF ant
Ġc orporation
Ġphys ic
Ġshort s
Ġsubject ed
Ġsymp athetic
Ġuncomfort able
-k il
b ank
p es
Ġchar ming
Ġeng ra
Ġh aul
Ġhall s
Ġp anc
Ġpoison ing
Ġshoot s
Ġsy rup
Ġtw elfth
l ance
rell a
ĠH oney
ĠPol icy
Ġaccess ories
Ġfl ies
Ġmid st
g ins
ĠG iant
ĠPhys ical
Ġaccept s
Ġdors al
Ġprocess ed
Ġworth y
ar is
oy a
ĠAx is
ĠBol ton
Ġexec ute
Ġg ard
Ġgal axies
Ġimm ense
Ġinst antly
Ġrel ay
ce ans
es que
low er
ro ft
ĠDomin ican
ĠJam ie
ĠR i
ĠT yp
Ġjud ged
ĠPatt on
Ġcycl ing
Ġener get
Ġinf in
Ġtour naments
id ays
let ter
w ald
ĠR are
Ġdis par
Ġit er
Ġsimilar ity
Ġvis itor
ĠFa ith
ĠH utch
ĠR ot
ĠT axon
ĠW ilm
Ġhe ights
Ġjuven ile
Ġterror ist
2 3
est e
rol og
rox imately
Ġ14 2
Ġvari ants
ĠØ §
che t
is ch
ord e
ĠCle an
ĠD ry
ĠMet all
ĠPorts mouth
ĠT ina
Ġadvertis ement
Ġco hes
Ġhard ly
Ġhom age
Ġlect ures
at z
ĠH anna
ĠHug o
Ġaccum ulated
Ġdisturb ed
Ġle aked
Ġperson a
Ġposs essions
Ġpurch ases
Ġsu ite
at ories
ĠE b
ĠH aven
ĠM ale
Ġnetwork ing
Ġsevent een
Ġteen ager
Ġtouch ing
c aster
Î ¹
ĠC ave
ĠDis covery
ĠH ollow
ĠSal isbury
ĠSu nder
Ġas leep
Ġext ant
Ġlay ing
Ġnarrow ly
Ġpress ures
Ġprinc ess
-c ons
ag ne
ur ities
ĠBah amas
ĠEug ene
ĠN ed
ĠP M
ĠP end
Ġabund ance
Ġbe et
Ġcor al
Ġmin ced
h aus
p a
ĠAp art
ĠCh ange
ĠH arm
ĠNort on
ĠSponge Bob
Ġcorrespond ence
Ġgu ides
Ġref it
ĠÅ ł
ac a
av i
ish na
ĠD ock
ĠHamb urg
Ġdevast ated
Ġdiscover ies
Ġru ined
Ġsusp ects
Ġthe or
Ġtra gic
Ġun covered
h ot
n ie
om orph
Ï ģ
ĠHam mond
ĠN em
Ġadop ting
Ġal ph
Ġcry pt
Ġecosystem s
Ġl ucky
ch air
cl op
m iral
v ik
ĠDist ribution
Ġb ishops
Ġgoal keeper
ar an
in os
l ore
Ġ14 7
ĠT ank
Ġaver aging
Ġmel odies
Ġpe an
Ġtr aced
Ġw ears
ad oes
ĠLear ning
ĠS audi
Ġcl ause
Ġlog ic
Ġpar aph
ĠB ened
ĠDay ton
ĠH iro
ĠJac ques
Ġco ordination
Ġdec ent
Ġfe as
Ġinstall ment
Ġlandsc apes
= $
gh ai
or ian
Ġb asket
Ġexp elled
Ġfunction ing
Ġpromin ence
Ġviol ation
ĠCom ic
ĠSic ily
Ġmanufact ure
Ġrecy cling
et ry
Ù Ī
ĠBe ast
ĠPhil os
Ġbank ing
Ġcapt ive
Ġdiet ary
Ġsurpris ing
Ġtrou t
Ġwer en
eg g
is ible
st op
ĠBoy d
ĠGuadal canal
ĠV as
Ġadm its
Ġb oring
Ġcrown ed
Ġpract ition
Ġrect angular
Ġwilling ness
Ġwood land
c hester
oy le
ĠC orp
ĠIsab ella
ĠMort on
ĠSug ar
Ġbl ess
Ġconclud ing
Ġenact ed
Ġinteg ers
Ġlandmark s
Ġprem ier
Ġtrou bled
ĠArab ian
ĠBra h
Ġirrig ation
- acre
ĠA F
Ġcolon el
Ġcr us
Ġelect rons
Ġexem pl
Ġinflamm ation
Ġlands l
Ġnational ist
Ġre app
en ary
if ax
re ced
ĠSub sequently
ĠTh ai
Ġinter rog
Ġlem ur
Ġobs ervers
cliff e
Ġ13 9
ĠL ena
ĠN an
ĠWar riors
Ġdisagre ed
Ġles bian
Ġutil ize
-c omm
ĠL il
Ġadd itions
Ġbar b
Ġemerg ence
Ġpick s
Ġsp arked
Ġtort ure
bor o
ell es
ĠD uchess
Ġcry ing
Ġtr ilogy
-cont rolled
ann ers
ie u
Ġkilog rams
Ġpure ly
Ġt ense
Ġupl oad
abet es
gu ard
Ġ14 3
ĠCo ach
ĠRh ine
ĠStef ani
ĠW ander
Ġbus h
Ġequ ity
Ġle ak
Ġpass ages
Ġprov ider
Ġr er
Ġs oy
Ġtelesc ope
Ġwis dom
= 1
ĠA ven
ĠCl a
ĠO g
Ġal umni
Ġcur s
Ġre per
Ġsp ans
Ġsub du
Ġsurve illance
Ġunw illing
ĠK om
ĠSoph ia
Ġconvinc ing
Ġhel met
Ġsp at
-g rossing
medi ately
ĠDod gers
ĠE gg
ĠT ampa
ĠV it
Ġanaly zed
Ġg inger
Ġnucle us
Ġsil ly
Ġt we
Ġw orm
-19 9
igg s
im an
im i
ipel ago
ĠRoberts on
ĠS ag
Ġcris py
Ġi OS
Ġoccur rence
Ġse aled
Ġwire less
ob ic
ou x
ĠLe ft
Ġcerem onial
Ġev olve
Ġvamp ire
-2 1
-th ree
M al
gr aded
ĠG ross
ĠHind i
ĠJohn s
Ġc rick
Ġcan vas
Ġcelebr ating
Ġch or
Ġfirm ly
Ġp aired
Ġut ter
2 9
u um
ug ged
ĠOr lando
ĠY ang
Ġed itors
Ġg ren
Ġret ention
Ġsem if
ruct ive
Ġ æ
ĠConc ert
ĠF ollow
ĠPhilipp ine
ĠW id
Ġatt itudes
Ġdanc er
Ġn ode
Ġnick el
Ġst ays
. K
b ane
old ing
z el
ĠD ame
ĠJoy ce
ĠRec reation
Ġdist ress
Ġflo at
Ġpen alties
Ġpil gr
Ġret iring
eld a
ff ord
Ġ20 5
ĠD art
ĠK as
ĠK err
Ġprec urs
Ġscr atch
Ġsit com
- en
avil ion
cript ions
ene f
se nd
ĠBey ond
ĠEv an
ĠGal ile
ĠH ast
ĠSh ack
ĠT aking
ĠWhit ney
Ġexchang ed
Ġsouth bound
Ġsusp icious
" .ĊĊ
- ar
ĠGard ner
ĠJ in
ĠWild life
Ġal k
Ġcr unch
Ġgrand son
Ġprim itive
Ġren tal
Ġstrand ed
for ward
m aking
ĠA zer
ĠGo eb
Ġs her
Ġscreen ed
W rit
h as
ix ed
oul t
ĠAut om
ĠFras er
ĠL av
ĠRI AA
Ġadvertis ements
Ġelectron ics
Ġexc luded
Ġfem inist
Ġtrust ed
-p ro
ÅĤ aw
ĠH ers
ĠL omb
ĠV enez
Ġneighb ors
à¤ ¾
Ġ ~
Ġ20 3
ĠAlexand ria
ĠAll an
ĠC oul
ĠDur ham
ĠEll iott
Ġbar racks
Ġc elebrities
Ġguarant eed
Ġkn ight
Ġsp ear
B orn
T I
ch y
ent er
is en
â ģĦ
ĠFerr ari
ĠK ang
Ġmean while
Ġpo etic
Ġsp o
Ġtrans actions
organ ized
th al
unt a
ĠBl aine
ĠL iv
ĠMon ument
ĠScot ia
ĠT able
Ġbas il
Ġboot s
Ġdivor ced
Ġh ollow
Ġisot opes
Ġmet aph
Ġz oo
Ġ5 50
ĠArab ia
ĠI X
Ġblock ing
Ġcl er
Ġg ospel
Ġmother s
Ġorb its
rit ish
ĠTaxon omy
Ġco zy
Ġfart her
Ġglass es
Ġunp reced
C ar
U R
ĠMah ar
Ġb reeze
Ġcon form
Ġover haul
Ġprof itable
Ġunpreced ented
ress es
ĠCan ber
ĠL opez
ĠLo is
ĠReview s
ĠVar ious
Ġabol ition
Ġabsor b
Ġank le
Ġmill imetres
Ġsl ot
Ġsp y
St ud
com m
iat us
ib an
ĠAust en
ĠLaure n
Ġcontem pl
Ġgo alt
Ġl onely
Ġmind set
let te
ro be
Ġ3 30
ĠA w
ĠAT P
ĠB om
ĠHe in
ĠTr in
Ġp neum
Ġreleg ated
N ote
id an
il ight
ĠPresident ial
Ġconsult ant
Ġf its
Ġvers atile
av ier
br ates
eg er
ub a
ĠD y
Ġad ul
Ġcomm ended
Ġto b
at ics
ig hest
ĠLess er
ĠPrim ary
ĠSebast ian
Ġb ubb
Ġecho ed
Ġemploy ers
Ġhad n
Ġlad der
Ġs ells
Ġuns ure
ster dam
ĠG y
ĠX V
Ġatt ain
Ġdef icit
Ġdep ot
Ġt idal
at as
om ans
orn ed
Ġ ãĤ
ĠA j
ĠH umph
ĠIn g
Ġauthent ication
Ġg ast
Ġlar vae
Ġsp iders
z eg
ĠCher ry
ĠRh ys
Ġconvent ions
Ġcour ty
Ġmerchand ise
Ġpromin ently
Ġstat ues
B i
an ic
ar ius
point s
ul ative
Ġa we
Ġdemonst rates
Ġdu pl
Ġenzy mes
Ġmemb rane
Ġserv ant
Ġw r
em ption
ĠAr med
ĠJ oker
Ġinc omp
Ġmetab ol
Ġs aint
= 3
ces tershire
es an
na e
ĠBanks ia
ĠKing ston
ĠP ath
ĠSt re
ĠTimber lake
ĠW i
ĠWork ing
Ġdec ommissioned
Ġf ool
Ġst ip
Ġtopp ings
ll i
ĠI B
Ġaffili ate
Ġfundra ising
Ġgas oline
Ġter restrial
IN T
qu in
u j
ĠBr ussels
ĠC ran
ĠDon na
ĠMo h
ĠPlay ing
Ġbicy cle
Ġpres erving
- 201
al is
d ate
id y
roc ery
ĠCommun ications
Ġgamb ling
Ġthe sis
art a
ĠNe ed
Ġinfl icted
Ġoff spring
Ġreal ism
Ġsupposed ly
Ġunemploy ment
-e qu
ik k
ĠK arn
ĠN um
Ġb ake
Ġb ind
Ġd ash
Ġd ip
Ġship ments
Ġt issues
M D
os er
ump ing
ĠAntar ctic
ĠBrun swick
ĠC el
ĠCl aud
ĠF ra
Ġevac uate
Ġham mer
Ġobt aining
Ġ} ĊĊ
C rit
air d
am ics
ĠAnd ers
ĠOm aha
ĠSand y
ĠSn ake
Ġcl ues
Ġcompl ications
Ġdoub ts
Ġhapp ily
Ġovers aw
Ġrec laim
Ġrel ates
aw i
ch ant
un ion
uther ford
ĠMy c
ĠPal m
Ġbrut al
Ġc age
Ġcrowd ed
Ġpostpon ed
Ġprolong ed
Ġsh red
Ġsu ed
Ġsuspic ion
-w ide
row th
ting ham
ĠH i
ĠH ost
ĠJ ag
ĠPl us
ĠUnder ground
Ġanx ious
Ġdown ed
Ġf us
Ġfl ames
Ġhealth ier
Ġlect ure
N Y
ke eping
ĠB ever
ĠCo hen
ĠF ine
ĠObs erver
ĠWrest le
Ġass ured
Ġins erted
Ġut ility
âĢ ¦
ĠE lement
ĠK ann
ĠMong ol
ĠR Ã©
ĠV ery
Ġn an
Ġor ang
m ail
ĠJul iet
ĠMov ing
ĠSc outing
ĠZ oo
Ġdisc rimination
-1 3
at ri
idd ing
in ate
ĠIndian apolis
ĠR oth
ic ates
ie g
it ivity
ov ina
ĠI o
Ġcat aly
Ġconven ience
Ġgreet ed
Ġsh irts
Ġst ing
Ġto pping
W S
ah an
ah o
ah on
ract ion
s he
Ø ¯
ĠExper ience
ĠR ac
ĠRo vers
ĠRoc hester
Ġelev ator
Ġinst ability
Ġman or
Ġprec ious
Ġsc iences
Ġtal ents
Geor ge
Int roduction
el age
ig ion
k ind
Ġcontempor aries
Ġg rocery
Ġimag ined
Ġpsy ched
Ġviol in
-gener ated
ib les
ki en
lud es
ĠD ana
ĠMin ne
ĠT roy
Ġch im
Ġinfer ior
Ġle isure
Ġlik elihood
Ġper ipher
Ġpress ing
Ġri ot
-3 5
Short ly
id ian
ĠAnd roid
ĠS pl
Ġfun nel
Ġh alt
Ġport raits
. P
ĠCamp us
ĠHal ifax
ĠLithuan ian
ĠM Ã¼
ĠO K
Ġaccus ations
Ġglob e
Ġvir uses
aus es
b ai
ĠA chie
ĠG aza
ĠGame play
Ġcanc ellation
Ġdeterior ated
Ġref usal
Ġsn akes
Ġw olf
ĠR O
ĠSh ore
Ġaccount ed
Ġaltern atives
Ġg ut
Ġun stable
-2 9
ef e
ern s
ĠShan ghai
ĠSunder land
ĠT ong
Ġdon ation
Ġend e
Ġfact ories
Ġl ips
Ġp ec
Ġpre f
Ġreject ion
Ġresp iratory
Ġse ated
Ġtra ff
ĠInter ior
Ġb ubble
Ġbroadcast ing
Ġclar ity
Ġdrown ed
Ġfav oured
Ġlim iting
Ġn as
Ġover head
Ġpop ulous
Ġprosper ity
Ġstrict ly
- use
M an
ac erb
ett i
form er
il us
se en
Ð ¼
Ġcons c
Ġflavor ful
Ġrest ing
Ġste aling
Ġsymph ony
Ġwrest lers
R ep
agn etic
ĠM I
ĠRet rieved
Ġbe ver
Ġquestion ing
Ġrecover ing
D r
m el
red ict
th is
ĠAdri atic
ĠCh al
ĠCorn ell
ĠIv y
ĠO wn
Ġexcept ions
Ġp ipe
Ġseaf ood
Ġseason ing
E ven
Er ror
ron es
ĠAm sterdam
ĠAut o
ĠC u
ĠN O
ĠR id
ĠW ong
Ġcustom ize
Ġdef ender
Ġhaun ted
Ġment ally
Ġn Ã©e
Ġsever ity
Ġun cover
Ġwar rior
ĠEven ing
ĠSt alin
ĠT ill
Ġaver ages
Ġcollect ively
Ġd amp
Ġg orge
Ġst ain
Ġt ricks
Ġv eto
ber to
f irst
ĠF en
Ġcolon ists
Ġcounter parts
Ġflu ct
Ġinc on
Ġlov ely
Ġmoder ately
Ġutil izing
B L
x ter
ĠBl oom
ĠF o
Ġbow ler
Ġl aser
Ġn in
Ġspect acular
Ġtrans mitted
-p rodu
at ches
ic z
ract ed
ĠC ly
ĠCal c
ĠCle ar
ĠE uras
Ġc ros
Ġcl erk
ill on
ĠAr n
ĠUs ers
Ġble w
Ġin herent
Ġl oving
Ġport al
Ġrecru iting
Ġshort ened
Ġtrans mit
Ġvin yl
al ore
Ġ6 50
ĠEngine er
ĠStock holm
Ġag ing
Ġart ic
Ġco aster
ac ements
atern ity
pt s
writ ten
Ù ĩ
ĠA U
ĠAdv anced
ĠC ay
ĠP engu
ĠPat ric
ĠPruss ia
Ġl aughter
Ġl ord
Ġt empt
Ġwh ites
ap l
ĠBro ck
ĠC redits
ĠCom plete
ĠM s
ĠWrit ers
Ġbel oved
Ġcatch ing
Ġencl osed
Ġmod ule
Ġtw ins
ĠCanber ra
Ġal lev
Ġopt ical
g irl
inn ers
ist on
l antic
ĠC rist
ĠN ut
ĠSher iff
Ġaw a
Ġcollect or
Ġdischar ge
Ġg room
Ġhes it
Ġorb ital
Ġt et
-th irds
an za
ch ron
ĠAst ron
ĠNe igh
ĠPalest inian
ĠVenez uel
ĠW ould
Ġab n
Ġwell ness
Ġworksh op
Ġ... .
ĠDest iny
ĠMig uel
ĠSh are
ĠSing er
Ġe ch
Ġfin ances
Ġfin s
Ġlun ar
Ġthunderstorm s
Ġtw isted
c al
ch ard
im son
iv ation
ro le
ump ed
ĠAd ult
ĠEff ects
ĠF ringe
ĠSer geant
Ġannoun cing
Ġconcent rations
Ġmaster piece
Ġnot orious
Ġsc rew
G O
d ish
oven ant
ĠCra zy
ĠD over
ĠJ ak
ĠMcC l
ĠS AS
ĠTor res
Ġancest or
Ġaqu atic
Ġexpect ing
Ġfresh water
Ġpat ches
Ġportray ing
Ġpreval ent
Ġrecy cled
H T
ww w
ĠInd eed
ĠP ret
ĠPear son
ĠS MS
Ġdecl are
Ġdisc oura
Ġfrig ates
Ġhaz ard
Ġinform al
Ġnutrit ional
Ġpyram id
Ġrel iability
Ġrob ots
Ġsl ice
oe uv
ur ai
ĠLem on
ĠNept une
ĠV ed
Ġdisplay ing
Ġdistrib ute
Ġhalf way
Ġind ication
Ġjump s
Ġobst acle
Ġval leys
Ġfav ourable
Ġmin istry
A re
R O
az y
he tt
Ñ ĭ
ĠBrad ford
ĠC A
ĠH ank
Ġl ith
Ġv ector
get s
s ay
ĠCanad iens
ĠSt eph
Ġbox ing
Ġdin osaur
Ġmotif s
Ġpip eline
Ġrep roduction
Ġsod ium
Ġvulner ability
-d ep
á»ĩ m
ĠF alk
ĠMon itor
ĠV augh
Ġdec oration
Ġenlar ged
Ġroll s
Ġtur key
ĠN ME
ĠS my
Ġcom eb
Ġden y
Ġdisc ipl
Ġenh ancing
-th ird
B ar
Wh o
eg u
f oot
ific ent
k rit
ol it
olith ic
ĠB L
ĠIraq i
ĠShe n
Ġappe als
Ġex acerb
Ġh atch
Ġsqu ee
Ġz inc
less ness
og ram
omb at
ĠC H
ĠDan ube
ĠSh op
Ġdisp osal
iec es
ĠEnc ourage
ĠN ig
ĠSav age
ĠSupp orting
Ġa unt
Ġmap le
Ġmater nal
Ġqual ification
bu ilding
c os
v als
ĠDam asc
ĠEld er
ĠL ans
Ġenerget ic
Ġspir al
Ġst ems
Ġwork force
- led
M ania
eg ree
ĠB M
ĠCoal ition
ĠKn ox
ĠL un
ĠNew ark
ĠR ama
ĠSE O
Ġdis abilities
Ġl as
Ġl av
Ġst airs
Ġsub mission
Ġw ise
is ely
k ar
ogen ic
ĠCl ick
ĠWeb ber
ĠY u
Ġc u
Ġcam oufl
Ġf oul
Ġneg lect
op old
pl ain
un ks
ĠB j
ĠCap com
ĠJ et
ĠN u
ĠV ent
Ġed it
Ġfre estyle
Ġspokes man
Ġwith stand
bre aking
ount s
ĠD ob
ĠHun ting
ĠK ind
ĠX III
Ġcollabor ations
Ġcollabor ative
Ġde leted
Ġhas ht
Ġref using
Ġreun ion
Ġsh ale
Ġsummon ed
Ġtest ified
4 4
by ter
conn ected
à º
ĠG em
ĠVol ume
Ġground ed
Ġox ide
Ġun related
oh l
ĠAR IA
ĠAl onso
ĠD um
ĠGu est
Ġcatch y
Ġenzy me
Ġmeasure ment
Ġrejo ined
ou k
urren cy
ĠG ret
ĠGu err
ĠI ss
ĠL ich
ĠQu ick
ĠV on
Ġaest het
Ġind ie
Ġrec apt
Ġshowc asing
Ġsus cept
Ġthr ive
Ġwas hing
- 80
ambo o
k ill
lyn n
ĠCl ose
ĠMil ton
ĠTh ir
ĠWinc hester
Ġboil er
Ġcheck ed
Ġcompat ible
Ġcontrad ict
Ġinst inct
Ġk in
Ġtelev ised
S C
ec a
ut ical
ĠBeh ind
ĠHaw k
Ġacqu iring
Ġcat ast
Ġcomed ian
Ġdeb ates
Ġgr illed
Ġh ack
Ġign ore
Ġpione er
Ġrelig ions
Ġsand stone
Ġwild erness
L ist
M r
ĠEp isode
ĠGrand e
ĠJ ets
ĠP ike
ĠTe en
Ġlo vers
Am ong
alf ord
cl ub
d ata
hib ition
ĠComm odore
ĠD aisy
ĠKnow les
Ġpack s
Ġperiod ic
Ġprosp ects
Ġun in
- ass
7 2
N ame
ang o
cl air
in as
isher s
or se
sk irts
ĠB und
ĠW oll
ĠWin ston
Ġb ored
Ġco b
Ġfarm land
Ġinform s
Ġnest ing
Ġp ets
Ġrepet itive
Ġsomet ime
Ġsp elling
Ġurg ing
contin ental
g iate
oint ed
ram ent
ĠA way
Ġaffili ated
Ġautom ated
Ġencoura gement
Ġf als
Ġhe d
Ġvit amin
am ents
ĠCl are
ĠDet ective
ĠF ast
ĠF ul
ĠHem ing
ĠL ak
ĠL ooking
Ġb anner
Ġcamp ing
Ġcontin uation
Ġl ac
Ġpred ator
Ġshowc ases
Ġspec ially
R ad
á ¹
ĠLe ip
Ġcontrib utes
Ġge ographic
Ġmetall ic
Ġpal m
Ġrehabil itation
Ġw ives
-b oat
th ms
ĠAmeric as
ĠCon v
ĠEx change
ĠF M
ĠTh ink
Ġcomp ose
Ġconf isc
Ġde ity
Ġg ills
Ġinter im
ĠBuck ingham
ĠC lement
ĠInter active
Ġbuild s
Ġcred ibility
Ġequ ality
Ġgener ous
Ġtorn adoes
-st ore
i u
occup ied
ĠB reat
ĠChap ter
ĠH im
ĠM echan
ĠPar ad
Ġdepth s
Ġmort ar
Ġphenomen a
Ġplat oon
Ġtest ament
Ġtob acco
bre v
ĠFl ash
ĠFore ver
ĠGre ene
ĠH ear
ĠStud y
Ġh oly
Ġv intage
-t ailed
H ello
W R
inc er
or um
ul ed
Ġ Ì
ĠCong o
ĠH T
ĠPrincip al
ĠStart ing
ĠU ran
Ġcost ly
Ġcrimin als
Ġmos que
Ġout skirts
Ġph ones
Ġrep roductive
Ġsen ator
C redits
Th omas
ĠAfter wards
ĠC B
ĠC arson
ĠPri est
Ġconv oys
Ġnomine e
C onn
ag ara
at che
l ot
w alk
ĠMiddles ex
Ġacknow ledge
Ġcons erv
Ġcreat ors
Ġdiscount s
Ġgra vel
Ġprogress es
Ġradio active
Ġsmooth ie
Ġun ified
Ġw ag
" The
anth rop
ĠBah rain
ĠDr um
ĠH us
Ġappoint ments
Ġbar rel
Ġcent imetres
Ġfaith ful
Ġle v
Ġm ast
Ġpat ience
Ġph ylogen
Ġsubsc rib
-f ound
A merican
M ary
o vers
ven ge
ĠArchitect ure
ĠBuddh ism
ĠCase y
ĠComp et
ĠInit ial
ĠJack ie
ĠKe ys
ĠMar qu
ĠStr ateg
Ġemb ry
Ġglob ally
Ġsl ope
ent in
red ient
ĠTon ight
Ġdim ension
Ġsc orer
Ġshe er
Ġsimpl icity
Ġt att
Ġtra vers
-A meric
-m inded
i ative
ig ma
ĠGal axy
ĠGlou cester
ĠM ant
ĠMcM ahon
Ġage nda
Ġshif ting
st a
u ana
ĠPlan ning
Ġh ailed
- ac
-s olving
intend ent
ody nam
à ¯
ĠDamasc us
ĠL ux
ĠP resent
Ġc ort
Ġhel ium
Ġinv alid
Ġsol itary
Ġste als
Ġsy ll
ast ics
h ous
ip se
j ord
ĠSans krit
ĠStaff ord
Ġdemol ition
Ġg em
Ġl or
Ġsimpl er
Ġstat ute
-A d
omin ated
ĠAg ent
ĠV eter
Ġc uc
Ġnon etheless
Ġon set
Ġpl ots
Ġprop eller
Ġshar ply
Ġv iable
-on ly
a ic
ang ing
aster ed
ip le
sp ect
ĠC ul
ĠR B
ĠS EC
Ġc ass
Ġcongress ional
Ġfl ame
Ġn ood
Ġportfol io
Ġpresum ably
Ġsp oon
Ġsuperv ision
en stein
id th
or ers
ĠA ircraft
ĠH od
Ġdimin ished
Ġgrad ual
Ġlaud ed
Ġst ew
Ġtremend ous
ad en
ast ically
l ord
vent ional
writ ers
ĠAl most
Ġconsult ing
Ġv oid
-1 1
Back ground
est ing
ick er
iv ier
ran ged
vious ly
ĠEy es
ĠHar bour
ĠPer fect
Ġkne es
Ġl ens
-19 6
p rof
ple ment
rit z
us able
ĠCris is
ĠV ince
Ġbe friend
Ġfl att
Ġmargin al
Ġp ile
Ġperf ection
Ch rist
D onald
amp h
ann i
e a
th ouse
us a
us er
z on
ĠDar ren
ĠNe ither
ĠTra fford
ĠY ank
Ġcomeb ack
Ġcons oles
Ġel ong
Ġg rip
Ġident ifies
Ġprot esters
( $
ĠLeban on
ĠMinne apolis
ĠSh aron
Ġassoci ates
Ġdial ect
Ġfun k
Ġre pt
Ġwe aker
-mill imeter
I M
ew ays
ion ed
ip ed
ĠOpp en
Ġany way
Ġbu g
Ġcris p
Ġpatron age
Ġqu ar
. j
19 7
6 00
b en
ino a
iz ards
le ments
ĠL ocated
ĠRich ards
Ġco ached
Ġdeb ts
Ġel imination
Ġh int
Ġhold er
Ġlight weight
Ġp add
) ;
-sp ecific
: 00
W here
ac ies
il er
in ers
och ond
ĠC ensus
ĠFre eway
ĠM is
ĠR ip
ĠRem ix
Ġdemonst rations
Ġmanip ulate
Ġmon key
Ġret al
Ġweigh ing
H en
ip es
l ining
l oo
ĠMy ster
ĠOak land
Ġancest ry
Ġant agonist
Ġsp ells
Ġspons ors
-def ined
ab we
au kee
ĠBy rd
ĠChick en
Ġauton omy
Ġbroad ly
Ġmed ic
Ġsubsc ription
b oys
ered ith
ĠC F
ĠLo ch
Ġaccess ed
Ġdi abetes
Ġintention ally
Ġnost alg
Ġobject ed
o ise
ĠAgricult ure
ĠM iy
ĠP itch
ĠS z
ĠV iking
Ġad verse
Ġdef ault
Ġec ological
Ġinsp ection
Ġp s
Ġpro se
Ġqu ot
Ġrout ines
Ġsc enery
Ġw age
-l ooking
ass ment
d al
g ency
ĠMar cel
ĠNor wich
ĠO C
ĠV R
Ġc aves
Ġdev ised
Ġend uring
Ġhe ter
Ġoil s
Ġr ides
Ġrender ing
Ġupgr ades
op ot
sequ ent
ĠAn imal
ĠR ank
Ġamount ed
Ġcas em
Ġent ities
Ġhar ness
Ġmed ley
Ġmini ature
Ġor phan
Ġoverl ap
Ġsort ed
Ġsuperst ructure
Ġuniform s
enh agen
zz le
ĠAnim ation
ĠLouis ville
ĠTh orn
ĠTrans it
Ġdem ons
Ġerupt ed
Ġgr ill
Ġrend ition
Ġsp erm
Ġst al
G A
imb abwe
om o
op oly
orth y
ĠFro st
ĠK un
ĠS iege
Ġcomp osing
Ġm aze
Ġp ays
Ġpot assium
Ġpr one
Ġsocial ist
- app
. 50
att ing
n ant
ĠCo ch
Ġan ten
Ġcont amin
Ġculmin ated
Ġd airy
Ġdocument ation
Ġgl am
Ġjoint ly
Ġp ac
Ġrep ris
Ġrev ision
g roup
y t
ĠAr cher
ĠF olk
ĠV ij
Ġconfer ences
Ġdism ant
Ġop ener
Ġrenov ation
c ity
ek ing
pris es
ĠAbd ul
ĠHa iti
ĠL or
ĠN olan
ĠS low
ĠSh ane
Ġanaly sts
Ġche aper
Ġcounter part
Ġhol idays
Ġwond ered
-d ate
N G
ace y
b red
umber ing
ĠG ospel
ĠSpe aker
ĠW ade
ĠY ale
Ġauton omous
Ġcommemor ate
Ġent ailed
Ġexhib itions
Ġo ath
Ġs ights
Ġuncom mon
-for ce
al ie
ess ional
g ust
ĠCub s
ĠH ack
ĠH undred
ĠRe in
Ġcher ry
Ġconfron ts
Ġparam eters
Ġtr aces
-p urpose
n as
ĠAs k
ĠRe form
ĠRub y
Ġdeb ated
Ġst ocks
Ġsulf ur
[ i
i ago
id ium
ĠN ep
Ġbreat he
Ġchar itable
Ġmin ers
Ġsk irm
b ies
est ial
ĠAr d
ĠB ren
ĠBel arus
ĠE rie
ĠGu am
ĠH utton
Ġgre ens
Ġh ood
P aul
ens ity
pl ot
ĠBes ides
ĠG Ã¶
Ġri f
Ġstraight forward
Ġt iger
iet al
man ship
Ã± a
Ġemp ower
Ġred dish
Ġtransp arent
it us
n als
ress ure
ĠBris bane
ĠEst ablish
Ġf ran
Ġtou ches
f unction
he art
l ong
ok a
ren ches
ĠB end
ĠK ol
Ġbl ade
Ġc ried
Ġc roc
Ġhung ry
ĠiP ad
Ġmor ality
-7 0
Us ing
g un
i ological
man uel
ĠBar ack
ĠDo es
ĠP ain
ĠP rec
ĠSe v
Ġaccess ibility
Ġbats men
Ġburn t
Ġt ides
Trans late
res cent
Ã³ w
ĠAv on
ĠCh am
ĠM its
Ġadjust ed
Ġm asks
Ġmer ge
Ġpost ers
Ġr ats
qu are
ut ors
ĠDi á»ĩm
ĠPant hers
ĠR ise
ĠWy att
Ġb acon
Ġexped itions
Ġge ography
Ġm um
Ġshel f
- Q
T oday
rict ion
Ð ´
ĠG ould
ĠP our
Ġhun ter
Ġlast s
Ġp ard
Ġz omb
) :Ċ
) ;ĊĊ
= 8
ah u
id able
op ter
ĠEle anor
ĠLeg al
Ġam en
Ġconced ed
Ġdur able
Ġing redient
Ġobvious ly
Ġsubst ances
al ogue
other mal
ov ny
p ack
ph is
ĠBr ing
ĠCom plex
ĠN im
ĠPer haps
ĠSouth west
Ġbr ace
Ġcl ips
Ġelimin ating
Ġm ills
Ġman ned
-b est
ester day
or ate
ĠP or
ĠShak ira
Ġfun gi
Ġgu err
Ġlog istics
Ġparallel s
Ġr idges
Ġrail ways
Ġsket ches
acc ur
al so
roph ic
st age
ĠStew ie
ĠTest ament
Ġadvis ory
Ġcul inary
Ġinv iting
Ġpres umed
Ġswe ep
Ġt iles
P D
als a
ro ved
umb ent
ĠCr ash
ĠR ut
Ġexp end
Ġl ords
Ġlong time
Ġspr int
-com merce
S entence
u ces
ĠAl c
ĠArt ists
ĠBi ography
ĠPro cess
ĠRepresent ative
Ġdepict ions
Ġgovern ance
Ġgr asp
Ġine quality
Ġow l
Ġwrest ler
-e ight
-st ate
qu el
r ill
st ep
ul in
w aukee
ĠCar roll
ĠChief s
ĠCom pton
ĠH og
ĠMethod ist
Ġenv ision
Ġrecall s
Ġs acked
Ġtr act
Ġver dict
am o
ĠM Ã©
ĠP od
ĠR utherford
ĠW itch
Ġloc ks
=$ <<
F orm
L a
che v
d ar
ĠLaf ayette
ĠP omp
ĠT act
Ġbra very
Ġm ating
Ġoptim ization
Ġpain ful
Ġposthum ously
Ġu pt
Ġvoc abulary
/ s
ish a
ro kes
ĠAzer bai
ĠC ret
ĠD ew
ĠDuch ovny
ĠSt ay
Ġemb assy
Ġsurre al
olly wood
urn ing
vers ion
ĠDe al
ĠK iel
ĠN avig
ĠS tern
ĠW emb
ĠWrestle Mania
Ġdel ivers
Ġdistract ions
Ġg aps
Ġm ol
Ġquiet ly
Ġspecific ations
" We
Ã Ł
Ñ Į
ĠGeorg ian
ĠP ale
Ġaug mented
Ġoverl ooking
Ġprevent ion
Ġsome how
4 2
ace utical
g ain
g ame
ow l
ĠBel grade
ĠUn fortunately
Ġang el
Ġb og
Ġdev otion
Ġfascin ated
Ġgest ure
Ġindivid ually
Ġins ult
Ġsh ades
ig ure
lar ation
udd ing
ĠJour ney
Ġemploy er
Ġinstall ations
Ġvac ant
An na
ile m
m ist
ĠCorn er
ĠG wen
ĠLex ington
ĠT ouch
Ġey ew
Ġf et
Ġprop ulsion
Ġr ud
Ġrespond ing
Ġschedul ing
Ġwh isk
H D
e ut
iv orous
ĠLiter ary
ĠM iz
ĠOr igins
ĠSud an
ĠWhe eler
ĠZ elda
Ġde ities
Ġkingdom s
Ġplum age
Ġscr ut
Ġwhere by
yl on
ĠHispan ic
Ġschedul es
Ġst ained
Rober t
am iliar
aren cy
child ren
gg ing
if a
w elling
yl ie
Ã¡ s
ĠB ess
ĠF ry
ĠMcL aren
ĠOtt omans
Ġarran ge
Ġembed ded
Ġinterf ere
Ġunl ock
* .
/ 100
= 10
chang ed
g age
ie v
if ully
Ġ q
ĠAndrew s
ĠB B
ĠD ow
ĠLet ter
ĠM eredith
ĠS ul
Ġpeak s
Ġref ined
Ġt ones
acher s
am orph
ĠAlb ion
ĠG ael
ĠT i
Ġcompet itor
Ġf aint
Ġkid ney
Ġmountain ous
Ġpic nic
Ġpl ed
Ġprob ability
Ġsl am
Ġst ab
Ġturb ine
Ġware house
Ø ª
ĠCinem a
ĠDA Y
ĠE instein
ĠHam pton
ĠHast ings
ĠM atch
ĠS ask
Ġdissip ating
Ġnurs ing
Ġpl asma
Ġprogram mes
Ġsp inning
Ġst amp
-re lease
it he
st ated
Ġ4 80
ĠBe a
ĠCh a
Ġdisappoint ing
Ġdiss ent
Ġenvironment ally
Ġpar an
Ġpot tery
Ġsh ook
Ġsun set
Ġvill agers
led on
ĠAd vis
ĠKap oor
ĠN ike
Ġagg ression
Ġbroadcast s
Ġcinem atic
Ġconqu er
Ġmelod ic
h al
p en
ĠAr ist
ĠBened ict
ĠHeming way
ĠK ur
Ġcor rel
Ġins urg
Ġp orn
Ġspin ach
Ġstir ring
Ġtem plate
ĠBeaut y
ĠWes ley
ĠZ imbabwe
Ġbu ys
m l
os l
rag ue
u ber
Ġf eder
Ġl umin
Ġlo osely
Ġpack ages
Ġsm ugg
Ġunp redict
Ġvend ors
int eg
ot ional
ĠCop enhagen
ĠGuatem ala
Ġapp ar
Ġb aked
Ġl amp
Ġpars ley
Ġpol es
Ġtermin ated
ann ah
ar ck
d ec
ij uana
ĠA ch
ĠHe ights
Ġcharacter ised
Ġcoordin ated
Ġfeed s
Ġlist ings
Ġo ri
Ġreal izing
S m
ob il
pl ess
ra vel
ĠAd olf
ĠClass ical
ĠCour se
ĠF ork
ĠNot re
ĠS eth
Ġadjust ments
Ġexam ining
Ġrespons ive
Ġstret ches
Ġun official
- over
IN G
K e
ew ater
y ards
ĠO S
Ġspons or
Ġstra ined
Ï Ħ
ĠB ard
ĠM A
ĠO sw
Ġab brev
Ġanch ored
Ġcomp ares
Ġdifferent iate
Ġelect rom
Ġsun ny
Ġwater fall
+ +
5 5
F R
cl ass
ĠAngl ican
ĠYank ovic
Ġal tar
Ġhum our
Ġman oeuv
Ġremn ant
Ġsing ular
Ġt ens
Ġtransp orts
ac ious
im ated
ĠC edar
ĠCar penter
ĠD ol
ĠFull er
ĠGl ac
ĠProg ress
ĠWar rior
Ġalph abet
Ġdisappear ance
Ġg um
Ġpos es
Ġsol ving
Ġsome body
hor us
n ar
ĠGl ad
ĠH ipp
ĠInd igenous
Ġjournal ism
Ġresemb lance
Ġru in
Ġset backs
-se ven
Comp any
T P
ens en
it ia
ĠAthlet ics
ĠB ella
ĠDor othy
ĠHor ror
ĠK amp
ĠWor cester
Ġas ylum
f ork
ĠAndre a
ĠBar ber
ĠOr k
Ġcontrib utor
Ġconver ting
Ġgl uc
Ġh ij
Ġneut ron
Ġre lying
ãĥ ³
ĠCh ambers
ĠCont ent
ĠD im
ĠD iss
ĠS ah
ĠSol id
ĠT ud
ĠVer de
ĠWy oming
Ġcomp uls
Ġdes ires
Ġen erg
Ġfor k
Ġne uro
Ġswe at
ĠH its
ĠWrit ten
Ġb ail
Ġcourty ard
Ġdecre asing
Ġhect ares
apan ese
iz arre
ĠKr ishna
ĠLyn n
ĠV iol
Ġdownload s
Ġexc luding
Ġmon soon
- pr
M od
W orld
act ory
se e
ĠVlad imir
Ġass uming
Ġdetail ing
Ġinflu encer
Ġpl aque
Ġst alk
Ġstri ker
. )
ĠLeip zig
ĠP oor
ĠSin atra
ĠWe ber
Ġbrand ing
Ġconstruct ing
Ġsac rific
ect ors
ev o
Ã± o
ĠAtt ack
ĠE MI
ĠLi u
ĠPers ians
ĠR ide
ĠTel ugu
Ġcell ular
Ġdomin ate
Ġrecre ation
Ġsat ire
Ġsett ling
Ġspl its
Ġvac uum
othe rapy
rit ion
ĠAl ien
ĠOut side
ĠR hy
ĠRhodes ian
Ġh iatus
Ġlif esp
Ġun beat
-met re
6 4
E P
cl amation
uff ed
Ġ ions
ĠD und
ĠLe y
ĠQu int
Ġexpl oded
Ġr ay
Ġrec k
Ġshoot er
C al
am oto
et ically
ĠBer gen
ĠDec laration
ĠFel ix
ĠL on
ĠPl ains
ĠR aven
ĠSe ym
Ġbankrupt cy
Ġshort ages
Ġsoph om
Ġsyn th
Ġunder way
-h ighest
f ax
iov ascular
ook ie
qu i
ĠVict ory
ĠW ess
Ġarch bishop
Ġr aced
Ġref use
Ġtra ps
-f iction
an us
ar f
arn ation
d is
ins ki
ĠA val
ĠCon rad
ĠN in
ĠSocial ist
Ġch ased
Ġdom est
Ġind ul
Ġobject ions
Ġreact ed
GB T
ar io
hem atic
st ick
ul ance
v ara
ĠCN N
ĠChrist ina
ĠCommer ce
ĠK re
ĠThom son
Ġcons ort
Ġcur iosity
Ġhy ph
Ġl uc
Ġresemb ling
g one
ra ged
z an
ĠSeym our
ĠT at
ĠTw in
Ġoccup ying
Ġt renches
Ġtoile t
* 4
K O
S ee
ast rous
bo ats
ener ated
re ach
É ª
ĠAm azing
ĠF ight
ĠLiter ature
ĠM ell
Ġadm it
Ġev oke
Ġge ological
Ġhero ic
Ġlever age
Ġreop ened
' .
ĠG olf
ĠN ote
ĠNorth umb
ĠV iv
Ġaff irm
Ġcomm ittees
Ġcount ing
Ġcryst all
Ġmarket ed
Ġoutl ook
Ġpin ned
Ġspan ning
Ġsubscrib ers
Ġun ions
- effective
-b o
d r
ty m
Ġcontrast ing
Ġecc lesi
Ġins criptions
Ġla wn
Ġpersever ance
Ġrecru its
D et
are a
er ry
ĠGeor get
ĠMans field
ĠPar ish
Ġadm iration
Ġcook ie
Ġhier archy
Ġpron unciation
ĠSy rac
ĠY ah
Ġacad emy
Ġar th
Ġbel ly
Ġexp ired
Ġoutl ined
Ġs urn
Ġsuper visor
en ic
ost ic
th y
ĠCec il
ĠR ox
ĠS M
Ġauthentic ity
Ġcon ning
Ġdesp air
Ġship yard
ograph ies
ters on
ĠM olly
ĠRos a
ĠSpec ies
Ġlegend s
Ġlif elong
Ġsh ame
ep ers
ru e
ĠChem ical
ĠCommun ication
ĠD ot
ĠK rak
ĠLe opold
Ġliter acy
Ġunexpected ly
le igh
ors et
ĠBenn y
ĠDream s
ĠEconom y
ĠRes ources
ĠTe xt
ĠVerm ont
Ġdis qual
Ġforg iveness
Ġforg ot
Ġg rams
Ġmarch ing
Ġmodel ing
Ġst oring
app le
ount y
Ġ( "
ĠC airo
ĠDaw son
ĠOppen heimer
ĠTh orpe
Ġass et
Ġcar riage
Ġch airs
Ġcros sover
Ġgrad uates
Ġreform ed
enz ie
ĠAnim als
ĠObserv atory
Ġcertific ate
Ġec ology
Ġembr aced
Ġemphas izing
Ġfin ishes
Ġgross ing
Ġoun ces
Ġover ly
Ġv est
ard i
clus ive
iv or
ĠEmer gency
ĠG M
ĠK or
ĠT omb
Ġback wards
Ġclin ic
T ask
k ov
l t
rick en
Ġconstitu ency
Ġdepos ited
Ġpair ing
Ġplant ing
Ġsymp ath
ind y
ris k
ron gh
umb ling
ĠBelie ve
ĠG ore
ĠMem phis
Ġamb ition
Ġfrag ment
Ġgran ite
Ġmon itors
Ġp est
Ġsc ram
Ġunder going
oc ative
th ia
ux e
ĠM oor
ĠW ey
ĠWemb ley
Ġb a
Ġmed ications
Ġmemoir s
Ġtall est
. org
` ,
b ral
ĠMil waukee
ĠPres byter
Ġal pha
Ġinherit ance
Ġinv ite
Ġp uls
Ġren ted
Ġri ots
Ġtemper ate
- ey
art et
ush i
ĠBe atty
ĠDog gett
ĠRe bec
ĠRu pert
Ġbenef ited
Ġf ol
Ġo mn
S l
Th us
id as
if iers
imb ledon
ri ft
sc reen
thes is
ĠB ronze
ĠG entle
Ġchore ography
Ġdep ressed
Ġeight eenth
Ġexceed ing
Ġfire f
Ġhun ters
Ġnow here
Ġph on
Ġprec isely
Ġprocess or
Ġrefer enced
Ġsim mer
ĠAir ways
ĠD ust
ĠM az
ĠMaur it
ĠPe ak
Ġattack ers
Ġch ords
Ġconsolid ated
Ġdis astrous
Ġfron tal
Ġjust ify
Ġoverl ooked
Ġremix es
Ġs oda
Ġst ole
Ġwar mer
gr at
ut able
ĠG ear
ĠHistor ian
ĠM GM
ĠV ishn
ĠWell es
Ġadvis or
Ġc ivic
Ġch asing
Ġcons ec
Ġdispers ed
Ġsatisf y
R ich
c ill
el ius
ip eg
ur ious
ys on
ĠCor on
ĠHoff man
ĠNic ole
Ġair ports
Ġcultiv ated
Ġm ars
Ġmis under
Ġmod ification
Ġneckl ace
Ġp ear
Ġpop ul
Ġrhy thms
-s chool
ay e
field s
Ġcorpor ations
Ġglac iers
Ġtherap ist
5 6
il ib
ĠAC C
ĠAnt illes
ĠB rain
ĠI g
Ġam azed
Ġb atch
Ġcand les
Ġe ats
Ġinc ap
Ġsurv ives
b ling
en za
ĠH ort
ĠHy de
ĠItal ians
Ġcy t
Ġeru ptions
Ġexperiment ing
Ġiss uing
Ġliber ty
Ġmax imize
Ġpian ist
Ġpump kin
D ay
f amily
iz a
k ers
ĠBritt any
ĠDe xter
Ġch ip
Ġgra ins
Ġnob les
Ġp agan
Ġpun ish
Ġs orts
am ins
ig raph
ĠCard inal
ĠP P
Ġaux iliary
Ġchart ing
Ġinterpret ations
Ġo ceans
Ġsouth ward
Ġst ack
' :
ater nal
b eck
ĠAra bs
ĠAub urn
ĠDian e
ĠK Ã¶n
ĠMar co
Ġamphib ious
Ġdemonst rating
Ġh ast
Ġle ts
Ġlif ting
Ġr all
Ġvacc ine
-cont rol
econ omic
en o
ra pping
ram atic
u ity
ĠBl anc
ĠFact ory
ĠShack leton
ĠSix th
Ġball ads
Ġdet ention
Ġh ttps
Ġlad ies
Ġtrain er
- era
N S
az i
t aking
t ures
ĠBar oque
ĠEx c
ĠSyrac use
Ġbas ically
Ġdisc arded
Ġm elt
Ġmand atory
Ġnut rient
Ġsad ness
Ġtreat s
+ 2
port ed
pow der
sc he
ĠBart on
ĠBu zz
ĠE ly
ĠHok ies
ĠP hel
ĠS K
ĠSch olars
Ġend urance
Ġgun fire
Ġintu itive
Ġmus c
Ġque ue
Ġrac ism
ort heast
ĠJul ius
Ġa ids
Ġcur ry
Ġpsyched elic
Ġsear ches
zeg ovina
ĠB il
ĠL if
Ġdiffer ed
Ġfl aws
Ġopp ose
Ġreact or
Ġsp or
Ġsp un
Ġtrad ers
Ġun av
arl ane
bor g
es ity
imet ime
ir ming
ok u
ond heim
re amed
um atic
Ġ37 5
ĠD ixon
ĠF ey
ĠT aj
ĠTun is
ĠW atts
Ġbo iling
Ġbr ack
Ġcontinu ity
Ġem blem
Ġinter vals
Ġl ions
-se at
an ol
Î µ
ĠFer ry
Ġadvoc ates
Ġaim ing
Ġar ches
Ġbuy ers
Ġcoordin ate
Ġdown stream
Ġmon etary
Ġnot ifications
AR T
imin al
ĠD I
ĠO ptions
ĠTw ilight
ĠWeb b
Ġam end
Ġin accur
Ġmind ful
Ġsoul s
Ġtw ists
-w ord
ec uted
il iation
ra red
st en
ys ical
ĠHard ing
ĠL C
ĠSh arp
Ġcol oured
Ġdis ag
Ġextract ed
Ġt ires
Ġtax i
Ġtu ber
agre b
ape ake
b its
e als
lin ary
re hend
st ones
ĠFin ance
ĠId aho
ĠMet roid
ĠSalv ador
ĠSt yles
ĠW imbledon
Ġcampaign ed
Ġic ons
Ġplay ful
Ġprob able
iv ating
om ical
ro vers
ĠByzant ines
ĠRebec ca
ĠVen et
ĠVern on
ĠWork ers
Ġair lines
Ġbombard ed
Ġclean er
Ġfulf illing
Ġinev itable
Ġsa fer
ãģ ®
ĠC yn
ĠEr in
ĠLo op
ĠMonth ly
ĠTar get
Ġdecre ases
Ġforb idden
Ġsle nder
ĠâĻ Ń
aw ak
b at
ilant ro
ne o
ov al
rop ods
ĠAn s
ĠB Ã©
ĠDe e
ĠEm b
ĠGael ic
ĠNot tingham
Ġb iod
Ġcirc ulated
Ġcon grat
Ġconfirm ation
Ġf uck
Ġfolk lore
Ġg onna
Ġoptim istic
Ġple asant
Ġrepl ica
( s
- ind
-2 8
-s ize
le en
ropri ate
Ġ4 60
ĠB rom
ĠEst ate
ĠR ican
ĠT ul
Ġab bey
Ġconstit uted
Ġgra ves
Ġp amph
Ġp unt
Ġske ptical
Ġt rop
- imp
f ielder
l ation
ĠShe ar
ĠZ agreb
Ġexcell ence
Ġpap al
Ġpers ecution
Ġt in
H aving
ĠBatt les
ĠCol bert
ĠE ston
ĠGod d
ĠIn stitution
ĠS aff
ĠS ang
Ġanim ations
Ġat om
Ġcoron ation
Ġemb ark
Ġens ued
Ġentire ty
Ġfold ed
Ġoff set
Ġro s
Ġst rongh
Ġsweet ness
-e fficient
A v
any a
com p
g ren
ĠFil ip
ĠFran Ã§
ĠL ines
ĠV ocal
ĠWeb ster
Ġdownload able
Ġend emic
Ġle ased
Ġrest oring
Ġsl ipped
Ġst ellar
Ġviol ated
UC N
ins ky
ĠA V
ĠF ow
ĠM aking
ĠShep herd
Ġorgan ism
Ġprior ities
Ġresid ences
Ġspec ify
Ġst ranger
19 6
ger ald
oc hem
ra ul
ĠLad ies
ĠPh antom
Ġearthqu akes
Ġeast bound
Ġign or
Ġin effective
Ġins cribed
Ġn ic
Ġprompt s
Ġra ises
Ġrel ies
Ġsurge on
Ġto fu
Ġtot als
A ss
e ason
ed o
low n
ur k
ĠN est
ĠPr imetime
ĠSle ep
Ġconting ent
Ġd od
Ġdes erted
Ġgovern ors
Ġprev ents
Ġsl aughter
Ġsp ore
- exp
. s
ag ements
g ment
in ished
om al
ĠB ag
ĠGood man
ĠR BI
ĠSh annon
Ġdivid ing
Ġfle eing
Ġh ards
Ġindirect ly
Ġmotiv ations
Ġreward ing
Ġt am
Ġwest bound
R NA
Ġ30 5
ĠH app
ĠMic key
ĠPre heat
ĠS ave
ĠSin clair
Ġdismiss al
Ġne ur
Ġpredict ions
Ġsh rine
-p aced
b ath
c hel
ific ant
k an
onel iness
ĠA ston
ĠMan a
ĠSt oke
Ġdefend ant
Ġdeliber ate
Ġimpl ied
Ġkidn apped
Ġl ing
Ġport able
Ġtrans cend
Re view
ab is
l oe
lim ited
r il
ĠPerson a
ĠTasman ia
ĠTh irty
Ġbesie ged
Ġdest ructive
Ġenthusi asts
Ġl ively
Ġpol ished
Ġsacrif ices
Ġsu ck
Ġthe ology
Ġtom orrow
-est eem
aj i
am en
st eps
w ill
ĠK ab
ĠS F
Ġexplos ives
Ġmission aries
Ġmodel ed
Ġsol ved
ist ani
t w
ys c
ĠGl ory
ĠHe p
ĠI UCN
ĠK rust
ĠSant iago
Ġe man
Ġimm inent
Ġnovel ist
C H
Eng lish
S econd
c ard
ism atic
val ue
ĠAss ess
ĠB io
ĠCart e
ĠPil ot
ĠZ ach
Ġalumin um
Ġc ute
Ġemploy s
Ġinfl ict
Ġp its
Ġstrip es
-song writer
m issions
ter ing
ut z
ĠL ob
ĠSh ould
Ġbl ades
Ġder ives
Ġhun ted
Ġillust ration
Ġrep r
Ġrevel ation
Ġrig id
Ġsav ory
Ġsyn thetic
Ġtast es
- ton
hard t
l ength
ĠB ret
ĠH ew
ĠM old
ĠO z
ĠProv idence
Ġarch ipelago
Ġastron omy
Ġch ol
Ġcoinc ided
Ġcritic isms
Ġfat igue
Ġge ometric
Ġide ology
Ġinc umbent
Ġmag ist
Ġmicro phone
chang es
g as
Ġ( $
ĠC auc
ĠKen ya
ĠL ip
ĠLegisl ative
ĠWinn ipeg
Ġabsor ption
Ġaltern ating
Ġastronom ers
Ġco ined
Ġcyl inder
Ġdolph ins
Ġexp orts
Ġg ale
Ġprotest ed
Ġqual ifications
Ġrout ed
( );Ċ
Out put
ag her
l ob
quarter ed
ran ces
ĠAltern ative
ĠBr ady
ĠBry ant
ĠMar ian
ĠMerc y
Ġb or
Ġbapt ism
Ġdra ined
Ġexplo it
Ġl amb
Ġmotorcy cle
Ġrecogn izes
Ġsqu ash
-7 5
ge on
iv o
le an
Ñģ ÑĤ
ĠAl low
ĠAnd rÃ©
ĠOld ham
ĠRel igion
ĠSl am
Ġcroc od
Ġesc aping
Ġfix ture
Ġgall eries
Ġimm ort
Ġsand w
-F i
are l
g ly
urt les
ĠAber de
ĠAl ways
ĠB rett
ĠMar ion
ĠSt ark
Ġb red
Ġcl oves
Ġdescend ing
Ġlog s
t ight
ĠB ates
ĠBomb ay
ĠDub ai
ĠExpress way
ĠMot ors
ĠNob le
ĠOrk ney
ĠR ole
ĠS ylv
ĠTh ing
Ġcan s
Ġpeas ants
Ġprof ic
Ġtransl ations
D ear
e er
hr er
ident ified
que z
ĠA ce
ĠC T
ĠChrist ine
ĠKit ty
ĠShir ley
ĠVoy ager
Ġblank et
Ġconst ellation
Ġn ull
Ġout n
Ġpast e
Ġvill ains
Hen ry
P re
S I
cept ions
ev iÄĩ
uff s
ĠF an
ĠG anes
ĠImp ort
Ġcar ing
Ġmark ings
Ġp ension
Ġrow ing
Ġtr ash
ec he
Ê »
Ù Ĭ
ĠCon st
ĠGuerr ero
ĠInc orporate
ĠK au
ĠL GBT
ĠMart y
ĠSe venth
Ġab ortion
Ġautom obile
Ġcomm ence
Ġcraft ed
Ġdiamond s
Ġsens itivity
Ġteam work
Ġtransl ates
Ġtre ason
" It
.. .Ċ
bra e
ĠA B
ĠMatthew s
ĠRail ways
ĠRiver a
ĠWis den
Ġeng agements
Ġg rit
Ġout flow
Ġres ent
Ġtechn ically
Or igin
Sc ene
echn ology
m oil
ock ets
vest on
ĠCast ing
ĠJ ain
ĠK w
ĠL ass
ĠSal ad
Ġback s
Ġcommission er
Ġlik ewise
Ġpost ure
Ġsh ining
Ġsurvey ed
Ġt ying
Ġtrans action
Ġunbeat en
Ġw aved
C horus
P I
ids hips
sh ot
st aff
urn al
ĠBatter y
ĠWorld s
Ġb izarre
Ġenjoy s
Ġgoalt ender
Ġgrant ing
Ġmim ic
Ġprecurs or
Ġstar board
Ġt ier
Ġunf amiliar
agu ar
pe as
sole te
ĠB f
ĠH ook
ĠM oses
Ġcal ming
Ġd ental
Ġfus elage
Ġlifesp an
Ġm asters
Ġmon k
Ġover coming
-2 4
m ir
oun ge
pp en
ĠChes apeake
ĠCl iff
Ġathlet ics
Ġeduc ate
Ġgl ory
Ġin k
Ġthir teenth
In c
In it
Un ited
ĠGe ography
Ġcock pit
Ġdigit ally
Ġex its
Ġimp air
Ġimp ed
Ġref urb
Ġt rench
Ġtable ts
Ġtoler ance
3 7
9 6
aund ry
Ġ22 5
ĠAl leg
ĠExt ra
Ġanth ology
Ġchrom os
Ġp irate
Ġpre jud
Ġsm iling
Ġswitch ing
Ġteam ed
A c
Ne ill
ant i
avel ength
char ge
h arm
il ated
v ance
ĠCo ff
ĠCreat ive
ĠD ifferent
ĠMe gan
Ġcoll ided
Ġcritic izing
Ġim aging
Ġmot ives
Ġnot ices
Ġpass ive
Ġprem ises
Ġw oke
Ġweigh s
- headed
et ting
l ash
ri o
ĠClark son
ĠRain bow
ĠS aid
ĠSt reets
ĠU tt
Ġcamoufl age
Ġglow ing
Ġhun ger
Ġm old
Ġreward ed
ĠÃ ĸ
3 1
K ing
efin itely
ount ry
ut a
Ã¡ l
ĠBlack burn
ĠFeder er
ĠGene va
ĠL Ã¼
Ġdisagre ement
Ġdown s
Ġdra gged
Ġhe x
Ġup stream
ĠÃ ħ
L I
P M
flow er
i ya
il itary
us ement
ĠCro sby
ĠF ighting
ĠV atic
Ġb ast
Ġdoll s
Ġinfect ious
Ġmean ings
Ġsequ els
Ġsuperior ity
-p ressure
egg ies
f ried
iss ued
ĠChe ss
ĠEl vis
ĠHein rich
Ġassistant s
Ġb ru
Ġble eding
Ġcomed ic
Ġde ar
Ġham pered
Ġl ament
Ġoblig ations
Ġp p
Ġrain bow
Ġun for
Ġuncon ventional
-col ored
-d is
-f irst
. G
L ook
ar se
ro sc
ĠAugust ine
ĠChar ter
ĠEx eter
ĠKann ada
ĠS ounds
Ġbeaut ifully
Ġcart oons
Ġcont ests
Ġdam s
Ġenter prise
Ġh ilar
Ġrel iance
Ġretreat ing
Ġv eggies
K ey
char acter
in ters
un al
ĠColomb ia
ĠM ental
Ġdefin itive
Ġhe ars
Ġlab elled
Ġpartn ered
Ġplanet ary
Ġris en
Ġsqu ares
Ġstup id
Ġtow el
Ġurg ency
-g rade
F e
aren ce
f inger
o os
ol ation
ð Ł
ĠA G
ĠB ie
ĠEurope ans
ĠH ag
ĠIran ian
Ġev olving
Ġye ast
-t op
D OT
F arlane
ĠB ism
ĠCas ino
ĠHel p
ĠM oss
ĠNiger ia
ĠOff er
ĠRodrig uez
ĠUs er
ĠY ar
Ġbr ighter
Ġclim bs
Ġconsc ience
Ġisot ope
Ġsher iff
Ġsm ok
Ġte aches
Ġun changed
ir ie
reg or
u h
ĠNaz is
Ġc ables
Ġconc urrency
Ġcong reg
Ġgener ates
Ġill usion
Ġinterven e
Ġmount ing
Ġsh oe
3 4
F our
h olic
sc ape
ĠKit chen
ĠP ole
Ġcounsel ing
Ġcr ater
Ġcy cles
Ġday light
Ġobsc ure
Ġr ack
+ 1
-4 7
O l
Re fer
W est
es is
ft ime
ĠCom ment
ĠGust av
ĠLink ed
ĠMat ilda
ĠS ale
ĠSil ent
Ġjust ified
Ġvirt ue
ar ray
arm esan
att ed
ential s
ur able
ĠC ord
ĠGreen land
ĠJ ed
ĠRe x
ĠVishn u
Ġadvoc acy
Ġcur t
Ġdivision al
Ġl ighthouse
Ġrot ating
Ġst aple
Ġsubordin ate
Ġwid ened
ev al
h ab
Ã¡ r
ĠB rent
ĠH ir
ĠHer oes
ĠX II
Ġapp et
Ġappl ies
Ġb ent
Ġco herent
Ġcorp se
Ġf ats
Ġins ign
Ġres isted
C ity
D E
at ro
ib ald
ĠComb ine
ĠRand olph
ĠS esame
Ġass umption
Ġep onymous
Ġfrog s
Ġh airs
Ġin mates
Ġinsp ir
Ġjour nals
Ġoutd oors
Ġrum ours
Ġso ils
Ġsophom ore
Ġyield ed
J im
ans en
uc at
ĠH ale
ĠMore no
ĠPh ase
ĠS ut
ĠSand ers
Ġamb ient
Ġcommercial s
Ġdis gust
Ġdiss olution
Ġlist ener
Ġmit ochond
Ġn atives
Ġno ises
Ġproblem atic
Ġreper to
Ġret ains
Ġtransp arency
S oon
it ian
ĠAl ger
ĠC age
ĠM itch
ĠMetall ica
ĠPe pper
ĠS ustain
ĠSp ike
ĠTre vor
ĠTrin idad
Ġc raw
Ġf ountain
Ġharm ful
Ġout rage
Ġpl aza
Ġsuperv ised
Ġtur tle
D evelop
L uc
With in
ander b
ĠB it
ĠCompan ies
Ġbe ads
Ġcand le
Ġculmin ating
Ġcur tain
Ġgram mat
Ġinnoc ence
Ġpip es
Ġreleg ation
Ġspons orship
Ġspr ings
Ġundert ake
P ass
est a
ĠG iro
ĠHigh lands
ĠN ina
ĠPer iod
ĠSt ring
ĠTor ch
ĠY osh
Ġinex per
Ġpin ch
Ġpri zes
Ġreconstruct ed
Ġrest ed
Ġs ake
Ġvol tage
= 12
in ated
ĠC av
ĠEurop a
ĠG ilm
ĠG ul
ĠLand ing
ĠLe h
ĠNorth umberland
ĠPl ain
ĠR in
ĠRe bell
ĠSub sequent
Ġc akes
Ġcard iovascular
Ġhead line
Ġhyph ae
Ġparas ites
Ġreflect ive
Ġresemb led
Ġsc out
Ġtur moil
Ġw rist
ore sc
qu ire
Ã© r
ĠAd vert
ĠEmp ress
ĠIm age
ĠT rent
ĠTr acks
Ġcaut ious
Ġex iled
Ġgroup ed
Ġobs erver
Ġpractition ers
Ġprot oc
Ġspok esp
-19 8
-h ouse
bour g
c ats
mark s
s um
ĠCle m
ĠE ps
ĠJ MA
ĠRev ival
Ġbar rels
Ġf ried
Ġimp ending
Ġinter ception
Ġinv isible
Ġsup ers
Ġvol ley
Further more
ass es
av ior
pl us
pro of
Ã° r
ĠBre ck
ĠH imm
ĠHig her
ĠHutch inson
Ġb achelor
Ġbra ke
Ġcr ude
Ġexperiment ation
Ġoutf its
Ġtim ely
-bu ilding
-n ortheast
H O
ĠAlb ania
ĠB iden
ĠCon duct
ĠP ond
ĠR ough
Ġcant ata
Ġcop ing
Ġexagger ated
Ġexcav ated
Ġhand ic
Ġthreat en
ar as
chw ader
haw k
na i
ox ide
v ana
ĠB aja
ĠIn ner
ĠL ik
ĠNik ol
ĠR ising
ĠS ons
ĠTown s
ĠWander ers
Ġabs urd
Ġastronaut s
Ġastronom ical
Ġd uel
Ġmar gins
Ġth or
Ġth umb
-ch ief
-se x
ak ov
el p
ew able
us an
ĠAn to
ĠApp roximately
ĠK ant
ĠN uclear
ĠTol kien
Ġbattlecru iser
Ġk its
Ġoxid ation
Ġâ Ĩ
ant is
e i
ry l
th an
Ġ umb
ĠApp eals
ĠCla ude
ĠL akers
ĠT ah
Ġcliff s
Ġinter val
Ġmant le
Ġmil estone
Ġsurf aced
Ġsymp athy
Ġtrust ees
- act
- un
and ro
c ourt
i enced
ot le
ten eg
Å Ľ
ĠB uc
ĠHol iday
Ġappl aud
Ġar ter
Ġb oun
Ġd well
Ġdon ate
Ġsen ators
Ġvit amins
* 5
- standing
-prof ile
8 5
Ä Ł
Ġ8 50
ĠH ence
ĠHel ena
ĠI st
ĠKh rush
ĠMir anda
ĠMur d
ĠN ES
ĠSy nd
ĠTom atoes
Ġbu gs
Ġexp ans
Ġg ru
Ġgot ten
Ġsupp ress
A ut
light en
È Ľ
ĠCharl eston
ĠJ ob
ĠM CC
ĠW ine
Ġout lines
Ġpro st
ĠÃ ł
G ood
ce ph
ĠBay ern
ĠCamb odia
ĠFar mer
ĠToy ota
Ġanecd otes
Ġext ras
Ġg lands
Ġne o
Ġp irates
Ġresist ant
Ġsty lish
n ance
ĠBook er
ĠFitz gerald
ĠSl ayer
ĠT uls
ĠW orth
ĠWar ning
Ġbab ies
Ġcurs ed
Ġe uro
Ġhand les
Ġob solete
Ġoptim ized
Ġplant ation
Ġpost season
Ġsculpt or
Ġsp ice
Ġt il
Ġtack les
- rel
est ones
iox id
ur ous
ĠCh ip
ĠCret aceous
ĠG aming
ĠL oyal
ĠMid way
ĠMy ers
ĠP Ã©
ĠUnder taker
Ġb its
Ġm aker
Ġmis con
Ġo mitted
Ġreg ulatory
Ġrem atch
Ġrequest ing
Ġscen ic
ad h
and s
aw k
p ole
ĠGal veston
ĠH es
ĠI TV
ĠKhrush chev
ĠM off
ĠR otten
ĠTs ar
Ġcultiv ation
Ġemploy ing
Ġext ensions
Ġsuscept ible
Ġter rifying
Ġtraff icking
all i
c orn
epend ent
ic iary
Ġ4 10
ĠAbb as
ĠField s
ĠH ert
ĠKrust y
ĠR esc
ĠWest on
ĠY ucat
Ġamb itions
Ġamb ush
Ġcens orship
Ġheav iest
ĠĠĠĠ Ċ
any e
app er
g io
ston ecraft
u ced
unning ham
y ear
ĠA by
ĠH ipper
ĠParliament ary
ĠPl atinum
ĠR um
Ġadapt ing
Ġconsult ed
Ġg lee
Ġre work
Ġsup reme
ro ther
ĠB achelor
ĠC ream
ĠCh ak
ĠCzech osl
ĠE cc
ĠIncre ased
ĠK ash
ĠMoroc co
ĠV amp
Ġmark er
Ġoption al
Ġsw allow
Ġurg ent
N orth
ons on
or an
osp ace
ĠChar acters
ĠEm inem
ĠLib ya
ĠM ets
ĠN om
Ġcou ch
Ġcylind rical
Ġdiffer ing
Ġnight club
-w ater
Un like
ĠB ram
ĠG ott
ĠN g
ĠNap les
Ġboard ed
Ġconcurrent ly
Ġdis ruption
Ġghost s
Ġguard ed
Ġrecruit ment
Ġsoc io
Ġve in
abs burg
ign e
à¤¾ à¤
Ġ ul
ĠB elf
ĠCS S
ĠCongress ional
ĠEth iop
ĠF av
ĠGold man
ĠIb n
ĠPresbyter ian
ĠR az
Ġb amboo
Ġfilm maker
Ġkill ings
Ġl ig
Ġpean ut
Ġt s
Ġtou g
-2 2
form ing
j m
l aw
ĠRod gers
ĠSecond ary
ĠWals h
Ġam alg
Ġbas al
Ġdischar ged
Ġhesit ant
Ġl ag
Ġnecess ity
Ġnortheast ward
Ġnumer ical
Ġout post
Ġphys icians
Ġrev olves
Ġtribut ary
Ġunf air
Ġunf inished
Ġyield s
M on
en ne
op ed
ring ing
s econd
ĠI OC
ĠT ik
Ġpop e
Ġs way
Ġsystem atic
Ġvolunte ered
Bl ack
ĠEx cell
ĠH uff
ĠMunicip al
ĠPart icip
ĠSac rament
ĠThe me
Ġbro ccoli
Ġende av
Ġinv ites
Ġpupp et
Ġreperto ire
Ġstation ary
-M en
ct ica
irect ed
ur istic
ĠAmb assador
ĠFern ando
ĠIllust rated
ĠP emb
ĠRome o
Ġbow lers
Ġimpro ves
Ġinvestig ators
Ġpl ains
Ġprest ige
Ġwh olly
- co
? :
G erman
ag ogue
on al
âģĦ 2
Ġ' '
ĠB elt
ĠMan it
ĠT orn
ĠUk rain
Ġdev il
Ġend ured
Ġin ception
Ġob esity
Ġre usable
or ie
Î »
âĢĻ d
Ġ ãĢ
ĠLegisl ature
ĠPitch fork
ĠRom antic
ĠS axon
ĠThe od
Ġair play
Ġconsum ing
Ġesc orting
Ġto es
Ġw avelength
ilib rium
ond a
yn thesis
ĠDev ils
ĠEv olution
ĠHer zegovina
ĠSt ructure
ĠSum mit
Ġany body
Ġb ir
Ġexplan ations
Ġfract ion
Ġover he
Ġsoc ietal
Ġsub way
Ġten or
-ran king
h oe
ij a
ough ts
ul ators
ĠAlexand ra
ĠAm ber
ĠGand hi
ĠN K
ĠPak istani
ĠS D
ĠV il
Ġalter ations
Ġfa una
Ġlik ened
Ġstuff ed
Ġtom bs
Ġwar n
C ube
ok i
ud s
yp othes
ĠAchie vement
ĠE cho
ĠM W
ĠMoz amb
ĠPar agu
Ġass erts
Ġblow ing
Ġcon ception
Ġcounter attack
Ġdem ise
Ġhum idity
Ġprol ific
Ġtow ed
worth y
ĠBro oke
ĠCre ation
ĠDavid son
ĠUn cle
ĠV eget
Ġadminist rator
Ġassist ing
Ġaudition ed
Ġcommun icating
Ġenvision ed
Ġextract ion
Ġhost ilities
Ġhyd raul
Ġide als
Ġprem ature
Ġsurpris ingly
- 50
-m ost
6 5
art ments
f ig
un ton
uss ian
ĠErn st
ĠH itch
ĠN E
ĠThanks giving
Ġair plane
Ġaw esome
Ġcom et
Ġdem ographics
Ġdig its
Ġh ats
Ġint r
Ġmunicip alities
Ġow ed
Ġrenew al
Ġsc an
D ec
L E
P rov
ft en
g il
on ne
ĠA ru
ĠAle c
ĠBro ken
ĠComb ined
ĠG ir
ĠInn ov
ĠMad ras
ĠP rague
ĠSav oy
Ġappro ve
Ġbroad side
Ġcompens ate
Ġint ensive
Ġsc rub
Ġsoc ially
ez vous
ĠBudd ha
ĠC ovenant
ĠGib bs
ĠP ill
ĠY oga
Ġaccess ion
Ġcan yon
Ġexperiment ed
Ġmer it
Ġmus k
Ġover flow
Ġrelax ing
Ġrep uls
Ġscholar ly
Ġse als
Ġst alled
Ġtransfer ring
road s
stan bul
ĠGeorget own
ĠManu fact
ĠOff ensive
ĠPruss ian
ĠSt am
Ġass umes
Ġc ilantro
Ġc um
Ġelong ated
Ġfact o
Ġfootball er
Ġfound ers
Ġfree ze
Ġra iding
Ġste amed
Ġver bal
Ġvisual ization
du e
f ilm
m ade
ĠB A
ĠReg arding
ĠTud or
Ġliber ation
Ġmamm al
Ġo val
Ġpedest rian
Ġr het
Ġrefriger ator
ar ag
uc ch
und a
ĠCol t
ĠHigh land
ĠPr int
ĠR as
Ġadvis ories
Ġam idships
Ġb unch
Ġconf using
Ġd itch
Ġf ancy
Ġhead quartered
Ġher d
Ġins ists
Ġintens ification
Ġm aiden
Ġrecogn izable
Ġsepar ating
Ġwell being
- ins
-H op
b ins
g ra
g ue
ia e
ke f
st idia
ĠAcad emic
ĠCont act
ĠGerman ic
ĠL ance
ĠMagn us
ĠY uk
Ġaddition ally
Ġbad ge
Ġcoin age
Ġfe ast
Ġge ology
Ġgr ated
Ġlo ops
Ġm ice
Ġmo ons
Ġneg lected
Ġtheat res
B u
N ext
S cript
c ely
c ip
iz oph
opp y
readn oughts
v re
ĠConvers ely
ĠUS AF
ĠV in
Ġbuck et
Ġcert ifications
Ġdeleg ate
Ġlet t
Ġn ave
Ġnood les
Ġren umbering
Ġsem in
her ly
ĠDick inson
ĠG amb
ĠK ell
ĠK i
ĠL A
ĠWhe el
Ġbreath taking
Ġcommit ments
Ġext r
Ġmal aria
Ġprof iles
Ġun author
- rock
S um
ik ini
u o
ĠC redit
ĠCol ony
ĠCol ts
ĠMiddle ton
ĠV ision
Ġb il
Ġden ounced
Ġdraw backs
Ġen ch
Ġexcav ations
Ġgl ue
Ġinput s
Ġpossess es
Ġsa us
-L e
A ustral
H igh
R ob
aret te
b ard
own er
Ġ""" Ċ
ĠBor is
ĠT ate
ĠT otten
Ġcolumn ist
Ġcorrespond ent
Ġdistract ed
Ġfur ious
Ġprop he
Ġrepet ition
Ġspr inkle
Ġweld ing
aj o
d ad
iv ate
izoph ren
oub ted
ĉ ĉ
ĠAnaly tics
ĠNeg ro
ĠNo el
ĠRest oration
ĠSl ant
ĠStat istics
Ġbehavior al
Ġd Ã©
Ġmemorial s
S ch
ester ly
if iable
uss y
ĠInd ex
ĠR ao
Ġblood y
Ġcl ash
Ġconclus ions
Ġdec ree
Ġf riction
Ġfig ur
Ġreign ing
Ġw olves
P eter
ly ss
ru ck
t or
Ġ3 80
ĠB acon
ĠB ollywood
ĠLoc ke
ĠMon teneg
ĠP HP
ĠPhel ps
ĠR ita
ĠVolunte er
Ġble nder
Ġorang es
Ġp ent
Ġp oured
Ġsyn t
Ġturn pike
ĠÂ ±
-f ired
-s ub
he el
ud ge
ĠAI F
ĠAct s
ĠC asc
ĠCh ocolate
ĠK ah
ĠT ara
ĠTra vis
Ġbi om
Ġed ible
Ġin app
Ġs ap
cont ent
fr ame
ist ice
its u
n otes
p erson
ĠAberde en
ĠCal iph
ĠGo ing
ĠIn ch
ĠKn own
ĠNad u
ĠR C
Ġburn s
Ġcompos ite
Ġcontest ants
Ġdiver ted
Ġexp ose
Ġillness es
Ġinters ecting
Ġs op
Ġsn ap
Ġst amps
Ins ert
S w
ol and
ong o
ĠE k
ĠFre eman
ĠHe ather
ĠL ars
ĠLeaf s
ĠR ings
ĠWal ton
Ġconvin ces
Ġcosm ic
Ġdissatisf action
Ġg el
Ġj elly
Ġmust ard
Ġpro be
Ġprot agonists
Ġrhythm ic
Ġsevent y
- order
S outh
i ator
ment ioned
ol utions
ra ining
ĠBed ford
ĠH absburg
ĠHep burn
ĠInst r
ĠN ile
ĠR OK
ĠRand all
Ġb iblical
Ġbi as
Ġcho oses
Ġdepend ence
Ġkn ights
Ġl oneliness
Ġprov ing
Ġtast y
ĠÐ ¿
Mat ters
nd on
os se
t wo
Ġ ç
ĠCl arence
ĠJohann es
ĠO kin
Ġdur ability
Ġhuman itarian
Ġn ons
Ġrel ent
Ġreluct antly
Ġwa ist
-9 5
D esc
Q ue
Us age
ard e
io ch
og o
ĠD ise
ĠLev ine
ĠSt anton
ĠTob y
Ġallev iate
Ġapplic able
Ġb ricks
Ġd ucks
Ġresear cher
Ġsc av
Ġsle ek
att a
ress ions
ĠBar row
ĠI gn
ĠJane iro
Ġadvance ment
Ġcapt ains
Ġcar c
Ġdiscoura ged
Ġe erie
Ġen forced
Ġfort unes
Ġh Pa
Ġharm on
Ġhed ge
Ġl os
Ġl umber
Ġnomin al
Ġra ge
Ġtr unc
Ġup held
Ġur ine
- eng
-d istance
as urer
ign ment
à ¨
ĠBott om
ĠG ob
ĠS alford
Ġdefend ants
Ġmerc ury
Ġopen ings
Ġple aded
Ġprop ose
Ġshred ded
D ata
em ary
g t
ols he
ĠBrun o
ĠDav en
ĠEgypt ians
ĠPatric ia
ĠR ib
ĠRebell ion
Ġbook ed
Ġc ites
Ġcann ons
Ġcru c
Ġme g
Ġrehears al
Ġrenov ated
-off s
aw ks
c ot
i ad
r ÃŃ
ĠCh amp
ĠJacob s
ĠLaw s
ĠTer ror
Ġapart ments
Ġb ordered
Ġcas ino
Ġcont ender
Ġdet ained
Ġinfin ite
Ġinstit ute
Ġreserv ations
Ġsanct uary
Ġspect ral
Al so
St ring
al am
m ay
tym ology
Ã¸ r
ĠClay ton
ĠDart mouth
ĠDiv isions
Ġar row
Ġconsider ations
Ġsex es
Ġsim ulation
Ġst aging
Ġviol ations
ĠâĨ Ĵ
Ab out
D is
el ope
f al
ĠCoast al
ĠG DP
ĠKem p
ĠLam bert
ĠP ione
ĠPeg gy
ĠT es
ĠTim othy
Ġcollect ors
Ġconvers ions
Ġdis ability
Ġem ission
Ġl id
Ġsurviv or
Ġtrump et
an ne
arm ing
for cing
gl ades
ul se
ĠAlb anian
ĠC ald
ĠMac Donald
ĠRes olution
Ġang ular
Ġconstit ute
Ġfulf illed
Ġmut ations
Ġred esigned
Ġsuper b
Ġtun es
-d egree
B eg
com fort
ll o
p end
r ar
ĠAm anda
ĠBed e
ĠC L
ĠJud y
ĠP ist
Ġbr ide
Ġdec ks
Ġpl ural
Ġtext ile
-1 00
rown ed
ä ¸
ĠLind say
ĠStri ke
Ġdis reg
Ġeleph ants
Ġprov oked
Ġte legraph
Ġward robe
g art
w aters
ĠHem isphere
ĠMar se
Ġam p
Ġbar ometric
Ġcl aws
Ġclos et
Ġdist orted
Ġecclesi astical
Ġmill imeters
Ġne at
Ġnerv es
Ġsun shine
Ġsw amp
Ġvolcan oes
ES CO
are z
u er
ĠMar ina
ĠTa ft
ĠWilm ington
Ġcr ush
Ġcultiv ate
Ġper ce
Ġpsychiat ric
Ġrepl ay
Ġsupplement ed
Ġw agon
Ġweek ends
" What
amb a
ek a
ian c
or ical
ĠBark er
ĠNig el
ĠOd ys
Ġant ioxid
Ġcomm issions
Ġfin ed
Ġhas n
Ġpig s
Ġw ed
, 500
-g rand
H urricane
af i
is y
mid t
os o
ĠAll ison
ĠB ax
ĠD rop
ĠDef ine
ĠGaz ette
ĠM au
ĠPl uto
Ġb ou
Ġdelight ed
Ġfrag ile
Ġhaun ting
Ġimmig rant
Ġj un
Ġl ush
Ġrepe ating
Ġsatir ical
Ġspokesp erson
Ġsur g
Al ong
Rich ard
U N
ĠH BO
ĠIndust ries
ĠOb ject
ĠOn o
ĠSol o
ĠTh reat
Ġagg ress
Ġbook ing
Ġcompl iance
Ġeconom ically
Ġlegit im
Ġlingu istic
Ġpat rons
-f illed
T ime
om ac
ĠA us
ĠAr g
ĠBism arck
ĠEd en
ĠGriff ith
ĠM ugh
ĠS yl
ĠSc outs
Ġassess ments
Ġcar pet
Ġcel estial
Ġe ternal
Ġhal ftime
Ġhead er
Ġhom eland
Ġmon keys
Ġplag ued
Ġproject ion
Ġsh ine
Ġspar row
Ġtang y
R ed
T R
acc ording
st reet
ur us
ĠEver ett
ĠRest aur
Ġamid st
Ġblock chain
Ġcomment ator
Ġgenu inely
Ġgun nery
Ġl one
Ġmagn ificent
Ġninet een
Ġnumber ing
Ġreg ulated
Ġrehears als
Ġro ast
Ġsh aking
Ġtransport ing
Ġunanim ously
S oph
om atic
role um
ĠCar ne
ĠJ ab
Ġcl own
Ġd anced
Ġmonit ored
Ġprov es
Ġsk ate
F S
anc ies
at al
er i
hett i
row ave
ĠAdvis ory
ĠC ell
ĠR ash
ĠRock ets
Ġadjust ing
Ġclass ify
Ġfr idge
Ġinstitution al
Ġpor ch
Ġpre hist
Ġran ch
Ġresearch ing
Ġthr illing
Ġthy me
F riend
enc ia
gr ass
ipp ers
ol son
ypothes is
ĠF ram
ĠG raph
ĠI p
ĠIm plement
ĠRe formation
ĠRec ogn
ĠT z
ĠW ere
Ġbackst ory
Ġintrig uing
Ġlater al
Ġplay ground
Ġred evelopment
Ġrem ot
- 60
is se
le af
off s
Ġ20 6
ĠBra ves
ĠPhys ics
ĠU til
ĠV ett
Ġad orned
Ġadj o
Ġcha otic
Ġcott age
Ġentreprene ur
Ġl apt
Ġload s
Ġrecogn izing
Ġridic ulous
Ġv apor
! !
L ast
enn es
n uts
ĠB rest
ĠF lynn
ĠGl oria
ĠLet ters
ĠMaria h
Ġanalys es
Ġd read
Ġfree zing
Ġmid fielder
Ġoverth row
Ġsa ut
Ġsuppl iers
Ġtri angular
Ġunpredict able
Ġup wards
Ġwe ights
-w rote
ap est
at aka
he ed
ith m
rust ed
val id
ĠBosn ian
ĠBrid g
ĠK oh
ĠN HC
ĠT ail
Ġbegin ners
Ġcl o
Ġdepart ing
Ġgro ove
Ġprop oses
Ġreson ance
Ġshield s
Ġsplit ting
Ġspont aneous
Ġter r
Ġtrunk line
-he ld
apt ain
it ively
unk ers
Ã ī
ĠBon o
ĠBor neo
ĠF eed
ĠFe el
ĠLion el
ĠMat hemat
ĠRe vel
ĠRel ief
ĠT oul
Ġap ology
Ġeight y
Ġfear ing
Ġhe n
Ġin und
Ġinv ade
Ġm ason
Ġmat hematic
B est
G C
c ies
imet re
op a
urop ean
ĠB onnie
ĠEd g
ĠEver glades
ĠG arn
ĠMcC le
ĠMozamb ique
ĠPay ne
Ġanim ators
Ġball oons
Ġdeal er
Ġsent iments
Ġshort est
Ġsw ords
-cal iber
eff ect
ern er
ign ant
ud i
ĠH air
ĠRever end
ĠS v
Ġcampaign ing
Ġcan als
Ġdef ines
Ġsm oked
Ġtre acher
- ra
oph on
ĠGr im
ĠHon ours
ĠM ama
ĠMan ila
ĠNev ille
ĠPatri ots
Ġclear ance
Ġelectrom agnetic
Ġhear ings
Ġphot ographed
Ġplate au
Ġsaut Ã©
Ġvolunt ary
W ell
ath am
it ism
og ly
oubted ly
ĠH our
ĠLy on
ĠMalays ian
ĠO uter
ĠSh ock
ĠT D
ĠVatic an
Ġdepos it
Ġeval uated
Ġfisher men
Ġm as
Ġmar ijuana
Ġpap rika
Ġpr ayers
Ġprofession ally
Ġr uth
Ġseam less
Ġsp rou
Ġstick y
Ġstraw berries
Ġsurn ame
Ġup beat
ba um
our g
ĠGarc ia
ĠK anye
ĠN D
ĠV HS
Ġalleg iance
Ġbul b
Ġcomplex es
Ġdress es
Ġsandw iches
Ġsk ating
Ġt ails
Ġunder gone
Ġwh istle
ĠĠĠĠĠĠĠĠ Ġ
- reg
-19 7
ent on
r ish
the ir
ĠAll ah
ĠEl iot
ĠEx erc
ĠH ogan
ĠPrepar ations
ĠTh ur
Ġanat omy
Ġb ells
Ġdrift ed
Ġmission ary
Ġnegot iating
Ġread ings
Ġscar ce
Ġten ants
Ġth igh
Ch oose
augh ty
b et
form ance
l ia
p ill
ĠC umberland
ĠD as
ĠFl int
ĠM orm
ĠT ao
Ġantib odies
Ġfre el
Ġimag in
Ġout right
Ġp all
Ġp ant
Ġst anza
Ġton ight
Ġun rel
im us
oss ip
yl inder
ĠBlack s
ĠD ang
ĠD at
ĠGlac ier
ĠHond uras
ĠSc ream
ĠSurv ivor
ĠUnder stand
Ġamen ities
Ġb od
Ġcommission ing
Ġcons on
Ġd ose
Ġm g
Ġp ix
Ġrecip ients
Ġrel inqu
Ġst ran
Ġtra it
Ġtransform ing
" You
. F
n em
ub le
um en
ut ral
ĠElement ary
ĠEv a
ĠLinked In
ĠMater ial
ĠS we
ĠW ire
Ġadv iser
Ġapp end
Ġaster oid
Ġback yard
Ġc ues
Ġge ometry
Ġl ately
Ġoptim izing
Ġp H
Ġphil anthrop
Ġqu ery
Ġr ans
a q
aff ected
het amine
p ox
uck land
Ġ3 40
ĠAh mad
ĠAntar ctica
ĠGill ian
ĠHy der
ĠIre ne
ĠMort al
ĠPr inz
ĠSch ne
Ġaccommod ations
Ġass im
Ġchick peas
Ġextra v
Ġlett uce
Ġmar riages
Ġp istol
. t
act ivity
af ia
ig i
ous se
ĠAr row
ĠBat ista
ĠD ate
ĠFort ress
ĠHumph rey
ĠK atherine
Ġacad emics
Ġanaly st
Ġauth ored
Ġderiv ative
Ġdigest ive
Ġsix teenth
Ġsyn chron
Ġw ines
efe ated
st airs
vol ent
ĠBet a
ĠE bert
ĠHass ett
ĠMong ols
ĠOr ion
ĠThe ory
ĠW ick
Ġconnect ivity
Ġelig ibility
Ġfin anced
Ġinter changes
Ġlat itude
Ġprivile ge
Ġsh ores
-year s
D er
ful l
z t
ĠCon an
ĠGram mar
ĠHer c
ĠKle in
ĠMil ky
ĠRel igious
ĠSt ones
Ġchat bot
Ġcohes ive
Ġenc irc
Ġimmun ity
Ġimprov ised
Ġm ould
en b
ĠC unningham
ĠCustom er
ĠDest roy
ĠE asy
ĠEth an
ĠT ale
Ġb ounce
Ġcalc ulations
Ġexplo itation
Ġmand ate
Ġoverse e
-9 4
C AR
ĠB agh
ĠChar ity
ĠClif ton
ĠD olph
ĠNe o
ĠSch war
ĠUN ESCO
Ġre int
Ġscript ed
-f i
a unch
ath i
d onald
i otic
y ou
ĠAltern atively
ĠD addy
ĠGeor ges
ĠTitan ic
ĠW er
ĠWh ig
Ġaccompl ishment
Ġarg u
Ġbar rage
Ġhost age
Ġintens ify
Ġinter mitt
Ġle ap
Ġpl ank
Ġsuff ers
An gel
ach y
at ility
f elt
ĠF ashion
ĠRep orter
ĠTa unton
ĠTotten ham
ĠVenezuel a
Ġamb iguous
Ġcouncil s
Ġequ ations
Ġfor aging
Ġfresh ly
Ġhomosexual ity
Ġinc ub
Ġno on
Ġrespond s
Ġset up
Ġsucceed ing
Ġun int
Ġw rought
Ġwind ing
7 6
A round
ih an
r ass
ĠH ole
ĠInte g
ĠL one
ĠM B
ĠM illion
ĠMaj esty
ĠVeter ans
Ġchlor ide
Ġdig ging
Ġfacil itated
Ġhy mn
Ġincl ined
Ġpull s
Ġstrike outs
Ġw ires
ag asy
le ading
lighten ment
ĠCirc us
ĠD orset
ĠM ode
ĠRob ot
ĠStev enson
Ġacqu aint
Ġblend ing
Ġeth ics
Ġf ills
Ġincons istent
Ġlik ing
Ġpres cribed
Ġs ack
Ġsand y
Ġst int
Ġtru ce
board ing
ol er
sh aw
Ø ³
ĠAr gy
ĠAzerbai jan
ĠC ory
ĠE z
ĠKer ry
ĠMil k
ĠPet erson
ĠRes erv
ĠSt range
Ġang ered
Ġcomm od
Ġcomp rise
Ġsk ysc
Ġtran qu
Ġup s
-ch oice
E xt
o ic
Ġ29 0
ĠAnt ioch
ĠC ancer
ĠC raft
ĠGra ves
ĠI stanbul
ĠImag ine
ĠK ylie
ĠL und
ĠM ih
ĠThe mes
ĠWild e
Ġbl o
Ġbureau cr
Ġcooper ative
Ġcr ashes
Ġfrust rating
Ġinc oming
Ġoblig ed
Ġproport ions
Ġra ided
Ġse ism
Ġsex y
Ġstand ings
opp ers
ucch ini
ãĥ «
Ġ? Ċ
ĠCan ning
ĠM ales
ĠMed ieval
ĠOk ay
ĠR onnie
Ġat he
Ġforg ive
Ġinver te
Ġmorph ology
Ġpenet rate
Ġrev is
Ġsub c
Ġve ins
O b
en ame
ic uous
m ere
n umber
oc he
wh o
ĠC otton
ĠChron icles
ĠCom ing
ĠInvest igation
ĠL ic
ĠNass au
ĠSuff olk
Ġaw aken
Ġconvey ed
Ġe u
Ġfore most
Ġmechan ic
Ġmyst ical
Ġtag s
Ġthreat ens
Ġtotal ing
Ġtra iling
haw ks
ns ic
ĠC anton
ĠCly de
ĠCr iminal
ĠE val
ĠInst ruct
ĠOl ivier
ĠParad ise
ĠR it
ĠSch u
ĠTe a
Ġassign ments
Ġcan opy
Ġcar b
Ġhum id
Ġr ou
Ġsw am
Ġwhere ver
Ġwork outs
.. ..
4 6
al ach
ar am
bo hyd
le z
ow itz
Ġ31 0
ĠAdd ress
ĠChop ra
ĠD ion
ĠHan over
ĠNick el
ĠPr ide
ĠRec ent
ĠZ hang
Ġam ended
Ġbetray al
Ġche ek
Ġeconom ies
Ġexplo ited
Ġhel m
Ġironcl ad
Ġse ab
-19 4
D T
ak y
b eth
clop edia
rug u
ĠA FC
ĠBen ch
ĠCart man
ĠH ang
ĠN ell
ĠParalymp ics
ĠReg ina
Ġdi ocese
Ġform idable
Ġmour ning
Ġnorm s
Ġout let
Ġpal ette
Ġpl aus
-l oad
Conn or
de velop
ĠChe v
ĠCl in
ĠConc ord
ĠCornwall is
ĠD rug
ĠD up
ĠL ana
ĠNum erous
ĠVik ings
Ġcl ade
Ġgrad ient
Ġhard est
Ġp ending
Ġsc roll
Ġsmooth ly
Ġswe eping
- att
ber ht
enef its
h ra
w ear
ĠD raw
ĠHimm ler
ĠK ai
ĠM ob
ĠV id
Ġadm ir
Ġc ripp
Ġout ages
Ġpr inter
Ġvib e
Ġview ership
Ġy ummy
C he
More over
b anks
ch urch
in ement
ĠBo om
ĠL ing
ĠMP s
ĠN ir
ĠT ac
Ġconve x
Ġf oil
Ġfavor ites
Ġhilar ious
Ġn ap
Ġneighbour hood
Ġr amps
Ġri ft
Ġshel ves
Ġshut tle
ĠÃ ĵ
% .
, '
- ne
I tal
M ad
ay ana
e o
enge ance
ex pl
urb ation
Ġ é
ĠBr as
ĠGo es
ĠHar ald
ĠK art
ĠPaul o
ĠWalk ing
ĠWe in
Ġargu ably
Ġc umin
Ġcollabor ating
Ġconven ed
Ġcre ep
Ġeth anol
Ġgener ators
Ġmot ors
Ġpige on
Ġpit ches
Ġrele vance
Ġsure ly
Ġthr illed
E v
T H
oc o
ĠDI Y
ĠEuras ian
ĠPr att
ĠPr ayer
ĠR unning
ĠS ens
ĠWoll stonecraft
Ġc aul
Ġcl ad
Ġcoc oa
Ġf oli
Ġgener ator
Ġmet re
Ġship ment
- attack
- ten
-d eveloped
alth y
ard less
eng ers
ould er
res c
ĠEug en
ĠGi ov
ĠInn oc
ĠKat ie
ĠN ice
ĠSal am
ĠSteel ers
ĠTh ousand
ĠZ ack
Ġgluc ose
Ġid ol
Ġinteg rating
Ġlav ish
Ġmanip ulation
Ġnot eb
Ġretro spective
Ġsupp ressed
Ġtop s
Ġwood ed
-p resident
V al
al m
em ann
eut ic
n ick
o it
the y
ĠB oot
ĠBy r
ĠG ibb
ĠL uk
ĠNort heast
ĠSar awak
ĠShank ar
Ġf atty
Ġh over
Ġmusc ular
Ġpain ters
Ġtail or
Ġtrad es
Ġwors h
-est ablished
f urt
h ole
lect ions
sp e
ĠAs ide
ĠCar bon
ĠCru ise
ĠD irection
ĠL ED
ĠProm otion
ĠRat ings
ĠRe e
Ġadm iral
Ġexp orted
Ġmasc ul
Ġpract ically
Ġrif les
-s ur
f il
im ming
od ont
ĠB enson
ĠGu in
ĠPhil harm
ĠPot omac
ĠW enger
ĠWolver ines
Ġgl oves
Ġhorm one
Ġinflu x
Ġmar bles
Ġn ude
Ġo ught
Ġorgan izers
Ġrev ive
Ġrob bery
H i
O s
ĠChap lin
ĠF ritz
ĠH ern
ĠK umar
ĠM ys
ĠMarl borough
ĠMaurit ius
ĠP av
ĠPolit ics
ĠT C
Ġconve ys
Ġdisc s
Ġemb roid
Ġenroll ment
Ġfut uristic
Ġgl oss
Ġl ur
Ġm uff
Ġparticip ant
Ġrest art
Ġsol ic
ap arte
iot ics
ond o
oy ne
ĠA uckland
ĠCrom well
ĠM uss
ĠMom my
ĠPop Matters
Ġaspir ations
Ġb ald
Ġdisturb ing
Ġpreced ent
U se
ct ober
ĠAct ive
ĠG at
ĠM ud
Ġall erg
Ġcr acks
Ġfo am
Ġm osa
Ġord in
Ġout ward
Ġoutn umbered
Ġpred iction
ew ood
is i
opot am
Ġ21 5
Ġ6 10
ĠCanad ians
ĠGro ves
ĠR CA
ĠRang er
Ġall iances
Ġas ym
Ġcav ity
Ġcirc us
Ġcop ied
Ġfore head
Ġge othermal
Ġmasc ot
Ġrail s
Ġredesign ated
Ġt ally
Ġtrans itions
Ġund oubtedly
G reat
L U
Re illy
b ots
ig ible
il on
ll er
un ting
ves ter
Ñ ĩ
ĠBy ron
ĠK ombat
ĠKey nes
ĠMin aj
ĠNavig ation
ĠNi agara
ĠRan ch
Ġc rab
Ġfin ely
Ġfoot steps
Ġn mi
-c onscious
-st age
cul osis
f rey
iol a
oll s
ĠAm elia
ĠB ake
ĠM uk
ĠMoff at
Ġcont empt
Ġdevelopment al
Ġexerc ised
Ġnot ified
Ġo ste
Ġunanim ous
Ġwond ers
S S
oll ar
urg ical
ut nant
ĠD odd
ĠL iam
ĠMaced onia
ĠUkrain ian
ĠX en
Ġbal con
Ġhop eless
Ġinstall ing
Ġpot ent
Ġpres eason
Ġun he
Ġvarious ly
Ġwars hip
-------- --------
-found er
ad vert
n ia
ne v
og enesis
ol in
r atory
re cht
rop s
ĠCart oon
ĠG B
ĠIm mediately
ĠK et
ĠManit oba
ĠPers ia
ĠSacrament o
ĠWil f
Ġad he
Ġde grad
Ġexpl orer
Ġh ints
Ġjour neys
Ġl ining
Ġmar vel
Ġp ad
Ġscream ing
Ġsubsid ies
Ġtreat ies
-c ut
E A
e ous
r iment
v ia
ĠAm bro
ĠApp eal
ĠBuff y
ĠSan ct
ĠU P
ĠWil kinson
Ġactiv ism
Ġb ask
Ġclass ics
Ġcoll ar
Ġcommit ting
Ġengine ered
Ġhall uc
Ġm otto
Ġnon prof
Ġnurs es
Ġo sc
Ġro oted
Ġsimpl ified
ĺ ħ
G et
ball s
og ens
p arents
ĠAud io
ĠC ull
ĠHam let
ĠVaugh an
Ġcrash ing
Ġdisag ree
Ġh id
Ġhob by
Ġste amer
Ġt urtles
Ġverte brae
- aut
` .
ich o
l as
l iest
ĠA gg
ĠAb ove
ĠCatholic ism
ĠMah al
ĠProdu cer
ĠS as
ĠTrad itional
Ġcent red
Ġconsult ation
Ġcrit ique
Ġdec eption
Ġinteract ing
Ġmetaph ors
Ġpo ols
Ġsevent eenth
Ġsquir rel
Ġstair case
Ġstar ing
Ġsur plus
-south west
d ivision
her ical
n on
Ã¨ s
ĠDrag ons
ĠNass er
ĠPun j
Ġbreak away
Ġcab bage
Ġdead lines
Ġh ike
Ġindu ced
Ġsch izophren
Ġtable t
Ġune ven
Ġwh oles
Ġwheel chair
kef eller
stad t
the re
× Ļ
ĠAby ss
ĠAr r
ĠGar rett
ĠL una
ĠM ats
ĠNorth western
ĠP ush
ĠRey es
ĠSt rip
ĠZ o
Ġa ston
Ġbe ams
Ġcomp elled
Ġdens ely
Ġdep osed
Ġdes erved
Ġline age
Ġnorthwest ward
Ġwe aving
Ġwor ries
aston bury
erm aid
itor ium
lew ine
ual a
Ð¾Ð ²
ÑĢ Ð°
ĠAt ari
ĠCol onial
ĠCrow ley
ĠF avor
ĠMal agasy
ĠMon k
ĠPat terson
ĠPur ple
ĠS isters
Ġf aded
Ġg ill
Ġpump s
Ġsm iles
Ġwel coming
R et
ac cept
ad ia
ave nder
ien ne
ĠBer ger
ĠC ash
ĠD uff
ĠL ights
ĠR ory
ĠResc ue
Ġadminist rators
Ġagree ing
Ġc ared
Ġenh ances
Ġequ ilibrium
Ġeth ical
Ġfert ility
Ġflash back
Ġgun powder
Ġmel anch
Ġout reach
Ġphysic ist
Ġremind s
ĠâĢ Ĳ
-dep th
E G
E V
te f
ĠArm oured
ĠB ash
ĠJen kins
ĠLead ership
ĠPix ar
ĠPre p
ĠSaff ir
Ġaccount ability
Ġcasem ates
Ġdec imal
Ġdis comfort
Ġex empt
Ġgif ted
Ġpre fers
Ġtransition ed
Ġup right
Ġwar ns
gett able
ĠBo hem
ĠEx it
ĠLow e
ĠRep orts
ĠU rugu
Ġactiv ation
Ġal erts
Ġcat alogue
Ġfert ile
Ġmetabol ism
Ġrend ezvous
Ġseiz ure
-n ine
-r unning
. p
Mc C
l ov
pl ates
z b
Ðµ Ð½
Ġ4 20
ĠConserv atives
ĠLik ewise
ĠRe ach
ĠS ki
Ġadvoc ating
Ġbrand ed
Ġpar a
Ġpredict able
Ġprivile ges
Ġscreen writer
Ġump ire
-in flu
I mp
ars ity
at hed
c asters
d isc
ib i
Ã ¯
ĠC annon
ĠCole man
ĠDaven port
ĠIntern al
ĠM IT
ĠMa o
ĠRou ge
ĠTerm inal
Ġassault ed
Ġdissatisf ied
Ġdr ill
Ġfl oral
Ġp estic
Ġpart ition
Ġplant ations
Ġst urd
Ġsub div
-gener ation
are th
g ars
g re
ot ive
st ed
Ã¤ r
ĠA e
ĠGro ening
ĠK iller
ĠL Ã©
ĠS ister
ĠScandin avian
ĠT in
ĠUS C
Ġac re
Ġch oral
Ġconv ict
Ġfl ora
Ġhero ine
Ġne ural
Ġprop s
Ġsl ate
Ġsupp ose
as us
ia o
og ene
ĠAc ross
ĠB S
ĠBel ow
ĠCl an
ĠE g
ĠFor rest
ĠH abit
ĠHindu ism
ĠM und
ĠMcC oy
ĠN iss
ĠPic ard
ĠSpart a
ĠTr ondheim
Ġa fore
Ġde af
Ġexcav ation
Ġg land
Ġimportant ly
Ġkick ing
Ġpl ac
Ġrib bon
Ġsh ru
Ġwork load
F rank
ff iti
ob ia
shadow ed
u ly
Ġ= >
ĠAlam os
ĠB olshe
ĠCh at
ĠCom par
ĠE rik
ĠO val
ĠOcc up
Ġadvert ised
Ġban anas
Ġc ush
Ġdis gr
Ġexplos ions
Ġh opped
Ġlaugh s
Ġpupp y
Ġrep roduce
Ġsh attered
Ġst ark
Ġund efeated
-in ter
Em ily
W ar
im on
oc ating
ĠD res
ĠD ri
ĠFact or
ĠInsp ector
ĠLud wig
ĠMyst ery
ĠParalymp ic
ĠS I
ĠS ure
Ġbrows er
Ġcharacter ization
Ġdown graded
Ġfoli age
Ġfulfill ment
Ġra ft
Ġtribut aries
-c reat
an ing
ar ie
ener gy
g ang
t able
ĠBelf ast
ĠBo one
ĠF ew
ĠF iji
ĠFow ler
ĠOkin awa
ĠR umble
ĠSpart an
ĠT il
Ġairfield s
Ġattrib ute
Ġcan e
Ġev angel
Ġl odge
Ġm apping
Ġt apes
ĠÏ Ģ
-c he
. W
er at
f i
ou ble
tt es
Ä Ļ
ĠEr lewine
ĠPl ans
Ġa irst
Ġacc olades
Ġchick s
Ġdial og
Ġem pt
Ġexception ally
Ġexp osing
Ġinit iate
Ġpneum onia
Ġsor cer
9 9
Char les
er oy
ex ts
ie gel
ik ovsky
pend icular
ĠAr j
ĠCr imson
ĠEp stein
ĠJar rett
ĠL uck
ĠR ust
ĠRap ids
ĠW S
Ġabrupt ly
Ġb ron
Ġblend ed
Ġbomb ed
Ġdial ects
Ġepid emic
Ġhold ings
Ġhospital ity
Ġprotoc ols
Ġrem astered
Ġrev isions
Ġsab ot
Ġsub plot
Ġth ief
Ġup ward
es a
ĠAnat omy
ĠFal con
ĠK od
ĠVick ers
ĠW hed
Ġadul thood
Ġancest ral
Ġch ir
Ġfl anks
Ġgo at
Ġins ane
Ġminor ities
Ġmult im
Ġqu arry
Ġs ar
-A t
L ife
P at
d aughter
er un
it as
uff le
ĠAv atar
ĠB ly
ĠD esp
ĠKarn ataka
ĠMur der
Ġcoordin ator
Ġg ad
Ġnight mare
Ġposition ing
Ġremix ed
Ġrhy me
Ġsound ing
-D ay
Cons ider
ace ans
out heast
ra int
ĠD uck
ĠOsw ald
ĠSuz uki
Ġassault s
Ġcl ashed
Ġdegrad ation
Ġencry ption
Ġheight ened
Ġn ail
Ġneed ing
Ġprocess ion
as ian
erv ille
hed dar
r als
rolog ical
ĠA in
ĠEll ie
ĠExp o
ĠH ub
ĠRo asted
ĠSm ash
Ġmark ers
Ġun iqu
ad as
and el
att on
fle et
nd an
ĠAh med
ĠB order
ĠD ix
ĠStand ing
ĠWess ex
Ġar rows
Ġbe ak
Ġcandid acy
Ġconfisc ated
Ġcont exts
Ġgate way
Ġm ates
Ġnatural ist
Ġpup il
Ġqu inoa
Ġsup rem
-b earing
S ocial
U L
inc luding
ll an
op ath
ting u
ul iar
um per
ĠAcc ount
ĠBe aver
ĠC indy
ĠCh rys
ĠConfeder acy
ĠEd itor
ĠEv ents
ĠF ruit
ĠJur assic
ĠMe et
Ġbutter flies
Ġch ill
Ġco ated
Ġex tingu
Ġf ade
Ġfor um
Ġnews letter
pp elin
y ch
ĠAs hes
ĠHam m
ĠJ ut
ĠK ri
ĠNAS CAR
ĠPhill ip
ĠPol es
ĠRe venge
ĠSet ting
ĠT we
Ġconsp ir
Ġimp ly
Ġkn ocking
Ġn od
Ġobserv es
Ġpar achute
Ġpled ged
Ġrece i
Ġsp inal
Ġtax ation
-b it
AR D
ag hetti
ak o
ary a
atche wan
imp se
rov ision
Ġ4 40
ĠCob b
ĠD oyle
ĠEver ton
ĠG an
ĠHun ters
Ġcommemor ative
Ġeject ed
Ġfix tures
Ġforecast s
Ġkick off
Ġor nament
Ġosc ill
Ġunivers ally
Ġunre leased
" .Ċ
B ritish
F ilm
G eneral
Ph il
Sim ilar
isc opal
Ä ĳ
ĠA ver
ĠAp ost
ĠC i
ĠCitiz ens
ĠCl ara
ĠLore n
ĠR ocks
ĠSche er
Ġadd ict
Ġclean ed
Ġconcept ual
Ġdisc retion
Ġfib ers
Ġmir rors
Ġne on
Ġor ch
Ġrem od
Ġsan ction
Ġvent ures
-C on
per ing
re a
run ner
tt p
yr ically
ĠC oke
ĠClif ford
ĠD ear
ĠG aul
ĠGame Cube
ĠN A
ĠSl oven
ĠV ie
ĠW izard
Ġhat red
Ġlic ensing
Ġminimal ist
Ġmus ically
Ġmyth s
Ġshowc ased
. d
S ource
m ire
ov ar
ĠDep ending
ĠFl otilla
ĠFle m
ĠFor um
ĠSal em
ĠSam s
ĠTal iban
Ġag round
Ġbowl s
Ġcollabor ator
Ġhook s
Ġmention ing
ab lo
b els
idel ity
ies el
r ath
ĠAthen ian
ĠDuch y
ĠK ad
ĠMal vern
ĠR ag
ĠR he
ĠSid ney
ĠSu k
ĠT enn
ĠT rial
ĠWater loo
ĠYucat Ã¡n
Ġfrost ing
Ġgentle man
Ġinquir ies
Ġocc ult
Ġs alsa
Ġv om
ep isode
p age
p ur
ĠB ound
ĠCom et
ĠImpro ved
ĠMac donald
Ġarch ives
Ġcons erve
Ġd unge
Ġdep ended
Ġdep leted
Ġdis integ
Ġdiv ert
Ġh ated
Ġneed le
Ġpseud onym
Ġselect ive
Ġst rang
Ġsynthes izer
Ġunav ailable
-he arted
op per
ĠAt omic
ĠBl ind
ĠC osm
ĠCelt ics
ĠG ett
ĠK aw
ĠNapole onic
ĠRB Is
ĠRep eat
ĠTal bot
ĠTown send
ĠW augh
Ġad ren
Ġcontest ant
Ġenvelop e
Ġhand held
Ġhold ers
Ġint est
Ġp uff
Ġretal iation
Ġshould n
Ġstand out
Ġtall er
Ġty res
In tern
b uck
ple t
r ades
stit utes
ug ging
ĠBie ber
ĠNo ah
ĠPaul a
ĠSil va
ĠSt akes
ĠVol can
Ġbacter ial
Ġconc ession
Ġcont ention
Ġdev ote
Ġhes itate
Ġinstit uted
Ġjoint s
Ġmarry ing
Ġp acing
Ġp aternal
Ġsal aries
Ġsl ogan
Ġth resh
Ġwreck ed
-Ad miral
ater mass
ĠB olt
ĠBru ins
ĠEd dy
ĠL ester
ĠLev i
ĠMel issa
ĠSold ier
ĠV ale
ĠVett el
Ġc ows
Ġcrick eter
Ġinapp ropriate
Ġmic rowave
Ġn urt
Ġr hin
Ġsatell ites
Ġsk ip
Ġtheore m
### ĊĊ
- ent
St ate
amp us
du p
y ah
ĠBudd y
ĠCre te
ĠS ina
Ġadvent urous
Ġfemin ine
Ġobs ession
Ġpreval ence
Ġs aga
Ġsuff rage
-equ ipped
-m atch
8 00
nae us
ru ce
× ķ
âĤ¬ ĊĊ
ĠAtl antis
ĠCarl o
ĠCarne gie
ĠG C
ĠSuper ior
ĠU b
ĠVers ion
Ġclass rooms
Ġdeterm ines
Ġf ocal
Ġlux urious
Ġpr inces
Ġprot otypes
Ġrepr inted
Ġste pping
Ġthought ful
Ġvow el
19 5
= 20
B el
P ost
av o
cl osed
ew s
Ã¨ res
ĠAven gers
ĠCy ber
ĠD irty
ĠN os
ĠS iber
Ġdem os
Ġsp elled
ĠÎ ±
-rec orded
-store y
-th rough
an ity
iv ided
oul ton
[...]
