#version: 1
h e
Ġ t
Ġ a
Ġ s
Ġ w
n d
Ġt he
e d
Ġa nd
Ġt o
Ġ b
i n
Ġ h
Ġw a
r e
o u
Ġ f
i t
Ġ l
Ġ c
Ġ d
e r
Ġ he
Ġ m
Ġ p
Ġwa s
o m
Ġ T
Ċ Ċ
Ġ o
a y
a r
i s
in g
i l
Ġ g
i d
a t
e n
Ġ n
Ġs a
Ġh a
ĠT he
Ġ S
a n
i m
o r
o n
Ġ it
Ġt h
. ĊĊ
l l
l e
Ġ H
Ġhe r
o t
e t
i r
ĠS he
e s
ĠH e
Ġ in
v er
u t
o w
ĠThe y
c k
Ġ e
Ġ u
l d
Ġ y
o o
Ġsa id
il y
i g
Ġ "
Ġ r
Ġb e
a m
Ġs t
Ġ I
c e
k e
Ġs he
v e
p p
it h
Ġw ith
L ily
O n
Ġo n
Ġy ou
Ġo f
k ed
r i
n t
Ġh is
Ġp l
Ġs o
a d
ver y
Ġd ay
Ġth at
Ġu p
Ġpl ay
Ġha d
s t
Ġthe y
Ġ Lily
Ġw e
Ġm om
Ġf or
Ġ B
e l
u n
ou ld
' s
m y
T he
Ġl i
c h
en t
Ġha pp
Ġwa nt
it t
Ġs h
ou t
he r
Ġd o
Ġn ot
l y
om e
s e
Ġ very
ou nd
e nd
a ll
Ġw h
im e
itt le
Ġ k
Ġt ime
Ġl ittle
a l
Ġthe re
Ġ M
" ĊĊ
Ġn e
h t
Ġ re
Ġhapp y
Ġb ig
Ġs m
Ġ is
ĠI t
Ġ ĊĊ
Ġb ut
a ck
Ġa n
Ġsa w
ri end
r y
Ġf riend
Ġa s
r a
On e
id e
a ke
' t
u g
Ġl oo
v ed
t er
Ġwe re
Ġl o
o re
On ce
e c
Ġto o
Ġh im
Ġg o
Ġb o
Ġs e
Ġa re
ir l
ĠT im
Ġ j
ar d
Ġwant ed
il l
Ġup on
Ġg irl
Ġthe m
Ġ out
Ġa t
Ġthe ir
u r
i nd
f u
Ġs p
w ay
Ġ A
Ġd id
Ġsm il
Ġc ould
he n
Ġha ve
a in
ar t
he d
Ġe x
! "
r om
Ġw ent
Ġa r
i c
Ġc an
ĠB en
l p
Ġ J
fu l
oo d
Ġfriend s
Ġn am
h ing
ig ht
Ġa ll
Ġk n
Ġhe lp
u m
Ġs ay
ar k
on e
Ġb ack
. "ĊĊ
Y ou
Ġc l
Ġf un
ĠT om
a re
Ġn o
Ġl e
o p
Ġs c
Ġnam ed
Ġsmil ed
Ġa l
ou g
Ġlo ved
s ide
el t
Ġ One
Ġm an
i ck
Ġas ked
Ġto y
Ġli ke
Ġf e
Ġf elt
Ġloo ked
Ġse e
Ġs ome
Ġm e
Ġar ound
am e
om et
ĠTim my
Ġ W
Ġr o
Ġb r
u re
Ġb ir
g et
i ce
Ġw ould
Ġbo y
Ġst art
on g
s s
Ġbir d
Ã ¢
â Ĥ
âĤ ¬
Ġs omet
Ġf a
d d
ing s
Ġa g
Ġw or
Ġwh at
ad e
Ġm ake
k ing
, "
i e
ĠB ut
Ġ You
ow n
Ġr an
get her
Ġt re
Ġa way
Ġsay s
ar ed
a g
Ġstart ed
ou d
i f
. "
Ġm ade
Ġc ar
Ġto gether
Ġsomet hing
t her
Ġp ark
Ġc o
it ed
Ġsa d
Ġo ther
Ġne w
? "
Ġp ut
Ġf rom
Ġex c
e ll
Ġp r
Ġ L
Ġl a
Ġh ug
b le
oo k
Ġag ain
Ġm u
a ch
Ġh ome
Ġw hen
Ġg ood
e p
h at
Ġwh o
es t
ri ed
Ġf l
Ġf ound
Ġthe n
Ġc h
pp ed
Ġd ec
Ġwa l
a s
Ġg et
q u
Ġplay ing
oug ht
p l
Ġs w
n n
Ġ E
all y
ou s
Ġth ings
Ġli ked
u ck
Ġexc ited
Ġg ot
r o
id ed
Ġb l
Ġdec ided
a ve
ar a
Ġc ame
Ġe very
Ġ D
ĠM om
Ġyou r
a x
Ġdo g
Ġsc ared
Ġ v
u st
Ġon e
Ġd own
ou se
Ġf ind
n y
Ġc are
Ġbe c
is t
a p
nn a
Ġth an
Ġfe el
u e
u dd
Ġd ad
The y
Ġa b
Ġm y
Ġloo k
Ġw ill
ar n
Ġ ke
ou r
Ġg r
u s
Ġg ra
nd er
way s
Ġdid n
es s
f e
Ġp o
Ġal ways
Ġab out
Ġtoo k
an t
Ġmom my
b b
Ġl ot
Ġtoy s
er s
Ġkn e
is e
Ġout side
Ġb all
Ġtre e
it e
Ġ F
Ġth ought
ĠS am
Ġm ore
Ġt a
ec i
en ed
c hed
! "ĊĊ
Ġle arn
re t
Ġh o
Ġo ld
Ġin t
g ed
Ġkn ow
Ġs or
Ġla ug
Ġc at
Ġt ake
eci al
Ġsp ecial
Ġkne w
ĠM ax
udd en
i ve
i a
Ġp e
Ġan y
Ġt r
f ter
udden ly
Ġh ow
? "ĊĊ
Ġsh ow
m a
in k
Ġsor ry
a u
B ut
Ġr un
is h
Ġmu ch
Ġt w
a nd
Ġha nd
Ġs l
Ġh ouse
v en
Ġo r
Ġo p
Ġs k
Ġm o
Ġcl o
Ġint o
Ġs un
Ġt ried
Ġin side
at e
Ġto ld
Ġwa ter
an k
T om
um p
Ġth is
Ġpr oud
Ġ if
Ġcould n
Ġ en
Ġg ave
Ġ qu
Ġo ver
ĠS ara
d y
Ġhe ard
a ce
Ġne ver
Ġe ach
t y
b y
Ġro om
Ġe at
ĠW e
ĠE very
au se
Ġex pl
ĠA nna
ot her
Ġp ick
Ġp ret
M om
Ġplay ed
i on
et ter
g e
a k
Ġhug ged
Ġj ust
Ġg re
he re
Ġc om
Ġof f
Ġwa t
Ġbo x
ot h
Ġn ice
Ġbec ause
Ġne ed
' m
Ġst r
il e
Ġman y
Ġf o
Ġsm all
Ġbe ar
Ġj o
Ġb u
i z
u c
v ing
g ry
Ġl ong
in e
im al
Ġan imal
or t
Ġs n
oug h
Ġt ry
Ġu nt
ur t
il d
s el
Ġunt il
s ed
Ġlearn ed
ĠJ ack
Ġk ind
Ġlo ve
Ġ im
Ġb etter
Ġfl ow
f t
Ġc all
H e
Ġd on
u ll
Ġe nd
Ġb est
Ġa d
ĠM ia
e m
ar s
Y es
v ent
ad y
ur p
ĠJ o
a ut
Ġc le
ur n
re am
ĠA nd
v es
ard en
Ġ C
Ġg arden
Ġcare ful
Ġfa st
b er
Ġbe aut
âĤ¬ Å
âĤ¬Å ĵ
T h
Ġb ra
Ġf i
Ġe ven
ll y
i es
Ġthan ked
ĠS o
Ġc he
Ġsk y
p t
Ġlaug hed
I t
Ġb y
ĠH er
Ġj ump
Ġl oud
Ġt e
a se
Ġg l
sel f
in y
Ġl ist
w n
Ġbeaut i
Ġc ome
Ġwa y
le w
Ġbeauti ful
Ġh ard
Ġw o
Ġlot s
Ġanimal s
Ġf am
Ġh urt
Ġst ill
Ġr a
Ġu nder
Ġ Ã¢
ĠThe n
ec t
c t
Ġl et
Ġst ay
n ing
Ġb oth
Ġc u
he s
ĠH is
b e
Ġsa fe
ĠF rom
oo l
Ġco l
Ġb ad
re e
Ġim p
op le
Ġtw o
k ay
Ġb ook
Ġre m
Ġli ved
o ck
an e
T im
Ġwal ked
a st
Ġsh ould
Ġbra ve
Ġit s
o b
uc y
urp r
Ġan gry
is hed
re ss
Ġfam ily
Ġs urpr
ig h
Ġr ed
Ġpe ople
! ĊĊ
Ġf lew
N o
W hen
Ġcall ed
Ġst or
i p
Ġf in
Ġso on
L et
Ġsh are
Ġd an
f ore
l ed
Ġf ore
Ġf ly
Ġke pt
h n
x t
is ed
Ġp ic
dd ed
Ġdo or
Ġ P
Ġgo ing
Ġpret ty
âĤ¬ â
ĠW hen
Ġcle an
Ġke ep
Ġro ck
Ġd ra
Ġn ow
ar y
um my
Ġsh iny
B en
Ġad vent
Ġno ise
Ġc ry
Ġop ened
Ġw ind
ag e
Ġdo ll
Ġbe fore
Ġc on
Ġre al
Ġ ide
il ly
i ed
Ġexpl ore
s o
Ġst o
W hat
Ġal so
Ġgr ound
le s
Ġt urn
Ġe y
Ġf r
T hat
Ħ ¢
âĤ¬â Ħ¢
Ġide a
Ġf ar
Ġcol or
o on
Ġno dded
Ġwa r
o y
t h
Ġpick ed
Ġfeel ing
im b
Ġne xt
Ġu n
Ġha s
t hing
t ure
Ġwal king
Ġcl imb
ĠL ucy
Ġm a
u ch
ĠD ad
Ġwh ile
k es
e et
Ġth r
Ġsmil e
Ġb ed
Ġadvent ure
ay be
Th ank
g er
ic ed
i ous
Ġbe ing
Ġ G
Ġd if
Ġw r
Ġf ood
Ġclo s
Ġg ive
Ġpic ture
j oy
t ed
Ġth ink
ĠS p
Ġtr uck
Ġto w
f f
Ġlist en
Ġloo king
a c
Ġey es
Ġwa it
Ġd el
ug ht
Ġbr o
t ing
Ġsto pped
Ġre pl
Ġa fter
Ġb re
Ġo wn
Ġwal k
Ġv o
em ber
ĠS uddenly
Ġhand s
Ġhe ad
Ġgre at
Ġflow ers
Ġsh out
Ġwo nder
S uddenly
Ġbl ue
Ġen joy
Ġimp ort
Ġe ver
iz ed
S he
Ġnot iced
Ġfore st
Ġne ar
bb it
ir st
Ġd is
Ġqu ick
Ġa pp
Ġf ish
a ble
Ġimport ant
Ġd e
Ġrem ember
ll ow
Ġs ound
Ġsl ide
ma z
Ġu s
Ġa maz
Ġrepl ied
Ġr ain
Ġo kay
Ġshow ed
Ġwat ch
Ġa c
le ase
Ġwor k
Ġme an
Ġas k
Ġt al
g an
bb ed
fe re
by e
Ġra bbit
Ġdif fere
d ay
Ġr ight
Ġbr ight
Ġst ick
W e
Ġfo llow
Ġs qu
Ġwat ched
Ġstr ong
ĠSp ot
Ġevery one
Ġy e
Ġu se
Ġt ra
A nna
Ġbe en
Ġm or
Ġ our
Ġw here
Ġvo ice
Ġy ell
S o
er ed
Ġ N
at h
Ġquick ly
Ġbo at
ĠMom my
Ġdiffere nt
ĠB ob
Ġcu ri
Ġch ild
ĠS ue
Ġfa ce
n g
Ġs ure
Ġbec ame
Ġh op
L ook
Ġgood bye
Ġa m
Ġpl ace
Ġdo es
an ge
Ġst ore
Ġh igh
Ġclos er
S ara
a ught
Ġ R
Ġc r
Ġd ress
Ġwar m
Ġm ag
il a
Ġcuri ous
un ny
Ġt ell
Ġfor g
Ġc ook
Ġbe l
Ġfa v
a ss
nd ma
Ġc ake
c o
J o
ou nt
le ep
Ġth ree
Ġop en
Ġn ight
m ore
Ġany more
Ġbl ock
Ġhe re
Ġp ull
it c
Ġb us
is s
H er
Ġf irst
a ched
ir ed
im es
Ġbut ter
Ġ z
Ġp ain
ĠT h
" I
or n
Ġk id
Ġgra bbed
Ġsw eet
C an
Ġp u
is y
Ġfe ll
Ġm on
Ġle a
Ġon ly
Ġr u
Ġbird s
Ġb a
Ġsa nd
Ġcon t
itc hen
Ġk itchen
Ġjump ed
Ġgl ad
Ġb it
Ġse es
Ġfi re
Ġhelp ed
Ġst op
Ġfl o
Ġp er
Ġs ing
ĠSara h
Ġhapp ened
Ġgra ss
Ġt ri
Ġshout ed
Ġd r
ĠL et
Ġb unny
A fter
Ġstor y
nt s
" O
a ir
Ġbe h
ĠD o
Ġreal ized
Ġre ached
Ġbr other
pp y
Ġy ummy
ĠJ ane
Ġl ady
Ġha ving
Ġpr in
in s
Ġfav or
ĠA s
Ġdra w
ak es
Ġm ess
Ġm um
Ġc re
Ġat e
Ġh at
' re
Ġfavor ite
Ġl ess
Ġunder st
Ġso ft
Ġg ame
ĠEvery one
Ġre st
z y
Ġthr ough
Ġp are
Ġth ing
Mom my
w here
Ġre ady
ĠC an
Ġpret end
ĠT hat
Ġre ally
Ġp ap
at her
Ġbe gan
Ġlook s
Ġmag ic
k en
Ġwor ld
Ġc ut
Ġhim self
at er
Ġma king
fu lly
Ġd one
Ġd uck
Ġbutter f
Ġkid s
ĠJo e
Ġcom ing
Ġwa ved
Ġpo nd
Ġwh y
st er
Ġt ired
Ġp rom
Ġfi x
Ġcar s
Ġf ro
W ow
Ġwor ry
Ġst e
Ġnam e
Ġp art
ed dy
Ġdel ic
Ġto uch
Ġcat ch
Ġm ouse
a isy
Ġf ill
Ġflow er
o lly
ig n
Ġu sed
Ġfun ny
Ġha ir
re l
s h
Ġc ried
b o
u ff
Ġse en
Ġto p
Ġan other
i ent
Ġho ld
Ġpare nts
Ġta st
one y
Ġblock s
Ġp us
Ġc ool
ĠJo hn
i ver
Ġho pped
Ġdo ing
m er
h y
Ġgre en
Ġl ight
A s
Tim my
Ġsurpr ise
Ġless on
Ġthan k
at ion
âĤ¬ ĊĊ
Ġflo or
D on
Ġre ad
Ġd in
Ġd ri
Ġc ra
Ġwind ow
Ġf ull
ard s
Ġg i
Ġpap er
Ġli kes
Ġw ood
Ġrun ning
Ġd ro
Ġw ished
Ġbeh ind
Ġsm ell
Ġyell ow
Ġtre es
Ġwor ked
Ġd ark
Ġsw im
Ġsp ot
Ġb ag
and y
u l
Ġb ow
Ġ -
Ġye ars
S am
u ed
re n
Ġs at
Ġsh o
Ġs leep
Ġhapp ily
el y
i ke
ar ing
Jo hn
Ġsurpr ised
Ġlo st
Ġbutterf ly
Ġfro g
Ġsw ing
Ġs et
Ġsl ow
Ġcare fully
ell o
Ġremember ed
Ġhe ld
Ġco ld
H ello
ĠI n
Ġlaug h
Ġneed ed
Ġ ice
re w
Ġho le
Ġbu y
Ġper f
on s
Ġle ft
Ġmo ve
Ġhe ar
Ġwr ong
Ġany thing
u it
Ġ Ċ
c ess
Ġt all
re ed
Ġenjoy ed
Ġfa ir
Ġfollow ed
Ġd ream
in ally
Ġh un
Ġbook s
Ġa ir
Ġar ri
Ġta ble
ro ss
Ġd ir
Ġchild ren
Ġe l
Ġsn ow
Ġdelic ious
Ġfin ished
Ġfriend ly
Ġcont in
Ġher self
Ġh ot
Ġh ill
d s
Ġunderst and
en s
Ġp lease
! Ã¢
ĠA fter
l f
Ġclo se
Ġh id
Ġar m
in ed
Ġm ight
Ġc ast
s p
Ġt ight
Ġg ent
Ġforg ot
Ġarri ved
Ġel se
Ġba by
Ġwonder ful
Ġbu ild
Ġcolor s
ie ld
Ġb ug
Ġre l
ĠD aisy
ĠBen ny
ĠL ila
Ġbro ken
a v
Ġg one
Ġa ble
ir rel
ĠN ow
n er
Ġs ong
Ġy es
ĠS ally
Ġwa ll
. Ã¢
The n
Ġm at
Ġfill ed
Ġsome one
Ġcre at
Ġag reed
as ure
i ch
" Look
Ġwant s
ro om
Ġcontin ued
Ġsqu irrel
Ġp at
J ack
Ġc ount
' ll
as k
Ġp ink
Ġlea ves
Ġli on
ĠThe re
ĠE m
e e
F rom
ĠTom my
Ġen ough
Ġv is
am a
e y
Ġmom ent
Ġget ting
Ġmor ning
Ġfin ally
Ġbre ak
Ġcook ies
Ġstay ed
ĠM aybe
Ġpo in
as h
an ce
a pp
Ġsomet imes
Ġsc ary
ri es
Ġf ight
Ġhun gry
Ġbe ach
Ġf all
Ġgra ndma
Ġ K
r ow
Ġfe w
Ġj u
Ġw et
c ed
Ġdin ner
r ed
Ġturn ed
Ġtry ing
Ġm akes
g on
Ġp i
Ġamaz ing
Ġdad dy
Ġother s
Ġm other
ĠW hat
Ġc ream
a pped
ic y
Ġclimb ed
H is
Ġcast le
Ġpicture s
ke y
Ġcom p
Ġperf ect
ĠTh is
A t
Th is
Ġtal k
Ġmu s
Ġm et
Ġsmil es
am p
o om
m an
Ġlist ened
Ġf ur
Ġball oon
ou p
Ġwh ite
Ġcl ot
or ing
Ġclot hes
Ġta il
Ġpo l
Ġm ar
ĠB illy
l c
r ot
Ġal one
Ġsp l
ĠG ra
Ġpu ppy
Ġjo y
ct or
Ġwas n
at ed
en ce
Ġp et
Ġbr ought
Ġevery thing
Ġde ep
Ġs it
Ġse ar
is ter
Ġask s
Ġsp ark
Ġsa il
Ġpull ed
Ġgr ow
Ġstr ange
d er
ot t
Ġwood s
ĠT o
l ing
" .
uff y
Ġr ide
Ġpl an
Ġw on
Ġdan ger
et er
uck y
Ġro ll
Ġfo x
Ġp ie
Ġvis it
o s
" S
Ġtre at
m ed
Ġmus ic
Ġle ave
Ġt eddy
ĠJ en
ĠA my
Ġh ide
Ġamaz ed
Ġwa ited
an g
m e
e ver
Ġtow ards
Ġ O
ow er
M ax
Ġla nd
" Yes
Ġrun s
z z
Ġf ield
Ġfly ing
ap e
Ġown er
Ġp en
Ġp re
Ġs illy
ain ed
Ġsh ared
Ġli ving
Ġjo b
am es
Ġqu i
Ġcl oud
M aybe
Ġprom ised
Ġs ide
ig g
Ġthink s
ug g
Ġbel ie
Ġg u
g s
o l
Ġpain t
Ġmor al
th y
or m
ck et
Ġp a
op e
Ġl ake
is es
Ġwe ar
Ġs ec
Ġr ace
Ġqui et
Ġs ister
av y
Ġpart y
Ġmu st
Ġm oney
c le
u ally
s w
Ġbr an
ec es
Ġcolor ful
u p
Ġcu p
as ed
Ġpi eces
Ġwor ried
Ġan sw
Ġslow ly
Ġb ott
un ch
Ġgr ate
Ġo w
Ġbro ke
Ġfast er
ĠJ im
Ġdan ce
i x
Ġp ot
Ġwe lc
Ġbig ger
Ġgrate ful
z e
Ġs uch
Ġc andy
Ġtra in
Ġmon ster
Ġre ach
Ġch o
" No
" Wow
Ġg if
p h
Ġsn ack
f ort
" Let
Ġbl ank
ĠA ll
Ġr iver
Ġbl ack
Ġpl ant
Ġpr o
le ss
Ġtre asure
Ġb ike
Ġsc ream
Ġe le
Ġ ve
Ġjo in
Ġw in
i re
Ġdanger ous
Ġblank et
Ġb ar
Ġevery where
Ġmagic al
Ġprin cess
e ar
Ġsm art
out h
Ġdra gon
Ġhelp ing
Ġn ap
Ġac ross
Ġm outh
Ġmon key
Ġmo st
Ġtow er
Ġfar mer
Ġs ign
s et
Ġe m
i pped
ĠDad dy
Ġdis app
Ġj e
Ġdoll s
W hy
Ġwor ds
Ġdir ty
Ġhe avy
m ing
H i
Ġp ass
d e
Ġdo ctor
Ġtw ins
Ġth rew
Ġb ite
b ble
Ġbow l
e ared
or ed
Ġcry ing
Ġsa me
Ġste pped
ĠF l
Ġst re
Ġbe e
id ent
e re
Ġsp r
Ġac c
Ġhe al
Ġbelie ve
Ġb ath
Ġcar rot
Ġwould n
ck ed
Ġfr uit
Ġhe art
ĠM olly
Ġclo sed
Ġh ig
M ia
ch ool
Ġc our
Ġb uck
Ġst uck
ĠM r
Ġat t
Ġhop ed
Ġte ac
Ġm ix
ask et
Ġfeel s
ĠJ ill
Ġm in
Ġb asket
Ġbr own
Ġs uddenly
Ġs chool
Ġcr ay
Ġbut t
Ġeat ing
Ġto wn
Ġcour se
Ġfair y
Ġch air
it ing
Ġcl apped
Ġco ll
Ġp ack
? Ã¢
Ġgent le
Ġst and
pp ing
Ġpus hed
i er
Ġdro ve
is sed
vent ually
t s
Ġwelc ome
or s
Ġsw ings
Ġwith out
Ġh it
Ġne igh
or d
Ġto day
" What
Ġhig her
or row
Ġpo cket
Ġteac her
b r
Ġneigh b
Ġp ers
Ġb en
Ġfor get
Ġw ings
Ġg ames
Ġpie ce
Ġy ard
ra ct
Ġsm o
Ġexpl ained
Ġf ree
Ġacc ident
Ġlong er
Ġne ck
Ġche ered
h o
F inally
Ġc orn
um b
Ġno ises
our n
ĠM ary
e ad
Ġd ry
L ila
Ġj ourn
i ble
Ġal ong
Ġhapp en
Ġin st
Ġl ate
Ġsa ng
Ġhug s
m ent
Ġthr ow
" Can
Ġturn s
c y
itt ing
Ġl on
Ġsho es
Ġstor ies
Ġm iss
Ġwe ll
ve l
Ġsing ing
ph ant
c hes
Ġyou ng
Ġtr ou
Ġadventure s
Ġlon ely
Ġse a
ou n
Ġup set
Ġl unch
Ġsec ret
Ġsh ap
. Ċ
Ġd ist
Ġw ish
Ġele phant
Ġke y
Ġpl ac
Ġsh ook
Ġf ence
Ġapp le
Ġst ar
Ġm ine
ount ain
Ġbel ong
Ġp urp
Ġstre et
Ġto m
bb y
fu sed
aught y
Ġye ar
e k
Ġmo ved
Ġst ars
Ġn aughty
Ġsh op
Ġexpl oring
Ġc aught
Ġp h
Ġw he
Ġw ise
D o
Ġj ar
Ġnear by
ock ed
Ġs oup
Ġow l
b ow
y ard
Ġbr ing
Ġs u
Ġdro pped
Ġin v
Ġrock s
Ġback yard
Ġ es
Ġex p
Ġsee med
Ġbuck et
ll o
ĠGra ndma
Ġdr ink
a il
Ġsw am
Ġpurp le
Ġc a
w ard
Ġshap es
Ġb at
c es
Ġ 3
Ġrel ie
Ġta king
Ġfar m
Ġre sp
Ġd es
Ġor ange
us h
co l
Ġma il
aught er
Ġth ough
ĠEm ma
ad ow
Ġben ch
A nd
ion s
Ġp ast
Ġwo ke
ĠTh ank
Ġa f
Ġc ow
Ġst u
un g
Ġn est
Ġsound s
w eet
Ġbus y
Ġta kes
s y
es e
Ġno se
Ġf it
Ġt iny
Ġju ice
Ġm ark
it y
Ġc ou
Ġarm s
Ġm ad
Ġrain bow
Ġcom es
Ġhold ing
O kay
Ġwonder ed
Ġo b
ĠFl uffy
f ish
Ġnot hing
th day
Ġs itting
t o
Ġk ite
Ġp ig
Ġd aughter
Ġbran ch
re ad
Ġco at
Ġc ir
in ing
ra id
Ġaf raid
c ing
o g
O h
Ġdri ver
id ge
pp er
ĠIn side
Ġli ft
Ġsp oon
Ġcut e
Ġm il
Ġs ick
Ġfore ver
Ġb oun
ver ed
Ġrelie ved
Ġcar ry
o se
" It
Ġr ound
our s
Ġpe ace
Ġk ing
Ġgif t
st ing
Ġhe llo
ĠF inally
Ġbir thday
u nt
Ġto u
Ġtou ched
Ġpat ient
ĠC ome
Ġprom ise
Ġche ese
" Hello
c er
et h
Ġl etter
le t
" Thank
Ġa ct
Ġgra b
Ġhug e
Ġf ing
Ġint ere
s c
Ġon to
bo ard
itt ens
Ġday s
Ġsun ny
Ġlaug hing
Ġbre ad
Ġb and
He y
Ġg igg
Ġshe ll
Ġcreat ure
Ġexc iting
p ed
ar p
ĠM ama
Ġp ower
Ġli fe
Ġswim ming
Ġdis co
Ġcra w
Ġjourn ey
Ġbott le
Ġhop e
Ġk ick
Ġwh ist
sh ine
g ged
Ġre t
Ġm ist
Ġim ag
Ġsp in
Ġco zy
Ġbus h
Ġcom fort
al m
Ġsh arp
Ġin c
Ġw ra
Ġs uc
g g
Ġmil k
Ġinst ead
Tom my
Ġwatch ing
Ġaccident ally
Ġe ar
Ġput s
Ġl ucky
Ġc ave
Ġe as
t en
Ġp udd
Ġsun shine
Ġret urn
Ġgi ves
ĠSam my
ĠSo on
Ġpoin ted
n ess
Ġcoll ect
L ater
Ġh oney
it ch
p a
Ġtal ked
Ġsp o
Ġl ater
Ġ ent
Ġh or
Ġro ad
Ġg ather
Ġsear ched
Ġsmil ing
ir t
Ġw om
Ġb ought
Ġany one
b all
Ġwom an
el s
itt en
ĠT weet
Ġduck s
iz e
Ġme et
B ob
Ġf an
ble m
Ġc e
Ġsand w
Ġpro blem
"O K
r ound
Ġapp les
Ġlo ves
G ood
Ġm ach
Ġheal thy
u b
Ġsp id
Ġp ile
Ġintere sting
Ġk iss
am ed
Ġad m
Ġr ope
Ġw ide
e b
Ġcray ons
âĤ¬Åĵ I
Ġtrou ble
L ucy
a ur
Ġbutt on
on t
Ġv ill
ck s
Ġpre s
Ġz oom
Ġtast y
Ġcle ver
Ġpr ot
Ġsmell ed
o ve
Ġpers on
Ġfe ather
Ġcloud s
ow ed
Ġpl ane
Ġsh ining
Ġmat ter
Ġe ag
Ġp op
ĠW ith
Ġprot ect
nd pa
Ġp ath
Ġstor m
Ġp ill
Ġfr ont
ĠJim my
" W
Ġmu d
Ġp ract
er ly
Ġscream ed
Ġv al
Ġsnow man
Ġresp ect
Ġh on
Ġa p
Ġspot ted
Ġor gan
Ġsa f
Ġz oo
C ome
Ġmin ut
is a
ĠE ll
Ġpres ent
Ġdan ced
Ġp ar
Ġsn ake
" That
Ġqu est
Ġpu zz
Ġmy ster
Ġse at
Ġb ark
ep end
o nd
Ġth in
Ġapp eared
Ġte ach
Ġwh ich
Ġlove ly
J ust
Ġansw er
Ġas leep
Ġche er
Ġw ild
Ġs ur
Ġneighb or
J im
er t
a le
Ġm ed
Ġgent ly
Ġgo es
Ġhor se
M olly
Ġwho le
Ġtri es
omet imes
Ġwe aring
e en
Ġcorn er
Ġplac es
M um
ul ar
Ġdir t
Ġsear ch
Ġimp ress
oo se
Ġcon fused
Ġph one
Ġspl as
Ġsh r
Ġforg ive
Ġli ve
E very
Ġtri p
ĠEm ily
Ġgi ant
ce an
Ġroll ed
Ġo cean
Ġas h
Ġc ard
Ġte eth
" .ĊĊ
l a
Ġm ind
Ġsu pp
Ġtast ed
Ġd i
Ġsl id
ĠG o
itt y
n ic
Ġru de
Ġp our
Ġsp ent
Ġspid er
Ġpic nic
e x
Ġmach ine
Ġc alm
Ġdri ve
ĠH ow
Ġs er
at o
Ġpretend ed
S ure
Ġp an
Ġo ven
Ġwor m
iz z
I n
ss ed
Ġre c
Ġfur ry
Ġla st
Ġdel ight
un k
Ġl ay
Ġfe et
Ġcook ie
ĠM ittens
Ġfa ces
Ġr ing
on es
Ġbu bble
Ġl ad
ĠC h
Ġhelp ful
Ġwa ve
um ber
Ġw ip
Ġcho col
Ġb an
Ġfo ld
Ġcou ch
Ġro b
Ġtom orrow
Ġm ountain
Ġsa l
Ġch ick
Ġtal king
Ġe ventually
Ġt un
Ġtoo l
Ġfo ot
Ġsh y
Ġc art
Ġco in
Ġem b
Ġpus h
Ġrem ind
if e
ar ge
Ġ ign
Ġsp read
Ġs el
Ġt id
Ġvill age
Ġlad der
Ġbuild ing
ĠJen ny
Ġwr ite
Ġhid ing
Ġw ore
ig hed
Ġst ret
Ġkne e
Ġfight ing
Ġneck l
h ile
Ġch ased
Ġpudd le
Ġbug s
Ġsmo oth
" Maybe
at or
Ġb lew
Ġtreat s
Ġbe ll
Ġwait ing
Ġwhen ever
Ġrob ot
Ġc ross
n ot
op h
m o
M y
Ġp ool
Ġfin ish
al s
t op
ar ra
Ġchocol ate
Ġstr ing
Ġst ep
Ġcan not
Ġemb arra
Ġa nt
Ġlea f
Ġcra b
Ġsong s
le x
Ġst ir
Ġc oo
Ġsel fish
Ġst ra
Ġshe lf
S oon
Ġpa w
O f
" Mom
"O h
Ġsa ck
Ġtast e
Ġm aybe
Ġl arge
Ġwas h
Ġsp e
ul t
Ġre p
Ġsc ar
Ġban an
Ġbar ked
Ġso l
Ġfix ed
Ġh um
bo x
Ġp le
ĠS ometimes
ĠEvery where
Ġspr ay
Ġcl oth
ump y
ĠJ ake
Ġst one
M ama
Ġtid y
ĠJ ust
o ld
le br
Ġn et
P lease
h nn
Ġpeace ful
Ġce lebr
Ġg en
ĠL e
" We
Ġcol our
Ġ '
Ġneckl ace
ell y
ung le
Ġm issed
ir d
ar m
D ad
l ice
Ġj ungle
ĠP lease
ig er
ĠThe ir
hnn y
Ġland ed
N ow
Ġhe ars
o in
or ry
ĠT V
Ġcreat ive
Ġtr ust
Ġmo on
Ġdec or
Ġd eter
Ġjump ing
Ġstick s
Ġhe l
air s
Ġdeter m
Ġfor ward
"S ure
Ġsh irt
Ġsh aring
Ġembarra ssed
Ġte a
Ġcarrot s
mo st
Ġkn ocked
Ġwh is
Ġhon est
d ge
ĠD on
Sara h
Ġtight ly
Ġst ood
Ġb al
a king
Ġle gs
Ġpl ate
Ġdisapp oin
Ġal most
ĠS ome
y ing
Ġash amed
Ġwhist le
n ed
Ġtell s
Ġspl ash
Ġsuc cess
ĠL isa
Ġbre ath
Ġgre w
get able
" You
Ġgen er
Ġs our
Ġgr ay
Ġem p
Ġve getable
Ġme ant
d le
ĠT eddy
Ġme adow
B e
Ġemp ty
ĠA nn
Ġpill ow
Ġb er
Ġg as
Ġpol ice
g round
Ġ On
ĠW hy
Ġunderst ood
i an
Ġcar ried
Ġsa ve
Ġgo ld
Ġshe ep
Ġno ds
T o
Ġle m
d en
Ġyell ed
et s
Ġje w
Ġwhis p
on y
ur se
it al
Ġsnack s
ust r
Ġthe se
Ġh ours
er p
Ġho sp
Ġn ut
v ous
h in
Ġk itten
Ġdisappoin ted
ar l
Ġhosp ital
Ġspark ly
Ġp ay
ĠM um
ĠE ven
in a
Ġta ught
Ġscar f
Ġl ine
Ġsh ip
ĠTo gether
Ġfr ustr
Ġb ored
Ġplant s
if f
Ġhid den
Ġstand ing
Ġgener ous
Ġche w
Ġs ighed
Ġp izz
Ġmat ch
Ġbl ow
Ġsh ore
or k
Ġbed room
Ġeas y
Ġse ed
Ġsee k
Ġt est
Ġmyster ious
o bby
Ġr ad
Ġknow ing
Ġcl ass
Ġj elly
Ġgl ass
k in
Ġminut es
Ġwa ves
Ġpol ite
Ġd rew
Ġsp icy
Ġreturn ed
Ġpuzz le
Ġh ur
Ġp ir
ĠB e
ĠP eter
Ġgr oup
Ġmess y
Ġpower ful
Ġthank ful
Ġn er
Ġsleep y
Ġfe ed
J ane
Ġg un
us ie
ĠS t
Ġpass ed
Ġdeterm ined
' d
" Hey
f l
Ġfing er
Ġwo lf
Ġp ri
Ġner vous
Ġre g
Ġf ig
Ġfrustr ated
Ġfe ar
Ġpizz a
os aur
Ġclos et
Ġsandw ich
Ġfan cy
Ġp in
The re
a f
oo p
Ġk issed
Ġv an
Ġm ot
Ġg ate
an o
au l
Ġso ld
Ġbr idge
Ġw is
Ġes c
Ġt ick
Ġlo ck
c les
Ġha ng
Ġgather ed
Ġa v
Ġc ries
Ġspo il
Ġyour self
Ġgr umpy
p ack
erp ill
Ġ Z
Ġcat erpill
Ġdin osaur
id dle
Ġexc ite
Ġfl ag
A re
Ġprin ce
itt er
Ġche st
Ġte ars
er a
Ġtw irl
Ġb urn
Ġof ten
ot e
w ork
Ġpo or
m b
s ist
Ġf il
sel ves
Ġm ummy
iss ors
Ġho pping
g ly
ĠR ex
u ce
Ġdr op
Ġc and
Ġsc r
ill ed
Ġansw ered
Ġcr own
Ġu gly
" H
iz zy
Ġsc issors
ĠB r
Ġta ken
ens ive
Ġm iddle
Ġsa ved
Ġt ent
oo f
Ġwor king
Ġcaterpill ar
Ġexp ensive
Ġwa gged
Ġexcite ment
Ġle g
Ġde er
Ġtr ue
ell a
Ġpick s
Ġon es
Ġl it
qu e
Ġt ie
Ġb oring
ug ar
Ġple ased
at es
Ġo k
Ġget s
Ġsp end
u al
The ir
Ġv ase
Ġmed ic
O K
Ġp ress
Ġbr ush
eci ally
Ġbo ss
Ġas king
Ġmist ake
Ġgigg led
bo dy
Ġcomfort able
Ġwa nder
et e
Ġpack ed
l ight
Ġst uff
s er
Ġrock et
ĠLe o
Ġmedic ine
Ġm ir
Ġb one
p ecially
Ġs ugar
Ġes pecially
Ġfruit s
Ġdan cing
Jim my
ot s
Ġc age
ĠB l
Ġvegetable s
ĠJo hnny
Ġc ap
Ġs ight
g gs
us hed
Ġe ggs
Ġcl ap
Ġfl ut
Ġdist ance
Ġd est
Ġcl own
in ess
Ġwalk s
Ġkn ight
Ġn umber
r or
Ġf ake
Ġl ying
Ġdraw ing
Ġdisapp eared
Ġe ld
Ġsweet ie
Ġdr um
" Hi
Ġb ake
Ġsplas hed
Ġmo v
ĠO K
Ġlo se
Ġli cked
Ġtw ist
Ġmo ving
Ġfeather s
Ġgl ue
ag ed
Ġch ange
Ġmom s
or y
Ġlem on
Ġcall ing
Ġle ad
Ġwe ak
Ġdog s
Ġbec ome
Ġsmell y
Ġro ar
Ġc ri
Ġex am
Ġbo dy
ĠI f
Ġbath room
el p
h a
Ġwe ek
Ġpr ay
Ġplay ground
Ġinc red
Ġno d
Ġwhe el
y al
Ġa dd
Ġno isy
M e
Ġh orn
Ġg ar
Ġla zy
Ġcr ack
Ġm ic
Ġquest ions
ugg est
Ġs uggest
S ally
Ġte am
Ġdr ank
Ġt ape
Ġmir ror
Ġfl uffy
Ġd ig
Ġst ones
Ġsk ipped
Ġf is
Ġd ish
, Ã¢
Ġse ll
Ġfam ous
Ġrel ax
B illy
Ġyour s
G ra
Ġru ined
Ġcle ar
ee z
Ġso ap
Ġball s
Ġeld erly
Ġwr ote
at ing
Ġqu een
Ġmar ch
Jo e
en ny
Ġco vered
Ġeag er
Ġor d
Ġju icy
"O kay
Ġr id
l and
in ation
Ġ ind
Ġshow s
Ġche ck
Ġr ich
t i
Ġy og
Ġ ed
Ġr are
Ġex t
Ġcont ent
Ġlo yal
Ġl amp
Ġincred ible
Ġbubble s
Ġfig ure
ĠA t
Ġsw an
h ip
Ġco ins
Ġf ather
ill i
Ġtow el
Ġsail ed
Ġme asure
Ġm ap
im p
Ġdec ide
umb led
ĠE nd
Ġclean ed
Ġa w
Ġneed s
Ġbo ard
Ġbran ches
Ġgl ow
Ġha m
Ġstra w
Ġoff ered
Ġreal ised
Ġsho ot
Ġdisco vered
Ġt ag
Ġf ine
at ely
as ing
Ġ No
Ġlift ed
Ġadvent ur
J ill
f ic
Ġb orrow
Ġbal ance
Ġjo ke
Ġmot or
Ġext ra
A my
Ġboy s
Ġey e
Ġb arn
Ġmo d
ke ep
Ġadventur ous
i que
Ġchick en
Ġt iger
Ġorgan ized
Ġdif fic
Ġfr own
ce pt
ĠL ittle
al ous
Ġcolour ful
Ġdo lp
Ġbott om
S p
Ġwor d
Ġto ug
ll a
Ġt urt
Ġco ver
Ġje alous
ĠBl ue
Ġhappen ing
Ġun ique
Ġhurt s
Ġth ick
ra g
Ġdiffic ult
Ġwa nd
Ġtr ack
Ġcir cle
Ġco st
p ort
c il
Ġis land
Ġar g
M ummy
Ġfr ight
im ed
Ġh unt
Ġpen cil
Ġho se
al k
Ġloud er
Ġwe ird
ol og
Ġkn ife
Ġber ries
ĠBr own
Ġcraw led
Ġgar age
Ġon ce
Ġlearn ing
ĠS usie
Ġmight y
Ġman aged
Ġch ase
i pper
Ġun us
Ġap olog
Ġfav our
S ue
Ġba ld
ĠK itty
Ġpoin ting
Ġtoug h
Ġs il
Ġballoon s
ag es
j ect
Ġsp un
Ġhard er
Ġkind ness
Ġjew el
ur ed
ĠM ark
Ġp ump
keep er
Ġsay ing
Ġan g
Ġd izzy
Ġrec ord
Ġsh ake
Ġunus ual
a w
l ies
u nd
Ġn orm
i v
- up
re ady
Ġgu ess
Ġtruck s
Ġfavour ite
Ġf our
Ġg uit
he ad
Ġval u
Ġlaugh s
Ġre f
Ġgi ving
Ġsw ord
Ġf ool
Ġenjoy ing
Ġimpress ed
Ġsmo ke
Ġstraw ber
Ġa dded
i pp
Ġbanan a
He re
Ġal ready
Ġbelong ed
Ġgr own
Ġher o
Ġe ars
ĠB obby
Ġbat ter
Ġwra pped
Ġmark et
Ġnorm al
Ġed ge
Ġt er
Ġhat s
Ġgra ce
Ġh arm
Ġwh ale
Ġpain ting
Ġgo at
Ġbox es
Ġbr illi
Ġloud ly
em o
Ġhelp s
Ġsc are
Ġtr unk
ugg led
an ged
Ġbrilli ant
Ġcir cles
ra ge
Ġboss y
Ġca b
Ġguit ar
Ġj ack
Ġli br
il t
Ġturt le
Ġbird ie
Ġbrother s
ip e
Ġesc ape
y m
Ġcheer ful
Ġagain st
Ġsk in
ol a
Ġm elt
Ġsh ape
Ġsaf ely
Ġch oose
Ġd epend
Ġfright ened
Ġgra nd
Ġdream ed
at ure
Ġfl ash
Ġinv ited
Ġproud ly
Ġmean s
c ient
er y
Ġcomp et
Ġcab in
g y
Ġfr idge
f ast
Ġbutt ons
Ġsl ipped
Ġcray on
Ġdes ign
Ġpe e
er ry
Ġfall s
Ġmov ie
Ġf at
Ġvalu able
Ġstu bb
Ġcl ay
Ġwra p
Ġwa ke
Ġbreak fast
y e
ous es
Ġbl oom
Ġan cient
Ġter ri
ed ient
ĠD an
Ġto ast
Ġp il
ĠF red
ĠEll ie
Ġhapp iness
Ġknow s
at ch
Ġc ity
or ge
Ġsh ark
Ġfi er
Ġc udd
Ġwall s
Ġ icy
Ġfool ish
p es
Ġlo g
Ġstubb orn
app ing
Ġac cept
ĠP ete
om ed
Ġsuccess ful
Ġst ream
Ġfier ce
Ġr ough
Ġstu dy
Ġnice ly
ĠTweet y
Ġh ouses
ĠTo day
Ġno sy
Ġsp ace
a z
Ġun l
Ġnot ice
Ġth u
ĠM y
Ġob edient
o ot
la imed
Ġsuggest ed
Ġdelic ate
Ġle an
Ġpour ed
Ġuse ful
Ġwa gon
Ġlo cked
Ġc her
Ġshell s
Ġtool s
Ġcompet it
Ġst ri
Ġexc laimed
Ġdream s
Ġwip ed
Ġmix ed
e xt
ĠBob o
Ġro se
Ġlight s
Ġsound ed
Ġc ro
ut h
Ġf rag
Ġbag s
âĤ¬Åĵ Let
Ġkind s
w ards
e orge
Ġwe al
Ġoff ice
Ġme m
Ġgra ndpa
Ġexpl ored
Ġsh adow
Ġd ough
Ġde ad
Ġsto ve
Ġprin t
Ġbus hes
ac he
Ġt imes
Ġexcited ly
Ġind epend
Ġf ountain
Ġsmall er
Ġe gg
n a
Ġshow ing
Ġst umbled
Ġdepend able
ent ion
Ġj am
Ġthem selves
Ġl ow
Ġtom ato
ad o
Ġw itch
Ġre sc
o ppy
Ġs on
d om
Sp ot
Ġa unt
re en
Ġsw e
Ġfrag ile
Ġab ove
Ġla w
Ġen c
Ġfing ers
Ġadm ired
Ġcount ed
ĠR ose
Ġla b
Ġr oof
k n
E m
Ġro de
orm ous
v ice
art h
Ġspoil ed
Ġstret ch
Ġperf orm
Ġspin ning
Ġbright ly
Ġpar rot
Ġsee m
Ġc am
Ġen ormous
ĠYou r
Ġz ip
Ġplay ful
ar ry
r ay
Ġc op
Ġindepend ent
Ġhel m
Ġboat s
Ġpract ice
in es
Ġus ing
mb re
Ġbu ilt
Ġra ced
Ġu mbre
ĠMr s
Ġac orn
Ġway s
it her
Ġkick ed
in al
Ġen g
Ġham mer
Ġstrong er
W here
Ġdelight ed
Ġthought ful
ee ze
c orn
Ġremind ed
Ġb itter
Ġh oop
ic t
ĠN emo
Ġch anged
Ġbra ce
Ġch ir
Ġsn iff
Ġte le
Ġg em
ĠB u
Ġwhisp ered
Ġ U
Ġclo ck
Ġdo ve
Ġsh one
Ġr at
Ġtw ig
Ġor ig
Ġste al
ia ble
Ġbe ak
Ġtun n
Ġf re
Ġpain ted
Ġjo lly
an ger
Ġjo g
Ġpump kin
Ġt ummy
kn own
Ġclean ing
Ġm is
Ġbe es
ĠS n
Ġsun fl
Ġcost um
Ġsol ve
i ence
Ġb ump
Ġser ious
Ġall owed
Ġc one
am ond
Ġhand ed
Ġjo ined
Ġmag n
Ġd ust
at ter
ll ip
Ġrel iable
Ġmo der
Ġcho se
he t
ĠEll a
llip op
Ġbar ber
an ut
Ġgas ped
Ġun known
Ġboun ce
Ġmet al
Ġgu ard
ie w
Ġha lf
Ġorig inal
Ġlea ving
Ġdolp hin
Ġpop corn
Ġcl um
Ġhair y
Ġdi amond
" But
Ġlo llipop
Ġmar ble
Ġfind ing
up id
ur ing
Ġpo st
g u
Ġv iew
âĤ¬Åĵ Yes
ĠM ar
" Don
Ġfor th
Ġterri ble
ag het
Ġpot ato
aghet ti
in ary
Ġbe an
Ġru bb
Ġsa uce
Ġpick ing
Ġth ose
" Tom
Ġhold s
Ġdoes n
Ġy et
Ġs ink
Ġsal ad
ter n
ĠA lice
Ġweal thy
Ġst at
Ġreg ular
H ow
Ġru b
ro be
Ġst amp
Ġsleep ing
Ġpir ate
Ġclum sy
il ty
ĠD ucky
Ġad vice
Ġmoder n
Ġy arn
Ġcre ate
Ġgu ilty
W ell
Ġcomp ass
Ġtell ing
Ġsp aghetti
Ġst airs
ill a
ug ged
ĠGra ndpa
eb ra
Ġh ay
Ġthu nder
Ġthin king
Ġ ing
ĠWhen ever
Ġto r
Ġst upid
Ġpre p
Ġopen s
Ġsearch ing
Ġsqu are
c om
" Ben
co d
Ġt ank
Ġr ushed
Ġing red
Ġingred ient
Ġumbre lla
Ġkn ock
irst y
Ġcam era
âĤ¬Åĵ What
Ġbe et
Ġang el
Ġpat ch
Ġche ap
M ary
ĠF r
Ġst age
Ġch ar
Ġz ebra
eez ed
Ġm ask
Ġwas hed
Ġbu ll
Ġc ur
Ġpe bble
Ġpop ular
Ġar row
ĠB ella
Ġpig e
ation s
G o
is k
Ġeng ine
ĠM ike
Ġmiss ing
i o
Ġpe anut
Ġg oose
Ġcarry ing
t ime
Ġcro cod
Ġf lex
Ġjack et
Ġru bbed
f a
Ġd ull
Ġgrace ful
Ġpers ist
" R
Ġcra zy
Ġdri ving
âĤ¬Åĵ It
âĤ¬â Ģ
umb ers
Ġshe l
Ġsh iver
Ġfre sh
Ġimpress ive
Ġstr anger
Ġt ied
Ġlo ad
" B
Ġdest ro
" Y
Ġtr uth
Ġfriends hip
- c
oph ie
Ġseed s
up er
ĠF in
Ġdream ing
Ġt em
Ġcompass ion
Ġr ug
Ġth irsty
Ġsh ocked
Ġsn e
Ġhand le
Ġre ward
Ġspark led
i bb
Ġdel iver
Ġcare less
Ġcom b
Ġend ing
Ġn ature
Ġw ire
Ġcomp ut
Ġimag ined
Ġs udden
Ġflash light
Ġstop s
oom y
Ġflex ible
Ġbrace let
Ġwhe els
ie f
" Mommy
em ent
Ġear ly
?" .
Ġme al
Ġingredient s
Ġdes k
Ġent h
Ġp ant
Ġcry st
Ġpat tern
ars h
Ġpee ked
Ġc ere
Ġsp illed
in ce
Ġenth us
Ġread ing
"H elp
Ġlibr ary
ri c
Ġen vel
l oo
Ġdisco ver
Ġpen ny
Ġpri ze
Ġmail box
Ġn umbers
Ġst ack
Ġpen gu
Ġenc ou
Ġw ing
g est
Ġbutterf lies
is ion
Ġflut e
Ġsad ly
Ġfor k
Ġsur f
Ġsc oot
Ġs uit
âĤ¬ÅĵLet Ã¢
Ġwar ned
Ġwindow s
Ġplac ed
Ġstat ue
Ġsc ale
Ġbeet le
ell ig
i kes
ĠW hile
Ġbig gest
ĠD ave
Ġspr ing
Ġn urse
Ġpu p
Ġtra vel
Ġor der
ho st
Ġtow ers
Ġb ent
b led
Ġint ellig
ĠM ummy
Ġbad ly
ic hes
Ġslid es
Ġt ur
Ġli z
Ġa head
Ġsor ts
a wn
Ġspo ke
Ġg um
Ġnot e
Ġan x
Ġhum ble
Ġre ce
Ġtor n
Ġe arth
Ġob ject
Ġav o
Ġcom pl
Ġold er
Ġg host
Ġen v
Ġjump s
com fort
Ġgrow ing
" Good
Ġcouldn Ã¢
Ġtunn el
- a
ĠP e
Ġharm less
Ġanx ious
Ġval ue
Ġcrocod ile
Ġcomp let
ct op
Ġp ow
ctop us
Ġbeaut y
Ġpa le
comfort able
ĠHe re
Ġn ail
Ġun comfortable
Ġso fa
Ġtra p
Ġ er
ill ie
ĠB ear
"S orry
Ġper m
Ġcere al
Ġcelebr ate
Ġpersist ent
Ġm el
Ġtur key
Ġre fused
ĠK im
Ġcup board
Ġsc atter
Ġcount ing
Ġsunfl ower
Ġs uper
W hile
Ġmo le
Ġcoo king
Ġcomput er
Ġnam es
Ġhun g
Ġo ctopus
ĠM andy
Ġdestro y
Ġmu sh
Ġcr ane
ĠG ive
Ġsh ut
Ġpretend ing
Ġc urt
Ġp ony
ĠL ook
" Come
Ġsandw iches
Ġcurt ain
Ġtri ang
Ġpi ano
Ġchar ming
Ġtri ck
Ġne at
Ġfl our
Ġsupp ort
Ġde af
Ġb ase
st ri
Ġch asing
ĠTo by
ic es
Ġquest ion
Ġun cle
Ġsn uggled
Ġgif ted
ĠL ola
Ġcraw l
Ġord inary
Ġatt ract
Ġlive ly
Ġdraw er
ce ed
ac hes
- old
Ġtwirl ed
u d
u bby
Ġm ay
Ġspe ed
Ġliz ard
ip s
Ġc amp
udd y
-c ream
o e
c u
Ġru les
Ġintellig ent
Ġset t
Ġcou rage
Ġcryst al
Ġv i
Ġcar p
Ġenvel ope
Ġtra sh
D aisy
Ġhunt er
er able
A lice
Ġs end
ĠB ill
or ant
us ed
Ġhelm et
Ġmis erable
Ġbe ep
Ġy awn
Ġpar ade
Ġt ask
"S top
Ġsh aking
Ġgl oomy
Ġsc reen
Ġneed le
Ġpige on
c ut
Ġth ief
a ff
"O f
Ġhur ry
Ġblue ber
Ġal ert
Ġun iver
Ġband age
g ust
Ġv ide
Ġph ot
Ġcreature s
Ġsold ier
Ġcart oon
Ġle ash
Ġst ation
Ġj et
Ġpack age
Ġdis gust
he art
Ġany where
Ġra ven
Ġwis hes
Ġre sist
Ġign orant
en ry
Ġcl ub
Ġpe pper
Ġmush room
Ġd ug
Ġcoll ar
Ġletter s
Ġcri cket
Ġg ir
G ive
arl ie
Ġfire man
Ġl ed
i est
t ter
âĤ¬Åĵ That
ĠE ventually
a by
Ġsuc ceed
Ġen er
Ġch ubby
Ġboun ced
-a id
Ġpract iced
Ġto oth
Ġhelp less
Ġcompassion ate
Ġstret ched
Ġimp at
Ġsh ine
Ġt ap
ĠG eorge
Ben ny
Ġg or
Ġstick ers
Ġj ug
ur b
Ġb icy
ĠC l
stri ch
s es
Ġch ance
Ġrep e
Ġcompetit ive
Ġpress ed
Ġattract ive
Ġatt ic
Ġmu ff
Ġpant s
Ġsqu ash
Ġdecor ate
Ġv ine
Ġcarp et
Ġstart s
or able
Ġdist urb
Ġf u
Ġrespect ful
um mer
Ġimpat ient
ar ian
Ġje ep
S top
Ġo tter
Ġno body
Ġrad io
c col
Ġb et
Ġany way
ccol i
Ġpast a
n oon
Ġafter noon
Ġtr ump
Ġshout s
Ġcand le
Ġstir red
ĠW h
ĠA re
Ġstep s
ĠBrown ie
Ġtrou bled
Ġbel t
Ġit self
Ġrest less
Ġm ill
Ġfur ther
Ġr ibb
Ġbright er
Ġfear ful
Ġfor t
aur ant
co a
Ġsk ip
Ġt ire
Ġrest aurant
Ġsome where
a ked
Ġsec ond
Ġscoot er
Ġtr ay
ol in
Ġback pack
Ġad orable
Ġb ri
Ġfil thy
ĠW here
Ġcu be
Ġm ug
Ġdisgust ing
ĠP olly
Ġqu ar
st ic
Ġnut s
Ġc ards
ĠA l
Ġall ig
Ġt en
Ġp un
g n
Ġtem p
ĠL ee
Ġsc rew
Ġse al
Ġth read
Ġle op
" Are
Ġh ook
Ġenthus ia
Ġp ipe
Ġco coa
Ġenthusia stic
ĠS h
Ġgigg le
Ġbro ccoli
Ġwa ff
Ġsand box
op l
er opl
Ġsweet heart
I f
Ġgor illa
Ġc ase
Ġbark ing
Ġdist ant
Ġnow here
Ġl id
Ġsho e
Ġh ipp
Ġtrump et
p ar
Ġexp er
Ġme as
Ġa eropl
Ġadm ire
Ġp and
Ġenv ious
Ġbat ht
Ġre co
Ġd ess
Ġpo em
Ġun pack
- y
L ittle
Ġmonkey s
c ome
Ġexpl ain
Ġbatht ub
Ġrep air
Ġshe et
ar oo
ir it
Ġse par
ang aroo
ĠS m
Ġo strich
gg ing
Ġs ent
g ie
Ġh arsh
Ġso ar
n ight
Ġlisten ing
Gra ndma
oph one
ĠW ould
Ġa nts
Ġcoo ked
Ġhapp ier
Ġsp ell
Ġqu ite
Ġcat s
ĠEvery thing
Ġgrab s
ĠSn ow
Ġhum an
Ġk angaroo
Ġbre at
ll ie
Ġc omet
Ġcount ry
op ter
ic opter
ĠJoe y
Ġcow s
ĠP at
st airs
Ġs ummer
Ġsor t
Ġspe ak
Ġm ama
Ġleop ard
Ġjelly fish
ap a
Ġu r
Ġst ared
Ġimp ro
cy cle
Ġhel icopter
Ġspl it
Ġp or
Ġmess age
"W ho
Ġmod est
Ġpaw s
uc t
Ġp al
s hed
Ġpull s
Ġs ize
Ġtri pped
S ee
Ġch alk
Ġf ive
Ġbicy cle
Ġfind s
Ġgi ven
!" .
Ġallig ator
Ġob ser
Ġha ll
Ġdidn Ã¢
im i
Ġhe dge
-y ear
h ood
Ġforg ave
Ġca ct
Ġorgan ize
ĠTweet ie
Ġb ikes
Ġmagn et
Ġf le
Ġresc ue
Ġsp irit
Ġpa id
Ġmel on
Ġp urse
Ġr ice
b ul
Every one
Ġsal t
uck ed
Ġro ared
Ġswe ater
isk ers
J enny
Ġho les
Ġvi olin
Ġhair cut
Ġbeh ave
Ġmic r
Ġpus hing
Ġwhe at
Ġc ush
i pping
Ġm ath
Ġs le
Ġb in
Ġch ain
Ġsc old
"O w
Ġreco gn
Ġloo p
Ġpro v
Ġdess ert
ĠA lex
Ġbu zz
se um
Ġlight ning
Ġpal ace
Ġhipp o
Ġtriang le
Ġfrown ed
Ġo at
al ed
re c
Ġfire work
Ġkn ot
Ġswing ing
W ho
lc ano
Ġli ons
Ġpil ot
e er
Ġe ither
Ġmicr ophone
Ġstart ing
Ġme at
Ġbar rel
Ġrid ing
Ġmu seum
Ġbo ots
Ġstick er
ĠS ophie
Ġcact us
Ġb ur
Ġer as
Ġsh akes
Ġli p
Ġpap ers
âĤ¬Åĵ You
Ġjo kes
Ġener gy
Ġstrawber ry
Ġshop keeper
Ġt ax
Ġtra ins
in king
ast ic
t e
Ġin se
Ġvo lcano
Ġpus hes
Ġl uck
Ġsail or
rec i
" Me
Ġmu le
il ing
pl ay
ĠR ed
Dad dy
Ġyog urt
Ġwall et
Ġp ed
Ġra ft
Ġsh ield
Ġapp reci
Ġsh ade
" A
Ġro d
eb ook
Ġle ar
Ġlear nt
Ġnot ebook
Ġsil ver
Ġso ck
Ġbanan as
ĠJ erry
ĠAnd y
Ġbear s
Ġal ive
f fe
Ġneighb our
Ġend ed
Ġam bul
Ġdraw ings
Ġcol ours
Ġroll ing
ffe e
Ġche cked
Ġsoft ly
Ġstr ugg
Ġl end
Ġhad n
Ġpo le
Ġsmell s
Ġfall ing
Ġsho vel
Ġm ild
Ġpor ch
ed y
Ġste ak
c ast
ic er
Ġla und
Ġh ive
oo ped
Ġeven ing
Ġavo c
Ġre ind
Ġbark s
Ġgra pes
Ġdis play
Ġzoom ed
u be
Ġput ting
Ġpengu in
Ġcostum e
Ġfil m
Ġlaund ry
en se
Ġtax i
Ġvis ited
Ġsand cast
Ġcl apping
Ġambul ance
Ġtri cks
Ġshel ter
Ġc ord
Ġele v
Ġquar rel
Ġaeropl ane
Ġspr ink
ĠT r
Ġmar ched
g es
ha ppy
Ġin sist
Ġpand a
Ġrubb er
ag gie
Ġgo al
Ġg ro
Ġbelong s
Ġmed al
Ġair port
Ġsa us
Ġsk ill
S orry
a it
Ġav ail
Ġapolog ized
Ġlean ed
Ġfeel ings
Ġo l
el ery
Ġpr un
ĠB et
Ġelev ator
ir on
Ġin k
ĠSm ith
Ġreind eer
Ġju dge
ĠO r
Ġdis hes
Ġdon Ã¢
Ġbasket ball
Ġplan et
Ġpe ek
Ġunl ock
Ġclimb ing
Ġr ag
Ġt ube
sel y
Ġeras er
Ġrain ing
ĠP apa
op hy
Ġcard board
Ġpol ish
ur ch
ĠP aul
Ġar t
Ġy ach
Ġfield s
Ġco ffee
Ġm en
Ġp ad
Ġtr ophy
Ġst om
Ġavail able
ĠB uddy
Ġun happy
Ġshould n
Ġsh ort
Ġo y
Ġthank s
Ġshr imp
ree ze
Ġperfect ly
Ġmar ry
ĠWh iskers
Ġk itty
Ġp age
Ġdrop s
Ġfl ies
an ic
e ath
hin o
Ġyach t
Ġso il
Ġw ife
Ġhop ing
r on
Ġd ive
Ġplay er
n am
Ġve nd
Ġinc l
Ġminut e
ch anic
Ġclo sely
g en
pl ace
Ġcomplet e
âĤ¬âĢ ľ
Ġapp l
Ġmag az
Ġimag ine
Ġwin ter
Ġw ool
ect ed
Ġc elery
Ġbreak s
n ger
Ġme chanic
Ġf urn
it ure
Ġt ub
aul if
aulif l
Ġcup s
Ġgo lf
Ġfurn iture
Ġre ver
ĠB unny
Ġon ion
Ġmix er
Ġfrog s
Ġr hino
ec ause
Ġstuff ed
w een
Ġba king
Ġimag ination
Ġsw itch
Ġfold er
af fe
Ġbet ween
Ġsw ung
Ġjourn al
Ġbu l
Ġtreasure s
Ġsk ull
Ġcount er
Ġhead s
Ġfree z
Ġher b
Ġp air
Ġeag erly
ctor y
Ġqu it
st ead
ma nd
Ġdis ag
Ġinse ct
Ġc aulifl
Ġkn ob
id es
"W here
Ġpain ter
Ġthrow s
p e
Ġfis her
Ġcool er
os ie
Ġfa ctory
Ġfoot ball
Ġdi ary
Ġoff er
Ġhead ed
Ġp it
Ġsun set
C h
a zz
c cer
Ġvend or
ĠW ill
Ġvide o
Ġsee ing
Ġli e
Ġt ut
Ġtw ink
Ġchir p
nam ent
Ġche ek
Ġs ym
Ġor nament
Ġso ccer
Ġbul b
r ight
Ġfr ame
Ġpir ates
z zy
Ġshout ing
Ġcreat ed
Ġcaulifl ower
" Lily
Ġblow ing
Ġstu d
Ġh ut
iz es
an y
or ies
Ġhot el
ĠB un
ĠR o
ke let
Ġgir affe
Ġli ves
ors es
. .
aw s
Ġv et
Ġfire place
Ġfl ame
Ġma ze
Ġtra il
ĠT ed
Ġch urch
bo l
Ġmotor cycle
re nder
Ġit ch
Ġla ser
Ġh orses
" Why
ang u
it es
Ġco al
qu it
Ġo il
Ġgl ove
Ġyog a
Ġpo ke
Ġpoin ts
Ġsym bol
Ġsw amp
Ġwa ving
ĠM imi
Ġan ch
a b
ĠGo d
Ġs kelet
Ġsu b
Ġl angu
Ġa x
Ġwip e
Ġpe ach
Ġatt ention
e f
Ġforgot ten
Ġsun g
l ass
ĠS andy
m m
Ġfle a
Ġwe ather
cer os
Ġp ine
Ġsle pt
Ġtun a
Ġpoin t
quit o
Ġmo s
Ġ ig
Ġfis hing
Ġs ince
Ġtemp le
sp ap
Ġde ar
Ġig loo
Ġc able
Ġk ay
ĠI Ã¢
Ġnew spap
Ġarg ue
Ġcelebr ated
Ġre ve
Ġpo pped
ro d
Ġcush ion
Ġb reeze
Ġv est
Ġpare nt
Ġsne ak
In side
Ġpow der
un ately
Ġpet als
Ġphot o
Ġrhino ceros
Ġint rod
Ġmos quito
Ġr ot
Ġdan cer
Ġbase ball
Ġmeet ing
el come
ĠJ ess
Ġgr in
Ġking dom
u es
Ġs ir
Ġsur round
Ġfisher man
ĠGra ce
Ġbatter y
ĠCh arlie
her o
Ġstre ng
Ġanch or
Ġax e
Ġgold en
Ġm op
Ġcompl ain
ch air
ĠL illy
Ġtut or
ĠAnn ie
ĠMar ia
Ġsniff ed
Ġl ime
E ventually
Ġstreng th
Ġfo g
Ġsquirrel s
Ġmist akes
Ġsuper hero
Ġgre edy
Ġboun cing
Ġpe ar
Ġdis cu
Ġskelet on
ck ey
n ey
Ġho ckey
Ġgro cer
Ġse as
Ġpl astic
ist ol
Ġce iling
Ġglow ing
Ġlaw y
Ġdoor s
lass es
Ġcall s
Ġpin ch
Ġsk irt
Ġz ipper
Ġmem ories
ĠB aby
Ġeat en
Ġ iron
Ġp istol
Ġsl ipper
Ġsung lasses
Ġtra ve
Ġco b
Ġst aff
ac es
Ġhang ing
Ġinv est
Ġwelc omed
Ġag ree
Ġsqu e
Ġit Ã¢
Ġchick ens
ĠM illie
Ġslipper y
Ġbu ry
Ġto il
Ġsur render
Ġthe ater
Ġarm chair
Ġinvest ig
t ain
Ġmusic ian
Ġfl apped
Ġcher ries
Ġlot ion
Ġshould er
h ouse
Ġrad ish
m en
w eb
Ġquiet ly
Ġstick y
ch ie
t ress
Ġnap kin
Ġmat tress
Ġf ought
med i
ĠU n
ĠIn stead
is on
medi ately
Ġv room
Ġtoil et
Q u
Ġs uff
Ġsail ing
Ġno vel
Ġwa gs
w as
" Here
To day
Ġthrow ing
au d
Ġmyster y
ro sc
Ġmo ves
Em ma
ss ible
Ġfa uc
Ġfreez er
Ġun if
Y ay
c ase
Ġcob web
Ġshow er
Ġh ar
Ġre ef
Ġunif orm
Ġmin er
er c
was her
in ked
ĠT ony
ree k
Ġinvestig ate
To gether
Ġreg ret
Ġspray ed
Ġmic rosc
Ġwe igh
Ġve il
ĠH enry
Ġaccept ed
Ġc reek
Ġt ug
l er
Ġdish washer
Ġhapp ens
Ġcri b
Ġche ss
Ġmagaz ine
Ġfauc et
Ġshr ugged
Ġavoc ado
Ġwr iting
Ġlawy er
Ġhop es
Ġmicrosc ope
Ġag re
Ġkay ak
all ey
ĠS u
le nd
Ġqu ack
Ġwor th
âĤ¬ÅĵIt Ã¢
Ġpass port
Ġburn ed
Sam my
Ġoy ster
Ġcast les
Ġmake up
Ġsepar ate
Ġc ared
Ġcollect ed
Ġblanket s
Ġclass room
i ves
Ġcand les
Ġscold ed
Ġnew s
" This
Ġappl aud
ĠK ate
N ext
Ġent ered
Ġal arm
Ġv alley
Ġcu b
Ġpresent s
an ny
Ġign ored
Ġfollow s
Ġcoat s
Ġex erc
im ney
Ġbee f
Ġte ar
Ġatt ach
Ġwar d
un a
Ġo ak
ĠR osie
Ġcho ice
Ġap art
Ġch imney
Ġeas ily
Ġt ucked
r ing
ĠN ext
Ġjewel ry
Ġtrust ed
Ġstra ight
Ġsplas hing
Ġward robe
Ġpre vent
Ġchair s
Ġkiss es
at ched
Ġcabin et
Ġroom s
Ġbl ouse
Ġr ake
Ġtick et
Ġb other
eter in
eterin arian
ĠDan ny
s it
Ġr ise
Ġdress ed
Ġnewspap er
Ġv eterinarian
Ġcl aws
et y
Ġpudd les
Ġplan es
Ġapp ro
Ġmiss ile
Ġkeep ing
ĠR u
ict ion
" Please
Ġs izes
A nn
ang es
Ġla wn
Ġscr atch
Ġtele ph
Ġop era
i ved
Ġdisapp ear
Ġy ield
Ġcar ing
iction ary
ĠHe lp
id ay
Ġbl inked
Ġamaz ement
Ġsub way
Ġper fu
m end
ra ged
Ġcross ed
Ġcan e
Ġd ictionary
Ġlangu age
Ġteleph one
Ġbooks he
gg y
Ġc ell
Ġst able
Ġlet ting
Ġpuzz les
Ġmust ache
ĠS ee
Ġst ro
Ġbook case
Ġtr ade
Ġg ym
Ġwhisp er
om mend
Ġa ut
Ġbird c
Ġrec ommend
Ġin f
Ġp ra
Ġsqu eezed
r s
Ġmat ches
Ġli cks
Ġinc re
amp oo
Ġre qu
a ppy
h ic
Ġs igh
Ġcraw ling
Ġve hic
Ġbirdc age
Ġra z
Ġbookshe lf
M andy
Ġhelp er
iv al
Ġperfu me
ĠM iss
ct ion
bb ie
om es
Ġp ur
Ġsp ear
Ġdel ay
Ġste am
Ġgr ill
Ġblueber ries
Ġho l
Ġser ve
Ġsn ap
Ġl umber
Ġmin t
Ġpo ked
Ġring ing
Ġsh ampoo
Ġhol iday
Ġribb on
Ġimpro ve
Ġsn eeze
Ġbl ood
ĠJ ul
Ġsqu eeze
v ision
Ġcl iff
Ġmuff in
Ġfollow ing
ĠH arry
ĠR e
Ġs i
Ġrequ est
Ġca lend
at ie
Ġg ear
Ġgrow led
Ġwas te
Ġde mand
ore s
ĠTr ue
Ġfu el
Ġy ucky
Ġraz or
Ġexper ience
uck ily
Ġf ile
Ġworm s
Ġcr ow
Ġheart s
Ġpast ry
Ġb le
ink y
Ġref re
Ġcalend ar
Ġis n
fort unately
Ġhar b
ĠF o
Ġwander ed
Ġf est
Ġinst r
Ġhurt ing
Ġb ill
Ġpr op
Ġtorn ado
Ġfall en
Ġj unk
Ġtele vision
Ġmar ried
ĠCl ara
Ġshr ink
Ġwarm th
Ġber ry
Ġide as
ĠSnow y
Ġim mediately
Ġinv ite
Ġflut ter
Ġsandcast le
Ġbe gged
Ġsurpr ises
is ing
Ġcra sh
ĠA b
Ġbel ow
Ġent er
Ġwe ep
D id
Ġal right
Ġair pl
Ġw igg
Ġrelax ed
omed ay
Ġskill s
Ġbu ried
Ġrabbit s
Ġflo at
l ier
Ġra il
Ġbrave ly
Ġro ot
Ġunderstand ing
Ġharb or
Ġpl ates
Ġd ire
a h
uc ture
Ġadm ir
Ġre aches
Ġwe ap
Ġsp ade
c akes
r iger
Ġstr ucture
Ġcap tain
Ġref riger
Ġkne el
Ġlaug ht
Ġp ages
am ber
Ġrefriger ator
Ġsaf ety
Thank s
om ob
Ġr ow
Ġstrawber ries
as is
Ġit em
or al
Ġbe amed
ĠW ho
Ġra ise
ĠK ing
c us
! '
ic ing
ĠSt e
Ġaut omob
Ġwh ip
Ġlaught er
Ġign ore
ht ray
ĠFr eddy
Ġli c
L isa
Ġqu iz
Ġas htray
Ġap ron
Ġbump ed
Ġspot s
Ġmy self
Ġvan ished
Ġmoment s
an na
Ġto ng
x y
' ve
Ġbat he
Ġs omeday
Ġdra in
ap ed
?" Ċ
!" Ċ
Ġo asis
Ġsn apped
ĠM ay
Ġblack board
Ġjew els
Ġbo ot
Ġrever se
as p
Ġv ac
Ġj ail
Ġth umb
Ġsupp ly
Ġfest ival
Ġbuck le
iss ion
ar i
ache l
âĤ¬Åĵ No
Ġbreat he
-up s
Ġinsist ed
ĠI s
Ġspark ling
Ġrece ived
Ġear lier
ĠPe ople
Ġperm ission
Ġprep are
Ġbal an
Ġdestroy ed
Ġsa ving
Ġspend ing
Ġre s
Ġscatter ed
Ġkn own
Ġma ss
Ġteach ing
Ġd ried
Ġsit s
ĠIt s
Ġto es
Ġlemon ade
Ġp ort
Ġd aisy
ct ly
ĠJ ames
Ġmod el
Ġpr ide
Ġlic ense
ent s
Ġte ase
Ġch amber
Ġsett led
op s
Ġso cks
Ġrem ove
ant ly
Ġyawn ed
Ġgu y
s ing
ĠBe fore
Ġpull ing
Ġcudd led
Ġhit s
st ers
Ġrem ain
Ġspark le
W ith
You r
Ġhard ly
ig ail
Ġbuzz ing
Ġencou raged
ĠH ave
Ġble ed
Ġa chie
Ġsc ooped
Ġchirp ing
Ġdecor ations
Ġpra ised
Ġn ation
Ġwaff le
Ġe qu
O k
P eter
Ġm ention
Ġgl o
Ġs imp
Ġd are
Ġsuff er
Ġh ate
re at
Ġfast est
Ġrepl ace
n ies
Ġbean s
Ġp alm
Ġappreci ate
Ġsh ot
Ġsc ore
iz ard
Ġh omes
Ġdest ination
Ġdress es
Ġtall er
Em ily
Ġpatient ly
Ġlab el
Ġto re
Ġfl av
Ġresp ons
Ġbelie ved
o sed
Ġclimb s
Ġstrugg ling
xt ure
Ġbath robe
ĠT ina
Ġha nger
Ġdiffere n
u de
Ġr hy
Ġpan ic
Ġwas hing
Ġd igg
Ġinf ant
Ġto ur
Ġautomob ile
Ġbra in
R e
ĠE ach
Ġthr illed
Ġdeep er
Ġhe sit
Ġdiscu ss
Ġn one
Ġappro ached
Ġfire f
Ġdigg ing
Ġsn eezed
Ġsp ort
Ġtong ue
Ġw ine
av id
M mm
Ġpo ppy
Ġshe d
Ġtwist ed
B ye
Ġpun ish
Ġher s
Ġwor se
f ied
Ġspark les
Ġm all
Ġhe at
Ġhill s
Ġpo ison
Ġpart s
Ġaw e
Ġairpl ane
i um
be y
Ġb ang
Ġinv it
Ġsaus age
A ll
r m
r r
Ġvac ation
Ġexam ine
Ġpillow s
Ġw izard
Ġor anges
Ġset ting
Ġsol ved
W ill
Ġch ores
ĠC o
Ġprov ide
Ġe vent
Ġuniver se
Ġle ak
Ġm itten
Ġmarble s
Ġgl owed
Ġplay s
s ity
Ġup stairs
Ġbit es
Ġthe rm
Ġflo ated
Ġfix ing
The se
ĠBu zz
Ġpaint s
Ġvehic le
ĠO llie
Ġbill board
Ġst y
!" ,
Ġwar ning
Ġrem ained
ĠM aggie
Ġweek s
Ġcr unch
l s
Ġtherm omet
F l
os ity
Ġrest ore
bble s
ĠEvery day
Ġgrin ned
all en
Ġgirl s
th m
Ġgre y
J ake
Ġflo ating
Ġmeas ured
W elcome
Ġsprink les
Ġfl ood
Ġrepe at
J en
Ġgif ts
Ġch allen
Ġneighbor hood
Ġl ily
Ġshoot ing
Ġf ut
ĠBet sy
Ġsupp osed
Ġthermomet er
d o
Ġfut ure
Ġhur ric
ĠL iz
r ise
g ing
Ġcher ry
" Go
M ark
ĠG ood
Ġcollect ion
Ġact ually
Ġur ge
Ġcon f
Ġran ch
Ġbr ings
Ġstom ach
Ġse w
Ġmem ory
em ember
Ġrhy thm
Ġj azz
v et
Ġmail man
Ġdisco very
." Ċ
Ġd uring
Ġsun rise
Ġme owed
all ow
Ġweap on
Ġmass age
N ot
Ġt ide
Ġfa sc
Ġsurround ed
âĤ¬ÅĵI Ã¢
Ġpa used
Ġwis dom
Ġincl ud
er o
Ġbri cks
Ġg ust
" Anna
Ġr ush
Ġchir ped
Ġhurric ane
asp oon
H elp
? ĊĊ
"R e
Ġstr ang
- ray
um ble
er ation
ad ium
Ġun ite
Ġuniver sity
Ġbr us
Ġte aspoon
Ġb ak
Ġso re
Ġst adium
ir p
Ġgra pe
Ġcartoon s
ĠL ater
is hing
i ers
Ġelephant s
Ġc akes
Ġfold ed
Ġr ust
Ġwhere ver
Ġcur led
Ġtrack s
u ing
Ġl ugg
Ġseat s
Ġchew ed
Ġdifferen ce
" Be
e ed
Ġlugg age
Ġobser ve
Ġsc ur
Ġdec ision
ip ment
Ġman age
Ġcollect ing
Ġsun light
Ġsign s
Ġmelt ed
Ġexerc ise
L e
Ġe mer
it ies
Ġtomato es
Ġequ ipment
Ġsp ill
w alk
Ġfasc in
Ġwat ches
âĤ¬ÅĵThat Ã¢
Ġ V
Ġto e
Jo hnny
Ġsl ice
Ġs ip
E x
Ġwater ed
Ġsp aces
Ġli ck
?" .ĊĊ
ĠSome one
Ġpo ssible
Ġord ered
und ay
Ġb es
Ġminer al
Ġproblem s
b ers
Ġ x
Ġland s
Ġglo ves
Ġadmir ing
l oe
Ġcont ain
Ġslid ing
as es
c ious
Ġf et
ĠRu by
ĠM e
Ġmountain s
Ġpet ted
Ġjo gging
Ġside walk
Ġg az
Ġz ipped
s on
ĠS unday
Ġlet s
ĠSp ike
Ġinvit ation
Ġsold iers
Ġstrang ers
Ġcontin ue
Ġtwig s
Ġpotato es
o ved
ĠJo y
- se
Ġsat is
Ġwhist ling
Ġkind ly
ĠR achel
Ġsp it
Ġg ain
" Give
Ġrece ive
Ġla id
Ġpig s
Ġmarch ing
Ġdog gy
Ġkeep er
z ag
ĠC at
Ġgrocer y
Ġm ister
Ġbe g
Ġpattern s
dd y
Ġbes ide
Ġsk ipping
Ġgot ten
Ġgl itter
ĠP oppy
joy ed
Be fore
m other
Ġco pper
Ġe ff
Ġour s
Ġover joyed
Ġra cing
Ġatt ached
Ġop eration
- and
f y
Ġpe ered
ĠM illy
Ġbe at
Ġdrink s
Ġhapp iest
Ġn avy
Ġra ised
âĤ¬Åĵ Thank
ĠSp ark
ĠLet Ã¢
Ġwhist led
ig zag
S usie
Ġcra shed
A l
am ie
he st
Ġbuild ings
Ġburn ing
Ġf ed
Ġpeanut s
Ġpray ed
Ġscr atched
Ġsaf ari
Ġesc aped
-se ek
Ġhis t
ĠL una
Ġfl ap
Ġspoon s
Ġearth qu
Ġhur ried
Ġon wards
Ġwork s
Ġdisag reed
Ġs ings
Ġrefre shed
ĠSte ve
Ġcomp any
Ġbri ck
Ġwe ight
Ġwood en
ad ed
bb led
Ġeag le
Ġbr id
Ġtal ent
Ġhist ory
Ġw re
M oral
om as
Ġrem em
" ,
Ġremem bers
Ġlip s
Ġprun e
ect ure
Ġby e
ĠSh aring
Ġoff icer
Ġp ies
Ġscream s
Ġwere n
Ġacorn s
Ġreve aled
ad ly
Ġcom fy
S t
Ġex a
Ġhat ed
: ĊĊ
Ġtre mb
ĠP enny
Ġpu pp
Ġcrunch y
Ġl ecture
Ġplant ed
ĠF ro
xy gen
Ġpri ce
Ġpre cious
Ġturn ing
Ġsell ing
Ġbrid ges
Ġapp ear
Ġbra nd
Ġcle aring
Ġprin ter
âĤ¬Åĵ We
Ġprep ared
omet hing
Ġrecogn ized
Ġ Qu
Ġme ow
Ġacc om
Ġwar n
Ġste el
Ġland sc
Ġmen u
Ġwa ist
Ġb ones
Ġdr inking
Ġeas ier
Ġmeas uring
Ġnet work
ĠN ot
d ie
Ġbow ed
Ġbed s
Ġw id
Ġspaces hip
Ġdinosaur s
ĠAb igail
ĠZ oe
Ġc hat
Ġp itch
ĠK atie
I s
Ġsl ip
Ġstri p
ĠRe my
ĠM at
Ġmu ddy
" My
âĤ¬ .
Ġsnow ball
Ġcre pt
Ġsucceed ed
Ġeff ort
Ġser ved
Ġall ow
Ġc al
Ġtra pped
c c
Ġsett le
Ġwonder s
Ġwait s
Ġve l
Ġo bey
Ġcudd le
ĠN ut
Ġsimp le
Ġpet s
Ġfirework s
Ġswim s
Ġaccom pl
Ġremind er
Ġper ched
ĠCh irp
Ġol ive
Ġv ict
Ġevery day
Ġvel vet
Ġany time
Ġtast es
r in
Ġapolog ize
ĠR a
Ġvo ices
Ġoat s
n ie
am b
Ġran g
Ġso ared
Ġsc oop
Ġrain ed
Ġlandsc ape
Ġrest ed
igg y
Ġcut ting
Ġearthqu ake
Ġsecret s
Ġpad d
le y
ĠCh r
Ġcomfort ed
Ġrespons ible
Ġfa sh
Ġz igzag
Ġshadow s
Ġt ip
Ġagre ement
Ġwhat ever
Ġpract icing
Ġvill ag
Ġsho pping
Ġansw ers
Ġcostum es
Ġped al
Ġexa ctly
Ġb un
Ġvisit ing
n eath
m ble
Ġmouth s
ff ic
âĤ¬Åĵ Can
Ġbre aking
Ġdisturb ed
Ġbr ushed
Ġcre ation
Ġol ives
W ould
Ġitem s
' .
anna h
L uckily
i en
ent y
m are
Ġown ed
Ġim age
Ġso ak
Ġtra ffic
T weet
Ġact iv
Ġbring ing
Ġpup il
ter day
Ġben eath
Ġsister s
Ġsty le
iz ing
Ġo xygen
Ġdoctor s
Ġlady b
Ġre le
Ġfash ion
ĠSu zy
is hes
Ġcir cus
Ġmon sters
ĠD avid
!" .ĊĊ
Ġche f
Ġle ather
la ire
ĠThe se
Ġtre mble
Ġout do
Ġr ipped
Ġcatch ing
Ġnight mare
Ġstri pes
Ġd ied
ĠFr ank
Ġvillag ers
ĠS unny
Ġwaff les
Ġunder ground
Ġfascin ated
Ġwant ing
Ġbleed ing
Ġnail s
Ġencou rage
Ġunl ocked
Ġso aring
ic orn
Ġeat s
Ġcuri osity
Ġun icorn
Ġdown stairs
Ġrecogn ize
om ing
"B ye
Ġgrand mother
Ġsteal ing
"Y ay
ĠS omething
Ġkn elt
Ġdra g
ind a
Ġsad ness
âĤ¬Åĵ Don
"Y uck
ist en
Ġguess ed
F irst
Ġaccident s
Ġfet ch
ĠO w
Ġblueber ry
Ġs ix
Ġc aut
Ġfree ze
Ġfam il
ĠHow ever
Ġg ained
ĠNut ty
Ġc ape
Ġbe nd
i k
Ġstud ied
d ing
Ġmiss ion
Ġload ed
ĠF irst
ĠIt Ã¢
Ġlem ons
Ġvict ory
Ġwonder ing
Ġn icer
ay la
Ġcomp le
Ġfiref ight
ĠB eth
Ġplan ned
i b
Ġsit u
Ġdecor ated
Ġpil es
Ġm ice
Ġmach ines
Ġare a
Ġexam ined
Ġfire men
Ġwa gging
ic a
Ġarg ued
Ġstir ring
Ġunder neath
Ġshiver ing
Ġinstr uct
Ġtun e
Ġintrod uc
Ġstr uggled
Ġyell ing
Ġt ugged
ĠJ e
Ġtick ets
Ġincre ase
Ġkey s
Ġpun ished
d am
Ġprop erly
U n
Ġsi ren
Ġcont ro
Ġperm it
Ġex it
Ġjo gged
Ġbun nies
Ġwin ning
Ġsl apped
ag ull
Ġb are
Ġwre ck
Ġpe el
Ġte asing
Fl uffy
Ġzoom ing
Ġrid es
Ġtwirl ing
Ġherb s
ĠFl oppy
Ġoutdo ors
. '
ĠChirp y
Ġsight s
Ġbeg in
Ġreal ize
Ġsatis fied
Ġmix ing
u x
Ġchallen ge
Ġpan cakes
Ġsupp lies
loo king
Ġwe ighed
ul u
u ke
ĠO l
Ġneighbour hood
Ġse agull
Ġbur row
Ġwin ner
ind y
ĠD id
ĠUn cle
a les
D ave
ak y
Ġrele ased
o h
ĠJ an
Ġan n
Ġprin ted
s hing
Ġsne aked
ir a
Ġdraw s
Ġd am
"W ait
ux u
Ġpin ched
Ġwr ites
ĠT w
ĠK e
Ġpe arl
Ġz ero
Ġspid ers
us an
- looking
Ġdes er
Ġinstruct ions
Ġbeh a
Ġshould ers
Ġpe aches
Ġconf ident
Ġl ines
Ġlo ving
Ġemer gen
Ġgather ing
Ġfro sting
Ġprun es
ĠJul ie
ĠL ucky
Ġin ch
Ġpe ars
Ġpast el
Ġstr uck
Ġbro om
bb ing
Ġintrod uce
ĠL ike
Ġop in
C l
o ed
Ġsol ut
Ġpocket s
Ġba ked
Ġbu dge
S ometimes
en a
L ola
ĠS top
M r
"W ell
âĤ¬Åĵ Look
Ġb unch
Ġstamp s
Ġdec ides
Ġbrus hes
ĠP ip
Ġl uxu
Ġstudy ing
Ġgigg ling
Ġwe b
Ġru in
Ġkeep s
âĤ¬âĢ Ŀ
Ġst air
Ġprin ts
Ġour selves
Ġre lease
Ġs ides
ay s
Ġ Y
ĠCh loe
Ġst ing
âĤ¬Åĵ Hello
ĠCo co
Ġclap s
z ie
ick y
Ġtrave ll
Ġmuff ins
Ġru ler
a is
Ġpo king
ĠH op
Ġprotect ed
- b
Ġladyb ug
Ġscur ried
Ġgr ant
And y
Ġag o
Ġbucket s
Ġlet Ã¢
Ġneighb ors
Ġt im
g ers
B ecause
ĠR ob
Ġcompetit ion
T eddy
v a
Ġcon es
Ġst itch
G eorge
n es
Ġdemand ed
Ġmark s
Ġstretch ing
W ait
Ġsweet ies
Ġrepe ated
Ġm ast
ti est
ĠA m
Ġpret tiest
Ġmention ed
M ike
Ġguy s
ow ers
Ġribb ons
o dy
B ella
ed nes
ednes day
ĠBu bbles
Ġintere st
âĤ¬Åĵ This
j am
Ġcamp ing
Ġdri ft
ri age
Ġsurf ace
k ins
Ġhorn s
Ġstr ings
ues day
Ġd ent
as hed
l en
ĠRa bbit
Ġyou th
Ġgaz ed
Ġcontro l
Ġkick ing
Ġcrow d
Ġsh ock
Ġtick le
Ġexp ect
Ġpur red
ĠB ir
l ow
th ank
uct antly
z en
Ġe ast
ĠB ig
Ġgun s
Ġste ep
e ars
Ġmus cles
Ġso aked
Ġsor ting
h h
Ġdra gged
Ġpar ked
ĠT iny
Ġgood night
E lla
ĠW ednesday
Ġdrag ons
Ġv ent
ant a
ĠJo sh
ed ding
Ġtouch ing
ĠT uesday
Ġapplaud ed
Ġboun cy
Ġforg i
Ġemergen cy
Ġsil ence
Ġbe ard
âĤ¬Åĵ Why
ĠA n
Ġsto le
Ġto night
Ġcaut ious
Ġch ases
Ġpebble s
ĠAnn e
Ġtwink ling
Ġact ed
Ġm ittens
P ete
Ġpro ject
b ies
Ġres ult
Ġte xture
ick ed
ex p
ĠTh omas
Ġdiscover ing
Gra ndpa
Ġv owed
Ġfa b
Ġfab ric
Ġstri ke
âĤ¬ÅĵDon Ã¢
Ġbare ly
"S ee
Ġpow ers
Ġpolice man
Ġcat ches
Ġ Once
Ġb ank
Ġcurtain s
Ġw est
B obby
ĠC arl
h ins
Jo ey
er n
Ġfl at
Ġba bies
Ġ 1
Ġseas on
Ġchew ing
Ġcomple ted
ĠJ amie
ĠS ure
Ġch ips
Ġent ire
" Do
as on
Ġe ight
Ġur ged
Ġshel ves
ĠG r
Ġsl im
ĠZ oom
Ġfro zen
Ġloo se
exp ected
Ġcr umb
Ġhon k
U h
H appy
H enry
Ġbl ink
Ġluxu ry
Ġmov ies
ac ob
M ar
M aggie
ĠBet ty
Ġpour ing
Ġrock ing
Ġw ound
" Sam
izz ie
Ġsaf er
Ġintroduc ed
Ġrock ed
Ġun expected
Ġdri ves
Ġpat ience
Ġst aring
Ġrel uctantly
Ġimport ance
Ġt i
Ġshiver ed
Ġhig hest
ust ed
Ġsolut ion
Ġdire ction
led ge
Ġsor ted
F r
eez ing
Ġdolp hins
Ġachie ve
Ġcont est
- f
Ġro aring
Ġincl ude
un e
Ġrubb ing
Ġcur ly
u ly
ĠL ou
Ġlibr arian
Ġtheir s
Ġmat ched
ater i
Ġm ateri
ir ts
Ġpl enty
Ġfood s
Ġknow ledge
Ġhug ging
âĤ¬Åĵ Oh
Ġli ed
Ġyou Ã¢
F red
Ġfig ured
Ġsaus ages
Ġsigh s
Ġbalan cing
Ġsn ail
Ġhome work
Ġrepl ac
"B ecause
Ġhe el
jam as
Ġrainbow s
Ġscream ing
Ġslim y
Ġsitu ation
av i
Ġbra very
a a
f it
Ġpass ing
Ġw edding
es ome
ul ts
Ġsing er
ber t
Ġmark ers
Ġpaint ings
Ġgo als
Ġsh ined
Ġth reat
Ġplan ets
Ġd ared
Ġsweet s
Ġgre et
ĠA unt
Le o
it ely
Ġpretend s
Ġex ha
Ġwr itten
R emember
Ġus ual
Ġcheer ing
Ġpack ing
Ġcan Ã¢
Ġout fit
th ough
ĠAl ways
Ġarg uing
v in
ĠT illy
Ġflag s
Ġaw esome
Ġtow els
cu se
Ġgrow l
Ġbloom ing
Ġpat ted
Ġstick ing
Ġwait er
Ġp out
ĠS anta
Ġresc ued
Ġca used
Ġreach ing
Ġsn ugg
Ex cuse
Ġdust y
ĠMat t
ĠC laire
D anny
Ġzoo keeper
ĠL ulu
Ġgrow ling
Ġman e
K itty
J ames
i ar
! Ċ
he llo
Ġtr uly
Ġbloom ed
Ġrad ishes
Ġreve al
ir m
ĠS usan
Ġmar riage
Ġbe ad
Ġs way
Ġpencil s
Ġrecord ed
Ġmot ion
ĠC ar
Ġregret ted
Ġexp ected
le e
Ġexha usted
Ġaccompl ish
Ġcut s
Ġhe av
Ġsp ike
Ġtrave led
Ġmatch ing
Ġwork ers
Gra ce
Ġgu est
Ġrest ing
Ġspray ing
Ġpa jamas
u zz
b l
en ces
Ġcreat ing
"H a
Ġflav or
Ġtremb ling
Ġstrugg le
Ġ Yes
Ġc ent
Ġkneel ed
ĠJess ie
ĠM ad
Ġb oo
R o
Ġstart led
Ġobser ved
im mer
Ġpot s
P aul
ĠF or
e ah
Ġus es
Ġran ger
"Re ally
Ġwork er
ais ies
Ġbott les
Ġarri ve
Ġst are
Ġprincess es
Ġbe lly
Ġpray er
Ġwire s
Ġsl ed
.. .
Ġinv iting
Ġlearn s
Ġle ap
Ġd aisies
Ġcomplet ely
Ġla p
Ġsl ap
ĠJ ones
Ġf art
Ġc ott
Ġdisag ree
Ġpadd led
ang led
Ġorgan izing
at y
n joy
S ophie
Ġactiv ities
Ġfa ult
Ġinclud ed
Ġsc ales
Ġsu itc
or a
Ġrem oved
Ġtim er
Ġun f
ĠP inky
Ġpengu ins
ĠS adly
Ġvent ured
Ġsn akes
p ite
ĠJohn son
Ġstore keeper
Ġagre es
ver s
M rs
Re ady
Ġfl ames
Ġw ink
Ġcountry side
ĠH oppy
Ġopen ing
"H ow
After wards
ess ie
Ġreplac ed
Ġpart ic
Good bye
Ġst ern
Ġlead er
Ġquack ed
ĠL inda
Ġdark ness
Ġvan ish
Ch arlie
id s
Ġa st
ct ions
Ġroad s
Ġwor ries
ĠDo lly
Ann ie
il es
Ġch uck
Ġfair ies
id ing
ĠB y
Ġown ers
Ġsc ra
Ġth ro
Ġcrumb s
ĠMom o
Ġmelt ing
Ġwasn Ã¢
Ġcrab s
Ġtra ctor
Ġwas ted
Ġfa ced
Ġcom m
Ġf irm
Ġinterest ed
Ġthro at
How ever
ĠFo llow
ĠLe ave
Ġmar ked
Ġtwink le
ĠJen na
Ġval ued
a ze
y ou
Ġd ipped
Ġevery body
Ġlollipop s
Ġro bb
Ġus ually
ĠFo x
Ġpol ished
he ll
Ġsque aled
Ġun ited
" M
Ġdent ist
Ġrelie f
low ly
Ġl amb
" Tim
ĠO ut
i very
Ġrep ly
ĠB ye
Ġheal ed
ĠB o
ara way
Ġrub s
ĠQu ack
Ġpol ishing
or ds
oph ia
Ġknight s
Ġopin ion
Ġteac hes
Ġbec oming
Ġf araway
Ġseem s
Ġsign ed
ĠS orry
Ġsees aw
ĠĊ ĠĊ
g o
Ġwander ing
Ġyou nger
as m
Ġhelm ets
ĠB oth
Ġk ites
ĠSu zie
Ġpee king
Ġpoem s
Ġmiss es
Ġwr ist
op es
Ġscr u
ĠJe ff
Ġc ough
Ġr ipe
Ġfold ing
M ittens
Ġr isk
Ġbead s
Ġcautious ly
ĠUn fortunately
E llie
ĠP ut
Ġcrack ed
ĠM art
Ġlisten s
Ġstay ing
Ġd en
ĠW atch
Ġclos es
Ġsplas hes
Ġcub es
Ġbak er
Ġpast ries
Ġblow s
ĠChr ist
ĠA bby
Ġgrocer ies
Ġr ings
Ġfore head
ol ine
ĠH annah
Ġpartic ular
Ġbalan ced
Ġg aze
ĠA dam
ĠL uke
Ġitch y
Ġsing le
Ġsw irl
Ġprotect ing
Ġprov ided
Ġdire ctions
Ġlo gs
Ġsw ooped
Ġro ots
Ġwin ked
Ġc ash
Ġdel ivery
Ġroll s
d ies
m as
Ġhow ever
ĠP rin
Ġact ions
Ġp iggy
Ġsl am
Ġyes terday
Ġc ause
Ġpast els
Ë ľ
âĤ¬ Ëľ
Ġf reed
Ġbo om
Ġphot os
Ġro ses
at ches
il o
Ġdes ert
Ġflutter ed
ĠK ayla
Ġcop y
" Uh
Ġsnowball s
ĠB ird
A lex
r ance
Ġti pt
ig i
ĠJ u
Ġcrack ers
Ġfill ing
- oh
ĠN ina
" T
Ġfu zzy
Ġnap s
bb ly
Ġref le
Ġcon n
ell e
p er
S andy
oy s
Ġheal th
Ġped als
Ġwigg led
âĤ¬Åĵ Mommy
Ġc ous
Ġchuck led
ĠP ipp
ĠDo ggy
Ġsneak y
H arry
Un fortunately
Ġrecord ing
ar ling
ĠL izzy
"O r
âĤ¬ÅĵWhat Ã¢
Ġw ow
Ġb umpy
Ġrock ets
N ina
or med
ĠChrist mas
Ġaw ake
Ġh i
Ġkne es
Ġrem ote
Ġsome body
" P
Ġtrip s
ick ey
Ġl ined
Ġrest ored
Ġtw in
Ġst em
Ġstro ll
Ġsil ent
Ġvide os
? '
ct ar
ĠJess ica
Ġdeterm ination
Ġne ctar
A b
Ġli qu
M ay
ĠL izzie
ĠBe ing
Ġcomplain ing
Ġinsect s
Ġple asure
ĠF riend
ĠM o
K ate
ĠKe ep
an es
Ġsuitc ase
Ġcolour ed
Y um
-b oo
Ġtall est
Ġbowl s
Ġsec ure
Ġstay s
Ġt y
il ity
F ine
Ġcelebr ation
au ra
Ġso bbed
Ġb ars
Ġback ed
Ġm es
Ġmes mer
?" ,
bo at
Ġent rance
Ġfro ze
y ond
Ġbe yond
Ġno on
Ġtrick y
aff es
ĠM any
Ġhis sed
" There
c ited
Ġcash ier
Ġdark er
Ġspe aking
Ġtick led
Ġtri cked
Ġg lee
Ġwe ars
ĠE njoy
"O uch
Ġp ause
Ġact ing
Ġbur st
Ġsto len
Ġsandcast les
pp ers
"S p
Ġin sp
Ġgir affes
Ġs ense
Ġde al
Ġhand ful
M illie
Ġafter wards
Ġatt ack
Ġtalent ed
Ġaccomplish ment
S h
ab el
ar ter
Ġbump s
Ġjo king
um m
Ġdeliver ed
" Not
ri ous
ĠNot hing
ĠJ acob
Ġcolor ed
se qu
Ġa ff
ĠPrin cess
Ġru le
Ġmil es
Ġ ĠĊĊ
Ġcon sequ
Ġinstr um
co at
ĠM on
To by
Ġcand ies
âĤ¬Åĵ Come
Ġbeh avi
Ġo pp
Ġt angled
B un
Ġadd ing
Ġcover s
Ġsm arter
Ġliqu id
Ġcal med
Ġglass es
il ed
Ġl ung
Ġfart her
ch oo
ĠSpark y
Ġmagn ets
Ġyour selves
O w
ĠG et
Ġcup cakes
Ġfirefight ers
ĠS que
ĠJul ia
Ġseek er
Ġkick s
Ġread s
Ġbak ery
Ġcheek s
Ġlight er
Ġscar ves
Ġsc aring
R ose
Ġhid er
Ġsh irts
Ġbad ge
Ġrecommend ed
ĠTw o
Ġind eed
" Max
o ssible
Ġcompl ained
Ġexplore rs
Ġknock s
Ġth orn
Ġseas hell
Ġc ust
Ġcho ices
Ġimp ossible
Ġachie ved
Ġsal ty
ig ers
L illy
br ush
Ġconsequ ences
ĠT ara
Ġrain coat
Ġjack ets
b and
th s
ĠH appy
ik i
Ġbegin ning
D ays
- t
M illy
Ġexper ien
Ġth ird
r ig
Ġsmile y
ĠS qu
n ers
Ġcust om
Ġhesit ated
k y
Ġcan s
itc hes
Ġse ven
Ġgrace fully
P olly
bl ings
Ġsi blings
O uch
Th ose
v est
Ġd ots
Ġwip es
an a
ĠP l
Ġimpro ved
ep t
ou ch
Ġm i
Ġweep ing
he e
Ġd arling
Ġmark er
Ġste er
Ġbatter ies
Ġpart ies
S ome
Ġgem s
Ġmi xture
" They
Ġfl apping
ind r
Ġlead ing
ugg les
âĤ¬ Ċ
ĠC indy
" L
at ul
Ġte ased
Ġstro ked
an s
ang ing
ĠL uckily
Ġsn uck
Ġra indr
Ġhe aring
Ġmask s
Ġru ining
ĠW ater
st ep
ĠJ on
âĤ¬Åĵ Do
are n
ĠE l
ur ry
Ġdrum s
ĠL arry
Ġdeser ve
Ġmushroom s
Ġsn atched
Ġsw ept
Ġbe am
Ġpad dle
ĠM ickey
ĠSn uggles
Ġbuy ing
Ġt igers
Ġdoll house
Ġne ither
ob ody
Ġbase ment
Ġwouldn Ã¢
ĠL ena
Ġhead ing
Ġtravell ed
ĠBu zzy
ĠEvery body
" The
n o
Ġcl ick
Ġfe ver
Ġwid ened
Ġhor iz
Ġwe e
umb ling
Ġclown s
oun ce
Ġscr atches
Ġfamil ies
Ġhall way
R u
Ġflutter ing
Ġhoriz on
ĠOl ive
Ġcream y
"Re ady
iv ity
ĠG igi
Ġtask s
Ġarrow s
Ġscru bbed
Ġyell s
el ia
ĠP andy
Ġperform ance
Ġpeace fully
ri ver
ĠWith out
R ex
c ers
Ġbeha ved
ad es
Ġriver s
Ġtree house
at ur
Ġchef s
Ġobject s
Ġcelebr ating
Ġlo sing
âĤ¬ÅĵYou Ã¢
Ġl un
Ġpay ing
t uce
t le
ig ning
Ġbed time
Ġrust y
âĤ¬Åĵ Wow
Ġann oy
Ġwra pping
"I s
Ġsecond s
âĤ¬Åĵ Hi
Ġlet tuce
Ġcreat ivity
Ġcow b
Ġcudd ly
Ġr umble
Ġswims uit
Ġsepar ated
Ġst ung
Ġe ch
Ġwill ing
" Sara
B l
y an
rig ued
ĠM el
Ġch oo
Ġre pa
ĠGood bye
Ġam ong
Ġart ist
he w
Ġwon Ã¢
ĠS lowly
Ġreward ed
Ġtr amp
Ġcon cer
ĠZ ip
Ġgra bbing
Ġpupp ies
Ġfa ct
Ġpass en
it ched
Ġl ower
Bob o
ĠS ophia
Ġw ins
T ina
ĠA bbie
Ġhid es
Ġfe ars
Ġgrass y
Ġpan s
Ġplay ers
Ġtipt oed
ad ie
D an
ĠJ azz
Ġde f
ish y
Ġdrift ed
p are
Ġrepa ired
al ph
Ġr ising
Ġsour ce
Ġtemp er
Ġgrow ls
Ġh us
Ġinclud ing
Ġwa dd
d ed
ie ce
Ġa ud
ĠR ock
Ġstom ped
immer ing
ĠM ira
Ġch op
Ġtramp oline
"R un
Ġc or
Ġtem pt
Ġpout ed
Ġsprink led
Ġ Q
ĠE arth
c ope
Ġneed les
Ġback wards
Ġsquare s
Ġdam age
Ġraindr ops
Ġta pped
Ġunpack ed
it ude
G reat
nt il
f all
o or
Ġgrant ed
" Did
Ġare n
ue en
Ġpoin ty
Ġshr inking
ong r
Ġcre ations
Ġheav ier
ho g
Ġimag ining
Ġl imes
Ġminer als
"Sp ot
Ġprom ises
Ġsail boat
ĠE ls
Cl ara
ongr atul
Ġmateri als
Ġscrew d
st y
Ġg ross
ĠJ une
Ġun s
end y
P at
ĠSt ella
Ġhesit ant
Ġswan s
im on
o ey
Ġneighb ours
Ġre fu
ment s
Ġch ip
Ġslam med
Ġornament s
Ġt iss
Ġwr ink
Ġac he
Ġto dd
Ġcorn ers
Ġhus band
"You r
Ġdi ving
Ġblock ing
Ġdream t
ĠP am
Ġgrand pare
Ġrec ipe
Ġsnow men
ĠR emember
Ġaud ience
Ġc oup
Ġpe cked
ke nd
âĤ¬Åĵ My
Ġcent er
a el
Ġr ip
Ġdad s
Ġe arn
Ġto uc
F or
Ġm er
Ġwee kend
ĠEm my
Ġprin ting
Ġrust ling
- -
E w
Ġbel oved
Ġdiscu ssed
âĤ¬ .ĊĊ
ĠB inky
Ġforgi ven
ab ly
y es
Ġavo id
Ġsp ong
Ġsurround ings
ĠL aura
Ġdecor ating
Ġhedge hog
Ġsl ices
Ġscrewd river
ĠJ ay
Ġno ses
c l
ĠD r
itt ed
Ġcolor ing
ed s
Ġst ool
Ġwip ing
Ġstreet s
Ġscrew s
j o
Ġdesign ed
Ġme als
Ġplan ning
Ġwind y
ar row
Ġslow er
Ġsunfl owers
ĠN ick
ich ael
Ġtemper ature
K atie
F o
ĠQ ueen
ak er
us hing
Ġaff ord
Ġbow s
Ġhelp ers
Ġcous in
ch ild
Ġcoup le
B ill
ĠT ess
Ġsp ikes
Ġfe ast
Ġast ron
Ġon ions
Ġwa g
u zzy
Ġforget s
un ched
Ġst ain
Ġfork s
ĠRo bert
Ġag e
Ġar r
Ġcount s
Ġwo bbled
Ġad ult
ĠH oot
ĠS c
Ġastron aut
Ġgo bbled
Ġmagic ian
Ġtail s
T r
arsh m
arshm allow
Ġrefle ction
Ġas ide
Ġre ass
F in
ĠFin n
Ġpret t
cc oon
Ġra ccoon
Ġwarn ings
H a
ĠO ur
Ġvan illa
ĠB ee
it ion
Ġd et
ĠR obby
Ġplan s
Ġrequest ed
Y uck
ĠThank s
Ġsc amp
Ġgarden er
ert ain
id o
n e
Ġg ri
Ġsa le
- bye
ĠRo ver
Ġtouc hes
Ġpray ing
Ġpress es
Ġprett ier
Ġspark s
Ġsnow fl
Ġspong e
B aby
Ġforget ting
ĠTh ose
Ġpe ppers
Ġtiss ue
Ġduck ling
Ġgreet ed
Ġh itting
Ġgrand child
Ġsport s
Ġwis hing
w k
Ġbo dies
Ġtw ice
Ġdan ces
Ġhop s
Ġremember ing
Ġsuperhero es
Ġw oof
Ġfeed ing
ĠBlue y
Ġfamil iar
Ġint rigued
J ul
Ġz ipping
Ġborrow ed
" Now
ara c
Ġcurious ly
Ġpo ster
ĠSque aky
Ġstud ents
Ġtunn els
on i
Ġch anging
Ġpot ion
S te
Ġthr own
a e
Ġh our
Ġgas p
Ġm arshmallow
Ġmus cle
os en
Ġch osen
Ġdi ved
Ġshop s
ll en
ĠM ilo
Ġdo d
Ġfl ight
Ġsnugg le
Ġbreat hed
Ġpl ain
Ġsail ors
Ġstand s
Ġre ason
Ġsea w
Ġspoon ful
Ġhope ful
Ġflav ors
oun ced
Ġgrow s
Ġhands ome
Ġtriang les
us ing
Ġenthus i
Ġwrap s
Ġdoll ars
Ġhero es
Ġmesmer ized
op sy
ĠN obody
Ġlean ing
Ġp ens
Ġspread ing
Ġ1 0
Ġenthusi asm
" Mmm
ile y
Ġsw ords
ter s
ĠGr anny
Ġm oo
Ġshap ed
ĠU ntil
Ġn ine
Ġch arac
Ġle ast
ĠBir thday
ott en
Ġdeliver ing
Ġembarra ss
ĠFriend s
Ġcor re
Ġn ibb
Ġzebra s
ck y
Ġbath s
Ġbuzz ed
Ġsk unk
st ick
ĠMike y
Ġguest s
Ġneat ly
"S hh
"Y eah
Ġpo ss
Ġwhisp ers
ĠMay a
Ġne are
Ġseaw eed
Ġr otten
Ġwarm er
A n
N emo
Tweet y
Ġgl ued
Ġon ward
Mar ia
âĤ¬Åĵ Mom
Ġpupp et
ad os
Ġlun gs
Ġencou rag
Ġha wk
Ġrefre shing
P e
Ġpu ff
i ppy
ĠP r
Ġg e
ĠR yan
H ave
ent ly
Ġcra shing
Ġgrandpare nts
f ly
ĠL isten
Ġprep aring
D ucky
Ġhon ked
Ġthat Ã¢
Ru by
Ġo h
Ġstar fish
Ġthu d
- sh
Ġste ady
bb a
Ġco nd
"R o
B y
Re ally
ĠAs h
Ġal ien
S u
ĠC ra
Ġrobb er
Ġd aring
Ġde fe
ĠB aa
Ġscra ped
M iss
T ime
" V
Ġdan cers
Ġlift s
Ġsc en
Ġsuffer ing
ye ars
Ġdro pping
Ġpl ucked
Ġsn eezing
- years
Ġperf ormed
Ġsend ing
Ġbu lly
Ġpol itely
Ġbit ing
" Mama
Ġcon fl
Ġincre ased
âĤ¬Åĵ Well
Ġprop er
Ġtalk s
all owed
ar mer
ĠZ oey
Ġnap kins
Ġresist ed
Ġavoc ados
Ġmin ts
Ġneckl aces
Ġwo bbly
Ġsw allowed
Ġm erry
Ġmatter s
Ġsniff s
Ġd ip
Ġr opes
Ġam ount
ast er
Ġjoin ing
S adly
Ġtable s
Ġlift ing
Ġso fter
Ġtodd ler
ĠSt ar
t he
Ġscamp ered
Ġtoast er
ect ion
Ġlesson s
Fr ank
Ġfl as
Ġquarrel ing
le ts
Ġcre w
Ġpen nies
ion a
ĠE x
ĠFro sty
ant ha
Ġbl ast
Ġlead s
Ġpan icked
Ġd ie
Ġstack ed
ĠMart ha
Ġjoy ful
ĠChr is
Ġresp ond
Ġdriver s
"B ad
"Ro ar
Bl ue
Ġfiref ly
Ġsl ips
B ack
ĠOn ly
Ġn ur
Ġpop s
Ġr ushing
Ġrespect ed
âĤ¬Åĵ But
ĠS un
Ġge ese
W oof
Ġtremb led
ĠK iki
Ġexp ress
on na
Ġtest ed
Ġwor n
in t
Ġfirefight er
u rious
ĠSt ay
Ġsp at
ĠTo dd
Ġfo c
Ġuns ure
Ġwater ing
T w
Ġfoc used
Ġwigg le
Ġad ults
Ġleap t
Ġco c
n ow
p lease
Ġdra wn
w hile
ĠAb i
Ġtr ot
Ġwater fall
Ġsa n
Ġwr igg
Ġdress er
e al
Ġfit s
Ġsc ored
" Dad
ĠSqu irrel
Ġdraw ers
Ġsque ak
Ġtwink led
Ġf aded
Ġp ours
b ut
c ake
ret ty
ĠL ove
Ġthrough out
Ġech oed
Ġn ood
Ġstrong est
B r
âĤ¬Åĵ Where
W h
Ġpige ons
Ġr out
fu s
Ġm unch
Ġsc ient
Ġpr ob
Ġexpl o
Ġwa kes
re y
ĠOw l
Ġnervous ly
Ġhuman s
Ġprob ably
Ġencourag ing
Ġfreed om
Ġscient ist
Ġbra vest
Ġappreci ation
Ġplay time
me al
W hee
Ġc ertain
b age
Ġo cc
Ġsan k
f ia
Ġcush ions
Ġfrown ing
Ġgar bage
Ġwadd led
ĠC he
Ġpol ar
v ant
Ġco sy
ĠThat Ã¢
Ġoat meal
Ġoff ic
ĠT ake
Ġg onna
Ġmarshmallow s
Ġpe ck
Ġperform ing
Ġthought s
ĠJack y
Ġbl inking
Ġe v
Ġsweet est
ĠFro g
rr r
Ġg est
- s
B et
Ġca using
Ġover come
ĠW endy
Ġto ssed
ĠQu ick
Ġsa dd
Ġfl own
im ent
Ġtight er
Ġbeha ving
Ġpost man
o ke
D uring
Ġmast er
Ġsqu ishy
ĠJan ie
Ġcobweb s
Y ummy
b ird
O ur
ĠMe g
Ġsp ins
Qu ick
ĠS adie
Ġwe pt
Ġfirm ly
Ġcold er
Ġload ing
Ġpump kins
ĠF ido
f ire
Ġplay room
Ġbell s
Ġdesign s
Ġgigg les
c her
ro ken
Ġpassen gers
Ġpassport s
Ġsew ing
Ġt ies
an while
K im
pl ash
ĠAl ong
Ġro ars
allow een
Ġel f
Ġa imed
Ġcon vers
Ġheal ing
Ġsh own
A h
" He
eez es
Ġm ate
Ġsp ices
Ġman ag
Ġsqu eezing
Ġt il
Ġcl ues
Ġcra ft
Ġbit s
u pt
ĠMar ie
Ġmon ths
Ġu nd
âĤ¬Åĵ Okay
âĤ¬ÅĵI f
Ġ 2
ĠF ire
Ġtwist y
Ġbehavi or
Ġdoor way
Ġres ults
M ad
es pite
"Y um
ĠH alloween
ĠH oney
ide y
ĠB essie
Ġnear ly
Ġcott age
M imi
und red
ĠT una
Ġrever sed
m ates
Ġre un
" C
Ġn uzz
Ġc oug
Ġforgi ving
Ġtri cycle
Ġyield ed
ast y
urpr ise
Ġn apping
Ġnot es
ry ing
Fo llow
Ġpay s
ug s
Ġexplore r
Ġsurrender ed
Ġp ound
Ġrobot s
Ġtwist ing
Ġconfl ict
ay ing
Ġc ongratul
Ġclean er
Ġinstrum ents
ĠZ ara
Ġpro ve
J erry
Ġpaint brush
Ġpath s
Ġnood les
ĠU nder
Ġfle as
b roken
bb ling
ĠFl opsy
Ġmer ma
Ġdist ract
ĠJu dy
Ġbrus hing
ĠMad die
Ġrain y
Ġang els
Ġsh ady
Ġt uck
Ġt ying
e el
ĠW ell
Ġcross ing
on ies
Ġsuff ered
!' ĊĊ
Ġan ger
ad ing
Ġbus es
Ġin j
Ġse ver
E ven
Ġhair d
Ġsever al
ild a
"A h
D avid
in o
Ġa is
Ġappreci ated
Ġblock ed
Ġbreat hing
Ġy um
ĠF armer
ĠM ouse
ĠRo bbie
Ġdam aged
Ġgu ide
Ġtable t
T ony
Ġbrace lets
Ġso aking
âĤ¬ ,
âĤ¬Åĵ Now
Ġrepe ating
Ġsh oo
Ġswe ep
ĠL i
Ġwid er
T ed
Ġfigure s
Ġswe at
Ġgrand d
Ġsl ipping
" Mia
Ġact ion
Ġshark s
Ġdef in
Ste ve
Ġthorn s
Ġconn ected
Ġed ges
Ġpuzz led
Ġk ittens
Ġmail ed
Ġsl ither
Ġtow ard
a bby
Ġwith in
Ġshovel s
Ġun w
" And
ĠS imon
Ġbel ts
Ġe ase
Ġlay ing
Ġqui eter
Ġc oral
c a
Ġfin ishing
Ġaccompl ished
Ġign oring
Ġlick ing
Ġsur v
O r
ĠJack ie
Ġev il
Ġh undred
Ġoy sters
Ġs ou
Ġdr own
Ġfrown s
Ġheart broken
" G
by es
Ġcho pped
ri e
Ġs y
is ions
Ġrisk s
Ġsn ort
Ġsurf ing
B oo
Ġgood byes
Ġrain s
ĠP atch
Ġst itches
Ġwho se
ight ing
Ġlend ing
am my
Ġgest ure
Ġp onies
Ġr ather
l ves
Ġwis ely
Ġremind ing
Ġsupport ed
h il
step s
Ġcott on
Ġcudd les
ĠB ecause
ĠG reen
Ġdefin itely
Ġf ant
i el
Ġsymbol s
ĠBu bba
Ġfill s
Ġsnowfl akes
Ġ X
Ġbr u
Ġcloud y
Ġn asty
w orm
Ġaw oke
Ġenc ount
Ġstream ers
, ĊĊ
Ġoffic ers
Ġpri ck
ĠAl i
en ing
Ġship s
Ġdes pite
Ġstud ent
Ab igail
Ġv ines
ĠU p
Ġel bow
Ġsurf board
f ound
is c
âĤ¬Åĵ Please
Ġfoot steps
ĠD ory
per ate
pp ies
Ġcomm un
Ġfo cus
Ġwar ri
" Excuse
c row
ĠAm elia
Ġluck ily
Ġsimp ly
Ġspit s
on se
Ġban ged
Ġdec isions
Ġhum ming
Ġresp onse
Ġsell er
When ever
ĠM abel
ĠR alph
ĠSp idey
Ġk ings
Ġsp ed
dd ing
Ġband ages
Ġfis hes
Ġreass ured
ĠM ichael
" F
- go
H annah
ag ic
ook y
ĠDave y
Ġdisturb ing
Ġp ins
âĤ¬Åĵ Of
Ġdrive way
Ġrespons ib
Ġaf ar
Ġhaird ress
Ġn i
arl ings
Ġadd ress
Ġd arlings
ĠF uzzy
Ġch anges
Ġpeel ed
Ġwe eds
d a
J amie
Ġbelie ving
Ġbat tle
Ġocc as
Ġpunish ment
Ġwindows ill
ĠH olly
on nie
ĠSnow man
Ġcorre ctly
Ġfant astic
Ġapolog ised
Ex cited
so l
Ġnew found
Ġped aled
Ġsmall est
Ġwo bble
ĠRock y
Ġex cept
Ġtravel s
"O ops
ong o
Ġchocol ates
Ġmast erp
f ather
mand a
Ġsmell ing
eel ing
ĠR ay
Ġsail s
Ġart work
Ġexerc ises
ĠBir dy
Ġfin al
Ġgrand son
Ġhand ing
P oppy
dd ie
Ġinsp ired
w he
Ġspill s
Ġche ers
Ġsto pping
Ġunderstand s
l ine
Ġch illy
Ġreun ited
ĠLou ise
Ġpack ages
Ġscare crow
c ent
ĠAl though
Ġhairdress er
Ġplant ing
Ġpresent ed
er k
Ġt ipped
Ġg ears
Ġsque aked
Ġworry ing
âĤ¬Åĵ Hey
Ġdiscuss ing
Ġp uck
Ġsurpr ising
ĠO kay
ĠPipp in
Ġbird house
Ġli es
Ġple aded
ĠE lly
Ġforest s
Ġtravell ing
ĠFred die
Ch loe
Ġd ep
m ered
ĠI m
Ġarr anged
pp a
Ġcon vin
Ġmagn if
Ġsuit s
ut ter
M ira
S ince
Ġbus iness
an cy
an ie
.' ĊĊ
Ġgrandd aughter
Ġre app
Ġbra ver
Ġencourage ment
Ġdon key
Ġl ent
Ġwrink led
Al right
Ġkn ots
Ġsp ies
Ġt ar
Ġant ic
Ġpur r
Ġvehic les
Ġcover ing
ath y
m s
ĠG ina
Ġcrown s
Ġtrot ted
J ess
ail s
ĠR uth
Ġmasterp iece
Ġweal th
el ie
em ma
Ġimag es
Ġpo ppies
Ġsniff ing
id er
Ġaw are
Ġcongratul ated
Ġj ars
Ġtast ing
Ġadmir ation
Ġhe ight
Ġy el
ac les
art led
sc reen
Ġcomfort ing
Tr ue
Ġconcer t
Ġfl ipped
Ġyel ped
ec ca
Ġb less
Ġcamp fire
Ġsuggest ion
ĠW il
ĠW ally
Ġd ump
Ġmar ve
ĠW elcome
Ġco ach
fl ies
ĠA ng
A dam
iz a
ny time
Ġterri fied
ac le
Ġmerma id
e edy
Ġteacher s
iss a
Ġbackpack s
ĠDo g
Ġcowb oy
Ġexp ert
Ġfox es
Ġm aker
Ġrefu se
ĠF ighting
ig hing
Ġsun screen
Ġtool box
- round
Ġseashell s
p en
Ġdelay ed
Ġdis c
Ġeffort s
- p
i bbit
Ġgri p
Ġno dding
Ġspeed ing
ĠPipp a
Ġinsist ing
Th omas
r is
ĠL ia
Ġactiv ity
Ġbasket s
Ġcalm ly
Jo sh
ĠT ry
ri er
in ted
Ġtar get
w e
Ġcoll ap
Ġjo ins
Ġun fortunately
w ise
ĠR ain
ugg ing
Ġhunt ers
Ġnibb led
Ġpo sit
ust y
ĠK aren
ĠMe gan
Ġstom p
Ġb uddy
Ġord ers
Ġtil ted
Ġmagaz ines
Ġsew ed
Ġsqu aw
Ġtub es
Ġh oo
Ġsp ooky
ink le
Ġb itten
Ġfin s
Ġst umble
Ġdragon fly
Ġsol ving
ip es
Ġcustom ers
Ġdec l
ort unately
ĠB ounce
Ġexperien ced
Ġstor ed
Ġbother ing
Ġfilm s
Ġpurp ose
Ġex ch
Ġmateri al
Ġunt ied
v room
Ġhoop s
Ġs ill
Ġtr ans
Ġwarm ly
B unny
Ġqu e
T ake
arl ott
Ġal though
Ġfire s
Ġgen ie
Ġnur ses
Ġcl erk
Ġdisplay ed
Ġwhisper ing
arlott e
chie vous
ĠAunt ie
Ġm ood
Ann e
Ġmis chievous
um ent
ĠD uck
Ġsc ent
atter ed
ĠK aty
Ġsqu ir
Ġt umbled
atur day
w hat
Ġsa v
K e
Ġannoy ed
Ġpe as
at s
mb ers
ĠA lly
Ġme mbers
âĤ¬Åĵ Sure
ĠS aturday
Ġtrouble s
Ġturt les
ain t
ĠSo fia
Ġcon qu
Ġgaz ing
Ġgoat s
am ma
ĠF iona
Ġjo ked
Ġpupil s
Ġtre ated
" D
Ġbury ing
Ġspell s
"R ex
Ġbelong ings
Ġdiamond s
Ġto ss
o llen
Ġg ap
Ġg er
Ġwound s
or der
Ġr in
Ġtest ing
Ġpray ers
M at
ĠQuack ers
Ġsw ollen
P enny
âĤ¬Åĵ Good
ĠFro ggy
Ġscr am
B eth
Ġlo ses
Qu ack
Ġconvers ation
Ġtrans f
Me anwhile
a ven
Ġunt ie
b ell
Ġbeam ing
Ġswe aty
Ġwas ting
Le ave
illi am
ĠJo jo
Ġcharac ters
ĠO ther
A m
Ġty pe
ĠJo an
ĠE va
Ġd ot
Ġglitter ing
Ġtid ied
Ġtw eet
Y eah
Ġdis o
Ġra ces
u el
ĠW oo
Ġencount ered
Ġmeow ing
âĤ¬Åĵ See
Ġopp os
ĠD espite
Ġexplain s
Ġgrand father
Ġperm itted
Ġscur rying
J oy
âĤ¬Åĵ The
Ġantic ip
Ġsh all
air y
ĠH ope
Ġshe ets
Ġstern ly
Ġtire s
Ġenv iron
Ġinch worm
Ġque ens
Ġrot ting
Ġwh imp
R achel
Ġobey ed
R osie
re st
Ġbe a
ĠPe pper
Ġpri z
- w
Ġoppos ite
Ġpart ed
Ġenviron ment
Ġexam ining
iv ia
Ġloop s
r ily
isc uit
Ġemer ged
Ġneare st
ou qu
Ġb ouqu
Ġconvin ced
Ġta pping
Ġyoung est
Me ow
ĠM ina
ĠSp eedy
Ġcle ared
Ġt ing
ri an
Ġend s
Ġsurv ive
Ġvisit ors
ĠFl o
Ġfor ce
Ġser vant
Ġvi br
ac y
ĠP en
Ġforgiven ess
Ġgr at
Ġresc uing
Ġzoom s
ĠB ongo
Ġa im
Ġstro ke
Ġdecl ared
Ġpand as
Ġquar re
Ġthan king
Ġattack ed
Ġscratch ing
Ġclass mates
Ġdress ing
Ġju d
Ġmate y
Ġni bble
Ġpe ep
Ġr ays
Ġtwist s
Ġwarri or
Ġquestion ed
Ġr amp
C laire
Tweet ie
Ġbeep ed
ash a
ch ing
ĠSnow ball
Ġgrat itude
Ġscram bled
m ies
ĠS plash
Ġguess ing
Ġlab els
Ġlip stick
Ġman ners
il ities
ort un
ĠSam antha
y l
âĤ¬Åĵ Who
ĠEx cited
Ġaeropl anes
Ġdiscover ies
Ġfa iled
i ens
or ter
ĠR os
Ġais le
Ġopp ortun
Ġre ly
ĠAsh ley
Ġal iens
Ġr umbling
el ope
ĠYou Ã¢
Ġsh immering
J essie
Ġanticip ation
Ġflap s
Ġseagull s
ĠEls a
Al ways
Ġsm ashed
J e
Ġbee h
Ġknock ing
a ct
ĠB ow
Ġrespond ed
Ġpicnic s
Ġsp y
"Thank s
Ġbl ond
Ġinst antly
Ġsn ug
Ġwigg ly
ath an
ĠEll e
em pt
Ġatt empt
Ġlow ered
Ġdecor ation
Ġmom ma
Ġsw ap
l o
au la
ĠH old
Ġlo c
Ġmill ion
Ġsway ing
" These
Jul ie
Ġmosquito es
ab ra
ig ger
o le
os cope
Ġst all
Ġla pt
Ġslow ed
C indy
ing er
Ġarg ument
C ar
Ġprick ly
Ġdri pping
Ġhon king
b elle
g ain
id ence
ĠRob o
Ġr owed
Ġpur rs
h ind
m unk
Ġbuck led
ĠL ion
ĠS w
Ġfor m
Ġlangu ages
Ġso ot
itt ered
Ġgood ies
" Next
Ġcoc oon
Ġsw itched
Ġbright est
Ġcrack s
Ġstat ues
ĠKe vin
ĠSpark le
R ob
oo king
Ġdrown ed
Ġnuzz led
Ġprevent ed
- choo
ss ss
umm ies
Ġbad ger
Ġshr unk
ud ged
ĠMad dy
Ġdoor bell
Ġresponsib ility
Ġbreath s
Ġmove ments
Ġact ive
Ġs ens
Ġs igning
ang le
ĠSp ring
Ġcr ops
Ġspr out
Ġst eth
l ied
ĠM aisy
Ġm unched
Ġsway ed
Ġbeauti fully
Ġdes igning
Ġfloor s
Ġghost s
Ġtap ed
Fr eddy
rom ise
Ġcustom er
Ġdan gers
ĠRe ady
Ġcon s
Ġobser ving
be e
Ġlapt op
Ġve gg
ch y
ri ck
Ġearn ed
Ġoffer ing
ĠT aking
Ġjob s
Ġastronaut s
Ġchip munk
Ġhealth ier
Ġsel f
Ġsh ines
Ġwhist les
B uddy
c ie
"L ike
ĠA va
Ġvisit s
oo sh
ĠP hil
Ġch arge
Ġcrawl s
Ġincre asing
Ġt in
st orm
Ġger ms
Ġnovel s
Ġbo nd
Ġcare s
Ġrobb ers
Ġsteth oscope
ipp ers
ĠCh ick
Ġsm elt
l or
r ink
ĠK elly
Ġmind s
are t
âĤ¬Åĵ Maybe
Ġmanag er
ĠZ oomy
Ġcup cake
eb ecca
y d
Ġclos ing
Ġdiso bey
Ġele ct
ĠI zzy
Ġann ounced
Ġhe n
Ġkn ives
Ġstamp ed
Ġwind ing
' .ĊĊ
Ġdod ged
Ġfl ips
Ġgirl Ã¢
Ġh ike
Ġnest s
- d
b it
Ġrat s
Ġsh in
Ġshort s
ĠPe ppa
Ġchat ter
ro ll
ĠJon ny
L ena
Ġbe ating
Ġfloat s
Ġrec order
Ġsteer ing
Ġweap ons
B ad
p r
ĠPat ty
ĠS k
Ġpo ses
Ġscoot ers
Ġwho ever
Un cle
ot ch
Ġgener osity
Ġgro an
er ing
r up
ing o
y ler
Ġbouqu et
Ġk illed
Ġscold s
Ġt ummies
Ġunpack ing
fl owers
O ut
Tw o
Ġbat hing
Ġrout ine
Ġunw ra
ĠJane y
Ġsupp lied
Ġtidy ing
Ġremind s
Ġcour t
o c
p it
ĠJ ax
Ġchat ted
Ġcheck out
Ġfarm ers
Ġbeeh ive
Ġcl icked
Ġexpect ing
Ġaw ful
Ġboun ces
ĠBe cky
ĠT ime
Ġdisappoin t
Ġexplo ded
Ġh ood
Ġhard est
Ġset s
e aring
Ġbea ver
Ġlo cks
Ġpadd ling
ĠP oor
ĠSt itch
Ġsy rup
Ġte les
ĠK ay
Ġappl ause
Ġde ars
Ġde ed
Ġsnap s
ĠRu dy
l t
Ġha ven
Ġparticular ly
Ġvisit or
Ġbur nt
Ch oo
an ced
id night
Ġteles cope
Ġtr aded
ĠA r
" N
lp h
ĠSt an
Ġflas hing
Ġopin ions
ĠE ddie
Ġexperien ces
Ġtest s
or king
ĠA na
ĠB ad
ĠL uc
ĠM ae
Ġcond uct
"V room
G et
S urprise
and a
ĠTess a
Mom ma
r ough
Ġcomb ed
Ġelect ric
Ġ ouch
Ġdestro ying
" K
- h
bo ards
ident s
ĠTr ust
Ġhonest y
Ġprov iding
Yes terday
in nie
ll as
u lp
Ġ ill
Ġexpl or
Ġfl ashed
Ġsc ulp
udd les
- col
Ġcub s
Ġover head
ĠN ever
Ġcryst als
Ġumbre llas
Ġwis er
ook s
Ġche cks
âĤ¬ Â
ĠA manda
Ġsh orter
Ġte aring
ara ble
Ġhe aven
Ġsadd er
Ġse als
R ed
le st
ĠDon Ã¢
ĠFin ny
Ġk it
Ġstret ches
Ġunder w
Ġvegg ies
Ro bbie
le phant
Ġcheck ing
Ġconduct or
ĠS weet
Ġbl own
Ġbother ed
Ġcar ries
Ġcontain er
Ġex amp
Ġmem ber
Ġscr ub
Ġ icing
Ġma c
-f ive
Ġforg ives
Ġk et
âĤ¬Â ¦
ĠMom ma
Ġn atur
ĠIs n
Ġwhat Ã¢
M art
T illy
Ġadd s
Ġgl immering
Ġin ches
Ġpl ugged
Ġstr um
it a
Ġgl ided
Ġhunt ing
Ġreturn ing
V ery
om b
ĠD e
Ġblue bird
Ġsc ri
Ġsw allow
ad abra
Ġgr umbled
cc idents
end ed
ord inary
âĤ¬Åĵ Be
Ġbe ast
Ġpet ting
A bby
Ġf aint
Ġser ving
Ġtw enty
? !"
Ġdefe ated
Ġgarden s
Ġsing ers
ap tain
Ġcollap sed
Ġhot ter
Let Ã¢
ĠCra bby
Ġg all
Ġwild flowers
Ġb orn
Ġdoll ar
Ġspray s
at ive
rr rr
ĠDan iel
Good night
K aren
ren ch
ĠC la
Ġca w
Ġnight s
" Quick
B ear
L isten
an ces
i ving
Ġsprink le
Ġwa ded
J acob
Ġapplaud ing
Ġspr ang
Ġsqu ished
Ġsculp ture
"M ine
cent r
ou raged
Ġfa ith
- l
pr il
Ġstrip s
Ġtrust ing
ud o
ĠEls ie
Ġotter s
Ġplay d
Ġsal on
Ġteam s
udo lph
ĠWoo ly
Ġexamp le
ĠRo ger
Ġconf idence
Ġswim mer
Su zy
st r
ĠW o
Ġb iscuit
Ġcon centr
Ġra ising
P apa
l ers
ĠC le
ĠS ay
Ġfascin ating
Ġfl ick
Ġin vent
âĤ¬Åĵ Ok
ĠZ ero
Ġg oo
Ġinstrum ent
Ġreal izes
Ġunl o
"W ould
Ġextra ordinary
Ġwater s
L iz
ow ing
ĠS mo
Ġatt itude
Ġmom Ã¢
B u
B uzz
Ġfl ip
ĠC urious
Ġimag inary
Ġin ter
Ġmunch ing
at ors
ic ate
ĠP in
Ġche ated
Ġsiren s
Ġposs ess
Ġty pes
Ġcon v
Ġflow ing
Ġneck s
" Daddy
Ġcomp an
Ġth ump
ĠFl ora
Ġbr ide
Ġburn s
ĠG ary
ĠJe an
Ġcount ries
ĠW igg
Ġcell s
elie ve
Ġche at
E ach
o ver
Ġconv ince
Ġpap a
H oney
ĠT ammy
Ġdry er
Ġhis s
ĠCh arlotte
Ġsweat ers
F riend
Ġconqu ered
Ġtrave ling
". Ċ
J on
Ġannoy ing
Ġgrass ho
Ġnatur al
Ġt ips
Ġup side
O l
io let
Ġaw hile
Ġclear ly
Ġhang ers
Ġo dd
c adabra
Ġlong est
Ġpeep ed
Some one
Ġcomm on
Ġgu lp
Ġpl ug
A unt
get ic
ĠFo xy
Ġtr igger
ĠA nt
Ġmeow s
Br own
igg ie
j est
whe l
Ġexplor ation
" Then
ĠF airy
Ġenvel opes
Ġmel ody
Ġpass es
Ġpriz es
M on
ad ually
ĠB ang
Ġdo ck
Ġinse p
v al
Ġcir c
Ġdeser ved
Ġgl ittered
Ġover whel
G ina
asm ine
ĠHe len
ĠP retty
ĠS e
Ġcomp ete
Ġfo nd
Ġpill s
Ġrelax ing
em ies
er g
ĠL a
Ġcowb oys
Ġen emies
" Mummy
âĤ¬Åĵ A
ĠE ric
Ġbehavi our
Ġinsep arable
Ġsoap y
Ġcur l
Ġmom mies
"Be ep
ball s
p rin
Ġb omb
Ġbicy cles
Ġfl ock
Ġmo at
Ġwas hes
Ġwrigg led
ĠJ ason
ĠSh ow
ĠW illiam
Ġwh ales
Ġ 5
Ġdet ails
Ġexpress ion
Ġreapp eared
Ġsince re
Ġwhis k
-sh aped
Ġdistract ed
Ġenjoy able
sh ip
ĠY um
Ġab ility
Ġcoo lest
Ġdisc ouraged
Ġoutfit s
- vroom
D ear
end ing
h ny
o ard
Ġbec omes
Ġswirl s
Ġun co
ĠS asha
ĠS ir
Ġl ump
"Good bye
Ġcheap er
Ġsk ies
ĠFrank ie
ĠGra nd
Ġopportun ity
Ġthick er
Ġsh allow
Ġab oard
Ġchat ting
Ġmod els
K ayla
ĠJ illy
ĠOl ivia
Ġbu bbly
Ġcrocod iles
Ġeng ines
Wh iskers
Ġch in
Ġcompan ion
Ġro ast
Ġwe ighing
"Me ow
ĠP ick
Ġmatter ed
Ġsand y
Ġvibr ant
St ay
ou ched
ĠT erry
Ġcrowd ed
Ġsomet ime
b ur
Ġdo z
Ġgrassho pper
Ġquack ing
Ġsque aky
ĠC r
ĠF el
ĠM other
Ġca fe
Ġgall op
Ġnewspap ers
" Mum
In stead
ĠIm mediately
Ġcheer fully
ĠN ice
o ff
Ġcal mer
Ġpat ches
W atch
ĠM idnight
ĠR udolph
ĠSpark les
.. ."
ĠBo bbie
Ġmark ing
Ġst ur
ĠBut ter
Ġrob in
fa ction
Ġsle e
Ġtick ling
ĠAm ber
ĠMat ilda
Ġfreez ing
Ġmess es
Ġsatis faction
Ġsound ly
ven ir
ĠA ccidents
ĠB rian
ĠM agic
ĠPe ggy
ĠV room
Ġha bit
Ġmoon light
Ġs ipped
Ġspill ing
Ġuniform s
Ġweigh s
Ke ep
if i
Ġsou venir
Ġhis ses
Ġun able
Ġch ill
Ġpro d
Ġsnow y
C o
v y
F eeling
ho le
ĠN ana
Ġmic row
b u
ĠD ino
ĠPr ince
ĠShe lly
Ġl im
Ġstorm s
at ty
Ġback s
Ġexplain ing
Ġhum med
Ġpress ing
Ġrow s
Ġscare s
Z oom
ly n
Ġappro ach
Ġb ound
Ġsure ly
Ġbl ushed
Ġcoug hed
Ġtre as
im mered
ĠPen elope
Ġairpl anes
Ġtal ents
st and
Ġmicrow ave
ĠC aptain
ĠR icky
ĠZ ee
Ġfor ts
Ġmir acle
Ġanswer ing
Ġrepair man
Ġsqu inted
ĠWho ever
Ġj ugg
Ġjoy fully
Ġloc al
Ġple as
Ġshr ug
Ġtor to
Ġcl ip
Ġfor med
Ġwh ined
L izzy
it er
ĠAng el
Ġscatter ing
Ġsh attered
sh adow
ĠEl iza
ĠM ake
Ġclean s
Ġposit ive
Ġunf air
Ġbur ger
Ġche ating
Ġmeat balls
Ġp ipes
' ,
H op
Ġcompl iment
Ġde v
Ġhaircut s
Ġstuff ing
Ġnot icing
am il
end ant
is p
ĠSt ri
Ġlea king
Ġmind ed
Ġposs ib
Ġtorto ise
if t
ĠT yler
Ġbeet les
Ġexch ange
Ġpant ry
L ulu
m el
w are
Ġdig s
Ġsitu ations
Ġtrap s
s ie
sc otch
ĠN e
Ġfin ishes
Ġtreas ured
el vet
ĠB ert
Ġblond e
Ġchew s
Ġsuccess fully
Ġy umm
O llie
amil iar
ĠHe llo
Ġre wards
Ġshr ank
b ank
ĠSee ing
ĠSt ep
Ġapolog y
Ġsmart est
Ġsn eezes
Ġunf amiliar
"W ill
G r
Ġsc ow
H E
Ġpract ised
o ss
Ġang rily
Ġbu nd
Ġer ase
Ġyawn ing
S now
b elt
ĠA ny
Ġbulb s
Ġcl ue
Ġmug s
Ġsand pit
T ara
Ġwelc oming
Ġbend s
Ġtent acles
Bet ty
ĠC ara
ĠN ancy
Ġdoor step
Ġoccas ion
Ġwater mel
L izzie
it s
Ġglitter y
Ġp ounced
Ġtempt ed
Bet sy
ĠRu fus
Ġall ey
Ġconn ect
Ġgroan ed
Ġtun es
" Tommy
be ep
se y
ĠSt ill
Ġlook out
Ġscen ery
ĠDo es
ĠH o
Ġast on
Ġbin oc
Ġseat belt
Ġsweet er
ic ious
Ġball er
Ġpinch ing
B ig
ĠQuick ly
Ġth ie
ra cadabra
ĠHoot ie
Ġa ctor
Ġener getic
âĤ¬Åĵ Yay
ĠG us
Ġrow ing
Ġsmo king
Z oe
ĠBe hind
ĠS ince
ĠZ ack
Ġhor ri
ĠPl aying
ĠR ich
ĠW illy
Ġcro aked
Ġoverwhel med
Ġcaterpill ars
Ġmo ons
Ġr ipp
Ġste w
Ġstur dy
Brown ie
S usan
ĠTw inkle
Ġt ugging
D anger
ump er
ĠE lephant
Ġbur gers
Ġcl ut
Ġd ou
Ġfire flies
Ġprotect ion
Ġ icky
ĠL ina
Ġpepper oni
Ġthie ves
"W elcome
May a
ight y
j ack
Ġdemand ing
Ġslither ed
Ġspe ars
ĠR ight
Ġcr isp
Ġpops ic
ir ing
k a
Ġan k
Ġgasp s
Ġre bu
Ġshare s
Ġsn apping
" Grandma
ĠBird ie
ĠR ebecca
Ġint ently
Ġreward ing
ch up
l ish
ĠB onnie
ĠG ray
ĠRos a
Ġl ar
Ġte ap
Ġunderw ater
is dom
Ġemb ra
Ġer upt
Ġhesit ation
Ġjud ges
Mat t
ul ars
Ġfun n
Ġr ack
Ġrun ner
M abel
ĠM ine
Ġballer ina
Ġcertain ly
Ġf ade
Ġmess ages
- Bun
r upt
ĠB oo
ĠM oo
Ġcho pping
Je ff
ugg y
ĠCh oo
Ġbu bbling
Ġthr ill
Ġtransf ormed
Ġam used
Ġcream s
Ġob st
Ġr ips
Ġsa cks
Ġteap ot
- g
h ow
sc ar
Ġbinoc ulars
Ġbru ises
Ġrubb ish
Ġsnort ed
Ġtexture s
ac ock
ĠSt artled
Ġc ages
H old
ere my
un o
Ġinv ites
Ġl ull
Ġpro g
Ġstore s
ĠJen n
Ġdefe at
Ġg ates
Ġhop scotch
Ġnightmare s
Ġre cess
Ġteam work
ĠO f
Ġdifferent ly
Ġdisappoint ment
Ġket chup
Ġmon th
Ġsho el
Ġsp are
Ġswimsuit s
sp e
Ġbird y
Ġcoo p
Ġgood ness
Ġmeadow s
Ġto pp
"S t
ĠA pril
ĠN ora
Ġpil ots
Ġsweet ly
- to
i al
ĠB elle
ĠL ooking
Ġchoo sing
Ġland ing
Ġscen e
C he
ic iest
âĤ¬ÅĵWe Ã¢
Ġcommun icate
Ġmel ons
Ġra king
Ġthunder storm
Ġwe Ã¢
a ving
hing s
ot ion
uct ion
ĠMon key
Ġar rest
Ġcomput ers
Ġhundred s
Ġintellig ence
Ġj ets
Ġma jest
ct s
ĠLi am
Ġcher ish
Ġelectric ity
Ġf ist
Ġfo am
Ġwatermel on
R alph
Su zie
and ra
ĠS uper
ĠT iger
Ġinj u
a i
Ġbo ards
Ġguard ing
Ġplayd ate
Ġriver bank
Ġsqu eezes
Ġtrust y
B oth
Mad dy
ĠChick ie
Ġben ches
Ġcr ouched
Ġcricket s
Ġd ing
Ġseas ons
L uke
P ut
ĠMel issa
ĠV elvet
Ġexper iment
Ġloyal ty
Ġmean ing
Ġsl apping
il i
sol ut
Ġcan v
Ġmarve led
Ġspoil ing
Excited ly
amb oo
cy cles
ot o
s ers
ĠPat rick
Ġcop s
Ġhe els
Ġinj ured
Ġstroll ed
Ġwhimp ered
ant ed
ĠB arry
ĠB ess
ĠLiz a
ĠS ky
Ġact s
Ġch arm
Ġmyster ies
?' ĊĊ
Every day
e my
u ess
Ġlean s
Ġpo kes
Ġpr ank
Ġste pping
ĠJo dy
ĠW ait
ch ief
ig e
ĠS leep
Ġaunt ie
Ġsupport ing
B ee
ĠM an
Ġen emy
Ġsty les
ĠF ifi
ĠA gain
ĠJo anna
ĠO ink
Ġgroup s
Ġn apped
Ġru ff
Ġs ection
âĤ¬Åĵ How
Ġbow ing
Ġmill er
Ġplay house
Ġshy ly
"K ids
ĠP et
ĠT re
Ġbo il
Ġcam el
Ġcanv as
Ġfo ggy
C at
Ġsk irts
Ġtempt ation
Ġwarm ed
Ġwh ir
" Lila
F ro
Ġaston ished
Ġdisapp earing
Ġluck iest
ic est
r um
ĠOl iver
ĠP er
Ġfrustr ation
Ġmagnif ying
Ġown s
ed ic
y le
ĠO h
ĠSte ven
ĠW in
Ġcur re
Ġhis sing
Ġkey hole
Ġp ouch
Ġpe acock
St ill
u dy
ĠT ears
Ġfish y
Ġpupp ets
Ġtick les
g ar
u se
ĠCla us
ĠWe Ã¢
Ġcher ished
Ġle vers
ĠB ra
Ġank le
Ġb as
Ġlumber jack
Ġn icest
Ġtooth brush
" Timmy
F ortunately
L ia
gu ard
ĠAnd rew
Ġd a
N ick
Ġwood cut
Ġzip s
"L isten
"S h
L ou
Mad die
o st
ro b
t hat
ĠGra cie
B o
ĠL ight
Ġd art
Ġle vel
Ġwor st
Every thing
Jess ica
our ed
st antly
Ġ- -
ĠL enny
Ġbl ades
Ġbus hy
Ġimpro ving
Ġrever sing
Ġwigg ling
Ġy elp
Jack ie
M ilo
ing ing
ra p
re g
s m
Ġcl aw
Ġh udd
Ġt ant
ĠAnna belle
ĠCar la
Ġfoot prin
Ġgu ards
Ġmoo ed
ĠM amma
Ġba a
Ġcent re
Ġcond ition
Ġcudd ling
Ġembarrass ing
Ġpo pping
Ġunwra pped
all ed
ĠP aula
.. ."ĊĊ
P ip
T HE
ĠC are
ĠPe ep
Ġalong side
Ġb amboo
Ġcoo perate
Ġrebu ild
Ġtim id
Ġwh ine
Ġ 4
Ġdri p
Ġfet ched
al ing
ĠO uch
ĠAn other
Ġbo ld
Ġtant rum
Ġto t
Ġun less
C urious
Jul ia
s a
ul f
ĠW as
Ġthumb s
, Ċ
ais ie
ust er
Ġqu ilt
get s
ĠBun Bun
ĠF ish
ĠL ots
ĠF ly
Ġallow ing
Ġbo iling
Ġcirc led
Ġreveal ing
art ment
og o
ĠBr uce
ĠI ce
Ġdry ing
Ġkangaroo s
Ġmotor cycles
Ġn arrow
Ġsoot hing
Ġtrust s
B aa
an i
solut ely
Ġcons ider
Ġinst in
Ġpedal ing
Ġtr ading
Ġwoodcut ter
"W atch
, '
bb i
p ect
u nder
ĠBe ep
Ġdisag re
Ġhat ched
Dave y
Mike y
R a
orm ation
ĠL ife
ĠT e
ĠT ree
Ġcoug hing
Ġmind ful
- one
w ell
ĠD ot
ĠMon a
ĠPin chy
Ġd ashed
Ġhar vest
Ġr oo
" Fine
Ġsoft ened
Ġf ries
Ġmed als
Ġpl o
Ab racadabra
ark y
ĠR avi
ĠSh are
Ġg room
Ġlull aby
Ġreal ise
Ġshr ugs
Ġknob s
Ġmust ered
Ġsleep s
Ġwr iter
-col ored
Ġcourage ous
Ġstructure s
Ġtop s
L inda
P retty
rey a
Ġall erg
Ġcomp ared
Ġcool ed
Ġkneel ing
Ġspring time
A nytime
al a
ce ll
spe ople
Ġcup boards
Ġrepeat s
Ġst un
S lowly
Ġ' '
ĠR atty
Ġfact s
Ġtown speople
Ġwh oosh
âĤ¬Åĵ Welcome
ĠV ery
Ġdoesn Ã¢
Ġmagic ally
Ġmo ld
Ġwarm est
N ice
ell ing
ĠE d
ĠZ iggy
Ġa rom
Ġbloom s
Ġloud est
Ġne cess
Ġspeak s
Ġwh irl
as hes
k er
ĠR iley
Ġallow ance
Ġbang ing
Ġcrack er
Ġfa cing
Ġpoison ous
Ġw rench
"V ery
ik y
ĠC andy
ĠG abby
ĠH urry
ĠWil bur
Ġfight s
Ġliz ards
Ġop t
Ġscoop s
Ġho llow
Ġhoo ves
Ġl ush
Ġlar ger
Ġrepair ing
J an
S ophia
b arrow
ĠP ink
Ġcous ins
Ġwheel barrow
stri ches
ĠC ould
ĠOut side
Ġpizz as
"T ime
Ch irp
âĤ¬Åĵ There
ĠM ath
ĠN ate
Ġguard ian
Ġpe ak
lf ie
ĠPe anut
ĠS l
Ġang rier
Ġcal ming
Ġlunch time
Ġneare r
Ġrecommend ation
Ġthr one
J une
Jack y
Pe ople
ber ry
Ġbl amed
Ġlife guard
: Ċ
th is
âĤ¬Åĵ Thanks
ĠAfter wards
ĠC D
ĠW oof
Ġsens ation
Ġweak er
ib ly
ver ing
Ã ĥ
ĠB oun
ĠC ook
Ġgrate fully
Ġso bbing
Ġsoon er
an tern
m ark
ĠK en
ĠTom orrow
Ġs us
ar oni
c ri
j ust
ĠJ asmine
ĠPat ches
Ġgl isten
Ġhudd led
Ġpres chool
H mm
in ny
ĠWhat Ã¢
Ġal oud
Ġchallen ges
Ġcharac ter
Ġisn Ã¢
Ġla va
Ġnet s
Ġsho ots
Ġsp iky
ĠH ar
ĠSmo ke
Ġbump ing
Ġfore shadow
Ġquarre led
Ġstro kes
m ie
Ġachieve ment
Ġhang s
Ġmay or
Ġpo se
us hes
Ġbl ade
Ġdeep ly
Ġdo lly
Ġjourney s
Ġother wise
"H appy
Ġc ig
Ġcoo ed
Ġcurre nt
Ġflood ed
Ġshin ier
Ġwo lves
om p
ĠFel ix
Ġfootprin ts
Ġheav ily
Ġkiss ing
O ops
p an
ĠE ver
ĠS al
Ġclub s
Ġcontin uing
Ġcop ied
Ġda ily
Ġdisagre ement
Ġgr ump
Ġhonk s
Ġj ing
Ġowl s
Re my
S unny
ast e
ĠJack Ã¢
ĠMart in
ĠT oto
Ġflo ppy
Ġhe Ã¢
Ġspeak er
gg les
per ately
ĠGo ld
ĠJen nie
Ġconcer ned
Ġdis aster
if er
ĠM a
Ġcre ep
Ġdesk s
Ġdo ves
Ġpe cks
ĠB a
Ġcig aret
Ġt ill
t led
âĤ¬Åĵ Would
ĠM ighty
Ġharm ony
Ġrin se
Ġsneak s
Ġwa king
ĠExcited ly
ĠMar ley
ĠSun shine
Ġdoz ed
Ġinvit ations
oth y
ĠD ra
Ġcloth s
Ġfool ed
Ġgl ared
Ġhook s
Ġso da
M other
is bee
âĤ¬âĦ¢ ĊĊ
ĠD eal
ĠLe ah
Ġbat s
Ġbra ins
Ġincred ibly
Ġro amed
Ġsilent ly
Ġsled s
J ump
Ġab solutely
Ġgo ggles
Ġstack ing
Ġsw apped
ag ine
w en
ĠYes terday
Ġattempt s
Ġgl anced
Ġju iciest
Ġmind ing
Ġold est
Ġta le
ĠHo pper
ĠM ila
ĠP o
Ġman Ã¢
Ġpersist ence
Ġstain s
on ed
ĠAll ie
Ġarom a
Ġbu d
Ġcomple ting
Ġcontent ed
Ġdog gie
Ġh ips
Ġinstin cts
Ġpro cess
Ġsk ate
on est
Ġpark s
Ġplo pped
ss y
ĠCh uck
Ġbell ies
Ġbo oth
Ġflas hes
Ġkn it
Ġnecess ary
Ġpleas ant
Ġreal izing
Ġund one
ĠJo se
Ġcaut ion
Ġproper ty
Al though
M oo
O pen
T iny
Ġcap ture
Ġinter rupt
Ġquack s
Ġsh h
Ġst alk
Ġcost s
Ġdes perately
Ġmac aroni
Ġmesmer ised
Ġwa x
a ith
em on
ll ing
ĠD uring
Ġmusician s
Ġpossib ilities
Ġthe at
Ġtick ing
Out side
Sp ike
og a
ur ity
ĠC olin
ĠO scar
Ġdes perate
Ġunt angle
H urry
Ġho ses
im ents
m ers
âĤ¬Åĵ OK
ĠD ay
ĠO ver
Ġar my
Ġbat hed
Ġle ver
Ġt roll
Jen na
ic ent
id i
ĠM oon
Ġho ot
Ġsh ave
Ġweb s
Ġwra pper
Ġadm it
Ġg ummy
Ġtr im
Ġvine gar
Al ong
ace y
ĠL u
Ġbo iled
Ġc uc
Ġdifferen ces
Ġmove ment
Ġpound s
Ġsn oring
Ġsus p
Ġunco vered
-sh irt
ap s
ic s
âĤ¬Åĵ Are
Ġwh ipped
e or
ĠJo die
ĠRain bow
Ġkay aking
Ġpassen ger
Ġpil ed
Ġspring ing
ic ally
ĠJ ump
Ġallerg ic
Ġen ch
Ġprog ress
Ġsc re
Ġtheat re
Ġunf old
N ever
keep ers
or se
Ġbuild er
Ġener g
Ġglo be
Ġimagination s
P am
ar on
ĠBr ad
ĠG inger
Ġgrown up
Ġserious ly
M ine
and el
er ts
uff in
ĠM s
Ġex h
Ġhead ache
Ġlaw s
Ġpur ring
!' .
J anie
Mart ha
ĠR usty
Ġbl ur
Ġd edic
Ġra cer
Ġscratch y
" One
ĠV iolet
Ġcut est
Ġlearn er
Ġmess ed
Ġocean s
Ġwind s
B ird
Ġchar ged
Ġcomet s
Ġdess erts
Ġmap s
"B ang
M ichael
um ed
Ġho vering
Ġrin sed
Ġsp arrow
S imon
am ing
Ġchain s
Ġhat ch
Ġhipp os
Ġlast ed
Ġr ic
Ġtown s
c r
imb o
on ut
Ġamong st
Ġcomp romise
Ġcre ak
Ġp urch
Ġshoel aces
A bbie
D olly
On ly
o ors
ĠG emma
ĠJo sie
ĠTh rough
Ġind oors
Ġkind er
Ġlunch box
Ġmagnif icent
Ġro be
Ġstir s
f ree
ĠB ooks
Ġautomob iles
Ġglisten ing
Ġgulp ed
Ġph ones
Ġrot ted
Ġsc ut
Ġsl urp
Ġtempt ing
amb i
Ġcraft s
Ġhand y
Ġobedient ly
Ġover fl
Ġpl umber
Ġsec urity
' am
- out
l aying
yd ia
Ġch amp
Ġcoc onut
Ġdep ths
Ġfeather ed
Ġnibb ling
Ġsquir ted
ret a
ĠG irl
Ġo striches
Ġpri v
Ġste ered
" Quack
Ch ris
ĠB iggie
Ġoccas ions
Ġsniff led
Ġsoft est
Ġcap s
Ġchallen ged
Ġd umb
Ġfashion able
Ġfold s
r ings
u ppy
ĠJan et
Ġallig ators
g r
ĠJ elly
Ġdep artment
Ġintroduc ing
Ġload s
Ġperf or
Ġret rie
Ġrock y
ĠWh ich
Ġesc ap
Ġke en
Ġsw at
Ġt iring
f orm
Ġd ate
Ġdet ect
Ġsmooth ly
Ġsw oop
M ina
T oo
ap er
fus ion
ick ing
m ate
ĠBr uno
ĠPl ay
ĠS itting
ĠT hings
Ġcon fusion
Ġladyb ird
Ġpeck ing
S adie
l os
Ġappear ance
Ġch ili
Ġg orge
Ġla ces
Ġperform ers
Ġro ds
ĠFl utter
ĠThank fully
Ġborrow ing
Ġdec iding
Ġst ings
Ġtap s
Ġwid ely
- Choo
Sam antha
Snow y
ĠCle an
ĠTh umper
Ġm ur
ĠB uggy
Ġbeep ing
Ġdisobey ed
Ġexh ib
Ġgreat est
Ġsend s
et ah
us y
ĠDo ctor
ĠOther wise
Ġba it
Ġflav our
Ġgorge ous
Ġrid er
C arl
b ed
s he
Ġear rings
M el
ĠStan ley
Ġfl uff
Ġstroll er
Ġyumm iest
L arry
ongratul ations
ous y
âĤ¬Åĵ S
ĠJ eremy
ĠJon athan
Ġant en
Ġche etah
Ġmust n
Ġr iddle
Ġrail s
Ġshoo ed
Ġvalley s
A choo
izz a
o f
Ġbaby s
Ġbund le
Ġf ulf
in ner
l ings
Ġconfident ly
Ġcro ak
Ġho vered
Ġpeaceful ness
Ġrest oring
Ġs inking
Ġsc ience
Ġwa nna
? !
los ure
ĠB er
ĠR ita
Ġdr ill
Ġenc losure
Ġho st
Ġli f
Ġro yal
Ġsle igh
ĠF reya
ĠW isdom
Ġcart on
Ġshort cut
ian a
ine ma
ĠH i
Ġas s
Ġbl oss
Ġfa il
Ġgoo ey
Ġguess es
Ġrag s
Ġscru bbing
Ġsoft ness
Ġst inky
Ġwhisk ers
Ġwin ners
Ġwo ken
St artled
r ons
um n
âĤ¬Åĵ Mummy
Ġap rons
Ġham ster
Ġl ur
Ġle aped
Ġun z
Co co
b el
Ġbo lt
Ġfan s
Ġhadn Ã¢
Ġstack s
" Those
Ġbabys itter
Ġbra kes
Ġc inema
Ġm ound
al ity
cl oth
Ġag es
Ġcare free
Ġorder ing
Ġscr unched
Ġsnugg ling
Ġwh ines
l ook
ĠLi bby
Ġgallop ed
Ġpo llen
se ed
Ġha lves
Ġhun ger
Ġn ations
Ġover he
Ġrout e
Ġs uck
L una
gg ie
r it
ĠD ee
ĠF ortunately
ĠR ia
ĠS ummer
ĠT ell
ĠT oo
ĠW ow
Ġbird seed
Ġl il
Ġpe els
Ġregular ly
b s
el ine
ĠBoun cy
ĠG ogo
ĠU se
Ġboy Ã¢
L ucky
ĠWo lf
Ġcar n
Ġdust ed
Ġenjoy s
-f ived
w hy
ĠB ambi
ĠLuc as
Ġn iece
Ġsh aky
Ġtong ues
B ang
c an
g ood
oor ay
ĠAm i
ĠO ff
Ġcr ushed
Ġech o
Ġglad ly
Ġinv ol
Ġright ful
Ġsc ores
Ġtrail er
Ġzoo keepers
ĠO strich
Ġdes cri
Ġsou l
ĠT ra
Ġfil es
Ġgr adually
Ġhorri ble
Ġl antern
Ġmush y
Ġpra ise
t ured
z ing
ĠC athy
ĠJ es
Ġactor s
Ġdisplay ing
Ġenthusiastic ally
Ġfre ely
Ġoff ers
Ġpl at
Ġrisk y
Ġroll er
Ġtent s
Jon ny
ur render
ĠB uster
ĠJo Jo
Ġplat form
Ġtopp ings
? !"ĊĊ
O O
iss y
u dge
Ġdri pped
Ġfu rious
Ġgrand k
Ġhalf way
Ġpro ved
Ġrefle ct
T ess
Y ears
arn ing
nd ed
âĤ¬Åĵ Will
ĠCar ol
ĠCare fully
ĠF ind
Ġorgan ised
Ġpeek s
Ġpet al
Ġre a
ill as
ĠBe a
ĠCo pper
ĠF aith
ĠK ids
Ġcal f
Ġcl uck
Ġcommun ity
Ġd amp
Ġlight ly
Ġmat s
Ġpearl s
Ġsquaw k
Ġsweet ness
Ġunlock ing
Ġunt angled
Mom o
St ella
Ġdeser ves
Ġfan c
Ġglow s
el ve
hnn ie
Ġexerc ising
Ġfr isbee
Ġwh izz
ĠN ell
Ġac cess
Ġas hes
Ġhandle b
Ġmis chief
Ġsh ots
Ġvalu es
Is n
L ike
Ro bert
a ly
ell ow
ĠRob in
Ġbright ened
Ġfu ss
Ġhat es
Ġpound ing
"A rrr
"B oo
Frank ie
k ind
âĤ¬Åĵ Go
ĠW ant
Ġlight ing
Ġr ibbit
Ġscow led
-cream s
S hh
b ook
is ible
mo sp
mosp here
or ious
urp le
ĠF eeling
ĠT oys
Ġat mosphere
Ġbuild ers
Ġcont ained
Ġlil ies
Ġsl ight
Ġvent ure
Ġwhe ther
Â ©
ĠP a
Ġbeak s
Ġca f
Ġdi ves
Ġlisten er
Ġmajest ic
Ġsk ips
Ġst ate
cl ock
en g
ĠA pp
Ġinv isible
Ġm ashed
Ġsh immered
-h and
B less
E l
as y
urt le
Ġcamp s
Ġdedic ation
L aura
ous el
w ood
ĠSque ak
Ġcrisp y
Ġhelicopter s
Ġl eng
Ġpl ank
Ġunicorn s
ĠH ug
Ġboard ed
Ġdesign er
Ġeld ers
Ġfunn iest
Ġn udged
Ġtw itched
ĠRo ar
Ġcarn ival
Ġfierce ly
Ġgrandk ids
Ġtast iest
p s
ud rey
ul a
ĠC ow
ĠR es
ĠS a
Ġa id
Ġreal ity
Ġsuggest s
' clock
pe ck
ĠC hew
Ġheight s
Ġhome less
Ġla sers
Ġsl ot
Ġun e
Jo hny
b ly
ĠIn stantly
ĠM aisie
Ġd ips
Ġlon el
Ġon line
Ġpalm s
Ġroo ster
Ġvo l
With out
an ish
Ġduck lings
Ġex ist
Ġgor illas
Ġinf ormation
- in
Ra bbit
ssss ssss
ĠN urse
Ġcamps ite
Ġdev ast
Ġf ences
Ġfart hest
Ġhand les
Ġspe ck
Ġswirl ing
Ġtwirl s
G us
Ġexam s
Ġmanag ing
Ġtank s
el sey
f ield
ing ly
âĤ¬Åĵ Wait
Ġ ĠĊ
ĠBl ack
ĠRa ven
ĠSk ip
Ġcar ousel
Ġcompliment ed
Ġgo d
Ġgu ided
Ġla kes
Ġoverhe ard
Ġpant ing
Ġser vice
A rrr
E ls
sh op
Ġchoo ses
Ġtrunk s
- e
Ġat op
Ġdin ing
Ġp oop
Ġpan cake
Ġslee ve
Ġsnowfl ake
Be ep
Ġ2 0
ĠLucy Ã¢
ĠM us
Ġcompet ing
Ġpark ing
Ġsol id
Ġstri king
Ġwink s
T ry
ri ce
yl an
ĠLight ning
Ġdevast ated
Ġf if
Ġscra pe
Ġsub ject
ĠM uffin
ĠP iggy
Ġbless ed
Ġenter ing
Ġh ind
Ġm end
Ġnight stand
Ġpad s
Ġspirit s
Ġst ained
Ġy uck
B oys
I m
ep e
i et
r nie
ĠIs ab
Ġadd ition
Ġca ves
Ġsn ip
Ġsp ice
Ġtw elve
Ġw ig
" !
cell ent
ĠAl an
ĠB illie
Ġany body
Ġclot hing
Ġdust pan
Ġenerg ized
Ġob l
Ġpri est
Ġthread s
Am elia
To dd
ay lor
ell er
r idge
ĠM ac
Ġench anted
Ġha re
Ġnest led
Ġwood peck
S c
col ate
y a
ĠH a
Ġbat ch
Ġcook s
Ġpol ka
Ġr umbled
" Leave
oo h
ous ly
ĠC ro
ĠO lly
Ġpopsic le
Ġswirl ed
Ġtot ally
E njoy
Ġchamp ion
Ġco de
Ġde ck
Ġfarm s
Ġh oof
Ġloo s
Ġn ug
Ġre ck
Ġservant s
Ġsquaw ked
Ġt end
Ġvac u
he ee
ĠOr ange
Ġbound ed
Ġcr uel
Ġpres ence
Ġwre cked
-t ock
Every body
R uth
k i
w w
ĠN ature
ĠSunday s
Ġcon str
Ġhoney com
Ġrea ction
Ġripp les
Ġsolut ions
Ġsun b
J azz
asp er
ous and
ĠD oug
ĠL y
Ġdod ging
Ġs izz
Ġsmo other
Ġur ging
Ġvest s
ĠJenn ifer
Ġbird Ã¢
Ġexhib it
Ġinju ries
Ġsc ree
"B oys
d ers
ear l
ĠB ar
ĠP uddles
Ġchatter ed
Ġexplo de
Ġgl iding
Ġh uff
Ġr ink
Ġreck less
Ġsa x
Ġting le
Ġweight s
N ut
ort h
ĠA very
ĠFr an
ĠMiss y
ĠY oga
Ġconsider ate
Ġdelight ful
Ġmeet s
Ġtri pping
M ae
P ipp
ĠChe ss
ĠH ank
ĠN icky
Ġb lend
Ġfresh ly
Ġgr uff
Ġkn itting
Ġp ace
Ġpossess ion
Ġsp ied
Ġstomach s
Ġsusp icious
Wh ich
ead ing
ĠA f
ĠC ars
ĠK yle
ĠM ousy
Ġg le
Ġp als
Ġproject s
Ġsqu ish
Ġsupply ing
"S oon
il ar
on fused
Ġavo ided
Ġcorre ct
Ġd andel
- beep
ic ated
mark et
th ur
ĠG ert
ĠM ir
Ġant lers
Ġlur king
Ġo ars
Ġp airs
Ġstud io
Ġt ink
Ġwo bbles
Ġwork shop
ess ion
re m
Ġ 9
ĠChe ese
ĠGr umpy
ĠJ am
ĠP aws
Ġbl ame
Ġcomm otion
Ġcontent s
Ġfright ening
Ġskin ny
Ġsne aking
Ġsuper market
Ġwoodpeck er
-s m
A na
g re
ĠA nytime
ĠWigg ly
Ġdes ce
Ġhor ror
Ġin no
Ġsell s
Ġspo ken
M o
ic al
ĠM innie
ĠS andra
Ġany ways
Ġleng th
Ġsick ness
ate ful
ĠBr other
ĠFriend ship
ĠG wen
Ġbuy s
Ġgarden ing
Ġhandleb ars
Ġla unch
Ġsnow ing
Ġt umbling
d ream
in ting
âĤ¬Åĵ Me
ĠD V
ĠSh adow
Ġattach ing
Ġcl ips
Ġdisagree ing
Ġgr umble
Ġpain ful
Ġshow ers
" John
ĠDV D
ĠE ve
Ġpudd ing
Ġsquir med
Ġth ousand
"O k
S urpr
ĠMon ster
ĠO pen
ĠSe an
Ġab and
Ġnug gets
Ġsee king
Ġthreat ened
Bu bbles
D r
itc her
s orry
utter ed
Ġback ward
Ġday dream
Ġtooth p
Ġzigzag s
"Y ummy
D eal
It Ã¢
il s
âĤ¬Åĵ Here
âĤ¬Åĵ John
Ġguit ars
" His
Do es
app le
ar led
f er
Ġab ack
Ġatt endant
Ġisland s
Ġpor ridge
F iona
S illy
ĠP op
Ġra ked
Ġrun ny
Ġsc aly
Ġvill ain
- m
Friend s
w ing
ĠL ydia
Ġpot ty
Ġtight ened
Ġtour s
ho colate
ild ren
m ony
ĠJoan ne
ĠS il
ĠT urtle
Ġarm or
Ġbl ob
Ġfor wards
Ġlonel iness
Ġmar vel
Ġrust le
Not hing
Z ip
ĠCh ar
ĠD ina
ĠW orking
Ġas sist
Ġdart ed
Ġdisgust ed
Ġgra sp
Ġhide out
Ġra ises
Ġresist ing
Ġsh uff
Ġstream ing
N G
c up
ĠM ic
Ġfloat y
Ġstor my
Ġund o
ir ty
ĠCh icky
ĠDo ll
ĠF ay
Ġcere mony
Ġgl immer
Ġhair s
Ġmusic al
Ġp itcher
Ġpract ising
Ġres our
Ġs im
Ah oy
an n
imb a
re s
ĠAf ric
ĠMatt hew
Ġbuck les
Ġholiday s
Ġstream s
Ġw etter
Mar ie
ab eth
ist ened
iz abeth
n ings
ĠG l
Ġhurt ful
Ġmass ages
Ġpurch ase
Ġsp ades
ĠE ating
Ġcap tured
Ġcar ve
Ġdr oop
Ġpass ion
Ġquick er
Gr anny
K iki
at ic
Ġbeg un
Ġdump ed
Ġper se
Ġr is
Ġs ly
Ġshe Ã¢
Ġta les
-aid s
Be ware
ry st
Ġad op
Ġhoneycom b
Ġne ighed
Ġpre fer
Ġr iches
Ġw itches
R un
ac her
l ock
mb ur
âĤ¬Åĵ C
ĠD el
ĠR un
Ġdisapp ears
Ġeras ers
Ġgrandchild ren
Ġha mbur
Ġmiss iles
Ġw icked
i bbles
re et
Ġcart s
Ġembra ce
Ġgl istened
Ġhammer ing
Ġp ave
Ġr ay
Ġrefu sing
Ġunlo aded
is her
it am
ĠBl ink
ĠM int
Ġmust aches
Ġpave ment
Ġstomp ing
Ġsurround ing
Dan iel
Z ara
oo ked
ustr ated
ĠP urple
ĠR andy
Ġanten na
Ġclut ched
Ġdi v
Ġscientist s
Ġscold ing
Ġslight ly
Ġstud ies
Ġun st
-sm elling
Pat ty
g aret
o kay
ĠEll en
ĠFl ash
Ġdiscuss ion
Ġmix es
Ġrespect ing
Ġsax ophone
Ġso ggy
Ġtut u
Ġun kind
Ġunlo ad
Ġwin king
"T oo
E ver
G abby
ress ed
ĠCar ly
Ġad v
Ġaw a
Ġown ing
Ġp ec
A r
But ter
Chirp y
W endy
sol ved
Ġcar ved
Ġj aws
Ġst iff
K aty
âĤ¬Åĵ Remember
ĠA d
ĠAl bert
ĠW ise
Ġhow l
Ġra cers
Ġsadd le
Ġsn arled
Ġting ling
Ġv itam
n is
âĤ¬Åĵ Mum
Ġaut umn
Ġru led
Ġsa uc
Ġsuitc ases
Fin n
W ake
ait lyn
ic o
ĠStep h
Ġfull y
Ġinvent ion
Ġpuff ed
Ġstretch y
Ġsucceed ing
Ġyawn s
J ay
So fia
ll e
t ling
âĤ¬Åĵ Because
ĠD uke
Ġcon fu
Ġcontent ment
Ġcur ves
Ġobst acles
Ġpatient s
Ġre el
Ġsett ling
Ġsqu ashes
Ġto ne
Do g
P aula
R os
c at
r iting
ra nd
ĠCl ose
ĠT ri
ĠTh under
Ġl umpy
Ġscri bbled
Ab i
I ce
Th ree
ryst al
ĠG reg
ĠK enny
Ġapp ears
Ġarrest ed
Ġde vice
Ġescap ing
Ġharm ful
Ġje ans
Ġtr ad
- ha
ic ia
rrrr rrrr
Ġaband oned
Ġb ould
Ġbe gs
Ġexpl an
Ġstret cher
Ġv ast
" She
h i
o d
ĠBir ds
Ġarr ange
Ġchew y
Ġdri es
Ġreapp ear
Ġruff led
Ġshield s
Ġtr udged
R obby
ul iar
ĠG reta
ĠP ing
ĠSt ret
Ġmist y
Ġparrot s
Ġpec uliar
Ġprod uc
Ġrec ipes
Ġv oy
"I f
Nut ty
See ing
U sing
V room
ll ed
ĠAfric a
ĠC her
ĠO ak
ĠS usy
Ġbo bbed
Ġdou ble
Ġinterrupt ed
Ġm itt
Ġpossess ions
Ġsculpture s
Ġsh ame
Ġto ad
Ġtuck s
"S urprise
Cl imb
L i
ĠClean ing
ĠWil ma
Ġjog ger
Ġscoop ing
" Jack
?" .Ċ
ĠM ag
ĠP anda
Ġche es
Ġf are
Ġgrin ning
Ġjump er
Ġstare s
Ġstri ped
Be cky
ri et
âĤ¬âĦ¢ .
ĠJose ph
ĠJu ice
ĠP ee
Ġb udd
Ġindepend ence
Ġlecture s
Ġwigg les
Em my
That Ã¢
v o
ĠC uddles
ĠP aw
ĠR el
ĠS inging
Ġcomp are
Ġfriendship s
Ġpl ow
Ġpo les
Ġpro f
Ġunfold ed
U nder
i or
ĠCook ies
ĠMum ma
ĠWhere ver
Ġac rob
Ġapp et
Ġbudd ies
Ġdr ople
Ġl itter
Ġp y
Ġpay off
Ġpr ison
Ġprotect or
Ġsun s
"W h
Gra nd
R ain
ant s
ĠR ory
ĠStri p
Ġaccept ing
Ġcable s
Ġch unk
Ġchirp s
Ġconn ection
Ġimportant ly
Ġjoy ous
Ġl imp
Ġsweep ing
Ġvolcano es
Ġw il
R yan
ĠB all
ĠB ree
ĠNo ah
ĠR on
ĠRes pect
Ġbirthday s
Ġconcentr ated
Ġgra ins
Ġleop ards
Ġlo bby
Ġmelt s
Ġpin ec
Ġsnugg les
Ġsome how
Ġvoy age
- I
-b elieve
r ope
ĠBer nie
ĠP ast
ĠSp irit
Ġcap es
Ġcomb s
Ġfriend Ã¢
Ġgl oom
Ġgr umbling
Ġjourney ed
Ġl ens
Ġpat ting
Ġsupport ive
Ġw it
Ġwra ppers
ĠB oy
ĠK at
Ġevent s
Ġexplan ation
Ġg n
Ġham mers
Ġmot ions
Cl ose
S m
S qu
h aps
ut e
ĠFl appy
ĠG eor
ĠO ld
ĠO t
ĠR eading
Ġham mered
Ġjugg ling
Ġprotect s
Ġrem o
Ġthey Ã¢
Ġwait ress
G igi
M ake
ser y
ĠCl are
ĠF ishy
ĠN ed
Ġexch anged
Ġgood s
Ġinst ant
Ġop er
Ġre ct
Ġseal ed
Ġunl ike
A ng
g iving
h ill
heart ed
ke lly
ĠJo hny
Ġbiscuit s
Ġcross es
Ġmoder ation
Ġpers u
Ġpine apple
Ġs ite
Ġstri kes
E va
S n
d on
ve y
ĠA udrey
ĠCr usty
ĠP ig
Ġd im
Ġequ ally
Ġfire wood
Ġgod mother
Ġpost ers
Ġpro ceed
Ġreass uring
Ġsn ipped
Ro ar
are ful
ĠAl ison
ĠD en
ĠR oy
Ġgr anny
Ġnot ices
Ġric her
Ġspeed y
Ġstrum med
Ġsubject s
et ime
r am
rem ely
ti v
âĤ¬Åĵ Help
ĠBu bble
ĠR ani
ĠSh ark
Ġkind est
Ġnur sery
Ġr ises
Ġraincoat s
Ġsepar ating
Ġsteam ing
Ġthought fully
" Great
C onfused
F ire
sm art
ure n
ĠCar oline
ĠDra gon
ĠR ick
ĠSc r
Ġfisher men
Ġterri bly
- th
P oor
R icky
Ro ger
o es
up ert
ĠB oom
ĠG erry
ĠR oo
ĠSt and
Ġann ounce
Ġbould er
Ġcap tiv
Ġext remely
Ġmotion ed
Ġo gre
Ġped alled
Ġshouldn Ã¢
Ġsign al
Ġwo nd
Ġwrigg ling
" E
ump h
w orking
ĠCl imb
ĠK ind
ĠSarah Ã¢
Ġband s
Ġbleed s
Ġdef end
Ġlawy ers
Ġperfor mer
Ġthin ner
Ol ive
w o
ĠA lfie
ĠCat ty
ĠM ore
ĠMus ic
Ġcreep y
Ġlif etime
Ġp endant
Ġper ch
Ġscut tled
Ġz ippers
Mum ma
Ġappro val
Ġclo ver
Ġcompl icated
Ġgu ilt
Ġj igg
Ġloving ly
Ġmail ing
Ġquarre lling
Ġspl itting
Ġstr ay
Ġtight rope
Ġwrink ly
Fl oppy
a ved
ent ial
ĠBe es
ĠN ibbles
ĠSp anish
Ġcl ung
Ġcom mand
Ġfavor ites
Ġgl imp
Ġin ched
Ġkne els
Ġor ch
Ġqu izz
Ġrequest s
Ġspell ing
Ġsqu irt
Ġst itched
S weet
d og
ĠB arky
Ġcl ucked
Ġdetect ive
Ġdi aled
Ġguard ed
Ġout smart
- ey
J ason
ac ul
imal s
ĠJ un
ĠMar cy
ĠMe anwhile
ĠMo st
ĠS id
Ġcur ls
Ġcur ve
Ġdest r
Ġpan icking
Ġpl um
Ġwarm ing
- n
M aisy
at ted
jam in
le ct
Ġ Ġ
ĠT aylor
ĠZ ippy
Ġlamp s
Ġpa il
Ġpost c
Ġro am
Ġslee ves
Ġta co
ĠS ugar
Ġadventure rs
Ġbank s
Ġo o
Ġstri ct
S anta
Sh aring
m ade
âĤ¬Åĵ you
ĠN ear
Ġbo omed
Ġcomb ing
Ġcu l
Ġrep ort
Ġstroll ing
" Once
"I n
-f ree
A manda
are r
unt ed
ĠGold ie
ĠJo lly
ĠNe ither
ĠW he
ĠY ellow
Ġbo bbing
Ġfly er
Ġfor ced
Ġproceed ed
Ġrust led
G uess
id dy
ik a
pl ed
ĠIs la
ĠP earl
ĠP uppy
ĠSh ould
Ġbl ush
Ġc ities
Ġgiant s
Ġhon or
Ġsu nd
Ġtrail s
-f illed
D espite
S ir
c st
Ġab ilities
Ġcur ved
Ġhurry ing
Ġleap ing
Ġre jo
Ġsh ades
Ġsk ating
Ġsque al
Ġwit ness
Ġwrist s
Ġz ig
N obody
d est
il k
lor ia
âĤ¬ÅĵI s
Ġbra id
Ġcigaret te
Ġconfu sing
Ġconvers ations
Ġdrople ts
Ġenv y
Ġhope less
Ġlay er
Ġrep airs
Ġsalad s
id ance
âĤ¬Åĵ Mama
ĠAny thing
ĠCar rie
Ġcul ture
Ġdesce nded
Ġdirt ier
Ġem pt
Ġfare well
Ġgu idance
Ġnight fall
Ġsharp en
"Ah oy
M agic
b ec
cst atic
epe at
ĠB op
ĠF ather
ĠM ars
ĠP ark
ĠT ia
ĠT urn
Ġflow ed
Ġpick les
Ġres umed
Ġsal sa
Ġsp ee
Ġt ang
Ġup s
Ġview s
"A n
H el
H oppy
a ld
er ris
in nam
innam on
st op
ĠE at
ĠJ imbo
ĠPer cy
ĠSh all
Ġcar riage
Ġch a
Ġchick s
Ġfr ames
Ġjugg le
Ġstalk s
-ey ed
. The
h ave
yl v
ĠJ emma
ĠSn ap
Ġbl ed
Ġhard working
Ġmot ors
Ġspr ung
Ġsurprising ly
Ġwh oo
' ĊĊ
H ope
Tr ust
ĠM in
Ġchar ity
Ġconcentr ate
Ġdis ob
Ġdod ges
Ġfix es
Ġfl akes
Ġmis be
Ġnumber ed
Ġphot og
Ġquizz es
Ġspee ch
Ġstem s
: "
M amma
ist le
ne w
om ers
ĠCh ip
ĠL ance
ĠMat ty
ĠW ake
Ġc innamon
Ġchees y
Ġcrack ing
Ġimag in
Ġopt ions
Ġscoot ed
Ġsn atch
Ġvitam ins
Me gan
S omething
al ia
as c
b ling
ex i
ig her
ĠBe ary
ĠMo le
Ġinsp ected
Ġnew ly
Ġobst acle
Ġread er
Ġstair case
Ġsurrender ing
Ġti ara
C ra
p ie
r ous
ĠDo ing
ĠZ igzag
Ġaccident ly
Ġais les
Ġanxious ly
Ġe cstatic
Ġexper iments
Ġf ading
Ġladybug s
Ġlow ers
Ġpistol s
Ġset up
Ġtarget s
Ġth irty
Ġtipt oes
Ġtoothp aste
Ġtrain ing
M ila
P rin
R iley
Ro ver
hell e
p hew
re ck
ĠJ umpy
Ġbar bec
Ġbe gging
Ġbo ast
Ġlad ders
Ġsm ash
Ġstri pe
Ġturkey s
ber ries
il st
v ious
ĠJust in
ĠMar garet
Ġbru ise
Ġdes ire
Ġdo dge
Ġdou b
Ġdra gs
Ġk ill
Ġne phew
Ġra is
Ġroast ed
Ġsand als
Ġsn oo
Ġtick ly
Ġtimid ly
Ġun h
H olly
Sh rink
com ing
gr ateful
ising ly
ist y
ĠCra b
ĠP up
Ġadventure r
Ġcontented ly
Ġcra z
Ġf itting
Ġoverfl owing
Ġper ked
Ġsk ates
Ġsty lish
Ġwond rous
K elly
u ri
ĠB ro
ĠG ail
ĠS imba
Ġbang s
Ġbird ies
Ġcaptiv ated
Ġde eds
Ġfist s
Ġg al
Ġreplac ing
Ġsh immer
Ġsneak ers
Ġsw itches
Ġvacu um
as hing
ist ory
le ch
omers aul
Ġbal c
Ġconstr uction
Ġcrunch ing
Ġdelay ing
Ġfold ers
Ġpin ches
Ġs omersaul
Ġt ul
Ġti ppy
Ġwe ed
R ight
is app
th an
uc cess
ĠCl ub
ĠHug o
Ġback ground
Ġcut ter
Ġfour th
Ġjo gs
Ġorch ard
Ġother Ã¢
Ġsnugg ly
Ġtri umph
Ġuse less
-t alk
P en
an ked
ĠEl izabeth
ĠJan ice
ĠM ix
ĠSp ider
Ġfif ty
Ġfl ippers
Ġl ately
Ġout er
Ġp ounce
Ġpast or
Ġt ack
ĠĊĊ Ċ
P inky
ad a
itt ers
ĠA men
ĠAlex a
ĠBr ight
ĠBut t
ĠD ylan
ĠTuesday s
Ġcaf Ãĥ
Ġcuc umbers
Ġearthqu akes
Ġex cellent
Ġfix er
Ġprom ising
Ġrec ords
Ġslither ing
Ġspr ings
Ġth irst
Ġwalk ie
Ġwo bbling
Jane y
R andy
T urn
m ill
oo o
or is
ow s
âĤ¬Åĵ Jack
ĠB elieve
ĠW illie
ĠWh ite
Ġbloss om
Ġheav iest
Ġmor nings
Ġsc an
Ġstun ning
R ock
al f
ho e
âĤ¬Åĵ Stop
ĠG oose
ĠL and
ĠThanks giving
ĠWigg les
Ġblink s
Ġchallen ging
Ġexa ct
Ġforeshadow ed
Ġpart ner
Ġsqu igg
Ġstun ned
Ġun grateful
Ġun sc
Tw inkle
een a
Ġb umble
Ġbalc ony
Ġball et
Ġduck ed
Ġflav ours
Ġgl immered
Ġpar amed
Ġplac ing
Ġreco vered
Ġshuff led
Ġst ump
John Ã¢
N ear
P hil
c ies
ĠJu les
ĠS kelly
ĠS on
ĠSc ott
Ġbend ing
Ġc ords
Ġcur sed
Ġdestr uction
Ġk ern
Ġloos en
Ġsick er
? ,"
am i
âĤ¬Åĵ W
ĠC ount
ĠG u
ĠL ady
ĠLou ie
ĠS ister
ĠSt u
ĠSw im
Ġchalk s
Ġcre aked
Ġd azz
Ġli ar
Ġpl un
Ġse ated
Ġshore line
Al i
D e
ĠM indy
ĠM ister
ĠN one
Ġacrob ats
Ġarri ves
Ġbeh old
Ġbl urry
Ġemergen cies
Ġflashlight s
Ġher d
Ġho bby
Ġinf ection
Ġiron ing
Ġmur ky
Ġpra ises
Ġroof s
Ġtable cloth
Ġur ges
"N ice
"S ome
A sh
B uzzy
Tess a
ay a
ĠHe idi
ĠMel ody
ĠP ir
ĠStrip ey
Ġad just
Ġbull ies
Ġclut ching
Ġdra gging
Ġposit ion
Ġsleep over
Ġw oo
ac ing
k s
r uck
ĠB ones
ĠCl oud
ĠE rnie
ĠH ippy
ĠL o
ĠPing u
Ġbeep s
Ġbroom stick
Ġch ugged
Ġglimp se
Ġinvol ved
Ġla ce
Ġlim its
Ġlo ser
Ġout ing
Ġrele asing
Ġscre ens
- hearted
Aunt ie
N ancy
ak en
r ant
r un
ĠD i
ĠY et
Ġb ust
Ġband aged
Ġbright en
Ġfulf illed
Ġselfish ness
" Only
A S
F ido
O oh
a fe
il ot
st ack
t es
um e
vent ure
ĠDan cing
ĠF ore
ĠF urry
ĠG illy
Ġobl ig
Ġsecure ly
Ġsmo ky
Ġsqu atted
Ġte ch
"A l
"D ear
L uc
on k
âĤ¬Åĵ Just
ĠC ream
ĠDaisy Ã¢
Ġappet ite
Ġbill s
Ġgain ing
Ġgreat er
Ġpony t
Ġremain s
Ġscree ch
Ġtr an
Ġun p
Ġyelp s
Be ing
ar ked
cr umb
it ive
ĠAr thur
ĠD inner
ĠN orth
ĠP ingo
Ġadm itted
Ġawa ited
Ġbarrel s
Ġelbow s
Ġfanc iest
Ġhoo ked
Ġinno cent
Ġloo ped
Ġpack et
Ġplay fully
Ġprop s
Ġsil k
Ġsp ir
Ġspot less
" To
' ."ĊĊ
-col oured
B C
Ch arlotte
Ew w
Sh ould
un ate
ĠM uch
ĠTim othy
Ġbread crumb
Ġclass es
Ġd izz
Ġfe ared
Ġnight light
! ,"
- of
F ly
Fro g
al thy
c he
c ip
ce l
p ill
Ġ1 2
ĠA BC
ĠE v
ĠHelp ing
ĠJes us
ĠSil ver
Ġantenna e
Ġbarbec ue
Ġn anny
Ġout come
Ġr asp
Ġrad i
Ġremain ing
Ġsnail s
Ġweren Ã¢
Ġwhirl ed
Els a
ar ies
ĠG en
ĠP romise
Ġcorn field
Ġgl inting
Ġhe ated
Ġm ended
Ġrare ly
Ġshrimp s
A hh
at rice
or gan
s hes
ĠN athan
ĠN ia
Ġcle arer
Ġcop ies
Ġoblig ed
Ġqu ality
Ġsmooth ie
Ġswe ating
Ġtrump ets
A ny
H ar
M ickey
id get
ylv ia
âĤ¬Åĵ Daddy
ĠBra ve
ĠC ass
ĠCar rot
ĠFay e
ĠMe ow
ĠN elly
ĠOt to
ĠP ot
ĠPl us
ĠR upert
Ġcut ters
Ġdet ail
Ġdri ven
Ġmarve ling
Ġmo les
Ġscr unch
Ġsink s
Ġspeed s
Ġwarn s
1 1
ar let
iver sity
ĠC ake
ĠD izzy
ĠH anna
ĠIsab ella
Ġlun ged
Ġprin cip
Ġsun k
Ġtr ous
Ġvict orious
Pipp a
Z oey
oin t
p o
âĤ¬ÅĵYou r
ĠCo al
ĠK ai
ĠW hee
Ġbru ised
Ġcoll age
Ġcool ness
Ġf ired
Ġmag pie
Ġmin i
Ġs up
Ġslam s
Ġstrugg les
Gra cie
H ooray
Mon a
N ana
all ing
en ess
it i
ĠUnder neath
Ġc y
Ġclothes line
Ġfr ant
Ġgal ax
Ġm id
Ġtrous ers
Ġvi ol
- by
B ert
Bo bbie
Im agine
S que
ac on
ank y
Ġ9 11
ĠS chool
ĠTre es
Ġdisob edient
Ġeld er
Ġend ings
Ġgra in
Ġhay stack
Ġpl us
Ġsummer time
Ġsunb urn
Ġyield ing
" Fluffy
"A w
- ma
U se
W illiam
ater pill
lo at
w ow
ĠDr op
ĠN an
ĠP izza
Ġbreadcrumb s
Ġhow led
Ġhow ling
Ġmum s
Ġpri ces
Ġsaw ing
Ġtw itch
Ġu nn
"O ur
.' "ĊĊ
E at
F ree
Fo x
J u
N ora
at t
h adow
ĠBa iley
ĠHe l
ĠR uff
ĠRich ard
Ġaf loat
Ġcho ke
Ġcomb ined
Ġeyes hadow
Ġgrownup s
Ġpopsic les
Ġrais ins
Ġstr ut
Ġt ed
Ġt ending
"G et
"G ot
E ric
b et
gn es
l iest
m ar
us es
x ie
âĤ¬Åĵ P
Ġ (
Ġ 8
Ġ" ĊĊ
ĠKay lee
ĠL ayla
ĠLily Ã¢
ĠMar cus
ĠTh ree
ĠWo nder
Ġcl amber
Ġclum s
Ġmess ing
Ġretrie ved
Ġsil ky
Ġsw ift
Ġwhir ring
L a
Z ero
ar med
ik o
st ret
ĠAng ie
ĠAs ked
ĠW est
ĠW ink
Ġaccess ories
Ġal b
Ġcareless ly
Ġcl am
Ġclever ness
Ġcons id
Ġembarrass ment
Ġembra ced
Ġfre s
Ġgle aming
Ġgo bble
Ġhe y
Ġpot ential
Ġprincip al
Ġre solved
Ġrejo iced
Ġtast ier
"P laying
ĠD ream
ĠS pl
Ġcr ooked
Ġcr ust
Ġdad Ã¢
Ġha irsty
Ġrecord ings
Ġsuggest ing
Ġted dies
Ġtoss ing
Lou ise
ra in
ĠAn imals
ĠCher ry
ĠL ast
ĠPe ace
ĠPet ey
ĠS urpr
Ġbl ues
Ġcalm s
Ġd u
Ġfor ming
Ġhurried ly
Ġn in
Ġnuzz les
Ġra w
Ġrece iving
- co
An other
Gra b
br ushes
fl ower
oph ies
ĠM ick
ĠO p
ĠSam Ã¢
Ġground ed
Ġjack s
Ġra iling
Ġskelet ons
B rian
Hel en
Surpr ised
be am
nt rigued
w elcome
ĠG ia
ĠK athy
Ġapart ment
Ġch ann
Ġhand led
Ġrat tle
Ġwaste ful
Ġwil ted
" Bob
"St ay
- ch
L ina
L ove
S un
ĠMon ica
ĠRo xy
ĠT oni
Ġad vant
Ġcha os
Ġerupt ed
Ġlo lly
Ġnotebook s
" Jill
"H ave
Ros a
S on
ood le
rob es
âĤ¬Åĵ Bye
ĠI vy
ĠM ill
ĠTh ough
Ġaff ect
Ġb on
Ġbelie f
Ġcre aking
Ġele ven
Ġg ad
Ġgesture s
Ġsaw ed
Ġsl edding
Ġtired ness
Ġtr ophies
Je an
M ore
f riend
m es
n ut
ull y
ĠJ et
ĠM iles
Ġcart whe
Ġcr anes
Ġgo bl
Ġris en
Ġtrim med
O ver
U p
arn ey
id y
lp ha
ĠG loria
ĠJohn Ã¢
ĠKind ness
ĠM ust
ĠP ain
ĠW orm
Ġch ances
Ġclo ak
Ġco cked
Ġcu pped
Ġend less
Ġinsp ect
Ġmeet ings
Ġprin ces
Ġregret ful
Ġsim ilar
" So
Th rough
p ole
Ġ ic
ĠC rystal
ĠGr adually
Ġa h
Ġcrack ling
Ġd ut
Ġdis m
Ġgl ide
Ġpl uck
Ġresour ces
Ġsniff ling
Ġsnort s
Ġsor row
Ġstar ry
Ġstre ak
Ġthere Ã¢
Ġunsc rew
L iza
Me g
S plash
be ying
g ling
ib i
t able
v or
Ġbu ds
Ġcaw ed
Ġcra shes
Ġdon ate
Ġempt ied
Ġfing ert
Ġlock ing
Ġmast ered
Ġmess ier
Ġpri cked
Ġremo ving
Ġrepl ies
Ġsn ore
Ġsound ing
Ġst ations
Ġwh ining
I zzy
acul ously
aw k
uri osity
ĠD awn
ĠJul iet
ĠK aitlyn
ĠSm all
Ġcabin ets
Ġcl im
Ġcolour ing
Ġfond ly
Ġm ower
Ġpoin ter
Ġsqueak s
Be hind
Ch ildren
D el
J udy
Ke vin
M ouse
O P
f ect
y la
Ġ 7
ĠH ipp
ĠJane Ã¢
Ġalb um
Ġass ured
Ġdi als
Ġfest iv
Ġpostc ard
Ġs ons
Ġs ucked
Ġwhoo shing
A lly
A va
Anna belle
K enny
St an
ase y
g ent
ĠB el
ĠBo bbi
Ġa lpha
Ġachie ving
Ġad ored
Ġbu bbled
Ġd ice
Ġh yd
Ġlong ed
Ġpl ump
Ġprevent ing
Ġrhythm s
Ġsurf er
R ebecca
T erry
ar rot
d led
hoe be
ik ki
p ing
stret ched
t les
âĤ¬Åĵ They
ĠDe bbie
ĠH im
ĠNell ie
ĠP uff
ĠSteph anie
ĠT ippy
Ġadop t
Ġadvant age
Ġd ong
Ġqu iver
N ate
or ty
ph ones
ĠB ell
ĠD ora
ĠGrand ad
ĠPa ige
Ġam use
Ġbo oming
Ġcl a
Ġhung rier
Ġinju ry
Ġmust ard
Ġpadd les
Ġre nt
Ġspr inted
Ġspread s
Ġstor ing
Ġwhizz ed
-ray s
J ax
S e
a way
er as
ĠAfter ward
ĠAs k
ĠBen jamin
ĠChar les
ĠChew y
ĠW riting
Ġbless ings
Ġcoo per
Ġd emon
Ġdeep est
Ġexist ed
Ġforeshadow ing
Ġfrant ically
Ġground s
Ġhome made
Ġinterest s
Ġla z
Ġpriv ate
Ġrel ation
Ġsheep ish
" Zoom
-a h
P r
R ay
S leep
T e
ock s
ven ge
ĠBeth any
ĠGert ie
Ġcat cher
Ġco ast
Ġdrift ing
Ġfair ly
Ġout stretched
Ġpriz ed
Ġs ips
Ġsav ored
Ġsp ine
Ġstall s
Ġunl ucky
Ġwag ons
Ġy anked
- A
A very
B lech
E ddie
Jo se
P er
al ter
ec ess
oy al
ra w
ĠF uzz
ĠLa uren
ĠPr un
ĠShe ll
Ġbless ing
Ġdandel ion
Ġimp act
Ġluxu rious
Ġprefer red
Ġsh aker
Ġsmo ot
Ġste ad
Ġun pl
h orse
oin ted
ĠB ugs
ĠD own
ĠLou is
ĠM oney
ĠMust ache
ĠStret ch
Ġalpha bet
Ġb ins
Ġdish onest
Ġgra zing
Ġimpatient ly
Ġmeasure s
Ġre venge
Ġsa ves
Ġsecret ly
Ġunn ecess
"S ometimes
Bu bba
Do ggy
P l
w ho
ĠL exi
ĠT abby
Ġcigaret tes
Ġfast ened
Ġlim ped
Ġpass age
Ġs ul
Fred die
G inger
Mat ilda
Mmm m
R ibbit
ac ed
am ingo
ar is
lf red
r imp
ĠJun ior
ĠN at
ĠSt acy
Ġamuse ment
Ġcr um
Ġdemon str
Ġexpl os
Ġfl ipping
Ġimagin ative
Ġj ay
ad dy
if ted
now ing
on ight
sp ass
Ġ Yay
ĠJ ade
ĠR ibbit
ĠWednesday s
Ġcam eras
Ġchild hood
Ġclamber ed
Ġeff ect
Ġinclud es
Ġkern els
Ġmo ist
Ġpad lock
Ġre v
Ġro sy
Ġsl ime
Ġsque aling
Ġthousand s
"Not hing
-talk ie
A P
O ff
Ol ivia
She lly
W heee
ari um
ir affe
ma ster
umb all
ĠD are
ĠIm agine
ĠK ara
ĠK elsey
ĠL acey
ĠMax ine
ĠV al
Ġchatter ing
Ġd il
Ġg umball
Ġhead phones
Ġlight house
Ġmailbox es
Ġscur ry
Ġvend ors
-c at
-s aw
az el
ol o
ĠH app
ĠH onest
ĠMad eline
ĠPr une
ĠS low
Ġcomfort ably
Ġcuc umber
Ġdad dies
Ġduck ie
Ġfl amingo
Ġj ig
Ġoo hed
Ġpar ades
Ġpinec one
Ġr umm
" Jen
P andy
Sp ark
U ntil
e ers
ind ed
j i
u h
ĠD iana
ĠF aster
ĠFl uff
ĠRos y
ĠS oup
ĠWill ow
Ġhesit antly
Ġlay ed
Ġprep ar
Ġre ins
Ġscre ec
Ġse vent
Ġsque aking
Ġtoug hest
Ġunnecess ary
-hand ed
AS H
C atch
E E
Jan et
Jo hnnie
N e
Th ough
You ng
ale b
le an
reet ings
st alk
ĠA aron
ĠA maz
ĠB ack
ĠT ip
ĠTr uck
ĠZ e
Ġban ner
Ġbr ats
Ġbra ke
Ġc ents
Ġch ant
Ġcr anky
Ġcro aking
Ġman go
Ġmommy Ã¢
Ġow e
Ġstory book
Ġthoughtful ness
Ġunw ell
"Sh oo
- off
C ara
P ick
ed ience
or get
zz ly
ĠBe atrice
ĠBl oom
ĠMo llie
Ġassist ant
Ġco iled
Ġdil ig
Ġer rand
Ġforget ful
Ġgre ed
Ġgreet ing
Ġhe ed
Ġmath s
Ġnorm ally
Ġre act
Ġretrie ve
Ġs ug
Ġscared y
Ġsquaw king
Ġsu pper
Ġtil ts
Ġun iting
" Ew
"O oh
- le
Ol iver
P laying
in ter
llow ed
ĠMart y
ĠSpot ty
Ġbeat en
Ġclim ber
Ġd ates
Ġdescri bed
Ġdi al
Ġdism ay
Ġfaith ful
Ġh int
Ġhi ked
Ġhope fully
Ġhuff ed
Ġlad ies
Ġli king
Ġmeasure ments
Ġouch y
Ġp es
Ġpout s
Ġs ession
Ġslurp ed
Ġt umble
B ra
H o
a id
fere nt
ott ie
u nts
ĠAny a
ĠFl op
ĠMar co
ĠSal t
ĠU sing
ĠZ og
Ġch ugging
Ġcr umble
Ġcrum pled
Ġdisturb ance
Ġdon ut
Ġflick er
Ġgobl in
Ġrect angle
Ġrid den
Ġstu bbed
Ġtang y
Ġune asy
-w ar
C ongratulations
W o
it z
sp ect
t a
ĠA ri
ĠBar b
ĠButt ons
ĠMic helle
ĠSte aling
Ġfe ature
Ġfingert ips
Ġgl ory
Ġit ches
Ġo ink
Ġopportun ities
Ġsp ect
Ġter rit
Ġtra pping
Ġunlock s
Ġvol unt
Ġwarri ors
Ġwh ilst
Ġz one
"F ire
E lle
K ay
be at
orget table
ĠC uriosity
ĠCarl os
ĠE ng
ĠJo hnnie
ĠR ino
ĠSt r
Ġbed side
Ġboo st
Ġcarp ets
Ġcompl iments
Ġfor ty
Ġoutdo or
Ġrecommend ing
Ġser ves
Ġsn atches
Ġtight en
Ġunwra p
-boo s
-to ed
B inky
C R
Jo an
a nder
a ves
arlet t
ever se
i ant
if ferent
ir ley
isapp ointed
ive ly
l ife
ting u
ve re
ver se
ĠDr ink
ĠFl ap
ĠPip er
Ġattack ing
Ġattract ed
Ġcalm ness
Ġex tingu
Ġgrandpare nt
Ġgrump iness
Ġjealous y
Ġjing le
Ġl at
Ġpriv acy
Ġtal ons
Ġwand s
Am ber
Li am
ill s
ma il
ĠB an
ĠB ibi
ĠB urt
ĠE rin
ĠJ asper
ĠW innie
Ġbra g
Ġcact i
Ġm ain
Ġmitt s
Ġover night
Ġpre y
Ġqu itting
Ġrun way
Ġsh aving
Ġsp itting
Ġst umbling
Ġsunset s
Ġt iles
Ġunf orgettable
Ġwas p
Ġwh in
.ĊĊ Ċ
D ing
F uzzy
Ru fus
aff y
b ag
ĠC aterpill
ĠE than
ĠLy nn
ĠM atch
ĠS ale
ĠSo cky
ĠTo oth
Ġar cher
Ġblend ed
Ġequ al
Ġflo pped
Ġharsh ly
Ġin s
Ġpe a
Ġperm itting
Ġprot est
Ġreflect ing
Ġrun ners
Ġs umm
Ġsh aken
Ġsmart s
Ġspoil t
Ġsurf ed
Ang el
C athy
Every where
kn ob
ork s
Ġ .
ĠEm mie
ĠN umber
ĠV ict
Ġco aster
Ġco ck
Ġcr itters
Ġdoub t
Ġfight ers
Ġha lo
Ġhorri fied
Ġlat est
Ġmost ly
Ġponyt ail
Ġpot ions
Ġsnow ed
Ġsteak s
Ġsug ary
Ġsun beam
Ġsurv ived
Ġthrill ing
Ġtid ier
Ġunz ip
Ġunz ipped
Ġwadd ling
Look s
W oo
f ty
ld erly
n s
r ors
ĠA da
ĠA ly
ĠAl icia
ĠB iggy
ĠLe arning
ĠTom Ã¢
Ġbumble bee
Ġclos est
Ġdazz ling
Ġdoor knob
Ġpaw ed
Ġr ash
Ġs ighing
Ġsharp ened
Ġtaco s
A R
D own
H oot
le as
o k
ol k
s ure
ĠDon na
ĠM ara
ĠW anna
Ġcr itter
Ġfloat ies
Ġparamed ics
Ġpond s
Ġskull s
Ġstro king
Ġteaspoon s
Ġtravel er
Ġunst uck
"W oof
"Who a
Jo jo
P atch
T una
ess or
irl s
Ã Ĥ
Ġ $
ĠCro cod
ĠH igh
ĠHer o
ĠHipp o
ĠNe w
Ġarri ving
Ġdear ly
Ġdes p
Ġsw ell
Ġtap es
Ġterrit ory
F armer
G row
K ara
i rew
âĤ¬Åĵ hello
ĠB iff
ĠB ug
ĠDo ve
ĠFly ing
ĠJoe Ã¢
ĠM ilk
ĠP ol
ĠStri pes
Ġconqu er
Ġmum Ã¢
Ġpersist ed
Ġpost s
Ġsc oring
Ġscreec hed
Ġsurf ers
Ġth aw
Ġthank fully
-l ike
S urrender
Ste ven
f reeze
ssssssss ssssssss
ĠCl ar
ĠMe i
ĠR iding
ĠRob ot
Ġc it
Ġcough s
Ġdizz iness
Ġfig uring
Ġgra ve
Ġshin iest
Ġsho ve
Ġsp atul
Ġun ison
Ġun ra
Ġuns afe
' ,"
-p ilot
B elle
Pen elope
b ang
ir ds
n ap
ĠCla w
ĠCo dy
ĠCr ane
ĠTh ink
Ġk o
Ġpast e
Ġs ipping
Ġsund ae
Ġthe rap
Ġyumm ier
Ġz ag
- do
H ours
K en
L ife
Z oo
f ying
ift een
ve nder
ĠFl owers
ĠGr ump
ĠHer b
ĠMar ch
ĠSweet ie
Ġcap able
Ġcollap se
Ġfet ches
Ġh ula
Ġla vender
Ġrat tling
Ġrefu ses
Ġsw er
Ġv ari
Ġvol ume
Ġy ay
- be
- so
Fl opsy
ast ian
eb astian
ent er
st ream
t here
ĠA bbi
ĠAngel a
ĠC hocolate
ĠF anny
ĠO xygen
Ġapp oint
Ġdemand s
Ġhe ater
Ġin tern
Ġpainter s
Ġpi er
Ġround ed
Ġsent ence
Ġstomp s
" Just
" Lucy
" Mr
- or
E d
in ning
j a
nn ess
âĤ¬Åĵ Sometimes
Ġ1 5
ĠD ing
ĠGood night
ĠGu ard
ĠJelly fish
ĠS ylvia
ĠWh istle
Ġbath robes
Ġdroop y
Ġevery time
Ġexc use
Ġgad gets
Ġmatch box
Ġpuff y
Ġspatul a
Ġt ad
Ġtrad ition
Ġun b
Ġwild ly
-g ra
C andy
M ick
S andra
h ot
ipp ee
ra ph
re verse
rink les
z oom
Ġ 6
ĠA gnes
ĠAd venture
ĠB ark
ĠJ em
ĠK nowing
ĠM erry
ĠP ine
ĠWin ter
Ġannounce ment
Ġb ay
Ġb id
Ġbean stalk
Ġbust ling
Ġconsid ered
Ġfarm house
Ġfestiv als
Ġgn ome
Ġinsist s
Ġintern et
Ġluck ier
Ġreg ister
Ġtech n
Ġzigzag ging
What Ã¢
own er
ro y
Ġ10 0
ĠB re
ĠCook ie
ĠFr ustrated
ĠH ot
ĠM anny
Ġb ased
Ġben ef
Ġd iver
Ġd ue
Ġdisplay s
Ġdrum mer
Ġgr ade
Ġlo ss
Ġp ure
Ġplay mate
Ġsea horse
Ġtax is
Ġtoug her
H ank
N AP
c ar
er ie
or illa
r op
ĠBob Ã¢
ĠC ol
ĠF un
ĠH en
ĠIs abel
ĠL ions
ĠP iggie
Ġare as
Ġbeam s
Ġbri ef
Ġchest s
Ġde ath
Ġdec re
Ġecho ing
Ġgl ues
Ġglee fully
Ġjigg led
Ġmark ings
Ġp ry
Ġrun g
Ġsizz le
Ġtack le
Ġtra ined
Ġwild life
Ġwrigg le
" Choo
He idi
al king
c ling
im a
iz mo
w h
âĤ¬Åĵ When
ĠA lfred
ĠDo gs
ĠI ntrigued
ĠW ork
Ġbend y
Ġc av
Ġcan es
Ġgrasp ed
Ġgu iding
Ġhambur ger
Ġmoo ing
Ġmother s
Ġnew est
Ġpast ure
Ġped alling
Ġpun ched
Ġqu en
Ġsl ippers
Ġsprink ling
Ġthreat s
Ġwild er
"D eal
"R ibbit
Pe ggy
ers on
id en
or nness
sm ith
âĤ¬ÅĵWho Ã¢
ĠB arney
ĠM aking
ĠPot ato
ĠSp eed
Ġappoint ment
Ġc urse
Ġcit iz
Ġd ash
Ġdra ped
Ġent ertain
Ġfo ss
Ġgrand ad
Ġlittle st
Ġprun ing
Ġro les
Ġswings et
Ġter ror
" Leo
B arry
J imbo
reck les
ĠC onnie
ĠTre vor
Ġapp earing
Ġcomb ination
Ġout run
Ġprop eller
Ġsheepish ly
Ġtink ling
Ġtwink ly
Ġv ases
Ġv ows
Ġwe aving
Ġworld s
- re
A gain
Car la
D rink
I Ã¢
K elsey
O ld
S asha
S w
Thank fully
Will ow
cer tain
ret ruck
st one
ĠAnna bel
ĠD eer
ĠEl i
ĠOw en
ĠPick les
ĠShe ila
Ġband aid
Ġcollect ions
Ġculture s
Ġexplos ion
Ġf ate
Ġk il
Ġket tle
Ġmotor b
Ġo int
Ġpack s
Ġph ra
Ġpo nder
Ġscri bbles
Ġsimple st
Ġskate board
Ġstitch ing
Ġstubb ornness
Ġsup erp
"Do es
C aw
M ove
Mon key
Quick ly
ab out
ens es
ere st
ring e
ĠC ott
ĠHe Ã¢
ĠM ild
ĠSp icy
Ġchuck le
Ġcrack le
Ġfl ush
Ġfor ces
Ġgoal ie
Ġgreen s
Ġkey board
Ġlo sers
Ġpo ll
Ġrecogn ised
Ġrep ay
Ġru by
Ġspell ed
Ġsur ger
Ġsy ringe
Ġteam mates
Ġtick lish
Ġting ly
Ġtor ch
ant ic
or i
Ġ3 0
ĠB es
ĠJ ed
ĠStand ing
Ġblack smith
Ġbreat hes
Ġbull ets
Ġbuy er
Ġf ifteen
Ġfi retruck
Ġfro l
Ġg ig
Ġhabit s
Ġhoot ed
Ġinsist ent
Ġjud ged
Ġmo an
Ġoint ment
Ġopt ion
Ġsurger y
Ġtra ce
-ha w
K ids
Mart in
Pe ppa
T ammy
T ell
hill ip
less ly
re ating
t ract
ĠC ut
ĠEd ward
ĠL illie
ĠP ole
Ġco z
Ġdi aper
Ġgarden ers
Ġim it
Ġpeople Ã¢
Ġrem ark
Ġscra pes
Ġsomersaul ts
Ġstrut ted
Ġsw ished
Ġtodd led
Ġun certain
Ġwhir red
- E
-w oo
J asmine
L enny
St ep
ac am
acam ole
in ic
ish a
l ot
z es
ĠC on
ĠK n
ĠM ail
ĠM itch
ĠMel inda
ĠR ad
ĠR ound
ĠWh ale
Ġb acon
Ġcoconut s
Ġdan gling
Ġfl icked
Ġfort unate
Ġfruit y
Ġko ala
Ġlo af
Ġpig let
Ġprod uce
Ġreplace ment
Ġscra ps
Ġslap s
Ġsome place
Ġstory t
Ġvari ety
Ġwind mill
"C he
"T ake
am ent
at hing
lex ible
r ude
ul ty
umb ly
ĠApp le
ĠB est
ĠB ull
ĠG aby
ĠI nd
ĠSm iling
Ġcactus es
Ġconfl ic
Ġflut es
Ġhas n
Ġign ores
Ġin qu
Ġm uttered
Ġmir rors
Ġmother Ã¢
Ġneed ing
Ġphotog rap
Ġpuck er
Ġreind eers
Ġshy ness
Ġspect ac
Ġstead ily
Ġsur ge
Ġte ases
Ġvill ages
Ġyouth s
R el
T yler
h am
isc illa
ĠDo lp
ĠF our
ĠMar c
ĠR olly
ĠS illy
ĠShe ep
ĠStep hen
Ġdare s
Ġde w
Ġgu acamole
Ġk i
Ġr ins
Ġsav oring
Ġspectac ular
Ġsuit able
Ġtherap ist
Ġunco ver
Ġwadd le
Ġwe ave
Ġwet ness
"P ut
ic ity
oo ke
âĤ¬Åĵ He
âĤ¬Åĵ These
ĠC omet
ĠM ond
ĠRe ggie
ĠS issy
ĠSh irley
Ġbas il
Ġbear Ã¢
Ġble ated
Ġcoll ars
Ġcop ying
Ġcraft ed
Ġcrow s
Ġdist ress
Ġeat er
Ġgri nd
Ġj er
Ġj uggled
Ġmajest y
Ġmerma ids
Ġni bbles
Ġpart ied
Ġraz ors
Ġsl iced
Ġsniff les
Ġspin ach
Ġtweet ing
Ġun c
Ġunderw ear
Ġwater y
Ġwhimp ering
And rew
ag ing
ar r
on ce
ump kin
w ater
ĠABC s
ĠH ouse
ĠL ying
ĠMo ley
ĠP hoebe
ĠQuack y
ĠS ad
ĠTra cy
Ġchann el
Ġcr ad
Ġg arl
Ġpound ed
Ġprotect ive
Ġsprout ed
" U
B ow
Ch ick
G reg
Jen n
Prin cess
Sp ring
ar ch
g ive
n ied
o dies
ĠBe an
ĠButter fly
ĠC ora
ĠClimb ing
ĠD ara
ĠJack son
ĠY ummy
Ġagree ing
Ġcl inic
Ġclos ets
Ġcom ment
Ġdiv ided
Ġfeed s
Ġfrog gy
Ġgap s
Ġmel odies
Ġob edience
Ġover c
Ġperson ality
Ġpit s
Ġwa iled
Ġwa vy
Ġwhin nied
Ġyellow s
"Good night
"Wh ich
- o
/ she
R ick
i us
ir ation
irew orks
m ary
ĠBee f
ĠTimmy Ã¢
ĠW ood
ĠW ool
Ġadmire s
Ġcarp enter
Ġclick ing
Ġday Ã¢
Ġgreen er
Ġhandful s
Ġlic enses
Ġp ang
Ġpeel ing
Ġpress ure
Ġrecogn izing
Ġround s
Ġtr ades
Ġwis est
Ġwood land
Ġzigzag ged
" !ĊĊ
Car ol
Don Ã¢
L ion
S k
Sque aky
W illie
an as
bb ies
er ri
ker chief
r ina
ud ges
ver ance
âĤ¬Åĵ Alright
ĠCl own
ĠEvery time
ĠG iant
ĠG reat
Ġbr ist
Ġcast ing
Ġcur ry
Ġd un
Ġd ying
Ġencount er
Ġfl itting
Ġgold fish
Ġhand kerchief
Ġlap s
Ġmean er
Ġrestaurant s
Ġrow boat
Ġscan ned
Ġshoot er
Ġside ways
Ġsqu irm
Ġwhizz ing
Ġwonder land
!' .ĊĊ
"S now
' ?"
A nt
C ool
E lly
Le ah
illi est
um ents
âĤ¬Åĵ M
ĠBa ld
ĠFr iday
ĠHar old
ĠL oyal
ĠLance lot
ĠS eth
ĠSn ake
ĠTw ist
Ġad j
Ġarri val
Ġbra ids
Ġche m
Ġdiffic ulty
Ġdog house
Ġfasc ination
Ġgolf er
Ġinc ident
Ġlong ingly
Ġmean ie
Ġmed ium
Ġmin ty
Ġne g
Ġpaint brushes
Ġperse verance
Ġpr anced
Ġscar ier
Ġse lect
Ġst ressed
Ġwheel ed
Butter fly
J eremy
as er
erest im
ort hy
otch a
ĠCh ina
ĠCl ucky
ĠH azel
ĠHe ather
ĠJo el
Ġa qu
Ġartist s
Ġfeed er
Ġic ic
Ġlo cket
Ġmen us
Ġpers pect
Ġremark able
Ġru ins
Ġrug s
Ġsi bling
Ġsn arling
Ġsp out
Ġsub tract
Ġtre et
Ġtre spass
Ġund erestim
Ġv ar
Ġvan ishing
" Tweet
- da
-co vered
ash ion
âĤ¬Åĵ Tom
ĠA round
ĠButter flies
ĠL acy
ĠM ack
ĠM al
ĠM ason
ĠMond ay
ĠS NAP
ĠV iv
Ġadj usted
Ġash ore
Ġble nder
Ġbund led
Ġbuzz es
Ġgig antic
Ġhelpful ness
Ġp est
Ġprof essor
Ġs illiest
Ġsaw s
Ġso bs
Ġstra nd
Ġvalu ing
? '.
Fl o
R ory
al ities
ale y
an cing
art y
ert ained
m i
n old
ou ble
rag ile
u le
z ed
Ġ ir
ĠG inny
ĠHar riet
ĠK it
ĠSh rimp
ĠTo ot
ĠWoo lly
Ġbad ges
Ġch ug
Ġcomp ost
Ġent ertained
Ġfeature s
Ġfulf ill
Ġin ser
Ġl atch
Ġm ash
Ġplum s
Ġpump ed
Ġre cy
Ġsix ty
Ġto ot
"A choo
' ."
Ash ley
i qu
in osaur
l ue
n ough
r ite
rrrrrrrr rrrrrrrr
zz le
ĠA ren
ĠBro ccoli
ĠC elery
ĠPat ience
Ġappl ied
Ġbull et
Ġcontain ers
Ġfew er
Ġg own
Ġgentle man
Ġhairsty le
Ġpar lor
Ġpr ed
Ġpy jamas
Ġs is
G emma
G reetings
J illy
Jo sie
bel ief
d les
ell ie
g ies
oon s
sp ecially
ĠDan ger
ĠF reckles
ĠJes se
Ġarr anging
Ġbr im
Ġbrist les
Ġco ax
Ġconflic ts
Ġcraz iest
Ġdis belief
Ġeager ness
Ġho bbies
Ġinser ted
Ġne ared
Ġnight time
Ġo ar
Ġric hest
Ġsens ible
Ġsqu ashed
Ġvar ious
Ġvis ible
"P hew
B ounce
Who a
ap es
h op
ha ved
iv id
iz ation
m atch
om i
t est
âĤ¬Åĵ Give
ĠA choo
ĠCaterpill ar
ĠCo ffee
ĠK arl
ĠM oe
ĠW ar
Ġaddress ed
Ġapproach ing
Ġdilig ently
Ġduck ies
Ġexerc ised
Ġf izz
Ġhambur gers
Ġmass ive
Ġmilk sh
Ġnail ed
Ġpes ky
Ġphotograp her
Ġpoison ed
Ġpout ing
Ġscri bble
Ġsm ir
Ġtransf orm
Ġvillain s
" Grandpa
-m inded
.. .ĊĊ
B onnie
Jo Jo
V ict
e ather
iz ards
iz er
ss a
t ie
ur f
âĤ¬Åĵ Ah
âĤ¬Åĵ Did
ĠCl uck
ĠGeor g
ĠH ome
ĠO tter
ĠShark s
Ġbee keeper
Ġd ise
Ġfabric s
Ġfort une
Ġgr unted
Ġhide away
Ġleak s
Ġmo pping
Ġquick est
Ġround about
Ġspeak ers
-p itched
Mel issa
T oys
W il
ent ions
ho ot
ig uel
ip ed
l ove
w is
yl ie
ĠB umble
ĠC all
ĠDream s
ĠGrand mother
ĠL ara
ĠS ari
ĠSurpr isingly
Ġaim s
Ġbat tles
Ġbe aches
Ġbl ind
Ġbrilliant ly
Ġcheer y
Ġer ased
Ġeven ly
Ġfin est
Ġflag pole
Ġgl orious
Ġill ness
Ġmean ings
Ġple a
Ġrins es
Ġspeech less
Ġto ns
Ġwash cloth
"R ight
"Some one
-c he
-y ou
A NG
B essie
F reeze
Stan ley
alf way
br ina
id ers
iff y
iver s
l se
ound s
sh ips
t ails
unt er
v ie
z o
âĤ¬Åĵ Today
ĠC elia
ĠG orilla
ĠH igher
ĠRel ax
ĠS af
ĠT ad
ĠT y
Ġanch ors
Ġcl ient
Ġcontin ues
Ġdi et
Ġdire ctly
Ġflick ered
Ġpath way
Ġpick y
Ġraindr op
Ġsa les
Ġsh ifted
Ġtot al
Ġtran sp
Ġtrust w
Ġwatch ful
"N ever
-re x
C are
Go d
S ay
ir ly
m it
man ces
ny ard
ve rest
âĤ¬Åĵ Yum
ĠBe ars
ĠC omp
ĠDo do
ĠDon ny
ĠDuck s
ĠG lass
ĠG uess
ĠN ikki
ĠPast a
ĠPet al
ĠW or
Ġb ared
Ġbar nyard
Ġbo ssed
Ġcollect s
Ġkayak s
Ġleaf y
Ġm oose
Ġmight iest
Ġpolice men
Ġprod uct
Ġpu bl
Ġrhy me
Ġstra p
Ġwas her
A pril
B rrr
F ather
Squ irrel
ged y
ho ld
m on
me ow
p her
ĠD ifferent
ĠGeor gie
ĠH aving
ĠP uffy
ĠSmo key
ĠSo ap
ĠV o
ĠZ ipper
Ġbold ly
Ġcan n
Ġchalk board
Ġerrand s
Ġfamily Ã¢
Ġgri zzly
Ġp oof
Ġperfor mances
Ġtail or
Ġw izards
M iles
Ru dy
V iolet
ed ro
isk y
ur r
Ġ ident
ĠBo ssy
ĠC aleb
ĠDe an
ĠEng lish
ĠG izmo
ĠHapp iness
ĠM ove
ĠOff icer
ĠPe ach
ĠSc arlett
ĠW ild
Ġal ike
Ġatt end
Ġc ork
Ġcheek y
Ġcitiz ens
Ġcock pit
Ġcroak s
Ġdescri be
Ġdis re
Ġple ading
Ġplun ge
Ġpol it
Ġproud er
Ġre eds
Ġsaf est
Ġsauc es
Ġshoe box
Ġsilver ware
Ġv ig
-t reating
K athy
P izza
S T
T onight
W ant
au ce
good bye
ic ole
âĤ¬Åĵ Great
âĤ¬Åĵ One
ĠB iscuit
ĠBr ady
ĠF erris
ĠI gn
ĠM ind
ĠTh inking
Ġatt ent
Ġba les
Ġbo l
Ġbon fire
Ġcle verest
Ġclip board
Ġdandel ions
Ġgalax ies
Ġgrump ier
Ġla unched
Ġob vious
Ġpo sed
Ġrat tled
Ġspl attered
Ġsupp ose
Ġunh armed
"R emember
Fro ggy
a omi
ast ing
ier ce
âĤ¬Åĵ Ready
âĤ¬Åĵ yes
ĠC ongratulations
ĠH orse
ĠL ana
ĠMax Ã¢
ĠMel anie
ĠS ebastian
ĠSp rinkles
Ġab s
Ġaqu arium
Ġbedroom s
Ġcan ary
Ġcr umbled
Ġdesp air
Ġdrum ming
Ġengine er
Ġhesit ate
Ġint r
Ġlead ers
Ġlim it
Ġlimp ing
Ġmotorb ike
Ġne ater
Ġprof ession
Ġsk illed
Ġtrustw orthy
Ġunscrew ed
B oy
J elly
Sp arky
ak ers
g h
the y
ur ray
ver t
ĠB ecca
ĠH enny
ĠLe go
ĠPr iscilla
ĠSnow fl
ĠUn iversity
Ġafternoon s
Ġbl ouses
Ġbull s
Ġcon so
Ġdig ger
Ġglo ssy
Ġhandy man
Ġn ick
Ġplank s
Ġsl ings
Ġsmoot hed
Ġt it
Ġtag s
Ġtoast y
Ġw ilt
- ooh
Fr ustrated
St ar
W ally
i ya
ig inal
ist a
m aybe
re r
roll ed
yd ney
ĠB and
ĠB oris
ĠF ar
ĠL oop
ĠScr uffy
Ġdaydream ing
Ġdump s
Ġe erie
Ġfright en
Ġharvest ed
Ġhung rily
Ġpersu ade
Ġpig tails
Ġprov ides
Ġshow ered
Ġst ash
Ġsteam y
Ġtag ged
Ġthreat ening
Ġtransf ormation
!" .Ċ
" Little
"S leep
"W hee
El iza
F el
M s
P ark
et ti
eter n
fe ree
ht aking
ig o
or ance
ot ions
st em
zz z
ĠDen nis
ĠEll i
ĠJess y
ĠM isty
ĠS eal
ĠSally Ã¢
Ġal as
Ġar c
Ġbeat s
Ġbreat htaking
Ġdri bble
Ġf ished
Ġflood ing
Ġg ur
Ġlay s
Ġlion ess
Ġmattress es
Ġpe w
Ġpl ugs
Ġpol icy
Ġpro ven
Ġr um
Ġre feree
Ġrec ently
Ġreel ed
Ġsm eared
Ġst a
Ġto urn
Ġtrain er
Ġty ping
Ġvillag er
Ġwe aved
D uck
M anny
ere k
g um
id den
il ia
ious ly
m ine
um bo
un s
Ġ etern
ĠBr ooke
ĠGen ie
ĠH ard
ĠJen kins
ĠSome where
Ġaccomplishment s
Ġbar bers
Ġdemonstr ated
Ġem otions
Ġharb our
Ġheart beat
Ġheaven s
Ġinsp iration
Ġjig s
Ġmo ss
Ġn umb
Ġsav annah
Ġup coming
Ġvolunt eer
"H mm
"T r
- ing
Che ese
G ary
M a
M innie
T re
c are
les h
ll er
re a
ret t
ĠBl ood
ĠDan ie
ĠG iraffe
ĠH ay
ĠLe a
ĠPir ate
ĠR az
ĠSl im
ĠSm iley
ĠWhat ever
Ġb urp
Ġbeg ins
Ġc ure
Ġcl ang
Ġcoo ing
Ġf lesh
Ġg iddy
Ġpath ways
Ġpe aked
Ġperspect ive
Ġprison er
Ġsent ences
Ġshiver s
Ġslings hot
Ġtwitch ing
Ġwa ggy
"G uess
-t wo
B ess
J emma
N urse
f or
ier re
or othy
âĤ¬Åĵ Goodbye
âĤ¬Åĵ Take
ĠCass ie
ĠJ uly
ĠM ika
ĠP addy
ĠR ina
ĠSw an
ĠW aff
Ġa ward
Ġas se
Ġbound aries
Ġc ases
Ġconf etti
Ġfar my
Ġla pped
Ġmechanic s
Ġspir al
Ġtul ips
"M ore
F ind
M aisie
M any
Sh all
all s
b aby
d es
ee e
em ons
ty ard
unk y
ĠFore st
ĠMolly Ã¢
ĠP ass
ĠRock s
Ġapolog izing
Ġclick s
Ġcooper ative
Ġed uc
Ġfarmy ard
Ġfear less
Ġfree ing
Ġfunn ier
Ġleft over
Ġmo pped
Ġoverc ame
Ġphra se
Ġproduc ed
Ġsp ool
Ġsuggest ions
Ġtr ink
Ġtransp ort
Ġun he
Ġunpl ugged
Ġwa ry
Ġwoo lly
" Today
"F ound
. He
Els ie
F our
Pe ace
W arning
b ack
b un
n or
r id
row s
shadow ing
âĤ¬Åĵ Sorry
âĤ¬Åĵ Y
âĤ¬Åĵ thank
ĠBel inda
ĠBess y
ĠC ooking
ĠDoll s
ĠGrandma Ã¢
ĠL unch
ĠS at
ĠSc issors
Ġbright ness
Ġchess board
Ġcour tyard
Ġdis l
Ġfl ipper
Ġfro st
Ġjigs aw
Ġpat ched
Ġpun ishing
Ġrev ved
Ġro le
Ġsho ved
Ġsk ated
Ġsn ored
Ġspeck led
Ġy ards
" Lisa
"Al right
"M ove
- O
Jo anna
Miss y
N ed
bo om
c red
era ld
oss om
the less
uc ted
âĤ¬Åĵ Dad
ĠChick en
ĠE specially
ĠH istory
ĠListen ing
ĠLuc ie
ĠP umpkin
ĠS ail
ĠS it
ĠSt ars
ĠSwim ming
Ġa ched
Ġbubble gum
Ġch ief
Ġch ore
Ġdo ze
Ġeven ings
Ġhunt ed
Ġm ow
Ġmedic ines
Ġp oo
Ġpubl ic
Ġrabbit Ã¢
Ġs id
Ġsa m
Ġscen es
Ġshoel ace
Ġstoryt eller
Ġwhimp er
Ġwrink les
"T en
Blue y
Car ly
M ister
Near by
Pat rick
b ecause
cept ion
l iness
ma ker
t on
uff s
ĠBes ides
ĠE ag
ĠIsab elle
ĠM icky
ĠP ige
ĠSam i
ĠTr ina
ĠW anda
ĠY uck
Ġclo cks
Ġd ents
Ġfr illy
Ġgrass es
Ġhand ling
Ġhelpless ly
Ġlay ers
Ġmum bled
Ġocc ur
Ġoctopus es
Ġr ushes
Ġrasp berry
Ġsea side
Ġstumble s
Ġswoop ing
C areful
C r
EE P
L u
R ita
Rock y
T hings
bul ous
ent ed
ob ble
pe at
st ar
v able
âĤ¬Åĵ Max
ĠApp les
ĠBl ake
ĠD ays
ĠF rench
ĠMill er
ĠR epeat
Ġblossom s
Ġcar ving
Ġcartwhe els
Ġcollect or
Ġcr an
Ġear ring
Ġf urt
Ġh ars
Ġman ner
Ġmu lt
Ġper haps
Ġreflect ed
Ġrep res
Ġresc u
Ġrip est
Ġsaf aris
Ġseatbelt s
Ġsmooth ness
Ġt v
G reta
ack ed
b aa
in ated
ject ed
oph ones
re peat
u ss
âĤ¬Åĵ Those
âĤ¬ÅĵThere Ã¢
ĠA c
ĠAmy Ã¢
ĠAr chie
ĠJu an
ĠL aser
ĠR ace
ĠTh row
ĠZ ac
Ġart if
Ġclever ly
Ġdo c
Ġeld est
Ġfa bulous
Ġfairy t
Ġfe llow
Ġfurt hest
Ġh y
Ġlow est
Ġre ception
Ġsear ches
Ġt ilt
Ġtra gedy
" First
"T ry
- ho
Luc as
Mar ley
N icky
ang les
ivers ary
l ie
nd a
ro l
ĠDi ane
ĠE aster
ĠFr ance
ĠPain ting
ĠRe g
ĠW ind
Ġbenef it
Ġboat man
Ġcluck ing
Ġcr op
Ġcre aky
Ġduck y
Ġexcept ion
Ġfo il
Ġgem stone
Ġju ices
Ġo oh
Ġobser vant
Ġpe ering
Ġped dled
Ġscow ling
Ġsnow s
Ġsprink ler
Ġsym p
Ġtipt oe
Ġtourn ament
Ġweak ly
-f our
G l
G wen
I NG
K ai
Th row
d ad
ush room
w ed
y um
ĠFel icity
ĠSnowfl ake
ĠThey Ã¢
Ġad vert
Ġarm our
Ġaw ait
Ġband ana
Ġc ack
Ġconvin cing
Ġf erris
Ġflick ering
Ġfriends Ã¢
Ġmeaning ful
Ġmin ers
Ġold s
Ġpass er
Ġrumm aged
Ġshap ing
Ġsp a
Ġsp arked
Ġsw arm
Ġtend er
Ġwealth ier
- sp
-w orking
Br other
Jose ph
Mon ths
P o
aa ah
i eces
ib ility
ray ing
ĠAll ig
ĠBar ber
ĠCh ad
ĠCra zy
ĠD ale
ĠL aw
ĠMatt ie
ĠMir aculously
ĠSam uel
ĠW alter
Ġblast ed
Ġchimney s
Ġclean est
Ġdark est
Ġdev oured
Ġdream land
Ġfish ies
Ġg inger
Ġh ired
Ġimag ines
Ġjing led
Ġn av
Ġorig ami
Ġp unch
Ġre se
Ġripp le
Ġstraight ened
"O pen
- T
-n ine
-s ix
CR ASH
L ast
M erry
OO M
Pe pper
ass ion
ix ie
let e
ort ing
t een
Ġ ome
ĠBu d
ĠE ast
ĠEv an
ĠFl ower
ĠN avy
ĠW ine
Ġartif act
Ġbe ady
Ġbol ts
Ġcelebr ations
Ġconso le
Ġcount ers
Ġdisre spect
Ġextingu isher
Ġfanc ier
Ġflood s
Ġjudge ment
Ġkeep ers
Ġmad der
Ġoutsmart ed
Ġpre c
Ġprofession al
Ġprog ram
Ġquarrel s
Ġroast ing
Ġsoot he
Ġstrong ly
!' "ĊĊ
' What
- fl
- new
Bra vo
Do ll
Jon athan
No ah
S ad
Tom orrow
en sed
stick s
v ation
ĠFl ick
ĠGreen y
ĠLa ila
ĠPee king
ĠR est
ĠWatch ing
Ġann iversary
Ġb i
Ġbr ow
Ġbut cher
Ġbutter y
Ġca bb
Ġcomplain ts
Ġd itch
Ġeach other
Ġfi ves
Ġgallop ing
Ġhand c
Ġinqu is
Ġint entions
Ġkil os
Ġlight bul
Ġmer rily
Ġpartic ip
Ġpost ed
Ġraven s
Ġs ooo
Ġschool s
Ġsi xt
Ġsm udged
Ġspoon ed
Ġsul ked
Ġtopp led
Ġtreet ops
Ġtul ip
Ġye ah
- time
.' 'ĊĊ
A C
A ly
P ink
Sh oo
al ie
el ines
ic als
oof y
ra gon
âĤ¬Åĵ Not
ĠCl ay
ĠDe af
ĠL emon
ĠN ight
ĠNo vel
ĠP arrot
ĠSh aron
ĠSt ory
ĠT iti
ĠThere Ã¢
ĠV icky
Ġavo iding
Ġbaa ed
Ġbelie ves
Ġbo b
Ġd awn
Ġent ers
Ġg ut
Ġham m
Ġinquis itive
Ġitch ing
Ġjoy s
Ġjust ice
Ġorder ly
Ġpar cel
Ġrecy cling
Ġs ke
Ġsid elines
Ġswat ted
Ġt art
Ġv irt
" Molly
-e ight
-th ree
A llie
C olin
Care fully
Ex it
Fl ora
Jack Ã¢
aw r
d ely
eter ia
if ic
igg les
ilar ious
it or
o ise
to gether
ur ly
âĤ¬Åĵ Follow
âĤ¬Åĵ let
ĠCh ildren
ĠCrocod ile
ĠG as
ĠL ula
ĠM all
ĠMir anda
ĠP al
ĠP edro
ĠS ack
ĠSk ye
ĠTr ouble
Ġbet ray
Ġcaf eteria
Ġchem icals
Ġcoop eration
Ġcow g
Ġetern ity
Ġf ain
Ġfairyt ale
Ġfor mer
Ġgr ades
Ġgrill ing
Ġhamm ock
Ġheed ed
Ġhonest ly
Ġigloo s
Ġnav ig
Ġpink s
Ġrelax ation
Ġru dely
Ġs ensed
Ġslow s
Ġsm ashing
Ġstrang ely
" Children
- M
B er
C ook
D oug
Jen nie
O AR
Pl ay
art en
bo ve
cell ed
erc ise
l ist
s uit
se at
ĠA head
ĠB erry
ĠC asey
ĠEl isa
ĠF ast
ĠF ood
ĠIn k
ĠO y
ĠRo d
ĠSa id
ĠTr udy
ĠWorm s
Ġax es
Ġcaulifl owers
Ġcho king
Ġconcer n
Ġcool s
Ġdragon flies
Ġdust ing
Ġdut y
Ġfarmer Ã¢
Ġfi ery
Ġgarl ic
Ġjew ell
Ġlandsc apes
Ġmem orable
Ġmot iv
Ġnumber ing
Ġpar ach
Ġpay ment
Ġpick le
Ġproduc ts
Ġring master
Ġsharp ening
Ġsplit s
Ġtreat ing
Ġw ed
"P ass
-s ized
-se ven
? Ċ
B elieve
Bird ie
Br ad
D inner
G irl
K ing
M arry
ch a
la ze
ĠBen ji
ĠCle o
ĠCo le
ĠFr ances
ĠLast ly
ĠLy la
ĠMa jest
ĠScr atch
Ġapp ly
Ġbea vers
Ġbrown ies
Ġdelic ately
Ġeduc ation
Ġf itted
Ġflex ibility
Ġh ilarious
Ġhall ways
Ġplayd ough
Ġpolit eness
Ġpoor ly
Ġpor cup
Ġpract ise
Ġprank s
Ġpuff ing
Ġr ap
Ġradi os
Ġshe pher
Ġsnoo ze
Ġsoot hed
Ġspin ner
Ġsy stem
Ġten nis
Ġunderestim ate
Ġwheel chair
Ġwhist ler
" When
- L
F ore
Jo dy
M ara
O ink
P hew
We e
av in
c co
eet le
ere sa
g ant
in i
oo oo
organ ized
r ated
se e
w i
âĤ¬Åĵ F
âĤ¬Åĵ it
ĠCl over
ĠClar issa
ĠCo coa
ĠD orothy
ĠL ord
ĠLe arn
ĠMajest y
ĠN apping
ĠT am
ĠT ur
Ġadventur ing
Ġbored om
Ġcabb age
Ġdr unk
Ġfl ushed
Ġgest ured
Ġjing ling
Ġneigh s
Ġnin ety
Ġome let
Ġre new
Ġrec ite
Ġresponsib ilities
Ġsee ming
Ġsnack ing
Ġtuck ing
Ġune ven
Ġunt idy
"St ir
' ?"ĊĊ
Chick ie
E R
L emon
M ix
Mar ch
Mom ents
Pipp in
Rob ot
T iger
W isdom
a be
ch or
cr ack
el a
po les
ump ed
ĠA ddy
ĠBo zo
ĠG ret
ĠL amb
ĠLa zy
ĠMag gy
ĠP urr
ĠPop corn
ĠPrin t
ĠS uccess
ĠThe o
ĠZ ane
Ġang le
Ġbas ics
Ġbill boards
Ġcamp ers
Ġclub house
Ġdra ined
Ġey eb
Ġflower y
Ġfrag rant
Ġgr illed
Ġh uh
Ġloop ing
Ġn ook
Ġporcup ine
Ġramp s
Ġrec ital
Ġsa cked
Ġsn out
Ġthunder ing
"C areful
A lfie
Car oline
O U
O scar
P op
T en
W illy
an ana
bb er
he lp
o vers
pl er
ĠDot ty
ĠG low
ĠM eena
ĠS ing
ĠS y
ĠT rying
ĠVict or
ĠZ oo
Ġbak ers
Ġday care
Ġencourag es
Ġentire ly
Ġfail ure
Ġfash ions
Ġfluff ed
Ġhospital ity
Ġlightbul b
Ġm owing
Ġmilksh ake
Ġponder ed
Ġprepar ation
Ġrecommend ations
Ġsatis fying
Ġsevent y
Ġstor med
Ġstubborn ly
Ġtiss ues
Ġtrot ting
Ġz ap
!' '
D ory
He aring
S low
St ri
aff od
aut iously
hn ess
irt een
os es
w ist
w ord
âĤ¬Åĵ Yeah
ĠBl ocks
ĠBl ossom
ĠF ive
ĠFr uit
ĠP aint
Ġbes ides
Ġbloss omed
Ġbur sting
Ġcho ked
Ġconnect s
Ġcool ing
Ġcr unched
Ġfight er
Ġhead band
Ġhumming bird
Ġmicr ophones
Ġpasser by
Ġperse vered
Ġresour ce
Ġspl inter
Ġsword fish
Ġt attered
Ġt ipping
Ġtad poles
Ġu g
" Grab
" Jenny
' I
- Rex
B all
J am
Jenn ifer
M int
Matt hew
ay ed
az zy
e lderly
en e
erg arten
h ony
il le
itt ies
ob i
osaur us
ĠD ark
ĠF ix
ĠFl ip
ĠG uns
ĠJeff rey
ĠJul ian
ĠSome how
ĠT en
Ġback seat
Ġbetray ed
Ġcar rier
Ġcompet ed
Ġdash board
Ġdown stream
Ġfor ms
Ġgra ze
Ġimit ate
Ġma zes
Ġmeant ime
Ġresponsib ly
Ġsharp er
Ġshepher d
Ġsouvenir s
Ġsting ing
Ġunhe althy
" Follow
"O ver
Car rie
Cl are
Q uit
R everse
Sh ow
Z oomy
arp er
c est
gu in
ic an
ri cket
s ometimes
âĤ¬Åĵ what
ĠAr nold
ĠBl inky
ĠBun bun
ĠCount ing
ĠJu dge
ĠLila h
ĠN eed
ĠP ierre
ĠSte ak
Ġappreci ating
Ġb ases
Ġbe ings
Ġcan celled
Ġconf ron
Ġcr u
Ġdelicious ness
Ġdise ase
Ġgentle men
Ġgo ds
Ġhi king
Ġlong ing
Ġmisbe have
Ġp om
Ġpool s
Ġsh rie
Ġsp an
Ġswim mers
Ġvirt ue
-ma king
Be a
E rin
Fro sty
O p
S al
any a
cl oud
et ch
ir us
n et
nd y
om ped
ri ff
ric ia
ro ve
st age
v is
âĤ¬Åĵ Time
âĤ¬Åĵ but
ĠAmaz ingly
ĠCat s
ĠH unter
ĠL il
ĠP aper
ĠSo ft
ĠUp on
Ġafter ward
Ġaim ing
Ġc ert
Ġcho ppy
Ġd affod
Ġfif th
Ġfil th
Ġgener ations
Ġk itties
Ġlime ade
Ġover coming
Ġquen ch
Ġran cher
Ġreassuring ly
Ġred dest
Ġremind ers
Ġscar iest
Ġv ivid
Ġwild est
" Ex
" Z
' !
B ongo
D ino
E rnie
R epeat
R ing
ather ine
i pt
lves ter
ugg a
ĠAm elie
ĠB ab
ĠDel icious
ĠFr isky
ĠJimmy Ã¢
ĠJump ing
ĠL umber
ĠMar la
ĠRe al
ĠS et
ĠSa brina
ĠT uck
ĠTri xie
Ġal together
Ġang les
Ġartifact s
Ġba le
Ġch or
Ġd ren
Ġdin ners
Ġdog gies
Ġelse where
Ġgaz es
Ġgrow th
Ġhouse work
Ġinvol ve
Ġneighbor Ã¢
Ġnood le
Ġon board
Ġpol ishes
Ġscatter s
Ġsnoo zing
Ġsplas hy
Ġswallow s
Ġth or
Ġtriumph ant
Ġunp leas
Ġwa ft
.' '
A ww
Mat ty
T ra
at a
kelet on
ub s
y ield
ĠA corn
ĠA h
ĠB ingo
ĠBe aky
ĠButter cup
ĠGeorg ia
ĠPrun es
ĠR hino
ĠR ing
ĠZ ebra
Ġamount s
Ġbarbers hop
Ġconfron ted
Ġel ves
Ġf erry
Ġin ner
Ġjourn als
Ġkn itted
Ġl ure
Ġm ould
Ġmold y
Ġn or
Ġn udge
Ġqu alities
Ġrelation ships
Ġslow ing
Ġspin es
Ġsqu ishing
Ġtit le
Ġtoss es
Ġunf reeze
Ġwhe e
"A hh
-che ck
D ylan
E S
F ish
G reen
Jo die
L ost
Rain bow
St and
ct ic
em s
ist ic
pl ing
Ġ5 0
ĠC e
ĠD river
ĠEmma Ã¢
ĠF ierce
ĠH ors
ĠM iguel
ĠM uffy
ĠW ords
ĠY ield
Ġbelong ing
Ġch am
Ġcontro ller
Ġdiv ide
Ġeight y
Ġf ame
Ġgr ime
Ġgr unt
Ġle ashes
Ġno is
Ġover alls
Ġp ity
Ġpa uses
Ġpat s
Ġpat ter
Ġre as
Ġroo ft
Ġshimmer y
Ġsuck ing
Ġtick ed
Ġto ck
Ġv ain
Ġv irus
- N
A A
P uppy
Te acher
Y ippee
ad s
eter red
i ful
p aper
p op
s nap
v oc
ĠD erek
ĠD es
ĠG host
ĠH ilda
ĠJoy ce
ĠLe wis
ĠN ap
ĠO il
ĠSqu are
Ġa a
Ġadop ted
Ġadv ised
Ġamazing ly
Ġbaseball s
Ġboom s
Ġchor us
Ġcla im
Ġcommand s
Ġdecre ase
Ġdifficult ies
Ġdis p
Ġdiso beying
Ġdren ched
Ġearth worm
Ġf idget
Ġfair ness
Ġfe at
Ġho pper
Ġjer sey
Ġjewell ery
Ġo val
Ġrain storm
Ġrece ipt
Ġrenew ed
Ġscut tling
Ġstra nded
Ġstrength s
Ġunpleas ant
Ġwill ow
- lo
-t he
Ar thur
P et
ag on
fere n
ren e
w oof
âĤ¬Åĵ Lucy
ĠC ont
ĠC op
ĠD isappointed
ĠF eather
ĠGert rude
ĠH ood
ĠM ushroom
ĠMar vin
ĠR hy
ĠS and
ĠSat urn
ĠSh iny
ĠSn akes
ĠSt art
ĠWhe ther
Ġbrief case
Ġcam els
Ġclassroom s
Ġcon cl
Ġcontro ls
Ġcro iss
Ġd read
Ġgl inted
Ġgraceful ness
Ġhesit ating
Ġlea ked
Ġm mm
Ġman t
Ġmarvel ous
Ġobl ige
Ġpy ram
Ġreco ver
Ġru bble
Ġscree ching
Ġshr ugging
Ġske pt
Ġspeed ed
Ġstamp ing
Ġstra pped
Ġteac up
Ġtray s
Ġtree Ã¢
Ġun ity
Ġwrink le
- zag
-f ives
1 0
Am i
M ath
P L
P a
Se an
Sp idey
W as
aulifl ower
f olk
ha ving
im id
ire s
nut s
ot ic
oun ces
pp ly
âĤ¬Åĵ Little
Ġ vers
ĠA iden
ĠBan anas
ĠBark ley
ĠBo at
ĠBr ing
ĠC al
ĠC atch
ĠC ell
ĠC orn
ĠH al
ĠL ottie
ĠMia Ã¢
ĠMix y
ĠP ri
ĠPaul ine
ĠT ap
ĠT igger
Ġadv is
Ġambul ances
Ġboss ing
Ġcaptain s
Ġcar go
Ġcent im
Ġclass mate
Ġcon stantly
Ġfast en
Ġfind ings
Ġgl int
Ġhandc uffs
Ġimprove ment
Ġint imid
Ġinvent ed
Ġjeep s
Ġjelly be
Ġliqu ids
Ġmodest ly
Ġoffic ial
Ġopen er
Ġpa using
Ġpass word
Ġquestion ing
Ġr akes
Ġraccoon s
Ġrag ing
Ġst ooped
Ġwalk er
"M oo
G erry
R R
S l
Surpr isingly
am s
be es
er on
ic he
ly de
op ard
p erson
w in
y ay
Ġ `
ĠA bove
ĠB al
ĠB on
ĠCloud s
ĠG ently
ĠMat ches
ĠN ala
ĠN aomi
ĠP uzz
ĠTe acher
Ġaccess ory
Ġar ose
Ġassist ance
Ġchunk s
Ġclums ily
Ġcol ony
Ġcrad led
Ġel ated
Ġescap es
Ġeveryone Ã¢
Ġexpress ing
Ġey ed
Ġhyd rated
Ġinf ected
Ġint ense
Ġoccur red
Ġphotog raph
Ġpleas antly
Ġreply ing
Ġstream ed
Ġt us
Ġth irteen
Ġtrumpet ed
Ġun att
Ġviol ins
- air
C ould
Fo xy
L ydia
M ack
N O
R ich
Turn s
g a
keep ing
n as
raw berry
s al
âĤ¬Åĵ Excuse
ĠGo lf
ĠH ide
ĠJem ima
ĠM or
ĠMary Ã¢
ĠO la
ĠPige on
ĠS our
ĠSw ans
ĠWigg le
Ġah hed
Ġantic s
Ġapolog ise
Ġattempt ed
Ġbas king
Ġcare t
Ġcla imed
Ġco y
Ġcompetit ions
Ġdisrespect ful
Ġdrip s
Ġfour teen
Ġfres hest
Ġinstr ucted
Ġnuzz le
Ġport s
Ġpossib ly
Ġprice less
Ġr aged
Ġroller co
Ġshe riff
Ġshrie ked
Ġspend s
Ġst ock
Ġstore owner
Ġstr ate
Ġsupport s
Ġsw ish
Ġtowns folk
Ġv iolet
Ġvig or
Ġwaist s
-h oo
-t asting
C ir
Ch ild
E lephant
F ive
Th under
ad ies
ast le
at ops
cer atops
o ken
udy ing
v an
z er
ĠAly ssa
ĠAm ie
ĠB EEP
ĠCon nor
ĠEl mo
ĠL izard
ĠOp al
ĠS ec
ĠSk ipping
ĠSt arry
ĠStr ong
ĠSy lvester
ĠT eresa
ĠTe ach
Ġbl aring
Ġbl u
Ġcentim et
Ġext ended
Ġfain ted
Ġhyd rant
Ġpar ad
Ġpuck ered
Ġquarre lled
Ġr ipping
Ġrace car
Ġrelation ship
Ġreturn s
Ġru lers
Ġsizz ling
Ġst ink
Ġvacu umed
! !
" Billy
-a way
Al bert
S ummer
The o
app er
cher s
den ess
kn owing
m oo
ont ail
oop ing
ric ate
Ġ" '
ĠF ireworks
ĠJe w
ĠO ctopus
ĠP ippy
ĠRe ach
ĠS ha
ĠS ydney
Ġanten nas
Ġback up
Ġcaret aker
Ġdaughter Ã¢
Ġdeliver ies
Ġdepend ing
Ġeng ulf
Ġf ero
Ġheal er
Ġhurric anes
Ġjug s
Ġjunk yard
Ġl itt
Ġn orth
Ġparents Ã¢
Ġpoll ut
Ġreas ons
Ġrese arch
Ġrose mary
Ġru deness
Ġsh aved
Ġspoonful s
Ġst am
Ġsw ore
' '
' T
- ed
-gra ndma
Max ine
P ush
S it
ar ly
pl oy
âĤ¬Åĵ Yummy
âĤ¬Åĵlet Ã¢
ĠA llowed
ĠAri el
ĠD inosaur
ĠG ill
ĠK ari
ĠNovel s
ĠR at
ĠT ink
ĠWhe at
Ġacc ur
Ġc ore
Ġcann on
Ġcold ness
Ġcor rid
Ġdis gu
Ġdraw br
Ġey el
Ġfo l
Ġgl uing
Ġgrandd ad
Ġint ricate
Ġkind ergarten
Ġmarket place
Ġmarry ing
Ġo beying
Ġparad ise
Ġperfu mes
Ġpinec ones
Ġraft ing
Ġregret ting
Ġrhy mes
Ġselect ed
Ġshut ting
Ġspark lers
Ġstri ve
Ġstrum ming
Ġthump ing
Ġtre k
Ġtruth ful
Ġunatt ended
Ġweekend s
"H ooray
"P ush
"S ue
-be haved
-do h
Al ison
Beth any
F ighting
Gl ad
Molly Ã¢
Sh are
at ers
ative ly
ee zy
il izer
n c
ol ish
ou rage
prin t
ri but
sh rink
ĠC oop
ĠDan i
ĠF lexible
ĠGo ing
ĠPo ison
ĠSt acey
ĠStri pe
Ġarcher y
Ġarg uments
Ġboard ing
Ġbouqu ets
Ġch omped
Ġdisagreement s
Ġdoz ing
Ġdri bbling
Ġexha ust
Ġeyeb rows
Ġf al
Ġfly ers
Ġfrag rance
Ġha unted
Ġins ides
Ġis s
Ġjo gg
Ġmarve lled
Ġopp on
Ġresource ful
Ġrollerco aster
Ġshort ly
Ġsk id
Ġsnug ly
Ġsquigg ly
"R ain
-le af
A Y
Ch oose
M an
Quack ers
S ky
Sn ap
Vict ory
Z ack
ag ged
amb our
ax i
c ra
d el
knowing ly
ri ving
uck le
ĠAng us
ĠB athing
ĠDuck ie
ĠHonest y
ĠKe ith
ĠLe ila
ĠMo dest
ĠO at
ĠR ub
ĠRaz or
ĠS keleton
ĠT ick
Ġacc ord
Ġaff ection
Ġbo ing
Ġbuild s
Ġcheap est
Ġcold est
Ġfero cious
Ġgent ler
Ġhat ing
Ġkne ad
Ġleft overs
Ġlight est
Ġmold s
Ġnervous ness
Ġobser ves
Ġp el
Ġparach ute
Ġpo et
Ġpre vious
Ġreal ising
Ġreg ard
Ġsav our
Ġsc ents
Ġsn arl
Ġsp iciest
Ġstra ined
Ġsumm it
Ġsuperp owers
Ġsw ishing
Ġt ambour
Ġtin iest
Ġtravell er
Ġtw ine
Ġvigor ously
A ha
A pp
F ifi
M ir
Pr ince
R ia
c oon
cl ick
d i
ic ier
n el
na ppy
ract ice
ur ther
âĤ¬Åĵ Listen
âĤ¬Åĵ we
ĠBo ots
ĠCarrot s
ĠGra ham
ĠLuc a
ĠMo ira
ĠNear by
ĠP hillip
ĠPhil ip
ĠSaf ety
ĠSh op
ĠSlim y
ĠStu art
Ġabs or
Ġachieve ments
Ġalley way
Ġban ners
Ġcert if
Ġcur ling
Ġdra ins
Ġdrawbr idge
Ġdri bbled
Ġen sure
Ġeras es
Ġf ried
Ġgr ouch
Ġill um
Ġmar ches
Ġmatey s
Ġmention ing
Ġoverfl ow
Ġpil ing
Ġrain water
Ġrel uct
Ġsales person
Ġsec ured
Ġsl ope
Ġsl umped
Ġsn or
Ġte en
Ġunra ve
-ma ker
A maz
B ir
C hocolate
Che ers
Fel ix
Fin ny
G ray
H ug
Ne w
Step h
Through out
amp s
asc al
b oo
bb ey
ist ling
k ward
lt im
mm m
os quito
r d
ĠA mer
ĠB ally
ĠB laze
ĠDe ep
ĠDina h
ĠF air
ĠFr itz
ĠHe el
ĠK itten
ĠN or
ĠRo cco
ĠS el
ĠSte am
ĠW itch
ĠWas hing
Ġa uth
Ġar ch
Ġaw kward
Ġbe llowed
Ġcertif icate
Ġch andel
Ġconcentr ation
Ġcr ink
Ġcy cle
Ġdark en
Ġdetect ives
Ġfeather y
Ġfoolish ness
Ġger m
Ġhair brush
Ġhe ap
Ġhon our
Ġign orance
Ġimpat ience
Ġinno c
Ġinsp iring
Ġjump y
Ġl ack
Ġo inked
Ġow ie
Ġport al
Ġpre feren
Ġquar ter
Ġscow l
Ġshut s
Ġsixt een
Ġsnor ke
Ġsta bbed
Ġtoast ed
Ġtriumph antly
Ġwid th
- R
F un
H ot
M oe
Q ueen
Sp eedy
T a
V al
Who ever
c led
i work
ooh oo
r ont
ress ive
ri ve
ster y
ĠD ella
ĠFl ame
ĠG reed
ĠH ugs
ĠI an
ĠN icole
ĠOla f
ĠP ower
ĠS urrender
ĠSo ck
ĠSon ia
ĠSp iders
ĠT affy
ĠV an
Ġaw oken
Ġbr at
Ġcor als
Ġfeast ed
Ġfind er
Ġfoot ing
Ġgrump ily
Ġhand iwork
Ġicic le
Ġl ane
Ġpreferen ces
Ġreception ist
Ġred s
Ġslurp ing
Ġspaceship s
Ġsqu int
Ġsteep er
Ġswer ved
Ġtug s
Ġun knowingly
"Let Ã¢
"U m
- keeper
-sh irts
A ri
Al an
Cra bby
F reya
G ail
G ently
Hmm m
Is ab
It s
Mart y
O W
You Ã¢
ab ri
do gs
ess a
ila h
le ction
th a
w ould
y er
y uck
âĤ¬Åĵ And
âĤ¬Åĵ no
ĠAnd rea
ĠB eetle
ĠBra in
ĠBra ndy
ĠC am
ĠC ube
ĠDolp hins
ĠDra wing
ĠElli ot
ĠH onk
ĠJ ada
ĠL olly
ĠMin ty
ĠMouse y
ĠP ush
ĠR ingo
ĠRo llie
ĠSp inning
ĠSt reet
ĠTo ast
Ġauth or
Ġbe ck
Ġblack bird
Ġbright ening
Ġclums iness
Ġdi pping
Ġex ited
Ġf rench
Ġgl ance
Ġinsp ection
Ġmen acing
Ġmop s
Ġn on
Ġran ge
Ġrest ful
Ġro aming
Ġs outh
Ġse vere
Ġsmo ked
Ġsuper vision
Ġsurf aces
Ġtower ing
Ġtran qu
Ġtroll ey
Ġunt wist
Ġwonder fully
Ġyach ts
!' "
"A ll
"S ay
- Baa
-p om
D awn
Fore shadowing
M ail
O ther
abra cadabra
ap ers
ap hn
aphn e
arn ed
au nt
d ges
ee f
ight ed
ork y
s ion
ĠA le
ĠAnna Ã¢
ĠB aking
ĠGra b
ĠN ation
ĠShe Ã¢
ĠTommy Ã¢
Ġb oop
Ġbun s
Ġcartwhe el
Ġclo gged
Ġcomp lex
Ġcow ard
Ġcowg irls
Ġcrack led
Ġcrow ds
Ġcur b
Ġdu o
Ġem ploy
Ġgalax y
Ġgrouch y
Ġhen s
Ġlaz ily
Ġmess en
Ġpest s
Ġprotest ed
Ġpur ses
Ġrack et
Ġregret s
Ġreluct ant
Ġrhinoceros es
Ġsafe keeping
Ġsc hed
Ġsm udge
Ġspin ny
Ġto ken
Ġtrespass ing
Ġtus ks
Ġwitness ed
Ġwre st
" Sarah
"H urry
"Sh ould
- k
. She
B oom
Be es
D iana
G old
H anna
K yle
L o
M ild
ST OP
az ing
der n
n ock
og urt
oop y
op ed
r us
sol ve
ssssssssssssssss ssssssssssssssss
ump t
z ip
âĤ¬Åĵ B
âĤ¬Åĵ Bob
âĤ¬Åĵhello Ã¢
ĠAc ross
ĠC ir
ĠF le
ĠFire man
ĠH arper
ĠJo gging
ĠLou isa
ĠM ist
ĠP ixie
ĠPir ates
ĠR ico
ĠS im
ĠS omeday
ĠSh ade
ĠSmith s
ĠWaff le
Ġaa hed
Ġcav ity
Ġcheck up
Ġcre st
Ġdisc ount
Ġf ert
Ġfoss ils
Ġgolf ers
Ġhoot ing
Ġindependent ly
Ġl ink
Ġla pping
Ġm akers
Ġmur m
Ġp oodle
Ġsun hat
Ġsun ning
Ġtrink ets
Ġun imp
"Snow y
- Y
C lean
Cl uck
F ay
G ert
G ot
K at
L ight
N ellie
R on
Rob o
S ix
Sc ott
iv y
m om
rop ri
uccess ful
ĠDi amond
ĠF isher
ĠF uel
ĠFly nn
ĠG erald
ĠH ad
ĠJ umper
ĠJan a
ĠK night
ĠMiss ile
ĠR ice
ĠS is
ĠSt ories
ĠTom ato
ĠU gly
Ġbi king
Ġbreak able
Ġch omp
Ġcham bers
Ġcoy ote
Ġdut ies
Ġele gant
Ġfre es
Ġfriend lier
Ġhall s
Ġher mit
Ġhot dogs
Ġice ber
Ġlast s
Ġlight ening
Ġmer cy
Ġmisbe having
Ġn udges
Ġner ves
Ġoper ator
Ġpe gs
Ġplain s
Ġrescu er
Ġris king
Ġsa p
Ġsauc ers
Ġse lection
Ġsharpen er
Ġsub mar
Ġunra vel
" Jimmy
"A rr
' M
-d ong
A ccidents
A d
A udrey
D isappointed
G eor
Im mediately
J ade
L ee
Rel uctantly
al i
art z
as ped
au rie
len ess
ven ess
âĤ¬Åĵ Sam
âĤ¬Åĵ T
âĤ¬Åĵ Tommy
Ġ ,
ĠC astle
ĠE nt
ĠK ar
ĠL emons
ĠM oral
ĠMall ory
ĠMar go
ĠS nappy
ĠSp aghetti
ĠT oy
Ġbomb s
Ġcentimet ers
Ġcl inked
Ġelev ators
Ġemb ark
Ġench ant
Ġfr ills
Ġgir ly
Ġgl are
Ġgum mies
Ġhabit at
Ġiron ed
Ġki wi
Ġl ing
Ġmessen ger
Ġmuff led
Ġn ooks
Ġp ooped
Ġpret z
Ġre cycle
Ġrect angles
Ġround er
Ġschool work
Ġst uffy
Ġtambour ine
Ġtow ered
Ġwrigg ly
ĠĠ ĠĠ
"G otcha
' !"
- ending
- man
-c l
A da
Any thing
B uster
Bir dy
D aughter
D ay
Ow l
W ater
a ac
a iley
b ug
es ter
ess ed
if y
m ond
olo getic
oun cing
whe el
âĤ¬Åĵ Molly
Ġ ess
ĠAnt hony
ĠCD s
ĠE s
ĠEv ie
ĠP ie
ĠTur key
ĠV era
Ġa ah
Ġal er
Ġcongratul ate
Ġcr anny
Ġcut er
Ġdep art
Ġfest ive
Ġhe dges
Ġinvestig ated
Ġla sting
Ġleap s
Ġlike ly
Ġpel ican
Ġpin ned
Ġpit ched
Ġpl iers
Ġpo d
Ġrasp berries
Ġrecogn ise
Ġrecogn izes
Ġreef s
Ġrefle ctions
Ġrest s
Ġrid dles
Ġsh atter
Ġskept ical
Ġsu ds
Ġsub st
Ġtri ceratops
Ġweak ness
Ġwh om
Ġyogurt s
"R awr
B illie
D ee
Fr an
aught ers
c ul
ild ing
n Ã¢
oo ch
rec ord
ren ce
uxu ry
ĠAn chor
ĠC urly
ĠCan ada
ĠCott ontail
ĠDen ise
ĠEm i
ĠF ear
ĠGreen ie
ĠHar vey
ĠHold ing
ĠK ip
ĠKim my
ĠLu isa
ĠP erry
ĠP udd
ĠRad ish
ĠS PL
ĠSh ine
ĠT an
ĠT obi
ĠViv i
ĠZ ach
Ġbasketball s
Ġcar ri
Ġcourageous ly
Ġdoz ens
Ġeducation al
Ġengulf ed
Ġexplo des
Ġfoolish ly
Ġgen ius
Ġlad le
Ġloos ened
Ġmotion less
Ġmult ip
Ġpost box
Ġsnort ing
Ġspot ting
Ġtooth ache
Ġunf ro
Ġunt ouched
Ġupset ting
Ġwar s
Ġwe bbed
Ġye ast
" From
"A b
"B rrr
After ward
B est
Br uno
Butter flies
G as
Har riet
Pe ep
R est
Tom Ã¢
ang s
as hy
at het
ick s
igg ly
ind er
iqu es
ord an
oy d
p le
qu ack
w ee
ĠB art
ĠC ray
ĠEl ena
ĠG rey
ĠMart a
ĠP ay
ĠPee k
ĠShe r
ĠUn i
ĠWith in
Ġap ologetic
Ġast ound
Ġbl ushes
Ġcard inal
Ġchild Ã¢
Ġcl en
Ġconf ront
Ġcou ches
Ġcro c
Ġdeser ts
Ġdire ctor
Ġelse Ã¢
Ġfavour ites
Ġfoss il
Ġit ched
Ġjogg ers
Ġl ou
Ġpract ices
Ġpred ators
Ġprepar ations
Ġsauc er
Ġsmir k
Ġstrand s
Ġstraw s
Ġswift ly
Ġthroat s
Ġtrad er
Ġzag ged
! ?
" Daisy
"R uff
-ha ired
C hew
D ina
Lemon ade
M ole
N an
N at
Pat ience
Sh ut
Sk ip
St ret
Tim othy
Y ep
ap le
are nt
at he
aw are
en zie
ld a
op en
p ot
un ia
v ices
âĤ¬Åĵ Lily
ĠA ut
ĠAllig ator
ĠC and
ĠC ricket
ĠCont est
ĠGrand dad
ĠHors y
ĠLu is
ĠRun ning
ĠS orting
ĠT own
ĠWin ning
Ġa hold
Ġadvert ise
Ġb alm
Ġbas ked
Ġcareless ness
Ġcav ities
Ġch illi
Ġcl asped
Ġcliff s
Ġdark ened
Ġe mail
Ġfull er
Ġh ull
Ġintr ud
Ġlady Ã¢
Ġloc ation
Ġlump s
Ġmap le
Ġmight ier
Ġmix ers
Ġproject or
Ġqu artz
Ġr age
Ġscoot ing
Ġsnow storm
Ġsquigg les
Ġste als
Ġtouc an
Ġy olk
Ġy ow
" Her
-d own
-th rough
Ang ie
Ch ar
D en
H oo
K aitlyn
L ayla
Le ft
Mo llie
P in
Sam uel
St acy
T aylor
Tw ist
ad ia
b irds
i ety
ind eer
iv a
la im
ort ant
ouch ing
p y
Â© .
ĠB ri
ĠB umpy
ĠBarb ara
ĠBlack ie
ĠBlack y
ĠC lyde
ĠD illy
ĠEx ercise
ĠF ancy
ĠG il
ĠGr ant
ĠH am
ĠJill Ã¢
ĠK ylie
ĠKing dom
ĠLe on
ĠM op
ĠMar gie
ĠRhy thm
ĠS ave
ĠS er
ĠSte vie
ĠT roy
ĠT uffy
ĠVo lcano
Ġapp ropri
Ġar ray
Ġashtray s
Ġatt aches
Ġback stage
Ġch art
Ġcomp artment
Ġcr ate
Ġcrumb ly
Ġdef ended
Ġdim med
Ġdroop ing
Ġer asing
Ġgur g
Ġgym n
Ġjewel er
Ġlock er
Ġplay mates
Ġpol isher
Ġre arr
Ġscr uffy
Ġsens itive
Ġsign ature
Ġslow est
Ġsm acked
Ġso le
Ġstam mered
Ġsting y
Ġsubmar ine
Ġtri o
Ġtrick ing
Ġtwink les
!' ,
"F ive
"F reeze
D ream
E llen
L adies
La uren
M uffin
Mon ica
R ace
R avi
S ounds
St itch
a ctly
ara h
ight ened
ing erly
men sely
ud ging
âĤ¬Åĵ Sarah
âĤ¬âĦ¢ .ĊĊ
Ġ ou
Ġ ut
ĠA dd
ĠA nts
ĠAngel ina
ĠB ry
ĠC ool
ĠF unny
ĠFl our
ĠFr ightened
ĠFr isbee
ĠG ear
ĠJen a
ĠM ud
ĠMommy Ã¢
ĠSh arp
ĠSqu eeze
ĠT anya
ĠWil son
Ġam bit
Ġapolog izes
Ġass ign
Ġbaby Ã¢
Ġcl ink
Ġconnect ing
Ġcook book
Ġcraft ing
Ġcran nies
Ġcreep ing
Ġdin er
Ġdinner time
Ġdisgu ise
Ġdonut s
Ġent r
Ġfat ter
Ġgenerous ly
Ġgra cious
Ġim mensely
Ġinstruct or
Ġjud ging
Ġl l
Ġla ss
Ġlaz iness
Ġoverwhel ming
Ġpro dded
Ġpu lse
Ġreass ure
Ġrep orter
Ġreun ite
Ġsa cri
Ġsa pling
Ġsched ule
Ġsill ier
Ġso b
Ġto pping
Ġtw irly
Ġun aware
Ġun be
Ġveil s
Ġvers ion
Ġwall ets
Ġwhirl ing
"Al most
"C ool
"T wo
C aptain
H istory
M acy
Rob in
Sun shine
assion ate
cred ible
i veness
ict able
if ied
osquito es
p ost
p re
ro g
st upid
Â ł
ĠAm aya
ĠB rett
ĠB uffy
ĠBall oons
ĠBr idget
ĠCott on
ĠG abe
ĠH ours
ĠJ ing
ĠK angaroo
ĠKn ives
ĠL ill
ĠL illi
ĠL ori
ĠO k
ĠP ieces
ĠPin ching
ĠR ep
ĠRhino ceros
ĠSc out
ĠSm udge
ĠT ubby
ĠWould n
Ġa ching
Ġal t
Ġappear ances
Ġbo ar
Ġch anted
Ġcr ime
Ġdelivery man
Ġenerg ised
Ġexperien cing
Ġfreez es
Ġfrol icked
Ġgr unts
Ġh umbly
Ġhe x
Ġhero ic
Ġin h
Ġlamb s
Ġlevel s
Ġlove liest
Ġmoo s
Ġmotiv ated
Ġmu les
Ġne ighing
Ġscamp er
Ġsew s
Ġsizz led
Ġspark ler
Ġsquir ming
Ġstray ed
Ġsuccess es
Ġtent atively
Ġtink ering
Ġtra ced
Ġtra iling
Ġtw ittered
Ġw ither
Ġwh ips
Ġwith stand
Ġy ipped
"S ir
"Sp ray
A T
C ake
C le
Ch uck
De bbie
Do ctor
L L
M ind
P anda
P atches
P ig
S id
T oni
Y ield
ab lo
b ones
d is
ek s
f oot
her ry
p ay
rit ious
the se
ĠA ir
ĠBoun cing
ĠBrown y
ĠCh ippy
ĠDad a
ĠEmily Ã¢
ĠF ake
ĠFr anny
ĠG e
ĠKat rina
ĠMail man
ĠOr gan
ĠP itch
ĠPer haps
ĠRo ss
ĠSc ared
ĠSt ir
ĠT ank
ĠW illa
ĠW orry
Ġcont ribut
Ġd aughters
Ġdart ing
Ġdepend s
Ġdu et
Ġed ged
Ġf angs
Ġfa ire
Ġfl u
Ġflower bed
Ġgr ins
Ġgrant ing
Ġinst alled
Ġint rig
Ġmeasure ment
Ġnut ritious
Ġpart ing
Ġrespond ing
Ġscri bbling
Ġshortcut s
Ġsun Ã¢
Ġsw iped
Ġsymp athet
Ġup right
Ġwal rus
Ġwre ath
" Joe
"E nough
"P e
"S oup
-l antern
-to es
?' '
AC K
Del icious
Ed ward
L ooking
Re lease
S usy
T ree
Wheee e
arl ene
c hest
cl ap
e in
f as
h an
it ions
orm s
po ison
red ictable
ster o
umpt ious
up iter
y ummy
ĠC auliflower
ĠC y
ĠCh ubby
ĠChe ster
ĠCle ver
ĠF reeze
ĠGuard ian
ĠJ upiter
ĠJay a
ĠK id
ĠM er
ĠOn ion
ĠOr iginal
ĠOther s
ĠOy sters
ĠP uss
ĠSc amp
ĠSt at
ĠSun flower
ĠSw inging
ĠTim Ã¢
ĠTri angle
Ġanx iety
Ġastound ed
Ġattent ively
Ġcaw ing
Ġch ipped
Ġch ords
Ġcont ra
Ġex otic
Ġf izzy
Ġfor ked
Ġgate keeper
Ġh unts
Ġhold er
Ġinvent ions
Ġkid do
Ġl inked
Ġling ered
Ġm as
Ġm ending
Ġmoan ed
Ġmur al
Ġpa wn
Ġradi ating
Ġregard less
Ġsim pler
Ġthread ed
Ġun rolled
Ġunp redictable
Ġwhis ked
!' 'ĊĊ
"B oom
-d ough
B el
F ound
L ots
P ay
S eth
St upid
Sweet heart
T aking
Y up
ag er
ang o
ck les
col m
erri fied
f ight
id ly
l in
m ower
ng ing
om an
rrrrrrrrrrrrrrrr rrrrrrrrrrrrrrrr
ry er
u a
wh oosh
âĤ¬Åĵ Always
âĤ¬Åĵ To
ĠA ustr
ĠC ate
ĠD is
ĠGl ue
ĠH airy
ĠI ron
ĠJack lyn
ĠJo in
ĠM acy
ĠP ret
ĠRa j
ĠS ix
ĠSal ad
ĠSh ake
ĠSleep ing
ĠSurpr ised
ĠW ren
Ġawa iting
Ġbalan ces
Ġbeeh ives
Ġbl ister
Ġbookshe lves
Ġbra ked
Ġcr ush
Ġcraz ier
Ġem otion
Ġf id
Ġfauc ets
Ġham per
Ġhars her
Ġign ition
Ġlawn mower
Ġlo oming
Ġm ent
Ġmagician s
Ġplun ged
Ġpow ders
Ġpow ered
Ġreve als
Ġscr umptious
Ġseeming ly
Ġstra ps
Ġterri fic
Ġviolin ist
Ġwom en
- side
-g reen
." ,
Any a
Cir cus
D ora
H alfway
Lily Ã¢
M ac
M eet
M icky
P earl
Re al
Spark les
T ri
ail able
bag s
by n
c ream
chest ra
en us
ere al
fort unate
organ ize
pl oring
r uit
ro ccoli
rot ect
st on
t r
us k
âĤ¬Åĵ H
ĠAl ina
ĠC ally
ĠCh oose
ĠCol ors
ĠFran c
ĠFred a
ĠG arden
ĠK erry
ĠKeep ing
ĠL ala
ĠMa ia
ĠMy a
ĠP ow
ĠP ull
ĠPer fect
ĠPet unia
ĠPol ice
ĠS ully
ĠZe ke
Ġa stero
Ġa ye
Ġalarm s
Ġasse mble
Ġbat ted
Ġbuzz er
Ġcab oose
Ġch ime
Ġd ense
Ġdelay s
Ġdesce nd
Ġdo cks
Ġdr ool
Ġgloom iness
Ġh ire
Ġintrig uing
Ġknowledge able
Ġlar gest
Ġman sion
Ġpaper cl
Ġpersu as
Ġpink y
Ġpr oof
Ġpray s
Ġpu lp
Ġpurch ased
Ġscamp ering
Ġsmooth ies
Ġspl int
Ġsquawk s
Ġst uttered
Ġwa ding
Ġwet suit
"H oney
-g rand
Bun Bun
C ow
D es
D ot
G inny
I G
Just in
Prin t
am ous
ass y
ate o
aud ia
be ar
ce p
er al
er ous
i ally
lest e
light s
m oon
ood les
st ore
ur s
urf ing
ĠAn cient
ĠB OOM
ĠB it
ĠB ook
ĠBo x
ĠC amp
ĠF ashion
ĠJ umbo
ĠJo g
ĠLe opard
ĠM arge
ĠM urp
ĠMar io
ĠO mar
ĠRon ny
ĠRuth ie
ĠSt ore
ĠVict ory
ĠWo lfie
Ġam b
Ġaren Ã¢
Ġawait s
Ġbar gain
Ġbump er
Ġc ement
Ġcack led
Ġdef ending
Ġdes ired
Ġdust er
Ġemploy ee
Ġexperiment ing
Ġfert ilizer
Ġgra zed
Ġiceber g
Ġj an
Ġjellybe ans
Ġlou nging
Ġmouth ful
Ġnight Ã¢
Ġorgan ization
Ġpi an
Ġpi xie
Ġprop osed
Ġpurp les
Ġremo ves
Ġro bbed
Ġsav or
Ġsav oured
Ġsees aws
Ġsle ek
Ġspoil s
Ġsting er
Ġstr ung
Ġsunbeam s
Ġswoop s
Ġunexpected ly
Ġwet ting
Ġwilling ness
Ġworried ly
"S weet
C hip
Dr op
El izabeth
Joy ce
M oon
N elly
S ister
W alter
av is
cep ter
ck mate
en nel
i ara
ien na
la w
ll i
ll ies
m agic
og raph
ow ered
pt ion
quit os
rag ons
Ġ ...
ĠAl so
ĠDan a
ĠDolp hin
ĠF old
ĠGl itter
ĠH alfway
ĠH ook
ĠH ooray
ĠJ unk
ĠLa ug
ĠM u
ĠMad ison
ĠNat alie
ĠPe aches
ĠS ly
ĠSid ney
ĠSl ide
ĠTr unk
Ġacc used
Ġact ress
Ġagain Ã¢
Ġappropri ate
Ġboast ed
Ġbra gging
Ġbud get
Ġcoll e
Ġcommun ic
Ġcross ro
Ġd usk
Ġde fl
Ġde vel
Ġdesire s
Ġdoc ument
Ġdr ooped
Ġecho es
Ġent ry
Ġexam ination
Ġg ang
Ġgreat ness
Ġhaird ryer
Ġhex agon
Ġhigh way
Ġillum inated
Ġin iti
Ġincre ases
Ġinvent ing
Ġjo ll
Ġlo llies
Ġme ander
Ġme Ã¢
Ġor chestra
Ġprison ers
Ġpro ving
Ġr oug
Ġrid ers
Ġskunk s
Ġsoap s
Ġsw ipe
Ġtoil ets
Ġtransport ed
Ġwe ary
Ġyelp ing
! .
" Three
"Mmm m
"P l
"St upid
' !"ĊĊ
- r
-b lue
-gra ndpa
-l ong
Angel a
C autiously
Ch r
Danger ous
G illy
Grand mother
Hoot ie
I T
My a
N ope
Or der
ag ious
an ne
b ie
epend able
f ork
h is
iche ver
id a
lean or
ock ey
oop s
sc ape
work er
âĤ¬Åĵ All
âĤ¬ÅĵGood night
ĠAnn y
ĠCl ap
ĠD enny
ĠFl ipper
ĠFour th
ĠMar ian
ĠN O
ĠPen guin
ĠSw ing
ĠT est
ĠUn known
Ġboast ful
Ġch urn
Ġcl inking
Ġcont act
Ġcont agious
Ġcr ed
Ġcross bones
Ġday time
Ġdoll ies
Ġerupt ing
Ġfountain s
Ġgener ation
Ġgreat ly
Ġj aw
Ġl imb
Ġleak y
Ġlif el
Ġn a
Ġou chie
Ġpuff s
Ġsho ving
Ġslither s
Ġspl at
Ġt ended
Ġtent h
Ġu ltim
Ġun fortunate
Ġunlo ading
"C at
- br
- st
-lo ving
? !".
B ooks
B ring
Ben jamin
Ber nie
Br uce
C ount
G ogo
Ho pper
J asper
J em
M in
Mar cus
O lly
P hillip
Where ver
Wil bur
ab ility
ack ing
ad en
c laimed
e ven
gen cy
ib s
j ump
nt h
ons cious
oun cy
ret s
u bb
undred s
v ine
âĤ¬Åĵ Joe
âĤ¬Åĵ So
ĠA bbey
ĠA gent
ĠAll ison
ĠB aker
ĠBl ow
ĠBre nda
ĠC act
ĠCl iff
ĠH aw
ĠHe y
ĠJ ungle
ĠL es
ĠM c
ĠOp era
ĠR eddy
ĠRel uctantly
ĠShe l
ĠSp ud
Ġaccord ing
Ġar f
Ġba bbling
Ġbirds ong
Ġbow tie
Ġbre wing
Ġbrother Ã¢
Ġc oun
Ġcan oe
Ġchipmunk s
Ġclen ched
Ġclimb ers
Ġcom f
Ġcomp aring
Ġdo omed
Ġdream y
Ġencouraging ly
Ġentr anced
Ġfo e
Ġfocus ing
Ġfrustr ating
Ġgaz elle
Ġgle amed
Ġgri pped
Ġhigh ly
Ġimpress ion
Ġiss ue
Ġj azzy
Ġjan itor
Ġlabel ed
Ġlun ches
Ġmet eor
Ġmis ery
Ġmum mies
Ġmysterious ly
Ġpast ime
Ġpatter ned
Ġpic tured
Ġpinch y
Ġsadd ened
Ġscrew ed
Ġsepar ately
Ġsh ack
Ġsomeone Ã¢
Ġsp lend
Ġstrang est
Ġsty list
Ġsurf boards
Ġt ame
Ġtravel ers
Ġty ped
Ġwid en
Ġwil ting
Ġy o
"P op
, 2
-ch ug
-f riend
.' "
Ahh h
Bl ast
Cook ie
D i
H igher
Ju an
Mia Ã¢
Ro xy
S oup
S uper
W ednesday
Who se
Wo ah
ar ma
b oy
do zer
em ory
gr own
hin os
ic ient
it als
l aud
or ay
ot or
pp o
re p
ross ed
s urrender
ud ed
âĤ¬Åĵ Mmm
ĠA ce
ĠC asper
ĠChe ep
ĠD ust
ĠDanie lla
ĠDe bby
ĠEag le
ĠH undreds
ĠI ris
ĠLuc ia
ĠR ow
ĠRel iable
ĠS ign
ĠStat ue
ĠT ape
ĠT aste
ĠTom i
ĠTruck s
ĠVal ue
Ġbare foot
Ġbl azing
Ġboo ed
Ġcompetit ors
Ġcompl ied
Ġcon st
Ġd ies
Ġdi apers
Ġe el
Ġfl aming
Ġfor b
Ġfox Ã¢
Ġh ives
Ġj umbled
Ġk ennel
Ġled ge
Ġme wed
Ġmer ch
Ġmis under
Ġoverfl owed
Ġpower less
Ġpres ident
Ġs cepter
Ġsuper star
Ġtoy box
Ġtreat ment
Ġvibr ations
" Amy
"C o
-le gged
.. ..
B ailey
B ouncy
Bu bble
Doll s
Ex cellent
Ha ving
Jan ice
M aking
N umber
S imba
Sque ak
Sw im
T oy
am ble
and om
aut iful
cha un
m n
nic ian
nth ia
o iled
om a
p ipe
ush i
val ue
w hen
âĤ¬Åĵ Mia
ĠC aw
ĠCoop er
ĠD O
ĠD ance
ĠE st
ĠEl ise
ĠElephant s
ĠH umble
ĠJ a
ĠJe ep
ĠK ira
ĠL in
ĠPo ems
ĠRe indeer
ĠS hoot
ĠS hy
ĠSo cks
ĠW ay
ĠW indy
ĠY awn
Ġblood y
Ġchandel ier
Ġcont ract
Ġcoz ier
Ġcr aters
Ġdeliver s
Ġexp and
Ġexplor ations
Ġflat t
Ġgrandma Ã¢
Ġhere Ã¢
Ġinch ing
Ġjo lt
Ġll ama
Ġmem or
Ġquiver ing
Ġreco very
Ġsand paper
Ġsc ars
Ġseed ling
Ġsh udd
Ġshr ubs
Ġsl ug
Ġsnatch ing
Ġsomersaul t
Ġspong es
Ġtechn iques
Ġthor ough
Ġtrek ked
Ġturn ip
Ġunus ually
Ġv owing
Ġvac ations
" Jane
" Teddy
. One
. They
?' ,
E nough
Grand ad
L acey
M atch
M ic
M ighty
Pe anut
Per haps
R ani
S il
Woo ly
Y oga
an king
ar f
ass ie
b a
cu ss
ec or
f ragile
hy s
in ished
iver se
la ppy
le ven
lse a
nd eed
p ool
re ak
v i
v ity
Ġ ver
ĠAr ctic
ĠCall ie
ĠCl ive
ĠD usty
ĠDanie lle
ĠF eed
ĠF lex
ĠG er
ĠGo at
ĠJenny Ã¢
ĠJew el
ĠJon as
ĠL aurie
ĠL ong
ĠM aple
ĠN anny
ĠN ico
ĠNever theless
ĠSha wn
ĠWood y
ĠY outh
Ġambit ious
Ġbre w
Ġburp ed
Ġbutter cup
Ġchant ing
Ġchar med
Ġcirc ling
Ġcl asp
Ġcl ump
Ġconsequ ence
Ġdisl ikes
Ġdri er
Ġeas el
Ġeight een
Ġentertain ing
Ġexhaust ion
Ġgent leness
Ġgn aw
Ġgum s
Ġha st
Ġintroduc es
Ġluxu ries
Ġmar chers
Ġmel od
Ġmos quitos
Ġmouse Ã¢
Ġnarrow er
Ġneg lect
Ġno zzle
Ġoccasion ally
Ġp ars
Ġp itches
Ġpadd ed
Ġpitch fork
Ġple ad
Ġpr ance
Ġprick les
Ġpro claimed
Ġprot ein
Ġr andom
Ġre ch
Ġru ling
Ġruff les
Ġscra p
Ġsil very
Ġso fas
Ġsoft en
Ġstar light
Ġsunburn ed
Ġsuperp ower
Ġthaw ed
Ġun iqu
Ġut ens
Ġwaist band
"A nytime
"M iss
"N e
"P oppy
) ĊĊ
-t ocked
0 0
?' "ĊĊ
Che ap
F airy
F aith
G ia
G otcha
H ide
J un
Kay lee
Light ning
M ason
Mar riage
P ass
P ol
Sp ider
Sp in
V o
acul ous
ag gy
al t
ine a
nder ful
ne el
nt own
ow ntown
r alled
sp read
v ings
voc ado
âĤ¬Åĵ Timmy
Ġ12 3
ĠAmer ica
ĠChe ap
ĠD ough
ĠFore ver
ĠFro gs
ĠJ ared
ĠK irsty
ĠP epe
ĠP hew
ĠPat ient
ĠR ara
ĠS auce
ĠSe a
ĠSk ippy
ĠSqu awk
ĠSte el
ĠSwim my
ĠTw ig
ĠW izard
Ġaut ograph
Ġbrid le
Ġchomp ing
Ġcoo s
Ġcr im
Ġcreat es
Ġde jected
Ġdo cked
Ġdown hill
Ġeag les
Ġeng rossed
Ġenth ralled
Ġfal se
Ġflas hy
Ġflatt ened
Ġfrog Ã¢
Ġgu inea
Ġhard ware
Ġhill top
Ġhum or
Ġident ify
Ġin fl
Ġjail er
Ġknot ted
Ġknowing ly
Ġla ir
Ġmir aculous
Ġmon k
Ġo ily
Ġp acing
Ġparamed ic
Ġph arma
Ġpig lets
Ġpo ds
Ġpostc ards
Ġrap idly
Ġripp ling
Ġrough ly
Ġsav anna
Ġskid ded
Ġsole mn
Ġspray er
Ġstrate gy
Ġstu nts
Ġt arp
Ġtop ic
Ġwealth iest
Ġwh iff
Ġwre cks
! ?"
"Che ese
"What Ã¢
-w h
B anana
B ar
Cl ap
E than
E ve
Gr adually
He ather
M ika
O xygen
P ing
Rel ax
W inter
all ie
am ily
ax ter
b ooks
b read
in ts
ip ing
is m
ra ce
ter y
u is
ut es
Â ´
âĤ¬Åĵ R
âĤ¬Åĵ Really
âĤ¬ÅĵA nytime
âĤ¬Åĵit Ã¢
Ġ2 5
ĠAustr alia
ĠB ath
ĠB one
ĠBel ow
ĠC ec
ĠCh in
ĠCrocod iles
ĠF izzy
ĠG row
ĠGrace ful
ĠIm p
ĠJo ke
ĠLady bug
ĠM Y
ĠMar i
ĠP art
ĠPain ter
ĠR anger
ĠR eef
ĠS us
ĠSo ld
ĠSp inny
ĠSqu ash
ĠSu z
ĠSweet heart
ĠTuck er
ĠWe ar
Ġad am
Ġbalan cer
Ġblu est
Ġbull dozer
Ġbus ily
Ġche ater
Ġchild ish
Ġco als
Ġcon sc
Ġconcl us
Ġdaffod il
Ġdire ct
Ġdisturb s
Ġdoctor Ã¢
Ġg ingerly
Ġhot dog
Ġintrud ers
Ġocc up
Ġparticip ate
Ġproud est
Ġpuppy Ã¢
Ġr hinos
Ġrock er
Ġs ushi
Ġseason ing
Ġstor k
Ġter rain
Ġtornado es
Ġup stream
Ġve ins
Ġwa de
Ġwas ps
Ġwh inny
" Zip
"M agic
"M ake
"S omething
"W o
-f ashion
-fashion ed
B ANG
Bo bbi
C ro
Cl oud
Jo in
Ju ice
M uch
Mar c
N ia
P romise
Steph anie
T ia
W in
W ork
Z iggy
am el
ann on
eal thy
fore st
fu me
im ble
nd eterred
ne igh
w reck
xy l
Ġ ivy
ĠAll en
ĠBert ie
ĠChe f
ĠD aphne
ĠE n
ĠF eel
ĠF ree
ĠG abri
ĠG avin
ĠH ana
ĠHay ley
ĠIn ch
ĠKay a
ĠN adia
ĠN aps
ĠR ascal
ĠRich ie
ĠRo ll
ĠSee k
ĠSh ampoo
ĠSp in
ĠSt inky
ĠT reat
ĠTw in
Ġaccept ance
Ġadvertise ment
Ġamb ition
Ġbeck oned
Ġbl ub
Ġbr ig
Ġburrow s
Ġcatch y
Ġch ap
Ġcheetah s
Ġcl ipped
Ġclean liness
Ġcomment ed
Ġcool ers
Ġd owntown
Ġdaydream ed
Ġde b
Ġdeser ted
Ġdis organized
Ġenchant ing
Ġexc laim
Ġexhib its
Ġey ep
Ġeyel ids
Ġfootball s
Ġfr amed
Ġfull est
Ġfur row
Ġh ust
Ġhabit ats
Ġho ard
Ġicic les
Ġinter act
Ġmedic al
Ġmill ions
Ġnavig ate
Ġnut ri
Ġobvious ly
Ġpat io
Ġpe er
Ġperfect ion
Ġpump ing
Ġrece iver
Ġser ver
Ġslid er
Ġsmo kes
Ġsn ipping
Ġsplend id
Ġspr ite
Ġst ress
Ġstill ness
Ġstreak s
Ġtid es
Ġto pped
Ġvegg ie
Ġwa gg
Ġwig s
Ġwo ve
! !"
" Jump
"F riend
"H old
"Sh ut
.ĊĊ ĊĊ
?' .ĊĊ
At t
Bl ack
Cl osed
Ex actly
F urther
Jelly fish
M ousy
Mar cy
Sp icy
Spark le
at ives
er ved
et een
et he
ex it
f ruit
g l
ha les
he y
lo Ãĥ
mo ving
orm al
os ing
ot y
ph an
ri al
t ake
ur ric
ure en
xyl ophone
âĤ¬Åĵ Honey
ĠA ma
ĠAle c
ĠAny one
ĠBa o
ĠBer tha
ĠChe ating
ĠD ar
ĠF leas
ĠFisher man
ĠHaw ai
ĠI ggy
ĠJ ordan
ĠL ili
ĠM orty
ĠMus cle
ĠO ct
ĠP an
ĠP raying
ĠP ress
ĠPl an
ĠR am
ĠR em
ĠR ot
ĠSail or
ĠT iff
ĠT in
ĠW alking
Ġadam ant
Ġallow s
Ġapples auce
Ġattent ive
Ġcalend ars
Ġcap t
Ġcur vy
Ġdedic ated
Ġdelighted ly
Ġdistract ing
Ġeff icient
Ġf ours
Ġfairy Ã¢
Ġfid dled
Ġg el
Ġh ikes
Ġher on
Ġhosp itals
Ġhut s
Ġimprove ments
Ġlifel ong
Ġm amma
Ġm idnight
Ġmail men
Ġmass aged
Ġmir acles
Ġmultip le
Ġneighbour Ã¢
Ġnutri ents
Ġopt im
Ġpeep ing
Ġrestless ness
Ġroyal ty
Ġsubst ance
Ġsunb athe
Ġtechn ique
Ġtrain ers
Ġup wards
Ġutens ils
Ġvan s
Ġw ick
Ġwilder ness
Ġwr it
"B aa
"R ing
' It
, 3
-e ating
A W
C oo
Don ald
F aster
Fay e
Joan ne
K iss
L ana
O t
P aw
Stret ch
T oto
Val ue
What ever
ah h
am er
asket ball
com es
d rop
gr oup
gu ins
ian s
if ting
ime e
iss or
m arry
ot hes
riet ta
sw er
us hy
âĤ¬Åĵ Next
âĤ¬Åĵyes Ã¢
âĤ¬Åĵyou Ã¢
Ġ ĠĠĊĊ
ĠB IG
ĠBald y
ĠButt on
ĠC om
ĠD aughter
ĠD rew
ĠDad Ã¢
ĠEm mi
ĠF ia
ĠG ar
ĠG um
ĠH an
ĠH at
ĠH ops
ĠL otion
ĠM aster
ĠSm ile
ĠSp e
ĠSp read
ĠSu ki
ĠT ough
ĠT ower
ĠTom a
ĠW heee
Ġabsor bed
Ġan cest
Ġbaby ish
Ġbar ista
Ġbe friend
Ġbra gged
Ġbrilli ance
Ġbro ad
Ġbu rial
Ġbug gy
Ġbunny Ã¢
Ġburn er
Ġchann els
Ġcho ir
Ġcon cept
Ġcook er
Ġcre vice
Ġcrumb ling
Ġday light
Ġdis rupt
Ġexperiment ed
Ġextingu ished
Ġfoam y
Ġgr ad
Ġim m
Ġind igo
Ġkick ball
Ġl oun
Ġmo b
Ġnam ing
Ġneighbour ing
Ġor phan
Ġp hys
Ġproduct ive
Ġpup s
Ġrece ives
Ġrefle cts
Ġsatis fy
Ġsc or
Ġsmo k
Ġsn ooping
Ġsnack ed
Ġso cket
Ġtech nician
Ġtooth brushes
Ġtra cing
Ġunc onscious
Ġunimp ortant
Ġunt ies
Ġwh ipping
Ġz apped
"S ally
A aron
Bra ve
C herry
D ragon
Fl owers
L exi
Max Ã¢
Me i
N athan
Ne igh
O N
P iggy
Pa ige
S a
T uesday
Wil ma
Z ee
ach ine
atch ing
e getable
ect ions
est ack
hh h
ign orant
il ings
ll ect
p iece
t hen
uff le
ur ance
ut or
âĤ¬âĦ¢ ,
Ġ &
Ġ xylophone
ĠAr t
ĠB atter
ĠC ereal
ĠCar ter
ĠChar ley
ĠCr ack
ĠCro c
ĠCro co
ĠD ash
ĠDaddy Ã¢
ĠG ator
ĠHawai i
ĠJo kes
ĠMar issa
ĠMo ving
ĠP ep
ĠPl ant
ĠRos es
ĠSammy Ã¢
ĠSo fty
ĠSquirrel s
ĠT igers
ĠTw isty
ĠU s
ĠWh istling
Ġaler ted
Ġasse mb
Ġb asis
Ġb order
Ġblack berries
Ġbook mark
Ġburrow ed
Ġce ilings
Ġcount ert
Ġcroiss ant
Ġcrossro ads
Ġhar med
Ġharvest ing
Ġhorn et
Ġice cream
Ġlass o
Ġle pre
Ġlid s
Ġlo ot
Ġmu l
Ġmum ma
Ġpl ight
Ġplay group
Ġrebu ilt
Ġrely ing
Ġrem arked
Ġs ought
Ġsack ing
Ġsavour ing
Ġse qu
Ġshadow y
Ġsmok estack
Ġsp ec
Ġsprout s
Ġsque als
Ġsumm oned
Ġten se
Ġtodd lers
Ġtop ics
Ġtroll s
Ġvibr ate
Ġviol ence
Ġwaist coat
"Sp icy
- ding
- ro
- sol
-l ife
-t ap
-y o
B irds
Ch ange
E nd
H OO
Hug o
Jo lly
L ady
Lou ie
Ow en
S issy
\ "
c re
com p
d anger
et te
i kay
ikay la
illi ant
is fied
j ar
od ore
ou l
out s
s ay
u able
u u
ul ted
y ah
âĤ¬Åĵ G
âĤ¬Åĵ Then
ĠBree zy
ĠCol or
ĠD oodle
ĠEm ilia
ĠGrand father
ĠP ia
ĠP ic
ĠP ro
ĠR ec
ĠR oot
ĠT axi
ĠTre asure
ĠWil f
Ġal armed
Ġassign ment
Ġbrig ade
Ġcamp ground
Ġche ep
Ġcher ishing
Ġcomb ine
Ġcomfort s
Ġcost ly
Ġcre vices
Ġcreat or
Ġcry baby
Ġcurre nts
Ġeas iest
Ġfather Ã¢
Ġinspect ing
Ġkid ding
Ġkind a
Ġlantern s
Ġm ourn
Ġmat es
Ġmat ted
Ġmob ile
Ġnois ier
Ġout comes
Ġpadd ock
Ġpatch work
Ġpin es
Ġpopular ity
Ġposit ions
Ġpr edic
Ġrecommend s
Ġselfish ly
Ġsnarl s
Ġsoak s
Ġsqu inting
Ġtad pole
Ġterri fying
Ġthree Ã¢
Ġtr ough
Ġun solved
Ġunbe arable
Ġunfro ze
Ġuns uccessful
Ġwaft ed
Ġwoman Ã¢
" Quit
"T e
Al most
C elery
Carl os
F right
Fright ened
Har old
Isab ella
Ju les
L unch
Mar garet
Mel ody
Mic helle
O ooh
OO F
R oy
R udolph
V icky
est ival
ethe less
o pp
olog y
ri vers
s qu
sh ade
u der
âĤ¬Åĵ Happy
âĤ¬Åĵ Have
âĤ¬Åĵ this
ĠBow ser
ĠC onfused
ĠC ross
ĠChe lsea
ĠCray ons
ĠEl mer
ĠEx cept
ĠF arah
ĠFind ers
ĠGold y
ĠIn chy
ĠJay den
ĠJim iny
ĠJim Ã¢
ĠL og
ĠL on
ĠM mm
ĠMor ris
ĠOr der
ĠR ac
ĠSPL ASH
ĠShell ey
ĠSis i
ĠSm arty
ĠSpark s
ĠTe asing
ĠTom y
ĠUn iverse
ĠWor my
ĠY ogurt
Ġadjust ments
Ġag ile
Ġb um
Ġbl iss
Ġbook store
Ġcan cel
Ġconcentr ating
Ġconf essed
Ġdelicious ly
Ġdump ster
Ġeat ers
Ġf iddle
Ġfar ming
Ġflower pot
Ġforb idden
Ġforehead s
Ġfurrow ed
Ġgr oo
Ġgrad u
Ġgre ase
Ġgymn astic
Ġhome owner
Ġin ject
Ġinnoc ently
Ġinsp ire
Ġintimid ating
Ġj ung
Ġk ale
Ġlepre chaun
Ġm oth
Ġmer rier
Ġmold ed
Ġn aked
Ġone Ã¢
Ġplanet arium
Ġplayground s
Ġpowder y
Ġpro spect
Ġrail way
Ġreal istic
Ġreal ization
Ġrooft op
Ġruff ling
Ġs ections
Ġsc roll
Ġself less
Ġshelter ed
Ġso ars
Ġsoup s
Ġst ale
Ġstart le
Ġthunder clap
Ġtrim ming
Ġtur bul
Ġund ressed
Ġweird est
Ġwh ichever
Ġwin ced
Ġwoods man
Ġyow led
" Uncle
"Is n
"R ed
- ee
- moving
-f ly
-f ound
. )ĊĊ
." .
?' 'ĊĊ
Bel inda
Co ffee
J es
L ara
N ature
P ress
Ros y
S ugar
Sh aron
Squ awk
Tra cy
a iting
app ily
arn ess
as uring
az am
c atch
ck ing
co ot
h ouses
ll ey
or iginal
or my
r ack
sh oot
ub way
uff ed
ur led
us ic
w riting
âĤ¬Åĵ D
âĤ¬Åĵ Daisy
âĤ¬Åĵ Very
ĠA rrr
ĠAri a
ĠBr ush
ĠBrad ley
ĠC atherine
ĠC ory
ĠCh ase
ĠCl apping
ĠDel ilah
ĠE leanor
ĠEve lyn
ĠFriend ly
ĠGhost s
ĠM au
ĠP ablo
ĠP ray
ĠS hip
ĠSt udying
ĠT id
ĠT iggy
ĠT ouch
ĠW inky
ĠWor ried
ĠY OU
Ġadvis or
Ġalt ar
Ġancest ors
Ġappreci ative
Ġar ched
Ġattach ment
Ġaward ed
Ġb ask
Ġbar rier
Ġbitter ness
Ġbl ah
Ġbother s
Ġbr ooch
Ġcomplain s
Ġdeal ing
Ġdeter red
Ġdog Ã¢
Ġdragon Ã¢
Ġfr ayed
Ġfres hness
Ġfu zz
Ġgrand mas
Ġlamp shade
Ġlion Ã¢
Ġloo ser
Ġmake over
Ġmant el
Ġmas se
Ġmy stic
Ġnin eteen
Ġorig inally
Ġp ounces
Ġpars ley
Ġpat rol
Ġper man
Ġper p
Ġpl ush
Ġpro pped
Ġprun ed
Ġquiver ed
Ġrain forest
Ġrelax es
Ġroug her
Ġsepar ates
Ġsh im
Ġshin ning
Ġshine y
Ġspecial Ã¢
Ġswer ve
Ġunb uck
Ġuniqu eness
Ġvent uring
"A ww
"Do g
"P romise
- C
-f ed
F ar
I vy
Jo el
Or ange
P uddles
Per fect
S ing
S ylvia
Sweet ie
V anish
V era
W oohoo
ab ies
en cer
g row
ile m
ilem ma
ish ment
lend a
m int
n ip
ool ish
que ak
rel iable
self ish
uff ing
un ning
âĤ¬Åĵ Amy
âĤ¬Åĵ Grandma
âĤ¬Åĵ Jimmy
ĠAl vin
ĠBea ver
ĠC ave
ĠCl othes
ĠClaw s
ĠDinosaur s
ĠDon ald
ĠF ern
ĠG ame
ĠGil bert
ĠGr ateful
ĠGra pe
ĠHoot y
ĠIs aac
ĠL uxury
ĠLe af
ĠLu ka
ĠNut s
ĠPast els
ĠPe bbles
ĠS ab
ĠS ienna
ĠSn ail
ĠSome body
ĠSp ace
ĠT onight
ĠTink er
ĠV i
Ġb ree
Ġbl and
Ġbro adly
Ġbu ff
Ġc asc
Ġc au
Ġc unning
Ġcl ippers
Ġco il
Ġco ve
Ġcorrid or
Ġd ilemma
Ġdent ed
Ġdetail ed
Ġdeter gent
Ġdizz ier
Ġdon ation
Ġdown wards
Ġdry ness
Ġegg pl
Ġequ ations
Ġess ential
Ġexam ines
Ġeyep iece
Ġflour ished
Ġfro sty
Ġgasp ing
Ġgr an
Ġh ues
Ġhappy Ã¢
Ġhomes ick
Ġhoof s
Ġhum ility
Ġl ining
Ġlo an
Ġlo vable
Ġloc ated
Ġmerch ant
Ġmet er
Ġmiss ions
Ġpe ed
Ġpersu aded
Ġpl aster
Ġpl ot
Ġpossib ility
Ġprec aut
Ġquen ched
Ġquiet ness
Ġrequ ires
Ġrip en
Ġsav ings
Ġsevent een
Ġshrink s
Ġsill iness
Ġsk i
Ġsn eezy
Ġspring y
Ġsun n
Ġsuspicious ly
Ġteleph ones
Ġthem e
Ġthermomet ers
Ġthreat en
Ġtre ad
Ġug liest
Ġur g
"It Ã¢
"P o
"T w
-e at
A men
Al icia
B on
E arly
Fl ower
G loria
I S
Last ly
Let s
M oney
N ell
Phil ip
Pip er
R E
S hoot
Sarah Ã¢
Sm all
Snow ball
Stand ing
U gh
ac qu
c ases
ch airs
d ling
e w
er os
gu ess
ist s
l isten
ld ron
ment ine
ong s
ourn ess
sp icy
urs day
v ille
Ġ iced
ĠA be
ĠAn imal
ĠB ern
ĠCe leste
ĠDo vey
ĠFranc is
ĠG O
ĠGr an
ĠH aley
ĠH and
ĠHe aring
ĠHe art
ĠK r
ĠKeep er
ĠMake up
ĠMe asure
ĠP ear
ĠP orky
ĠPl ace
ĠR ubby
ĠSo ar
ĠStret chy
ĠStu bb
ĠTom as
ĠTra in
ĠUnder stand
ĠWh ippy
Ġbed spread
Ġbegin nings
Ġcal cul
Ġcau ldron
Ġcell ar
Ġcere als
Ġch imp
Ġchar ging
Ġchocolate y
Ġcl ank
Ġcompanion ship
Ġcorn s
Ġcourt room
Ġcr ates
Ġcreative ly
Ġcu bby
Ġdump ing
Ġdun ked
Ġeffect s
Ġfl itted
Ġfol ks
Ġfunn el
Ġgra vity
Ġh arness
Ġh ump
Ġhand made
Ġhoney moon
Ġing en
Ġintr uder
Ġland mark
Ġlife less
Ġloun ge
Ġman es
Ġmir aculously
Ġmystic al
Ġno s
Ġpassion ate
Ġpin wheel
Ġponyt ails
Ġport ion
Ġreg ained
Ġreun ion
Ġrumm aging
Ġs ourness
Ġsal ute
Ġsand ed
Ġsc aven
Ġsh ri
Ġsl inked
Ġsm udges
Ġsmir ked
Ġsolemn ly
Ġstor age
Ġtra g
Ġtw ister
Ġunf inished
Ġwither ed
" Under
"R ob
"Z ap
-d es
-s k
-talk ies
Cra zy
Den nis
Em mie
F illed
I ndeed
In stantly
Is la
M al
M idnight
M ost
P ee
Pin chy
R usty
Sh adow
Th umper
Tre asure
U m
Y ellow
b or
ch o
cle an
d own
h and
i ked
igg le
ip er
ise y
o de
or ation
re o
um s
un ches
w ill
w ind
âĤ¬Åĵ Anna
âĤ¬Åĵ Sally
ĠAmaz ing
ĠB ing
ĠB ub
ĠB ully
ĠCh ange
ĠCh omp
ĠCl audia
ĠCow s
ĠCra bs
ĠD ependable
ĠE lderly
ĠF all
ĠF ee
ĠG em
ĠG ri
ĠGoose y
ĠHapp ily
ĠHel ga
ĠKar la
ĠL ate
ĠL ung
ĠLaug hing
ĠM emory
ĠMagic al
ĠMal colm
ĠMar riage
ĠOn ions
ĠOrgan izing
ĠP ap
ĠP ractice
ĠRainbow s
ĠRo lling
ĠRose mary
ĠSec ond
ĠSm art
ĠT idy
ĠTe am
ĠTh ursday
ĠVictor ia
ĠW et
ĠW ing
Ġaccur ately
Ġallerg ies
Ġbus ier
Ġcar amel
Ġclean ers
Ġcorn ered
Ġding ed
Ġdisappear ance
Ġdrown ing
Ġflex ed
Ġgas oline
Ġgle am
Ġgymnastic s
Ġha sty
Ġhand writing
Ġharm on
Ġin ha
Ġir ons
Ġjigg le
Ġlate Ã¢
Ġloud spe
Ġme erk
Ġmisbe haved
Ġmum bling
Ġneg ative
Ġno ble
Ġobser vation
Ġperson al
Ġpersuas ive
Ġpyram ids
Ġrag ged
Ġregret ed
Ġrel ented
Ġright s
Ġseat ing
Ġsn ores
Ġsnorke l
Ġsp ecially
Ġspe cks
Ġstraight en
Ġstrum s
Ġstur d
Ġte ary
Ġtrou bling
Ġtrouble maker
Ġtweet ed
Ġval ve
Ġvine yard
Ġy a
"B lue
"C hocolate
"C ra
"P ay
"Tr ust
' Yes
- oo
- sc
Alex a
B arky
Be have
Bee f
C asey
C rystal
F lappy
J ed
Jimmy Ã¢
K erry
Per cy
Sm ile
St ir
Vict or
ad or
am us
app iness
are st
at hed
ath a
en ch
fu ll
in er
io lets
lex ed
ll ous
m ind
n umber
o lyn
ob web
ord on
ot ed
re sh
t weet
the l
v iew
w hee
âĤ¬Åĵ Hold
âĤ¬Åĵ Jump
âĤ¬Åĵ Never
âĤ¬Åĵ Nice
âĤ¬Åĵ Put
Ġ1 8
ĠAut umn
ĠC up
ĠCass y
ĠCube y
ĠE ddy
ĠF oot
ĠH air
ĠHope fully
ĠInd ians
ĠIsn Ã¢
ĠJ aden
ĠJ ak
ĠJam al
ĠL ind
ĠLet s
ĠM arl
ĠM arry
ĠM ountain
ĠMama Ã¢
ĠMar ble
ĠMar g
ĠMom ents
ĠP J
ĠP ins
ĠP it
ĠR acing
ĠR iya
ĠRay mond
ĠSt ick
ĠSusie Ã¢
ĠTV s
ĠTri x
ĠV enus
ĠW ipe
ĠZe lda
Ġa jar
Ġag g
Ġback ing
Ġbur den
Ġbust le
Ġcan ister
Ġcheerful ness
Ġcombination s
Ġcon vey
Ġconsider ing
Ġcrawl er
Ġcred it
Ġdaddy Ã¢
Ġdazz led
Ġdepend ability
Ġdot ted
Ġdrift wood
Ġeggs hell
Ġexit s
Ġf ry
Ġfe e
Ġforever more
Ġfulfill ing
Ġginger bread
Ġhaven Ã¢
Ġimm ense
Ġincreasing ly
Ġlecture r
Ġliving room
Ġmasse use
Ġmuseum s
Ġomelet te
Ġp itter
Ġpur s
Ġra coon
Ġre pt
Ġrec ited
Ġrel atives
Ġrhy med
Ġrob es
Ġs ue
Ġsol ver
Ġstart ling
Ġsunb athing
Ġsw um
Ġtemperature s
Ġthorough ly
Ġtime out
Ġto ll
Ġurg ently
Ġv en
" Alice
" Jake
" Mark
" On
"F our
"F un
"P oor
' Let
, "ĊĊ
- str
- z
-des erved
Car rot
E arth
F ear
F ragile
Gert ie
I gn
Jack son
K ylie
Lou is
M arian
M orty
Re ggie
S cr
Sp aghetti
Up on
Vo ice
W est
ak azam
amp ed
aw yer
ck now
er fect
eron ica
erp rin
et al
f rog
il thy
imb ers
l ide
l ike
loo ked
ony a
opp able
ore y
pl ain
ren a
s st
ser ve
ter ing
uit y
um i
utter ing
w ine
Ġ" "
ĠAl most
ĠAnd i
ĠAnt y
ĠB us
ĠBl u
ĠCare ful
ĠD avy
ĠDel ighted
ĠEnt er
ĠF awn
ĠFlick er
ĠGra cy
ĠH mm
ĠHen rietta
ĠI g
ĠK iss
ĠLe g
ĠM E
ĠMar ina
ĠMe at
ĠOl ives
ĠP OP
ĠP oke
ĠP ony
ĠPaul ina
ĠPer fume
ĠR everse
ĠR oom
ĠS urprise
ĠSa fe
ĠSh annon
ĠSmo king
ĠSo f
ĠSp ell
ĠSt ation
ĠT ag
ĠWhite y
ĠYour s
Ġa cknow
Ġanxious ness
Ġatt ended
Ġbas ic
Ġblack berry
Ġcrim inal
Ġdis comfort
Ġdoc uments
Ġe p
Ġfing erprin
Ġfl ung
Ġflaming os
Ġfun Ã¢
Ġgolf ing
Ġh ing
Ġhead lights
Ġhust le
Ġinh aled
Ġinvestig ating
Ġjung les
Ġlower ing
Ġmat ure
Ġmil king
Ġnatur ally
Ġnew er
Ġoper ations
Ġoppon ent
Ġpant ed
Ġpaper work
Ġpapercl ips
Ġpharma cy
Ġpyram id
Ġrech arge
Ġrepres ented
Ġsam ple
Ġscra ping
Ġsh aded
Ġsl ing
Ġsm ug
Ġsmoot hest
Ġste amed
Ġsun ray
Ġt imbers
Ġtantrum s
Ġthunderstorm s
Ġunb elie
Ġunrave led
Ġunst oppable
Ġur gent
Ġv ul
Ġwed ged
Ġwhirl pool
Ġz eros
"B l
"B less
"G irls
"I ce
-c ar
-h igh
-p atter
. It
A aaah
B op
Ch icky
D ance
Dan cing
K arl
Kim my
Li bby
Lucy Ã¢
M ai
M indy
Mmm mm
N icole
P hoebe
Paul ine
Pop corn
Real izing
S ell
Son ia
V E
ap t
ce y
de ad
egetable s
el f
ell ed
fight ers
gg ar
it ual
itz i
lebr ate
p ey
p in
p olish
p ower
r ong
sh a
ster ious
u ary
uck oo
um sy
Â ±
âĤ¬ I
âĤ¬Åĵ Climb
âĤ¬Åĵ the
Ġ4 0
ĠAdventure s
ĠAnt ar
ĠB asketball
ĠCh loÃĥ
ĠChin ese
ĠChrist ine
ĠCir cle
ĠCl ick
ĠCurious ly
ĠD ry
ĠF a
ĠF amily
ĠFle a
ĠGr amps
ĠH u
ĠH um
ĠIs land
ĠJ in
ĠJake Ã¢
ĠM oppy
ĠM unch
ĠMa ureen
ĠMaria h
ĠP u
ĠPe ppy
ĠPeanut s
ĠR onnie
ĠReg ular
ĠS av
ĠSp it
ĠSue Ã¢
ĠVan essa
Ġactiv ated
Ġag ent
Ġball room
Ġbat ting
Ġbe ggar
Ġblank ie
Ġble at
Ġbreath less
Ġcoin c
Ġcom ments
Ġcontain s
Ġcra fty
Ġdepend ed
Ġdo Ã¢
Ġdon ated
Ġev idence
Ġexp ired
Ġfaith fully
Ġfetch ing
Ġfier cest
Ġflight s
Ġg ag
Ġg iver
Ġglare s
Ġgrill s
Ġheart ed
Ġhel ium
Ġhigh light
Ġingen uity
Ġint act
Ġju icier
Ġmarve llous
Ġmed it
Ġnarrow ed
Ġoccup ied
Ġoper ate
Ġorgan izer
Ġperp lexed
Ġphotograph s
Ġpier ced
Ġpoll in
Ġpra ising
Ġprecaut ions
Ġquiet ed
Ġr itual
Ġres ulted
Ġscrewd rivers
Ġsequ ins
Ġsh ivery
Ġsign als
Ġsister Ã¢
Ġsk im
Ġsl icing
Ġsne ered
Ġsong bird
Ġsqu id
Ġsympathet ic
Ġtid iness
Ġtight ening
Ġtre nd
Ġtread mill
Ġvibr ation
Ġvitam in
Ġworth less
" For
" Un
"A ny
"R u
"W ater
- P
-eat en
-sol ving
-to e
A bbi
A gnes
B ecca
Be ary
Bu y
Char les
Co pper
Fl utter
G aby
H onk
I ntrigued
Jess y
Jun ior
M itch
N ight
R upert
Sh ark
Sp eed
St u
Stri ke
T abby
T ick
V elvet
Wo lf
Y et
ail ed
b ing
b ugs
be ard
c aw
c ial
eed ed
f ood
g ae
imp le
irl oom
j u
mer gency
n ets
og ram
ra ser
t ta
âĤ¬Åĵ Ouch
âĤ¬Åĵ Whenever
ĠB axter
ĠBlue berry
ĠBro dy
ĠCo zy
ĠF ur
ĠG iving
ĠGrand son
ĠGu y
ĠHel i
ĠJosh ua
ĠM iki
ĠM ing
ĠM osquitoes
ĠMau rice
ĠMax i
ĠMom Ã¢
ĠP ico
ĠP ilot
ĠPeter Ã¢
ĠR iver
ĠSl ither
ĠSpl ish
ĠT u
ĠT urt
ĠTe a
ĠTony a
Ġaddress es
Ġadv anced
Ġalert ness
Ġank les
Ġaud ition
Ġbill owing
Ġbread s
Ġch ugga
Ġchirp y
Ġcl ack
Ġcl inging
Ġcoinc idence
Ġcommunic ating
Ġconvey or
Ġd ime
Ġdun es
Ġemer ald
Ġfeel ers
Ġfo al
Ġgl aring
Ġgrandmother Ã¢
Ġgrass land
Ġhe irloom
Ġhealth iest
Ġju ry
Ġl ather
Ġlimb s
Ġload er
Ġmac aw
Ġmango es
Ġo d
Ġp ried
Ġperman ent
Ġperse vere
Ġpl op
Ġplay thing
Ġpleasure s
Ġpocket ed
Ġposs um
Ġpretz el
Ġre solve
Ġrespect s
Ġs ized
Ġsadd est
Ġshuff ling
Ġsk et
Ġsl unk
Ġsol ar
Ġsturd ier
Ġtake off
Ġturbul ence
Ġun roll
Ġwhir r
Ġy ank
!' Ċ
" Emma
" March
"B lech
"B uzz
"Ne igh
"P ull
"Pl ay
"W heee
-e arned
A ye
Ar chie
Ben ji
C elia
C ody
C ora
Che er
Chr ist
Cl ar
Gr umpy
J et
K ari
Luc ie
Mel anie
O oo
R aven
Rainbow s
Sc arlett
St acey
To ot
W anda
W rite
Y ES
c ue
cre ase
ct ica
es ame
ess y
f ake
g iveness
h ide
h onk
h urry
id an
ir i
isapp ear
known st
lo ad
me asure
omet own
ont osaurus
oo ooo
qu est
ra il
re asure
riend ly
uff ins
un ken
urric ane
ut o
âĤ¬Åĵ Everyone
âĤ¬ÅĵHe Ã¢
âĤ¬âĢ ¹
ĠAl arm
ĠAm os
ĠAntar ctica
ĠAt t
ĠBan ana
ĠC atie
ĠCloud y
ĠD andy
ĠD oo
ĠEs me
ĠF estival
ĠF ine
ĠFran nie
ĠHa iley
ĠL ock
ĠL oud
ĠM iley
ĠPlan et
ĠPr issy
ĠPudd ing
ĠRad ishes
ĠRe ally
ĠSam son
ĠSl inky
ĠTiff any
ĠWe e
Ġab rupt
Ġadm itting
Ġannounce ments
Ġarm ful
Ġastero ids
Ġb ount
Ġb zzz
Ġbr on
Ġbr ontosaurus
Ġbutt s
Ġchar ges
Ġcl atter
Ġcl unk
Ġcom ic
Ġconsid eration
Ġcount less
Ġcrown ed
Ġd immer
Ġd ye
Ġdecre ased
Ġdelight fully
Ġdetect or
Ġdi aries
Ġdistract ions
Ġdo e
Ġdrum stick
Ġf umbled
Ġfootprin t
Ġgur gling
Ġh ometown
Ġh ue
Ġhat ching
Ġheal s
Ġho ll
Ġho ver
Ġhur ries
Ġinstin ct
Ġkern el
Ġl us
Ġlo b
Ġloudspe aker
Ġman ages
Ġmurm ured
Ġn urt
Ġnut ty
Ġoffic ially
Ġoven s
Ġover t
Ġpart ners
Ġpr ow
Ġred der
Ġrespect fully
Ġrid ges
Ġripp led
Ġrub ies
Ġrum our
Ġse wn
Ġsens es
Ġship wreck
Ġshock ing
Ġshr unken
Ġstomach ache
Ġstre wn
Ġstri ving
Ġsun ken
Ġsun r
Ġsup r
Ġsw oo
Ġtoothp icks
Ġtur qu
Ġtur rets
Ġunbuck led
Ġunf riendly
Ġunpl ug
Ġv iolets
Ġwander ings
Ġwell ed
Ġyet i
Ġzag ging
" Kitty
"A aaah
"A nn
"F ly
"G reetings
"U gh
- top
-b aked
-h op
-sp ecial
B iggie
B oris
B uggy
B ugs
B urt
Bl ake
E ating
F ishy
Gr an
K ar
K ira
L y
L yla
Le a
Rich ard
S omeday
Sam i
She ila
Sl ide
Sm iling
Sn ake
Sp read
and as
ar ily
br is
ce ls
elie ved
est roy
g lass
gre es
ho es
ic ense
icy cle
ile en
m at
ma le
ol ite
on a
p ad
p ut
rec ious
se ll
spass ing
t ick
ver n
w ealthy
âĤ¬Åĵ Emma
âĤ¬Åĵ Everything
âĤ¬Åĵ Meow
âĤ¬ÅĵI n
âĤ¬ÅĵIs nÃ¢
ĠCher yl
ĠCra w
ĠCy nthia
ĠD ragons
ĠEx p
ĠF arm
ĠFlo ssy
ĠH ill
ĠHe aven
ĠI nt
ĠInd ia
ĠL ab
ĠL ie
ĠLe aves
ĠLill ian
ĠLisa Ã¢
ĠM achine
ĠMack enzie
ĠMic rosc
ĠMurp hy
ĠNo on
ĠO xy
ĠP rotect
ĠPl op
ĠPuzz led
ĠSh oo
ĠSh ut
ĠShel by
ĠSk ull
ĠSleep y
ĠStret ching
ĠT er
ĠT op
ĠTre spassing
ĠW hales
ĠWood s
Ġaccept s
Ġbenef its
Ġbloss oming
Ġbu ries
Ġbul ging
Ġbuttercup s
Ġc ured
Ġca uses
Ġcann ons
Ġcat Ã¢
Ġcomm it
Ġconqu ering
Ġconstr uct
Ġcy cled
Ġdangerous ly
Ġde bris
Ġde grees
Ġdeaf ening
Ġdestroy s
Ġf er
Ġf rying
Ġfire ball
Ġfluff iest
Ġfrol ic
Ġgrind ing
Ġhair band
Ġhar ming
Ġho ppy
Ġhood ie
Ġj ell
Ġkick er
Ġlesson Ã¢
Ġlog o
Ġloop y
Ġlus cious
Ġmet ho
Ġn arr
Ġones elf
Ġover looked
Ġpan el
Ġpet rol
Ġraft s
Ġregret fully
Ġrooft ops
Ġsal ut
Ġsc al
Ġsc ans
Ġshelter s
Ġsl aves
Ġsparrow s
Ġspir als
Ġstaff s
Ġsur vey
Ġt amer
Ġteach ings
Ġtent acle
Ġthunder cloud
Ġturqu oise
Ġun cles
Ġun selfish
Ġund id
Ġv ess
Ġvo ila
Ġwagg led
Ġwid ening
Ġwis py
Ġworth while
" Bobo
"Che ers
"L a
"Mom ma
"S plash
"Wo ah
"Y ield
- Ray
- er
-ch ugga
-l ived
-m ade
.' Ċ
A H
A N
Anna bel
B arney
Bl ink
Ch ad
Dan ie
Geor gie
Har vey
Help ing
Jane Ã¢
L ong
Mad eline
Never theless
P aws
R em
S ale
S ari
S itting
So ap
Step hen
Tommy Ã¢
Wh ite
Z ebra
ag s
al ance
am m
ar ison
ar rel
ash ore
ast a
crack er
d ings
ere r
ess on
est ruck
f old
h ire
he el
he et
ick er
j our
m et
o il
op ot
p ass
port s
ri ch
se ye
t ons
unt ing
w ith
yes ha
âĤ¬Åĵ Friends
âĤ¬ÅĵThey Ã¢
âĤ¬Åĵno Ã¢
ĠA yla
ĠAs king
ĠB ANG
ĠB read
ĠBal ancing
ĠBry an
ĠC able
ĠCra ig
ĠD eb
ĠD ottie
ĠDan cer
ĠEd win
ĠEst her
ĠFor give
ĠHen ri
ĠIgn orant
ĠIt sy
ĠJean nie
ĠJul i
ĠJust ine
ĠL ime
ĠLo llipop
ĠM elt
ĠMon sters
ĠMonkey s
ĠMy stery
ĠN umbers
ĠNe igh
ĠNo sy
ĠP arty
ĠPe ering
ĠPip o
ĠPl anes
ĠPl ants
ĠPlay ful
ĠPri ze
ĠR OAR
ĠS ia
ĠS urfing
ĠSc ary
ĠSe ven
ĠSl iding
ĠSo oty
ĠSp ray
ĠSt ormy
ĠT errified
ĠT our
ĠW ash
ĠW on
ĠWaff les
ĠY ear
Ġ` `
Ġal gae
Ġass umed
Ġbelief s
Ġboss iness
Ġbra vo
Ġbully ing
Ġbutterfly Ã¢
Ġcar vings
Ġch is
Ġcomp arison
Ġcongratul ations
Ġconst ant
Ġcontro lled
Ġcow ered
Ġd iversity
Ġdaffod ils
Ġdan g
Ġdawn ed
Ġdeaf ness
Ġdefl ated
Ġen s
Ġexc l
Ġf ades
Ġfa iling
Ġgigg ly
Ġglo ss
Ġgu ides
Ġhandleb ar
Ġhappened Ã¢
Ġhe ave
Ġhe m
Ġinha bit
Ġinject ion
Ġinst all
Ġjam s
Ġjell ies
Ġlearn ers
Ġloc als
Ġmatch sticks
Ġmeander ed
Ġmelod ic
Ġmotor boat
Ġmourn ed
Ġna ive
Ġnow Ã¢
Ġoppon ents
Ġout s
Ġpar cels
Ġpassage way
Ġperson alities
Ġpi ec
Ġpro sp
Ġrang ers
Ġre ma
Ġrele ases
Ġrent ed
Ġs in
Ġse ashore
Ġsl umber
Ġsoothing ly
Ġspo kes
Ġsu ited
Ġsuff oc
Ġsusp ected
Ġvis ion
Ġwaft ing
Ġwed dings
Ġwood worker
ĠĊĊ ĊĊ
"K nock
"Look s
"S w
"Tr ue
- ball
-br own
-n eeded
-w ee
An imals
B ark
C ars
C omp
C onnie
Cra sh
I N
Jes se
K nock
K yla
Ot to
Ra ise
S et
S mo
Sh iver
T y
Tre vor
ac o
ar ate
bl ock
ch ain
che ap
ed ge
ft en
ic i
igg ling
iss ie
og i
opot amus
or ah
orn ado
ot ty
pl aces
re ated
s ag
u ra
v als
v on
âĤ¬Åĵ L
âĤ¬Åĵ She
âĤ¬ÅĵW heee
âĤ¬ÅĵWhere Ã¢
Ġ1 6
ĠA ddie
ĠAunt y
ĠB at
ĠBab a
ĠC ind
ĠC orey
ĠClar ice
ĠF at
ĠFl oyd
ĠGri zzly
ĠH alf
ĠH ans
ĠHe ctor
ĠM otor
ĠMix ing
ĠMo dern
ĠN et
ĠNo elle
ĠOct o
ĠP aris
ĠPat ricia
ĠRabbit s
ĠRelax ing
ĠRo byn
ĠRu bber
ĠS ubway
ĠSad ness
ĠSet tle
ĠSil ence
ĠSt one
ĠT utor
Ġaccur ate
Ġacrob at
Ġaff ected
Ġaw estruck
Ġba wk
Ġbeha ves
Ġbutter ed
Ġchar ger
Ġcountert op
Ġcr ouching
Ġcreature Ã¢
Ġcroiss ants
Ġcross walk
Ġd aunt
Ġde als
Ġdel ive
Ġden y
Ġdilig ent
Ġdough nut
Ġdough nuts
Ġdrum sticks
Ġdun ge
Ġe w
Ġexper ts
Ġeye ing
Ġfaire r
Ġgr ams
Ġgrand baby
Ġgroom ed
Ġhairsty les
Ġhot els
Ġint ention
Ġj agged
Ġjo ey
Ġkeeps ake
Ġkey chain
Ġkil ogram
Ġla sag
Ġlad led
Ġlitt e
Ġm im
Ġmast s
Ġmatch stick
Ġmischievous ly
Ġnight ing
Ġnur sed
Ġp ouncing
Ġpract ically
Ġrefu sal
Ġrel ia
Ġsa cred
Ġscal p
Ġsho pped
Ġsk ins
Ġsky sc
Ġsleepy head
Ġsor ter
Ġsp ic
Ġsp icier
Ġstable s
Ġsto ves
Ġt ens
Ġtang les
Ġtend erly
Ġtherm os
Ġtire lessly
Ġtrack ed
Ġtrink et
Ġtw eez
Ġty re
Ġuntwist ed
Ġw its
Ġwicked ly
Ġwool en
Ġwound ed
Ġyield s
! ,
" Mary
"Wh oosh
"Who se
' ".
- 1
-zag ged
A ct
A iden
App le
C ut
Cook ies
Cr ack
G erald
H azel
H urray
J umpy
L illie
Nat alie
P up
Ro ll
S our
S pl
S unday
We eks
With in
Y o
Y ucky
al ways
angu age
b ra
che ese
d aughter
de le
elp iece
fu sely
g atha
ho gs
ho nda
ic ol
ie go
ill ing
itter ing
n i
nc ouraged
obweb s
ook ie
oot y
op her
ott a
oun cer
ount ed
p oke
p olog
re ly
ri p
ry n
sc ri
sp ell
st ay
st ring
th on
th ree
un gry
âĤ¬Åĵ Should
âĤ¬Åĵ Uh
âĤ¬Åĵ okay
Ġ i
ĠA ct
ĠA imee
ĠA way
ĠAb ra
ĠAm ina
ĠBal ance
ĠBen Ã¢
ĠBut ch
ĠCh ipper
ĠCl umsy
ĠCo by
ĠD oris
ĠDO NG
ĠE asy
ĠE thel
ĠH ockey
ĠHel icopter
ĠI cy
ĠJa ime
ĠJess i
ĠK yla
ĠM oses
ĠM urray
ĠMag nets
ĠMatch ing
ĠNat alia
ĠP ops
ĠP recious
ĠPick le
ĠPl uto
ĠPup il
ĠQ uit
ĠRo llo
ĠShoot ing
ĠSo l
ĠSpark ly
ĠT ino
ĠT ory
ĠThe a
Ġafter all
Ġappl au
Ġatt ending
Ġband its
Ġbl ushing
Ġboast ing
Ġburst s
Ġbusiness man
Ġcarri ages
Ġcaution ed
Ġch ubb
Ġchildren Ã¢
Ġchis el
Ġclaw ed
Ġcol ander
Ġcooper ating
Ġcoz iest
Ġcr ushing
Ġcrink led
Ġd ome
Ġdo in
Ġdra ining
Ġdream er
Ġemer ge
Ġfe male
Ġfier cer
Ġfl urry
Ġfore ign
Ġg oofy
Ġgall ery
Ġgrave yard
Ġgro ve
Ġhot test
Ġind oor
Ġir re
Ġlend s
Ġlo ft
Ġmant elpiece
Ġmarve lling
Ġme ek
Ġmild er
Ġmul ti
Ġoil s
Ġout line
Ġpermit s
Ġpian os
Ġpred ator
Ġpro fusely
Ġrail ings
Ġrat tles
Ġreact ed
Ġread ers
Ġsal mon
Ġsand bags
Ġscut tle
Ġsh ift
Ġshudd ered
Ġsprink lers
Ġsquir ting
Ġsund own
Ġsupr ised
Ġsw irly
Ġthings Ã¢
Ġtre mend
Ġtut oring
Ġunbelie vable
Ġunlike ly
Ġunst able
Ġvess el
Ġviol ent
Ġwhimp ers
Ġwrit ers
" Throw
"D ead
"Po ison
- D
- Hop
- de
- ear
- kind
- sw
-b u
-f ace
-t ac
A ren
A w
An imal
C oming
C on
C ory
Climb ing
E ast
Ew ww
F etch
G avin
Gold ie
L E
L ions
La ila
Matt ie
S af
S ha
S kelly
Sp ace
Was n
ach ing
al er
ar se
aren ce
b ig
c hen
c on
col n
er gy
est yle
ian ca
id st
iped e
l it
m ied
ort ly
ort oise
ow el
pl ow
ri bbit
s urprise
ssssssssssssssssssssssssssssssss ssssssssssssssssssssssssssssssss
st ood
t ry
uc ch
udging ly
umble s
ump et
ut ch
v ailable
y our
z a
âĤ¬Åĵ Hmm
âĤ¬Åĵ Jane
âĤ¬Åĵ Tim
âĤ¬Åĵ why
âĤ¬ÅĵC ongratulations
Ġ ounces
ĠA bba
ĠA ggie
ĠAllig ators
ĠBee bee
ĠBilly Ã¢
ĠBu ilding
ĠC R
ĠC autiously
ĠCh ild
ĠD iving
ĠE la
ĠElla Ã¢
ĠF it
ĠG lenda
ĠG ordon
ĠJ eb
ĠJ ia
ĠL olo
ĠLeg os
ĠLes lie
ĠM arshmallow
ĠMandy Ã¢
ĠMicrosc ope
ĠN ella
ĠOy ster
ĠP ost
ĠPick ing
ĠPret ending
ĠQu iet
ĠR ead
ĠRa bbie
ĠRa ja
ĠS ven
ĠShe ena
ĠShe p
ĠSher ry
ĠSpl it
ĠSt orm
ĠSt rawberry
ĠT HE
ĠThe odore
ĠTo d
ĠW all
ĠW ave
ĠW rite
Ġag ility
Ġagg ressive
Ġant hill
Ġappet it
Ġarm chairs
Ġbarn s
Ġbee Ã¢
Ġblanket ed
Ġbow ling
Ġbur rit
Ġcon co
Ġconcer ts
Ġcorrid ors
Ġd re
Ġdaunt ing
Ġdisl iked
Ġeggpl ant
Ġengine ers
Ġfashion ed
Ġfell a
Ġfl op
Ġflo atie
Ġfre ckles
Ġgarl and
Ġgl itters
Ġgo Ã¢
Ġgurg le
Ġhe aved
Ġhill side
Ġho ist
Ġhome Ã¢
Ġhon ored
Ġhut ch
Ġinhabit ants
Ġjer ked
Ġjo ker
Ġlab s
Ġlist s
Ġlob ster
Ġma id
Ġmult icol
Ġmustn Ã¢
Ġn aught
Ġneat est
Ġod or
Ġpast ed
Ġper k
Ġpitch ing
Ġposition ed
Ġprevent s
Ġpri or
Ġr ibs
Ġrare st
Ġrefre sh
Ġrequ ire
Ġrequest ing
Ġs oooo
Ġscrunch ing
Ġshim mied
Ġsleep ier
Ġsmart ness
Ġsnow plow
Ġspider web
Ġsty led
Ġsuff ers
Ġsurf aced
Ġswallow ing
Ġtechn ology
Ġtemp les
Ġthunder ed
Ġtogether Ã¢
Ġtr am
Ġtrick led
Ġu pper
Ġund eterred
Ġwait ers
" Eww
" Fox
" Le
"B ella
"Go d
"H onk
"M arry
"M uch
"T ell
-- --
-c atching
5 0
D are
Don ny
F eed
F urry
Fl ash
G irls
Geor g
H appily
Hi ppo
Le ila
M op
O rig
Orig inal
Pet ey
S uccess
Sp iders
St art
W alking
W innie
We Ã¢
Wo nderful
Z ap
Z igzag
ag u
ain ting
an anas
ase ball
ath ryn
ato es
c et
danger ous
gust ing
in ters
iv ore
op y
pp ity
ra ined
ra it
u pp
ump ty
ur ora
âĤ¬Åĵ that
Ġ _
ĠC eline
ĠCar ley
ĠCat rina
ĠChr issy
ĠCliff ord
ĠComp assionate
ĠCut ting
ĠD ipper
ĠDra ke
ĠE tta
ĠF og
ĠFl ippy
ĠFold ing
ĠGeorg ina
ĠGirl s
ĠGra pes
ĠHug e
ĠJ ude
ĠJ uno
ĠL imes
ĠMe ggy
ĠMir ror
ĠP ond
ĠPal ace
ĠQu arrel
ĠRain a
ĠRobert a
ĠRock et
ĠSc ale
ĠSe agull
ĠSold ier
ĠSp encer
ĠSuper hero
ĠV alley
ĠWin ston
ĠWoof y
ĠY arn
Ġaccom pan
Ġal akazam
Ġal tern
Ġall ergy
Ġam using
Ġann ouncer
Ġar ts
Ġart ic
Ġaw ed
Ġaw fully
Ġbat tled
Ġbe llow
Ġbed post
Ġbl aze
Ġbl inded
Ġcapt uring
Ġcarri ers
Ġcluck s
Ġcolle ge
Ġcommand ed
Ġdecl ined
Ġdest iny
Ġdevel oped
Ġdismay ed
Ġduck Ã¢
Ġer ror
Ġfl it
Ġflav ored
Ġflour ish
Ġfluff ier
Ġfriend liest
Ġfun eral
Ġg aa
Ġgroan ing
Ġhedge hogs
Ġhow ls
Ġinf ormed
Ġint ended
Ġlandmark s
Ġleg end
Ġlight ers
Ġlink s
Ġlove lier
Ġm owed
Ġmean ness
Ġmelt y
Ġmini ature
Ġoper ating
Ġover looking
Ġowl Ã¢
Ġp aced
Ġpay ed
Ġpeople s
Ġpo cus
Ġpollut ion
Ġprom pt
Ġpur suit
Ġpy thon
Ġrain cloud
Ġrema inder
Ġrepl ant
Ġrequ ired
Ġrescu ers
Ġrubb ery
Ġscan ner
Ġshower ing
Ġshri ek
Ġson Ã¢
Ġsp here
Ġsquirrel Ã¢
Ġstreng then
Ġsuck ers
Ġsunray s
Ġt ic
Ġtag ging
Ġteen y
Ġthunder ous
Ġultim ately
Ġwatermel ons
"M imi
"M other
"N obody
"S ix
"S low
' Hello
- head
- it
- play
-fl av
/ s
Aly ssa
Amaz ingly
Be atrice
Bl oom
C e
Cr usty
Des perate
Do gs
F O
G obble
Jul iet
M iguel
Op al
Op era
P OP
P ow
R OAR
Ruth ie
S ail
S ydney
Sc ared
W ine
al ise
an cient
ap or
b orn
br ary
ce lyn
cel ain
co al
coot er
em i
epend ent
erg us
et urn
exp ensive
expected ly
if ier
il ight
it zy
n ake
om en
ool s
or g
pr oof
reat ive
s pl
s plash
ucch ini
val uable
y ards
ym bol
âĤ¬Åĵ An
âĤ¬Åĵ Hurry
âĤ¬Åĵ Stay
Ġ ÃĤ
ĠA vocado
ĠA x
ĠB iting
ĠB ot
ĠB ucky
ĠBarb ie
ĠBen nie
ĠBig ger
ĠC ammy
ĠC ici
ĠC ub
ĠCact us
ĠCh alk
ĠCh urch
ĠD ull
ĠE arl
ĠE gg
ĠE lph
ĠFruit s
ĠGeorge Ã¢
ĠH idden
ĠHop sy
ĠI rene
ĠLin coln
ĠLo gan
ĠMar ching
ĠMu seum
ĠN iki
ĠO aty
ĠO oh
ĠP h
ĠP ill
ĠPrun y
ĠR en
ĠReach ing
ĠRock ing
ĠS onya
ĠS uch
ĠSh ane
ĠT ar
ĠT iki
ĠT ortoise
ĠUn pack
ĠVo ice
ĠW r
ĠW rap
Ġafford able
Ġapologetic ally
Ġapplau ds
Ġarrange ment
Ġbattle field
Ġbe acon
Ġbed ding
Ġble ach
Ġboun c
Ġbuck ling
Ġcaps ized
Ġcent u
Ġcirc ular
Ġcle ars
Ġcoun sel
Ġcrink ly
Ġdoubt ful
Ġdunge on
Ġexc ites
Ġfin er
Ġflavor ful
Ġfle e
Ġg ushing
Ġgad get
Ġghost ly
Ġgradu ated
Ġgrape vine
Ġgust s
Ġha il
Ġha iled
Ġharmon ica
Ġhipp opotamus
Ġinc on
Ġind ivid
Ġintimid ated
Ġlasag na
Ġlot tery
Ġmasterp ieces
Ġmicrosc opes
Ġmust y
Ġo vals
Ġparent Ã¢
Ġpick er
Ġpor celain
Ġpost master
Ġprec ise
Ġr ook
Ġre jected
Ġreckless ly
Ġreport ed
Ġrepres ent
Ġrob ins
Ġsacri f
Ġsacri fic
Ġsafe Ã¢
Ġsh red
Ġsl ick
Ġsm other
Ġsn ips
Ġspl atter
Ġspl inters
Ġstair way
Ġstroll s
Ġsub s
Ġsul k
Ġsurprise Ã¢
Ġte xt
Ġth rive
Ġtoo Ã¢
Ġtr und
Ġtram pled
Ġtransform ing
Ġwater proof
Ġwater Ã¢
Ġweight less
Ġwrigg les
"B ooks
"E asy
"Ex cellent
"T urn
"Te acher
"W ith
- step
-b ird
-b l
-k art
/s ister
?' Ċ
A M
B OOM
B ug
CR ACK
Chew y
D izzy
Don na
G ill
Har ley
M ilk
M ill
M u
Mel inda
Min ty
Mon ster
N aomi
O M
P arrot
P urple
R ead
R ec
S chool
She ep
St rawberry
Ste aling
T ad
Th ink
Turn ing
W iggly
W ild
X IT
Y ee
Z e
ag an
arn ia
asc inated
ator y
att ie
ch irp
ell s
en ced
f o
g own
h ift
id ges
if le
igg s
il et
k im
m ith
onna ise
ons ense
p les
qu akes
ra wing
rest ore
ro ar
s un
stand ing
t wo
umm et
vere r
â Ģ
âĤ¬Åĵ Billy
âĤ¬Åĵ From
âĤ¬Åĵ Grandpa
âĤ¬Åĵ Mary
âĤ¬Åĵ May
âĤ¬ÅĵYes Ã¢
âĤ¬ÅĵYou ng
ĠAl ert
ĠAl right
ĠAlex is
ĠB ikes
ĠBall oon
ĠBe ans
ĠBlue bird
ĠBri anna
ĠBu ild
ĠC hat
ĠC ho
ĠCaterpill ars
ĠD affy
ĠD ecor
ĠD riving
ĠH orn
ĠH urricane
ĠHer bs
ĠK iko
ĠLiz ards
ĠM ee
ĠMiss ion
ĠMon ty
ĠNe il
ĠNeed les
ĠNight mare
ĠO reo
ĠO striches
ĠP andas
ĠPal oma
ĠParrot s
ĠPass ports
ĠPast el
ĠR ush
ĠScratch y
ĠSe at
ĠSm iles
ĠSn iffy
ĠSof ie
ĠSpot s
ĠT all
ĠT ama
ĠT ube
ĠTh ief
ĠThere fore
ĠThrow ing
ĠTr isha
ĠTra cey
ĠUs ually
ĠW anted
ĠWe aring
ĠZee bo
Ġant elope
Ġant id
Ġapolog ising
Ġarm ies
Ġaston ishment
Ġb akes
Ġback yards
Ġbeak ers
Ġbound ing
Ġbow string
Ġbr oth
Ġbra ced
Ġbra ved
Ġbroom s
Ġbul ky
Ġcent ipede
Ġcentu ries
Ġch imes
Ġconfu se
Ġconsc ience
Ġcraw ly
Ġd em
Ġdelight ing
Ġdoub ted
Ġdrum med
Ġentertain ment
Ġerupt ion
Ġf ract
Ġfa ctor
Ġfat test
Ġfil ing
Ġfingerprin ts
Ġfire places
Ġgre asy
Ġgreed ily
Ġgro ans
Ġgust o
Ġh umbled
Ġhing es
Ġho oray
Ġhy ena
Ġinfant s
Ġinstruct ion
Ġjam med
Ġjing ly
Ġkid n
Ġlens es
Ġlif estyle
Ġlimp s
Ġlo ver
Ġlot ions
Ġm asc
Ġmakes hift
Ġmay onnaise
Ġmess iest
Ġmet res
Ġmid st
Ġmouth piece
Ġnetwork s
Ġnight gown
Ġoper as
Ġped dling
Ġphys ical
Ġpl owing
Ġpl ummet
Ġreass urance
Ġrem edy
Ġrem orse
Ġrepeated ly
Ġsalut ed
Ġscarf s
Ġsl oppy
Ġslam ming
Ġsm oo
Ġsp uttered
Ġspl ish
Ġsquirm s
Ġstory books
Ġstump ed
Ġsuffoc ated
Ġsunr ises
Ġt ile
Ġthor ny
Ġtr out
Ġtrag ic
Ġtremend ous
Ġtuck ered
Ġunt ying
Ġwal nuts
Ġwebs ite
Ġyarn s
! ?"ĊĊ
! `
"N O
"P erfect
"S nap
' Oh
- B
- board
- worm
-c adabra
-co ld
/ Ben
A ddy
Alice Ã¢
App les
Ar t
B ree
Br idget
But tons
C assie
C uddles
Che ster
D ale
D enny
D uke
Friend ship
Grand father
H aley
H igh
H ome
Jack lyn
Joe Ã¢
L ate
M ari
Mar co
Mar vin
My stery
P addy
S ave
S ebastian
S her
Sa brina
Sh rimp
Sil ver
Thank you
Tw in
U M
W orms
W riting
Would n
ad er
ain e
am ine
ant astic
ar ming
az ed
b arra
bl ue
br ador
c ret
ertain ly
g osaurus
ha usted
heart ened
i y
in ct
jack et
lley ball
n ext
nder s
nic orn
ol i
r an
reg ular
uck s
uit ion
ur l
we igh
âĤ¬Åĵ Get
âĤ¬Åĵ Ooh
âĤ¬Åĵ Yuck
âĤ¬ÅĵHello Ã¢
âĤ¬ÅĵWho a
Ġ :
ĠAb el
ĠAbra ham
ĠAm ira
ĠB ed
ĠB oop
ĠB ul
ĠBan jo
ĠBes ide
ĠCl oe
ĠCra sh
ĠD ex
ĠD u
ĠDid n
ĠFl oofy
ĠFollow ing
ĠFore shadowing
ĠG enny
ĠGabri el
ĠGret el
ĠH anging
ĠHu bert
ĠI van
ĠIgn orance
ĠIgn oring
ĠJ acqu
ĠJ ail
ĠL en
ĠL yle
ĠLeaf y
ĠM ateo
ĠM oose
ĠMag net
ĠMax well
ĠNor man
ĠO ats
ĠP le
ĠP orty
ĠPJ s
ĠRes cue
ĠRod ney
ĠSl apping
ĠSpot Ã¢
ĠSun flowers
ĠSuz i
ĠSw ift
ĠT ilda
ĠTh om
ĠU FO
ĠV eronica
ĠV ince
ĠW aiting
ĠW ra
ĠYield ing
ĠZoom er
Ġadmiring ly
Ġantid ote
Ġbe ards
Ġboss iest
Ġbounce y
Ġbount y
Ġbund les
Ġc ope
Ġcab ins
Ġcle arest
Ġclo vers
Ġcoax ed
Ġcompan ions
Ġcon sist
Ġconclus ions
Ġcondition ing
Ġconf ir
Ġcontribut e
Ġcr amped
Ġde ce
Ġdet ached
Ġdirect ed
Ġfears ome
Ġfish Ã¢
Ġform ation
Ġfort ress
Ġfour Ã¢
Ġfre qu
Ġh ints
Ġha lt
Ġham sters
Ġhars hness
Ġhose pipe
Ġhost ess
Ġintrod uction
Ġkill ing
Ġlitter ing
Ġlull abies
Ġma le
Ġme ment
Ġmid air
Ġmold ing
Ġmor sel
Ġnest ing
Ġo vation
Ġorgan ise
Ġover do
Ġplayd ates
Ġplo dded
Ġpr ancing
Ġpretz els
Ġprincess Ã¢
Ġproduc ing
Ġprotest s
Ġr ifle
Ġr im
Ġrack s
Ġre ser
Ġrea ctions
Ġrearr anged
Ġrel ative
Ġrepres ents
Ġresourceful ness
Ġsc issor
Ġscaven ger
Ġse rene
Ġsea food
Ġsel ves
Ġsho ppers
Ġshove ling
Ġsniff le
Ġsp ilt
Ġspic iness
Ġspy glass
Ġsqu ats
Ġsqu irts
Ġt att
Ġt rove
Ġtax es
Ġteddy bear
Ġth us
Ġtow ed
Ġtractor s
Ġtw ilight
Ġune art
Ġunfold ing
Ġven om
Ġvend ing
Ġwelc omes
Ġwh oop
Ġwh ooped
Ġwid est
Ġwreck ing
Ġz ucchini
"Ahh h
"C ongratulations
"M ix
"R a
) .
-do or
-str uck
-th ump
. Suddenly
B Q
B rand
Bess y
C alm
C aterpill
Che ss
Cl ick
D inosaur
Dream s
F anny
Fr ances
Fro gs
H ay
I K
K itten
N aughty
O il
Ping u
Po ison
Pol ice
R ad
S afe
Shh h
Sp ray
T ag
W et
ab ith
abith a
ah l
ahl ia
air a
ard ed
bur ger
ce rer
e ak
e lephant
e v
er ve
g reen
go ing
h urt
ic ation
ick i
il ts
in ch
k ers
k ick
l ittle
le on
lp rit
m ets
off rey
ok o
or sey
or ters
p our
r ophone
roll ing
rrrrrrrrrrrrrrrrrrrrrrrrrrrrrrrr rrrrrrrrrrrrrrrrrrrrrrrrrrrrrrrr
ter ed
urt ed
von ne
w end
âĤ¬ Yes
âĤ¬Å ł
âĤ¬Åĵ Emily
âĤ¬Åĵ Jill
âĤ¬Åĵ Mmmm
âĤ¬Åĵ Surprise
âĤ¬ÅĵNo Ã¢
ĠA dele
ĠAd ri
ĠAh med
ĠAm ari
ĠAnt on
ĠB BQ
ĠChew ing
ĠCl ock
ĠColor ful
ĠD ish
ĠDeb orah
ĠEd gar
ĠEl vis
ĠF reed
ĠG re
ĠGen e
ĠH ammy
ĠJack i
ĠK aley
ĠKing Ã¢
ĠKn ife
ĠL amp
ĠLind say
ĠM ai
ĠM arsh
ĠM ead
ĠM eet
ĠM il
ĠN arnia
ĠNo la
ĠO b
ĠP ooky
ĠP res
ĠPen guins
ĠPudd le
ĠQuarrel ing
ĠRa e
ĠRac coon
ĠRalph ie
ĠS hoes
ĠSa us
ĠSh ape
ĠSn oopy
ĠSp y
ĠSu pply
ĠT H
ĠUp stairs
ĠW alk
ĠW hip
ĠW ings
ĠWho Ã¢
ĠY ears
Ġa ids
Ġac hes
Ġblast ing
Ġblend ing
Ġbra ided
Ġburrit o
Ġchocol aty
Ġchunk y
Ġclam s
Ġcon ch
Ġconcl uded
Ġcr unches
Ġcu lprit
Ġd ood
Ġde le
Ġdesp eration
Ġefficient ly
Ġemb arked
Ġend anger
Ġexp osed
Ġfer ret
Ġfestiv ities
Ġfig ur
Ġflick s
Ġfres her
Ġfrol icking
Ġg utter
Ġgain s
Ġgl ancing
Ġgo bbling
Ġgra vel
Ġground hog
Ġhe e
Ġheart y
Ġhoney bee
Ġhoney bees
Ġill ustr
Ġincon ven
Ġir rit
Ġjud g
Ġjugg lers
Ġkne aded
Ġlumber man
Ġmet ers
Ġneglect ed
Ġnot ed
Ġoptim istic
Ġor b
Ġout ings
Ġp ou
Ġpark Ã¢
Ġpeak s
Ġpeel er
Ġphra ses
Ġpluck ing
Ġport rait
Ġpr on
Ġpun ct
Ġriver side
Ġrough ness
Ġshatter s
Ġsheep dog
Ġskill ful
Ġskill fully
Ġsl oth
Ġso cial
Ġsor cerer
Ġsou ls
Ġspr inting
Ġsqu a
Ġst ab
Ġsta pler
Ġstar ving
Ġstink s
Ġstri pped
Ġsubs ided
Ġsw elling
Ġsw oosh
Ġt ester
Ġter ms
Ġth y
Ġthankful ness
Ġthick est
Ġthump ed
Ġto cked
Ġug lier
Ġun cl
Ġvaluable s
Ġwa res
Ġwood ed
Ġwork out
" Kim
" Zero
"A AA
"Friend s
"P izza
"R ock
"Sh aring
"Snow man
"Tw inkle
-f aced
-g reat
Ari el
Att ention
B ambi
B ry
C aleb
De af
Di ane
F eather
F ill
F ood
F uel
Fr anny
Fr uit
G iraffe
Go lf
Jem ima
Lila h
M oses
P ony
P ractice
Pen guin
Qu iet
R eading
R ot
Re g
Sally Ã¢
Sm ith
T ippy
T urtle
W OW
W ise
We ee
a ver
ac ifier
ac ious
ack s
ag ue
an che
are crow
b eds
b es
b ite
b ush
c ite
cra ft
cu ry
e a
ect ar
end s
er als
ere lla
es ha
i as
ia h
ind ing
l ace
le vision
m ber
n ered
n eth
ol ves
op er
raw berries
re lease
s ign
se en
to day
u pply
v ide
z el
âĤ¬ .Ċ
âĤ¬Åĵ Hop
âĤ¬Åĵ Jim
âĤ¬Åĵ Whee
âĤ¬Åĵ Which
âĤ¬âĦ¢ !
Ġ 0
Ġ" .
ĠAl ana
ĠB iddy
ĠBern ard
ĠBr illiant
ĠBra vo
ĠBu y
ĠDoes n
ĠE ar
ĠE w
ĠEs kim
ĠF ascinated
ĠF ishing
ĠF izz
ĠG ilda
ĠGar field
ĠHug h
ĠI da
ĠJan ine
ĠLaw yer
ĠLe an
ĠM iko
ĠM ut
ĠMart i
ĠMe chanic
ĠN ic
ĠNeed le
ĠOw ls
ĠP ack
ĠP ort
ĠPaul ie
ĠPuzz les
ĠR y
ĠSaf ari
ĠSc arlet
ĠSh rink
ĠShell s
ĠSn ip
ĠSon ny
ĠSp ecial
ĠSp rite
ĠSqu ishy
ĠT ricia
ĠTo ffee
ĠTr unky
ĠTw itter
ĠZ ap
Ġab racadabra
Ġaim lessly
Ġairport s
Ġat h
Ġbar be
Ġbook cases
Ġbr ayed
Ġbull frog
Ġbumble bees
Ġbun ches
Ġc ores
Ġc ower
Ġcle verer
Ġclown fish
Ġcomplain t
Ġcondition er
Ġcru ise
Ġd w
Ġdang led
Ġdisob edience
Ġdre ary
Ġed ible
Ġenjoy ment
Ġfactor ies
Ġfi ber
Ġflat ten
Ġflick ing
Ġgl um
Ġgra vy
Ġgrape fruit
Ġgross ed
Ġhe ating
Ġimp ul
Ġinnoc ence
Ġinterrupt ing
Ġjigg ling
Ġju icer
Ġki bble
Ġlumber ing
Ġmeerk at
Ġmilksh akes
Ġmin us
Ġmist aken
Ġmisunder stood
Ġmodest y
Ġp acifier
Ġpill ars
Ġpin ata
Ġquiet est
Ġrecogn ition
Ġs esame
Ġsacrif ice
Ġsh ards
Ġsmart ly
Ġsoft ens
Ġsomething Ã¢
Ġspec ific
Ġspecial ness
Ġspoil er
Ġstre aked
Ġsus pect
Ġthy me
Ġtid iest
Ġtooth y
Ġtre m
Ġtri ke
Ġtrick ling
Ġtrund led
Ġtun ed
Ġunc ont
Ġuneart hed
Ġup Ã¢
Ġvict or
Ġwaterfall s
Ġwrink ling
" Mrs
" Sammy
"D ing
"H igher
"M ail
"T a
' ?
- Boo
- cle
- light
- red
- work
-old s
A dd
Bar b
Brand y
Che ckmate
Clean ing
Curious ly
D ead
De bby
Del iver
F old
Fl op
G abe
H onest
L acy
Ly nn
M ateo
M ikayla
M uffy
M usic
Mir aculously
N eed
Pick les
R es
R ub
S end
Sal ad
Sal t
Sam Ã¢
Sw inging
T aste
T rain
U T
U ndeterred
We ar
ame leon
at able
ately n
b ench
b ility
ect ious
ers ist
et itive
fo llow
gu ards
ier ra
ig old
ing e
ist ant
llect ing
or re
ort ed
p retty
prin ts
r at
r ops
ri fied
sh ut
str id
ty le
u let
uff les
uis ance
vern ment
w atch
z il
Â± ata
âĤ¬Åĵ Hooray
âĤ¬Åĵ Open
âĤ¬Åĵ Some
âĤ¬Åĵ can
âĤ¬ÅĵS weet
Ġ1 4
ĠA J
ĠA ya
ĠAna belle
ĠB iggs
ĠBe autiful
ĠCle mentine
ĠD ill
ĠEx pl
ĠF ig
ĠFire fighters
ĠGe ese
ĠH oo
ĠH uggy
ĠHam mer
ĠIt chy
ĠJ ammy
ĠJay ce
ĠJim mie
ĠJo di
ĠK ia
ĠK neel
ĠL ost
ĠLe fty
ĠLight s
ĠLove ly
ĠM itzi
ĠM uffins
ĠM ug
ĠMild red
ĠP au
ĠP istol
ĠR iri
ĠR rrrr
ĠS age
ĠS ymbol
ĠSh owing
ĠSim one
ĠSp ending
ĠStri ke
ĠTo e
ĠW ish
ĠW oman
ĠWhe el
ĠWho se
Ġab und
Ġaccompan ied
Ġassemb led
Ġattack s
Ġback fl
Ġbl aming
Ġbo a
Ġbul ge
Ġbur gl
Ġcack ling
Ġcamp us
Ġcare ss
Ġcareful ness
Ġchar coal
Ġchem ical
Ġcirc um
Ġcrad ling
Ġcru ising
Ġda bbed
Ġdecor ator
Ġdesign ers
Ġdestination s
Ġdis heartened
Ġdisagre es
Ġdist ressed
Ġdown ward
Ġemer ging
Ġempt iness
Ġesc al
Ġexist s
Ġexpect antly
Ġexplo ding
Ġfil ter
Ġflow s
Ġflower beds
Ġgaze bo
Ġgl ade
Ġgr im
Ġgrassho ppers
Ġgrind s
Ġhands h
Ġhast ily
Ġhe aps
Ġho e
Ġho ly
Ġhum id
Ġinf ectious
Ġint uition
Ġinterrupt ions
Ġjump ers
Ġl ag
Ġl inger
Ġlawn s
Ġlife guards
Ġlisten ers
Ġlocks mith
Ġlot us
Ġmement o
Ġmesmer izing
Ġmil ked
Ġmotor cy
Ġmu cky
Ġmummy Ã¢
Ġn uisance
Ġnighting ale
Ġoccasion al
Ġorphan age
Ġover board
Ġover grown
Ġpi Ãĥ
Ġpr am
Ġpredic ted
Ġpresent ation
Ġpriv ile
Ġrel ied
Ġrever ses
Ġsailboat s
Ġscram ble
Ġsett ings
Ġsleep ily
Ġsn ot
Ġstu nt
Ġsun sh
Ġswat ting
Ġt amed
Ġt angle
Ġtrail ed
Ġun broken
Ġun re
Ġunderestim ated
Ġunsc athed
Ġvig il
Ġvo lleyball
Ġweakness es
Ġweek ly
Ġweep s
Ġwho a
Ġwings pan
Ġwork bench
Ġz ippy
Ġzoo s
" Enjoy
"B all
"B ra
"Hmm m
"I m
"R ot
"S c
"Sh are
"W isdom
- Tweet
- ring
-d aughter
-l oop
-l oved
-t ie
-to ot
Amaz ing
Ar nold
B iggy
B ud
C H
C am
Cl over
E ncouraged
F ake
Fel icity
G E
H ilda
Isab elle
Jo gging
K n
M arge
M or
Mar go
P ause
P ir
R ina
R ise
R oo
Rest ore
Ron ny
So f
T est
Under neath
Wh ilst
a es
agu ar
as ked
at isfied
b ad
be knownst
bo ing
edic ine
ff led
gy pt
ific ant
is per
man ship
ot i
p ins
p ow
pe w
polog ize
re house
rom at
rr rrr
st ones
to ot
ud gy
ug e
wn er
âĤ¬Åĵ Greetings
âĤ¬Åĵ Once
âĤ¬Åĵ Our
âĤ¬Åĵ Someone
âĤ¬ÅĵC areful
âĤ¬ÅĵDo es
Ġ *
ĠA gatha
ĠAm ong
ĠAmaz ed
ĠAr nie
ĠBand it
ĠBu bby
ĠC ari
ĠC arry
ĠC or
ĠChick ens
ĠChuck les
ĠCut ie
ĠD ead
ĠE gypt
ĠF ae
ĠFa ctory
ĠFel icia
ĠG ames
ĠH arm
ĠH orsey
ĠHo pping
ĠIg loo
ĠJ er
ĠJ ud
ĠJon ah
ĠJon i
ĠK ir
ĠL ow
ĠLe ft
ĠMat hew
ĠMe ggie
ĠMeg han
ĠMel on
ĠMic rophone
ĠN est
ĠOrange y
ĠPam ela
ĠPeep ee
ĠPet ra
ĠPig s
ĠPl ane
ĠSand w
ĠShrimp y
ĠSp arrow
ĠSpl ashing
ĠT ornado
ĠToby Ã¢
ĠTr ucky
ĠWas n
ĠZ ed
ĠZebra s
Ġadjust ing
Ġappro ving
Ġartist ic
Ġba ffled
Ġback f
Ġbarbe que
Ġblue birds
Ġbree zes
Ġch ameleon
Ġclient s
Ġconco ction
Ġcond itions
Ġcontra st
Ġcontro lling
Ġcy cling
Ġdisappoin ting
Ġdistract ion
Ġdull ness
Ġev apor
Ġexc uses
Ġexpress ions
Ġfaire st
Ġfear fully
Ġflo pping
Ġfort unately
Ġfurious ly
Ġgo vernment
Ġgr itted
Ġgri ef
Ġgrunt ing
Ġhand stand
Ġhelp Ã¢
Ġimagin able
Ġind ex
Ġinqu ired
Ġj aguar
Ġjersey s
Ġjoll iest
Ġlaund romat
Ġli ars
Ġli vel
Ġlily pad
Ġmad am
Ġmean est
Ġment al
Ġmilk man
Ġmo ats
Ġmo cking
Ġmulticol ored
Ġn our
Ġnarr ative
Ġneg oti
Ġnick n
Ġnin ja
Ġnos iness
Ġnurt ure
Ġpack ets
Ġpassage ways
Ġpollut ed
Ġpuck s
Ġquick ened
Ġrec iting
Ġresist s
Ġrock in
Ġrout es
Ġsa pp
Ġsal iva
Ġscrap book
Ġsharp est
Ġshop keepers
Ġsidewalk s
Ġsly ly
Ġsour ces
Ġspark liest
Ġspin ners
Ġste ed
Ġsubtract ing
Ġsurvey ed
Ġsw atter
Ġswitch ing
Ġsymp athy
Ġtack led
Ġteacher Ã¢
Ġtemp or
Ġtight ness
Ġtin ier
Ġto n
Ġtopp le
Ġtr op
Ġtranqu ility
Ġtrumpet ing
Ġun le
Ġunb uckle
Ġuncont ro
Ġunh appiness
Ġunwra ps
Ġus her
Ġwa iling
Ġwa rehouse
Ġwall paper
Ġwarm s
Ġweak est
Ġwheel ing
Ġwild flower
Ġwinter time
Ġwrest led
" Everything
" Juice
" Thunder
"B r
"B roccoli
"D one
"H istory
"M ilo
"R epeat
"S ounds
"Sweet ie
' No
- ne
- rest
-go ers
Act ually
Ad venture
Am elie
B es
C lass
D ella
D one
Ex ploring
H unter
Her o
Hi ppy
Jo ke
L ab
L ori
L ula
M eena
M ud
Max i
P ot
S ec
Sp rinkles
T ank
Th inking
Tr ina
W ar
af raid
all ic
ang ling
app laud
arm en
av ailable
b one
be ing
e ady
ed al
en o
et ition
friend s
h oo
he at
if ty
ist urb
l an
l as
l our
lla bly
maz ing
ol iday
op ards
p any
p ty
re pare
ri pe
s ome
st udy
t reasure
uc ceed
uc ting
ugg le
um by
unt il
urn ed
us ual
ven e
w oman
ylv ie
âĤ¬Åĵ Try
ĠAc cept
ĠAm ir
ĠApp reci
ĠB E
ĠBab s
ĠBlack beard
ĠBr u
ĠBra zil
ĠC hee
ĠCal vin
ĠCle ar
ĠComet s
ĠD avis
ĠD umbo
ĠDel ivery
ĠE arly
ĠF ace
ĠF ergus
ĠF udge
ĠF urther
ĠFear ful
ĠGl ad
ĠGl ove
ĠHome work
ĠHop ing
ĠJoseph ine
ĠKen zie
ĠL ani
ĠL iv
ĠLon ely
ĠM etal
ĠM opsy
ĠMarl in
ĠMe asuring
ĠMel vin
ĠNo d
ĠOt ty
ĠP rom
ĠPe bble
ĠR iko
ĠRaz ors
ĠRo ly
ĠS aying
ĠSam mie
ĠSaturday s
ĠSel ma
ĠSh ay
ĠSt uff
ĠT abitha
ĠVolcano es
ĠW arm
ĠWe althy
ĠWh oosh
Ġabs ence
Ġac qu
Ġaccom pany
Ġair y
Ġam ends
Ġam idst
Ġam ulet
Ġanch ored
Ġanimals Ã¢
Ġapp re
Ġaw ards
Ġb ony
Ġbe ware
Ġblob s
Ġboil s
Ġborrow s
Ġbr amble
Ġbr ook
Ġbra ss
Ġbull ied
Ġburgl ar
Ġc ider
Ġcan ce
Ġchamp ions
Ġchees es
Ġchubb ier
Ġchurn ed
Ġco des
Ġcoax ing
Ġcomf iest
Ġconfir med
Ġconnect ions
Ġcornfield s
Ġcoup on
Ġd ashing
Ġde lete
Ġdet our
Ġdis k
Ġdisc arded
Ġdist ances
Ġdisturb ances
Ġe ma
Ġel astic
Ġelephant Ã¢
Ġembra cing
Ġenv ied
Ġext ract
Ġfidget ed
Ġfisher s
Ġflo ss
Ġfr idges
Ġfres hen
Ġfu ssy
Ġg ush
Ġgr ater
Ġgran ola
Ġgrandpa Ã¢
Ġguardian s
Ġgurg led
Ġh ip
Ġha ired
Ġhoneycom bs
Ġident ical
Ġindivid ual
Ġinter vene
Ġkingdom s
Ġlab or
Ġleng ths
Ġme wing
Ġmeat s
Ġmet allic
Ġmet als
Ġmu zzle
Ġobser ver
Ġoil ed
Ġout grown
Ġout look
Ġout w
Ġover s
Ġpar lour
Ġpaw ing
Ġpe g
Ġperson Ã¢
Ġpet rified
Ġpurch ases
Ġr umbly
Ġrep ut
Ġrept ile
Ġres il
Ġroot ed
Ġrose bush
Ġrot ate
Ġround est
Ġrun gs
Ġs cept
Ġsam ples
Ġsauce pan
Ġsc atted
Ġsc uffed
Ġsh ushed
Ġshallow s
Ġshampoo s
Ġshort est
Ġsk etch
Ġsnoo zed
Ġsol ves
Ġsp acious
Ġspecial ist
Ġspot light
Ġsquigg led
Ġsting ers
Ġsty ling
Ġsunn ier
Ġtalk ative
Ġtear ful
Ġtink ered
Ġtr owel
Ġtreet op
Ġtrick ster
Ġtrop ical
Ġtub s
Ġtweez ers
Ġu dd
Ġuncontro llably
Ġunf urled
Ġunst eady
Ġunw anted
Ġv ow
Ġweed ed
Ġwhirl wind
Ġwild cat
Ġwo ven
Ġwor ship
Ġwrest le
Ġy ummies
" Chirp
" Keep
"A ye
"G as
"K ing
"P retty
' .Ċ
, 4
, she
,' '
- fish
-che cked
-fly ing
-l im
-lim its
-man nered
-rest ed
. When
A D
Ari a
B ike
B roccoli
C ec
C ooking
Chick en
Co coa
Con nor
D erek
D is
Do lp
E D
E lli
E mergency
E van
F air
F ireworks
Fly ing
G e
G ret
G u
Georg ia
H enny
Is abel
La zy
M atches
Mary Ã¢
P aint
P ia
P ower
P ull
Pee k
R elieved
R ice
S ign
S im
Sc issors
Sh ake
Sh arp
Sk ye
Su pply
The a
Tre es
W hew
Z ane
` s
a fter
al o
an ch
ang a
are th
as il
ce mber
ck o
ear ch
ee ase
ell ers
elt ed
ens ing
ent i
ess ert
ily n
ing les
ish op
ite y
lect ric
mom my
ol anda
ol t
omp lete
ott le
pare nts
pe ace
pl aced
re ate
sh ield
t or
uct ive
v ations
w ild
we ight
z ero
Â© ,
âĤ¬Åĵ First
âĤ¬Åĵ For
âĤ¬Åĵ Run
âĤ¬Åĵ please
ĠA ust
ĠA yesha
ĠAb racadabra
ĠB ippy
ĠB itter
ĠBe au
ĠBen son
ĠBit sy
ĠBre ak
ĠBub u
ĠC oming
ĠC row
ĠCec ilia
ĠCell s
ĠCh ant
ĠChe er
ĠCl ass
ĠCount ry
ĠD elia
ĠD ippy
ĠEd na
ĠF oo
ĠFl ames
ĠFluff les
ĠFor giveness
ĠGr umbles
ĠHel mets
ĠHere Ã¢
ĠImp ressive
ĠJe anie
ĠJo celyn
ĠJo h
ĠJu icy
ĠK atherine
ĠL ake
ĠL ead
ĠLy n
ĠM aker
ĠM ask
ĠMac Donald
ĠMillie Ã¢
ĠMo jo
ĠN ails
ĠNightmare s
ĠOp eration
ĠP urp
ĠP urry
ĠPam my
ĠPret end
ĠQuack ie
ĠR us
ĠRay a
ĠRec ord
ĠRep lied
ĠSe rena
ĠSt ring
ĠT ami
ĠT ango
ĠTe levision
ĠUn ique
ĠW aste
ĠWhe els
ĠWor ld
ĠY ogi
Ġa unts
Ġaband on
Ġam en
Ġappreci ates
Ġb ac
Ġbad gers
Ġbull seye
Ġc ass
Ġcance led
Ġcandle light
Ġcareful Ã¢
Ġcasc aded
Ġcheese burger
Ġcircum st
Ġco s
Ġcol umn
Ġcompliment ing
Ġcooper ated
Ġcr ater
Ġcur ator
Ġdam aging
Ġdefe ating
Ġdevel op
Ġdis solve
Ġdishwasher s
Ġdo zen
Ġdown pour
Ġearn ing
Ġens uring
Ġf rail
Ġfan ned
Ġfil ty
Ġfl ier
Ġflu ently
Ġgen u
Ġgracious ly
Ġgri pping
Ġgroo ves
Ġgruff ly
Ġhandsh ake
Ġho bbled
Ġhuff ing
Ġj iffy
Ġm amm
Ġmain tain
Ġmar cher
Ġmaster ing
Ġmer cury
Ġmind fully
Ġmould ed
Ġnavig ated
Ġo ops
Ġorgan ising
Ġpiec ing
Ġpoet ry
Ġpollin ate
Ġpre scri
Ġr ots
Ġra bies
Ġrearr ange
Ġrecy cled
Ġreput ation
Ġres ume
Ġresist ance
Ġret reated
Ġright Ã¢
Ġrumble s
Ġs itter
Ġsell ers
Ġsh ar
Ġshe ar
Ġshore s
Ġshove led
Ġsk ater
Ġsn ick
Ġsneak ily
Ġsp rain
Ġspring ed
Ġsprout ing
Ġstation master
Ġsund aes
Ġswell ed
Ġt u
Ġtap ing
Ġtatt oo
Ġthe ft
Ġtremble s
Ġtri al
Ġtug boat
Ġun afraid
Ġvo lc
Ġwh ooping
Ġwhoo shed
Ġwind shield
Ġwitch Ã¢
" Ellie
" Jazz
" Mandy
"B oth
"Cra sh
"M ay
"N ap
"O ink
"S qu
"Sp in
"That Ã¢
- G
- i
-be ar
-c oo
-d og
-flav ored
-p owered
-zag ging
A lfred
ANG ER
And rea
Ann y
B ab
B ing
C omet
Ch ase
Che ep
Daisy Ã¢
De an
De ep
E n
E nt
F ix
H en
He e
Is aac
J ail
Jeff rey
L ala
L emons
L esson
L on
L ottie
L oyal
Lou isa
N ibbles
N ikki
Or gan
R onnie
Ro byn
Ro d
Ros es
S is
S wing
Sp inning
St udying
Stri pey
T ears
T errified
Te ach
U N
ac ty
ad dle
af a
al ent
but ter
c ine
cite ment
e very
er ia
eter m
eterm ined
f essor
f rom
fic ial
for give
g al
ha wk
iff el
ign ificant
ir der
it ney
j or
n ce
number ed
or o
p ray
port ant
ra b
ri ft
sh ot
ter ia
uis er
um an
um ing
wend olyn
y ers
zz ie
âĤ¬Åĵ Keep
âĤ¬Åĵ O
âĤ¬Åĵ Toby
âĤ¬Åĵ if
âĤ¬Åĵ look
âĤ¬ÅĵBe ing
ĠA mb
ĠAn ita
ĠAngel ica
ĠAppreci ate
ĠB ip
ĠB roken
ĠB usy
ĠBl ob
ĠBobby Ã¢
ĠBr itt
ĠBun nies
ĠC ity
ĠC obwebs
ĠC old
ĠCl osed
ĠCow boy
ĠCra bbie
ĠD iego
ĠDe cember
ĠDes perate
ĠDo e
ĠE iffel
ĠF ork
ĠF ragile
ĠFlex i
ĠFur ball
ĠG len
ĠG rrr
ĠGl ub
ĠGrandpa Ã¢
ĠGret ta
ĠH anger
ĠH orses
ĠHow ard
ĠIn a
ĠIn credible
ĠJ ayla
ĠK athryn
ĠKay lie
ĠL issy
ĠLook s
ĠM alia
ĠM iffy
ĠM ule
ĠMagic ian
ĠMe era
ĠMead ow
ĠMix er
ĠOw ly
ĠP ogo
ĠPark er
ĠPin ch
ĠPl um
ĠPlay er
ĠR honda
ĠR ic
ĠReg ina
ĠRo aring
ĠRo ary
ĠS assy
ĠS ita
ĠSav annah
ĠSm elly
ĠSp ear
ĠSt upid
ĠStubb s
ĠSu pp
ĠSun light
ĠT alk
ĠT eena
ĠTh orn
ĠTh ump
ĠTr ophy
ĠU nicorn
ĠU r
ĠYet i
Ġabrupt ly
Ġacknow led
Ġadventures ome
Ġadvert ising
Ġadvis ors
Ġarom as
Ġath lete
Ġav al
Ġba ited
Ġbac teria
Ġbl uffing
Ġbl urted
Ġble ating
Ġblister ed
Ġbo p
Ġbon us
Ġboss es
Ġcalcul ator
Ġchat ty
Ġcl anging
Ġcl apper
Ġclothes pins
Ġcommit ment
Ġcontra ption
Ġcowg irl
Ġd une
Ġdelive rer
Ġdepart ure
Ġdestr uctive
Ġdin o
Ġdis s
Ġdull er
Ġdw arf
Ġema ils
Ġemp owered
Ġexclaim ing
Ġeyes ight
Ġfigur ine
Ġfil ming
Ġfin ale
Ġfollow ers
Ġfrequ ently
Ġfu se
Ġge ode
Ġgem stones
Ġgener al
Ġglee ful
Ġgloom ier
Ġgloom iest
Ġgreen est
Ġh umb
Ġhast e
Ġhawk s
Ġhesit ates
Ġhoist ed
Ġhorn ets
Ġhorses hoe
Ġidea Ã¢
Ġinc omplete
Ġinconven ience
Ġins ignificant
Ġinv aded
Ġjellybe an
Ġjudg ment
Ġjugg ler
Ġlight ed
Ġlight en
Ġm ut
Ġmail s
Ġmeat ball
Ġmedit ate
Ġmim ic
Ġmonster Ã¢
Ġmotiv ation
Ġn onsense
Ġnon etheless
Ġob s
Ġout numbered
Ġp elted
Ġpass ages
Ġpass ers
Ġpat rolling
Ġped dle
Ġper ching
Ġpl atter
Ġpr ongs
Ġpract ical
Ġpro dding
Ġprotect ively
Ġput ted
Ġquick s
Ġr asc
Ġrais in
Ġrare r
Ġre ared
Ġre he
Ġrelia bility
Ġres urf
Ġrhythm ic
Ġrot ating
Ġsc aled
Ġsc oured
Ġscrub s
Ġse am
Ġsh ingles
Ġshar ped
Ġsharp ly
Ġside kick
Ġsim ul
Ġsk ipper
Ġsl ay
Ġsp ooked
Ġspace man
Ġspan ned
Ġspike y
Ġsqu el
Ġstock ing
Ġt ins
Ġta bby
Ġta unted
Ġteacup s
Ġtear fully
Ġtight est
Ġting led
Ġto nes
Ġtoot ed
Ġtrad ers
Ġtranqu il
Ġtrick le
Ġup beat
Ġwadd les
Ġwe irder
Ġwh iz
Ġwild ness
" Close
" Ella
" Emily
" Grace
" Jim
"A mazing
"Bra vo
"D e
"D rink
"I gn
"M oney
"O xygen
"R everse
"R oof
"S un
"St ret
"W oo
' S
, he
-c ut
-d ragon
-grand father
-p ee
-t ell
? !",
Ab solutely
B iff
Bob Ã¢
C K
Caterpill ar
Che ck
Danie lle
Del ighted
E XIT
El i
Fred a
G oo
Grand son
H orse
Her b
K ind
K irsty
L and
Le arn
Le arning
Mack enzie
Mandy Ã¢
P raying
R ep
RR RR
S hy
S us
Some body
Swim ming
T alent
T ouch
Timmy Ã¢
Tr uth
W ood
are well
art ed
art ments
b itter
c ause
d ar
e ered
ek a
em ple
f air
f ine
f lexible
fort une
go ers
ht icated
i bby
i wi
id oscope
ig el
in c
is hticated
it ial
it o
l ion
le ader
le v
m ix
mo dest
o ink
ome o
omp son
on ing
op era
or ice
ore nce
os co
oy o
r ison
reat hing
sa id
sh hh
ss el
t own
ul ge
urn iture
v ia
w ait
y sters
y y
zz led
âĤ¬Åĵ Alice
âĤ¬Åĵ Dear
âĤ¬Åĵ Ella
âĤ¬Åĵ Susie
âĤ¬Åĵwhat Ã¢
Ġ1 1
ĠA isha
ĠAct ing
ĠAlice Ã¢
ĠAnn alise
ĠB am
ĠB urn
ĠBe ck
ĠBlue berries
ĠBo ats
ĠC arp
ĠC art
ĠCand le
ĠClara belle
ĠCo ins
ĠD ahlia
ĠD estroy
ĠD irt
ĠD ress
ĠDid i
ĠE ggs
ĠE ileen
ĠEskim os
ĠF ound
ĠFair ies
ĠFire men
ĠFor giving
ĠGret chen
ĠH ang
ĠHe althy
ĠHum ans
ĠJ ellie
ĠJet ty
ĠJun iper
ĠK asey
ĠKr ista
ĠL ad
ĠM ice
ĠM illi
ĠM is
ĠMarc ia
ĠMars ha
ĠMist akes
ĠMum Ã¢
ĠMushroom s
ĠN ame
ĠN ormal
ĠPete Ã¢
ĠPige ons
ĠPin ny
ĠR ake
ĠR og
ĠRachel Ã¢
ĠRep air
ĠS O
ĠS T
ĠSc arecrow
ĠSp oon
ĠSqueak ers
ĠT ayla
ĠT erri
ĠTe rence
ĠTh ompson
ĠTo ddy
ĠTurn ing
ĠU ndeterred
ĠUn ite
ĠWh ilst
ĠY ork
ĠZe bby
Ġact ual
Ġar ro
Ġaut o
Ġauthor ity
Ġaval anche
Ġaway Ã¢
Ġb ib
Ġbarber Ã¢
Ġbat hes
Ġbeat ers
Ġben e
Ġbir th
Ġboat Ã¢
Ġboun cer
Ġboy friend
Ġbutton ed
Ġcare er
Ġcast s
Ġcitiz en
Ġcl attered
Ġcomp artments
Ġcomp rom
Ġcompetit or
Ġcower ing
Ġcra ving
Ġcreak s
Ġcrib s
Ġdele ted
Ġdemonstr ate
Ġdoub ts
Ġexamp les
Ġexpert ly
Ġfinger n
Ġfl ed
Ġg a
Ġg ills
Ġgl ances
Ġgl ob
Ġgr rr
Ġgrassland s
Ġgrateful ness
Ġgulp s
Ġha l
Ġha ul
Ġhairdress ers
Ġhost s
Ġin itial
Ġinfl atable
Ġiniti ally
Ġjoll ier
Ġkale idoscope
Ġkind ling
Ġl ugged
Ġlic orice
Ġlonel ier
Ġlur ked
Ġme w
Ġmeal time
Ġmid day
Ġmis fortune
Ġmis placed
Ġmo hawk
Ġmon itor
Ġmonkey Ã¢
Ġmoon flower
Ġmotorb ikes
Ġn imble
Ġnature Ã¢
Ġnight ly
Ġp m
Ġpa ils
Ġpat rolled
Ġpepper mint
Ġpers ons
Ġpes tering
Ġpian ist
Ġponder ing
Ġpower fully
Ġprepare s
Ġprice y
Ġprompt ly
Ġpump s
Ġpus hy
Ġquar ters
Ġre ar
Ġrep orters
Ġrest room
Ġs ums
Ġscor p
Ġseaw ater
Ġsend er
Ġsin ister
Ġsl o
Ġsl opes
Ġsle nder
Ġsleep iness
Ġsnorke ls
Ġsnow fall
Ġsp ite
Ġstir rer
Ġstrate gies
Ġswoo shed
Ġt an
Ġte e
Ġteam mate
Ġteen ager
Ġto ler
Ġtruth s
Ġtw ang
Ġu h
Ġunh ooked
Ġveterinarian s
Ġvict ories
Ġvolunt eers
Ġw ren
Ġwhin nies
Ġwho Ã¢
Ġwing ed
Ġwork man
Ġy ak
" Johnny
" Left
" Use
"A unt
"B unny
"K ick
"L ife
"M on
"N one
"Rob ot
"S alt
"W as
- line
- on
- zoom
-- -
-be ing
-c ont
-cl imb
-do ll
-grand mother
-ho pped
-p ut
." .ĊĊ
? !"Ċ
A K
Am ie
An swer
B alance
B ell
B ingo
B rett
Be an
Bert ie
Bo at
C ol
C ott
C y
Cl ive
Clar issa
Co al
D river
Dad a
Dina h
E s
Fin ish
G abri
G izmo
G low
H al
I ris
K neel
Mart a
N anny
O VE
P uff
Pam ela
R ico
S ack
Sh irley
Sp irit
Stu art
T ired
Victor ia
W iggles
Y AY
Y outh
Z ippy
ali yah
app les
as el
ber ty
cet rack
ch in
cu ssed
d ered
d ress
dle y
en as
en ix
ered ith
erp iece
ess ions
h ol
hed dar
ho enix
ho oray
i ance
i pl
in als
len e
nder son
o xygen
olog ist
on etheless
oo by
pp les
ra ble
ra re
ri zzle
ried a
rin t
s ive
sp ecial
sp ray
sp ring
ss els
te ous
u k
ug ust
unk s
âĤ¬Åĵ Boo
âĤ¬Åĵ Close
âĤ¬Åĵ Jenny
âĤ¬Åĵ Watch
âĤ¬ÅĵLook s
Ġ ille
Ġ ĠĠĊ
ĠA idan
ĠA nderson
ĠA pologize
ĠA strid
ĠAli ya
ĠAng els
ĠAsh lee
ĠB its
ĠBe ware
ĠBee zy
ĠBr uiser
ĠC AW
ĠC ourage
ĠC reative
ĠCho co
ĠCl ang
ĠDecor ating
ĠDex ter
ĠE ri
ĠE scape
ĠExp ress
ĠF an
ĠG oo
ĠGrand child
ĠGreg ory
ĠH edge
ĠHipp os
ĠJ az
ĠJack s
ĠK icking
ĠK ite
ĠL abel
ĠL anguage
ĠL ing
ĠM ak
ĠM ango
ĠM edicine
ĠMa isey
ĠMan uel
ĠMon arch
ĠN ectar
ĠNet work
ĠNew s
ĠNo se
ĠO ften
ĠP arry
ĠP oin
ĠP ushing
ĠPatch y
ĠPe ppers
ĠPeep s
ĠPol ite
ĠPow der
ĠPri ya
ĠPu ppies
ĠR olo
ĠRad io
ĠS eb
ĠS ud
ĠS ug
ĠSaus age
ĠSl ip
ĠT alking
ĠT ori
ĠTan ner
ĠThrough out
ĠTra ffic
ĠW asp
ĠWay ne
ĠWra pping
ĠZ im
Ġangel Ã¢
Ġarro gant
Ġbene ficial
Ġbr ay
Ġbr ides
Ġbr rr
Ġcan y
Ġchap ter
Ġchat ters
Ġchurn ing
Ġcl ing
Ġcolumn s
Ġcongratul ating
Ġcour teous
Ġcran berry
Ġcreep ed
Ġdepart ed
Ġdetermined ly
Ġdood ling
Ġdrool ing
Ġdrople t
Ġexp ense
Ġexpect s
Ġeyel ashes
Ġfa wn
Ġfal con
Ġfizz ed
Ġfo cussed
Ġg ey
Ġgather s
Ġgumball s
Ġhairsty list
Ġheart ies
Ġhoard ing
Ġhudd le
Ġhus k
Ġhy g
Ġic ier
Ġimp olite
Ġinside Ã¢
Ġkilogram s
Ġkne ading
Ġlumber ed
Ġm arsh
Ġmad ly
Ġman tle
Ġmark ets
Ġmoist ure
Ġmound s
Ġmu dd
Ġo inking
Ġout age
Ġout going
Ġout ran
Ġpain s
Ġpanic s
Ġpeas ant
Ġpizz eria
Ġpl a
Ġplay set
Ġpleading ly
Ġpo x
Ġpositive ly
Ġpron ounce
Ġqu iche
Ġqu ilts
Ġr ival
Ġra cetrack
Ġre use
Ġread ily
Ġrem over
Ġsat ell
Ġscept ical
Ġse ren
Ġsevent h
Ġsixt h
Ġsk ittered
Ġsmother ed
Ġsp eci
Ġsp rained
Ġspark ing
Ġst ages
Ġstock ings
Ġsuds y
Ġsusp ic
Ġsympathet ically
Ġtempor ary
Ġtens ion
Ġtime Ã¢
Ġtoad st
Ġtomorrow Ã¢
Ġtw inge
Ġunrave lled
Ġunwra pping
Ġup d
Ġv ets
Ġvict im
Ġvigil ant
Ġvolunt eered
Ġwa il
Ġwas Ã¢
Ġwash able
Ġwater col
Ġwe asel
Ġwor thy
Ġwr ung
Ġwren ches
Ġyog hurt
ĠĠĠĠ ĠĠĠĠ
! !"ĊĊ
" '
" James
"A r
"AAA AH
"Be es
"C lean
"M ittens
"R OAR
"R est
"Ra bbit
"S how
"S urrender
- S
- U
- bo
-cle ar
-p icking
-wh ite
= =
A c
Al as
Aly a
B ananas
B low
B ook
Ber tha
Bry an
Cro cod
D ry
El ise
Es me
F F
G ather
Jump ing
L il
M ee
M isty
Ma ia
Mo ley
Mouse y
Mu seum
N ap
N or
O strich
Off icer
P ainting
R ingo
R ow
R uff
Reg ular
S el
Sid ney
Sn akes
So ft
Squirrel s
T uck
Tr uck
Tw enty
V an
a ah
ac ingly
ad ill
ag ger
ag ues
as her
at iana
av a
aw w
b uzz
bow l
cl ude
cra sh
cret e
cut s
e ater
e es
ed ric
eet les
em pl
er mit
es it
etter s
f ant
f ive
f un
g as
inc ible
it Ã¢
ix ed
l ery
ly the
m ake
man i
ons ible
op eration
pl op
r ide
[...]
