{
  "version": 1,
  "type": "byte_level_bpe",
  "pattern": "'(?i:[sdmt]|ll|ve|re)|[^\\r\\n\\p{L}\\p{N}]?+\\p{L}+|[^\\r\\n\\p{L}\\p{N}]?+\\p{N}{1,3}| ?[^\\s\\p{L}\\p{N}]++[\\r\\n]*|\\s*[\\r\\n]|\\s+(?!\\S)|\\s+",
  "vocab": {
    "<|pad|>": 0,
    "<|unk|>": 1,
    "<|bos|>": 2,
    "<|eos|>": 3,
    "<|system|>": 4,
    "<|user|>": 5,
    "<|assistant|>": 6,
    "Ā": 7,
    "ā": 8,
    "Ă": 9,
    "ă": 10,
    "Ą": 11,
    "ą": 12,
    "Ć": 13,
    "ć": 14,
    "Ĉ": 15,
    "ĉ": 16,
    "Ċ": 17,
    "ċ": 18,
    "Č": 19,
    "č": 20,
    "Ď": 21,
    "ď": 22,
    "Đ": 23,
    "đ": 24,
    "Ē": 25,
    "ē": 26,
    "Ĕ": 27,
    "ĕ": 28,
    "Ė": 29,
    "ė": 30,
    "Ę": 31,
    "ę": 32,
    "Ě": 33,
    "ě": 34,
    "Ĝ": 35,
    "ĝ": 36,
    "Ğ": 37,
    "ğ": 38,
    "Ġ": 39,
    "!": 40,
    "\"": 41,
    "#": 42,
    "$": 43,
    "%": 44,
    "&": 45,
    "'": 46,
    "(": 47,
    ")": 48,
    "*": 49,
    "+": 50,
    ",": 51,
    "-": 52,
    ".": 53,
    "/": 54,
    "0": 55,
    "1": 56,
    "2": 57,
    "3": 58,
    "4": 59,
    "5": 60,
    "6": 61,
    "7": 62,
    "8": 63,
    "9": 64,
    ":": 65,
    ";": 66,
    "<": 67,
    "=": 68,
    ">": 69,
    "?": 70,
    "@": 71,
    "A": 72,
    "B": 73,
    "C": 74,
    "D": 75,
    "E": 76,
    "F": 77,
    "G": 78,
    "H": 79,
    "I": 80,
    "J": 81,
    "K": 82,
    "L": 83,
    "M": 84,
    "N": 85,
    "O": 86,
    "P": 87,
    "Q": 88,
    "R": 89,
    "S": 90,
    "T": 91,
    "U": 92,
    "V": 93,
    "W": 94,
    "X": 95,
    "Y": 96,
    "Z": 97,
    "[": 98,
    "\\": 99,
    "]": 100,
    "^": 101,
    "_": 102,
    "`": 103,
    "a": 104,
    "b": 105,
    "c": 106,
    "d": 107,
    "e": 108,
    "f": 109,
    "g": 110,
    "h": 111,
    "i": 112,
    "j": 113,
    "k": 114,
    "l": 115,
    "m": 116,
    "n": 117,
    "o": 118,
    "p": 119,
    "q": 120,
    "r": 121,
    "s": 122,
    "t": 123,
    "u": 124,
    "v": 125,
    "w": 126,
    "x": 127,
    "y": 128,
    "z": 129,
    "{": 130,
    "|": 131,
    "}": 132,
    "~": 133,
    "ġ": 134,
    "Ģ": 135,
    "ģ": 136,
    "Ĥ": 137,
    "ĥ": 138,
    "Ħ": 139,
    "ħ": 140,
    "Ĩ": 141,
    "ĩ": 142,
    "Ī": 143,
    "ī": 144,
    "Ĭ": 145,
    "ĭ": 146,
    "Į": 147,
    "į": 148,
    "İ": 149,
    "ı": 150,
    "Ĳ": 151,
    "ĳ": 152,
    "Ĵ": 153,
    "ĵ": 154,
    "Ķ": 155,
    "ķ": 156,
    "ĸ": 157,
    "Ĺ": 158,
    "ĺ": 159,
    "Ļ": 160,
    "ļ": 161,
    "Ľ": 162,
    "ľ": 163,
    "Ŀ": 164,
    "ŀ": 165,
    "Ł": 166,
    "ł": 167,
    "¡": 168,
    "¢": 169,
    "£": 170,
    "¤": 171,
    "¥": 172,
    "¦": 173,
    "§": 174,
    "¨": 175,
    "©": 176,
    "ª": 177,
    "«": 178,
    "¬": 179,
    "Ń": 180,
    "®": 181,
    "¯": 182,
    "°": 183,
    "±": 184,
    "²": 185,
    "³": 186,
    "´": 187,
    "µ": 188,
    "¶": 189,
    "·": 190,
    "¸": 191,
    "¹": 192,
    "º": 193,
    "»": 194,
    "¼": 195,
    "½": 196,
    "¾": 197,
    "¿": 198,
    "À": 199,
    "Á": 200,
    "Â": 201,
    "Ã": 202,
    "Ä": 203,
    "Å": 204,
    "Æ": 205,
    "Ç": 206,
    "È": 207,
    "É": 208,
    "Ê": 209,
    "Ë": 210,
    "Ì": 211,
    "Í": 212,
    "Î": 213,
    "Ï": 214,
    "Ð": 215,
    "Ñ": 216,
    "Ò": 217,
    "Ó": 218,
    "Ô": 219,
    "Õ": 220,
    "Ö": 221,
    "×": 222,
    "Ø": 223,
    "Ù": 224,
    "Ú": 225,
    "Û": 226,
    "Ü": 227,
    "Ý": 228,
    "Þ": 229,
    "ß": 230,
    "à": 231,
    "á": 232,
    "â": 233,
    "ã": 234,
    "ä": 235,
    "å": 236,
    "æ": 237,
    "ç": 238,
    "è": 239,
    "é": 240,
    "ê": 241,
    "ë": 242,
    "ì": 243,
    "í": 244,
    "î": 245,
    "ï": 246,
    "ð": 247,
    "ñ": 248,
    "ò": 249,
    "ó": 250,
    "ô": 251,
    "õ": 252,
    "ö": 253,
    "÷": 254,
    "ø": 255,
    "ù": 256,
    "ú": 257,
    "û": 258,
    "ü": 259,
    "ý": 260,
    "þ": 261,
    "ÿ": 262,
    "he": 263,
    "Ġt": 264,
    "Ġa": 265,
    "Ġs": 266,
    "Ġw": 267,
    "nd": 268,
    "Ġthe": 269,
    "ed": 270,
    "Ġand": 271,
    "Ġto": 272,
    "Ġb": 273,
    "in": 274,
    "Ġh": 275,
    "Ġwa": 276,
    "re": 277,
    "ou": 278,
    "Ġf": 279,
    "it": 280,
    "Ġl": 281,
    "Ġc": 282,
    "Ġd": 283,
    "er": 284,
    "Ġhe": 285,
    "Ġm": 286,
    "Ġp": 287,
    "Ġwas": 288,
    "om": 289,
    "ĠT": 290,
    "ĊĊ": 291,
    "Ġo": 292,
    "ay": 293,
    "ar": 294,
    "is": 295,
    "ing": 296,
    "il": 297,
    "Ġg": 298,
    "id": 299,
    "at": 300,
    "en": 301,
    "Ġn": 302,
    "Ġsa": 303,
    "Ġha": 304,
    "ĠThe": 305,
    "ĠS": 306,
    "an": 307,
    "im": 308,
    "or": 309,
    "on": 310,
    "Ġit": 311,
    "Ġth": 312,
    ".ĊĊ": 313,
    "ll": 314,
    "le": 315,
    "ĠH": 316,
    "Ġher": 317,
    "ot": 318,
    "et": 319,
    "ir": 320,
    "ĠShe": 321,
    "es": 322,
    "ĠHe": 323,
    "Ġin": 324,
    "ver": 325,
    "ut": 326,
    "ow": 327,
    "ĠThey": 328,
    "ck": 329,
    "Ġe": 330,
    "Ġu": 331,
    "ld": 332,
    "Ġy": 333,
    "oo": 334,
    "Ġsaid": 335,
    "ily": 336,
    "ig": 337,
    "Ġ\"": 338,
    "Ġr": 339,
    "Ġbe": 340,
    "am": 341,
    "Ġst": 342,
    "ĠI": 343,
    "ce": 344,
    "ke": 345,
    "Ġshe": 346,
    "ve": 347,
    "pp": 348,
    "ith": 349,
    "Ġwith": 350,
    "Lily": 351,
    "On": 352,
    "Ġon": 353,
    "Ġyou": 354,
    "Ġof": 355,
    "ked": 356,
    "ri": 357,
    "nt": 358,
    "Ġhis": 359,
    "Ġpl": 360,
    "Ġso": 361,
    "ad": 362,
    "very": 363,
    "Ġday": 364,
    "Ġthat": 365,
    "Ġup": 366,
    "Ġplay": 367,
    "Ġhad": 368,
    "st": 369,
    "Ġthey": 370,
    "ĠLily": 371,
    "Ġwe": 372,
    "Ġmom": 373,
    "Ġfor": 374,
    "ĠB": 375,
    "el": 376,
    "un": 377,
    "ould": 378,
    "'s": 379,
    "my": 380,
    "The": 381,
    "Ġli": 382,
    "ch": 383,
    "ent": 384,
    "Ġhapp": 385,
    "Ġwant": 386,
    "itt": 387,
    "Ġsh": 388,
    "out": 389,
    "her": 390,
    "Ġdo": 391,
    "Ġnot": 392,
    "ly": 393,
    "ome": 394,
    "se": 395,
    "Ġvery": 396,
    "ound": 397,
    "end": 398,
    "all": 399,
    "Ġwh": 400,
    "ime": 401,
    "ittle": 402,
    "Ġk": 403,
    "Ġtime": 404,
    "Ġlittle": 405,
    "al": 406,
    "Ġthere": 407,
    "ĠM": 408,
    "\"ĊĊ": 409,
    "Ġne": 410,
    "ht": 411,
    "Ġre": 412,
    "Ġhappy": 413,
    "Ġbig": 414,
    "Ġsm": 415,
    "Ġis": 416,
    "ĠIt": 417,
    "ĠĊĊ": 418,
    "Ġbut": 419,
    "ack": 420,
    "Ġan": 421,
    "Ġsaw": 422,
    "riend": 423,
    "ry": 424,
    "Ġfriend": 425,
    "Ġas": 426,
    "ra": 427,
    "One": 428,
    "ide": 429,
    "ake": 430,
    "'t": 431,
    "ug": 432,
    "Ġloo": 433,
    "ved": 434,
    "ter": 435,
    "Ġwere": 436,
    "Ġlo": 437,
    "ore": 438,
    "Once": 439,
    "ec": 440,
    "Ġtoo": 441,
    "Ġhim": 442,
    "Ġgo": 443,
    "Ġbo": 444,
    "Ġse": 445,
    "Ġare": 446,
    "irl": 447,
    "ĠTim": 448,
    "Ġj": 449,
    "ard": 450,
    "Ġwanted": 451,
    "ill": 452,
    "Ġupon": 453,
    "Ġgirl": 454,
    "Ġthem": 455,
    "Ġout": 456,
    "Ġat": 457,
    "Ġtheir": 458,
    "ur": 459,
    "ind": 460,
    "fu": 461,
    "Ġsp": 462,
    "way": 463,
    "ĠA": 464,
    "Ġdid": 465,
    "Ġsmil": 466,
    "Ġcould": 467,
    "hen": 468,
    "Ġhave": 469,
    "ain": 470,
    "art": 471,
    "hed": 472,
    "Ġex": 473,
    "!\"": 474,
    "rom": 475,
    "Ġwent": 476,
    "Ġar": 477,
    "ic": 478,
    "Ġcan": 479,
    "ĠBen": 480,
    "lp": 481,
    "ĠJ": 482,
    "ful": 483,
    "ood": 484,
    "Ġfriends": 485,
    "Ġnam": 486,
    "hing": 487,
    "ight": 488,
    "Ġall": 489,
    "Ġkn": 490,
    "Ġhelp": 491,
    "um": 492,
    "Ġsay": 493,
    "ark": 494,
    "one": 495,
    "Ġback": 496,
    ".\"ĊĊ": 497,
    "You": 498,
    "Ġcl": 499,
    "Ġfun": 500,
    "ĠTom": 501,
    "are": 502,
    "Ġno": 503,
    "Ġle": 504,
    "op": 505,
    "Ġsc": 506,
    "Ġnamed": 507,
    "Ġsmiled": 508,
    "Ġal": 509,
    "oug": 510,
    "Ġloved": 511,
    "side": 512,
    "elt": 513,
    "ĠOne": 514,
    "Ġman": 515,
    "ick": 516,
    "Ġasked": 517,
    "Ġtoy": 518,
    "Ġlike": 519,
    "Ġfe": 520,
    "Ġfelt": 521,
    "Ġlooked": 522,
    "Ġsee": 523,
    "Ġsome": 524,
    "Ġme": 525,
    "Ġaround": 526,
    "ame": 527,
    "omet": 528,
    "ĠTimmy": 529,
    "ĠW": 530,
    "Ġro": 531,
    "Ġbr": 532,
    "ure": 533,
    "Ġbir": 534,
    "get": 535,
    "ice": 536,
    "Ġwould": 537,
    "Ġboy": 538,
    "Ġstart": 539,
    "ong": 540,
    "ss": 541,
    "Ġbird": 542,
    "Ã¢": 543,
    "âĤ": 544,
    "âĤ¬": 545,
    "Ġsomet": 546,
    "Ġfa": 547,
    "dd": 548,
    "ings": 549,
    "Ġag": 550,
    "Ġwor": 551,
    "Ġwhat": 552,
    "ade": 553,
    "Ġmake": 554,
    "king": 555,
    ",\"": 556,
    "ie": 557,
    "ĠBut": 558,
    "ĠYou": 559,
    "own": 560,
    "Ġran": 561,
    "gether": 562,
    "Ġtre": 563,
    "Ġaway": 564,
    "Ġsays": 565,
    "ared": 566,
    "ag": 567,
    "Ġstarted": 568,
    "oud": 569,
    "if": 570,
    ".\"": 571,
    "Ġmade": 572,
    "Ġcar": 573,
    "Ġtogether": 574,
    "Ġsomething": 575,
    "ther": 576,
    "Ġpark": 577,
    "Ġco": 578,
    "ited": 579,
    "Ġsad": 580,
    "Ġother": 581,
    "Ġnew": 582,
    "?\"": 583,
    "Ġput": 584,
    "Ġfrom": 585,
    "Ġexc": 586,
    "ell": 587,
    "Ġpr": 588,
    "ĠL": 589,
    "Ġla": 590,
    "Ġhug": 591,
    "ble": 592,
    "ook": 593,
    "Ġagain": 594,
    "Ġmu": 595,
    "ach": 596,
    "Ġhome": 597,
    "Ġwhen": 598,
    "Ġgood": 599,
    "ep": 600,
    "hat": 601,
    "Ġwho": 602,
    "est": 603,
    "ried": 604,
    "Ġfl": 605,
    "Ġfound": 606,
    "Ġthen": 607,
    "Ġch": 608,
    "pped": 609,
    "Ġdec": 610,
    "Ġwal": 611,
    "as": 612,
    "Ġget": 613,
    "qu": 614,
    "Ġplaying": 615,
    "ought": 616,
    "pl": 617,
    "Ġsw": 618,
    "nn": 619,
    "ĠE": 620,
    "ally": 621,
    "ous": 622,
    "Ġthings": 623,
    "Ġliked": 624,
    "uck": 625,
    "Ġexcited": 626,
    "Ġgot": 627,
    "ro": 628,
    "ided": 629,
    "Ġbl": 630,
    "Ġdecided": 631,
    "ave": 632,
    "ara": 633,
    "Ġcame": 634,
    "Ġevery": 635,
    "ĠD": 636,
    "ĠMom": 637,
    "Ġyour": 638,
    "ax": 639,
    "Ġdog": 640,
    "Ġscared": 641,
    "Ġv": 642,
    "ust": 643,
    "Ġone": 644,
    "Ġdown": 645,
    "ouse": 646,
    "Ġfind": 647,
    "ny": 648,
    "Ġcare": 649,
    "Ġbec": 650,
    "ist": 651,
    "ap": 652,
    "nna": 653,
    "Ġthan": 654,
    "Ġfeel": 655,
    "ue": 656,
    "udd": 657,
    "Ġdad": 658,
    "They": 659,
    "Ġab": 660,
    "Ġmy": 661,
    "Ġlook": 662,
    "Ġwill": 663,
    "arn": 664,
    "Ġke": 665,
    "our": 666,
    "Ġgr": 667,
    "us": 668,
    "Ġgra": 669,
    "nder": 670,
    "ways": 671,
    "Ġdidn": 672,
    "ess": 673,
    "fe": 674,
    "Ġpo": 675,
    "Ġalways": 676,
    "Ġabout": 677,
    "Ġtook": 678,
    "ant": 679,
    "Ġmommy": 680,
    "bb": 681,
    "Ġlot": 682,
    "Ġtoys": 683,
    "ers": 684,
    "Ġkne": 685,
    "ise": 686,
    "Ġoutside": 687,
    "Ġball": 688,
    "Ġtree": 689,
    "ite": 690,
    "ĠF": 691,
    "Ġthought": 692,
    "ĠSam": 693,
    "Ġmore": 694,
    "Ġta": 695,
    "eci": 696,
    "ened": 697,
    "ched": 698,
    "!\"ĊĊ": 699,
    "Ġlearn": 700,
    "ret": 701,
    "Ġho": 702,
    "Ġold": 703,
    "Ġint": 704,
    "ged": 705,
    "Ġknow": 706,
    "Ġsor": 707,
    "Ġlaug": 708,
    "Ġcat": 709,
    "Ġtake": 710,
    "ecial": 711,
    "Ġspecial": 712,
    "Ġknew": 713,
    "ĠMax": 714,
    "udden": 715,
    "ive": 716,
    "ia": 717,
    "Ġpe": 718,
    "Ġany": 719,
    "Ġtr": 720,
    "fter": 721,
    "uddenly": 722,
    "Ġhow": 723,
    "?\"ĊĊ": 724,
    "Ġshow": 725,
    "ma": 726,
    "ink": 727,
    "Ġsorry": 728,
    "au": 729,
    "But": 730,
    "Ġrun": 731,
    "ish": 732,
    "Ġmuch": 733,
    "Ġtw": 734,
    "and": 735,
    "Ġhand": 736,
    "Ġsl": 737,
    "Ġhouse": 738,
    "ven": 739,
    "Ġor": 740,
    "Ġop": 741,
    "Ġsk": 742,
    "Ġmo": 743,
    "Ġclo": 744,
    "Ġinto": 745,
    "Ġsun": 746,
    "Ġtried": 747,
    "Ġinside": 748,
    "ate": 749,
    "Ġtold": 750,
    "Ġwater": 751,
    "ank": 752,
    "Tom": 753,
    "ump": 754,
    "Ġthis": 755,
    "Ġproud": 756,
    "Ġif": 757,
    "Ġcouldn": 758,
    "Ġen": 759,
    "Ġgave": 760,
    "Ġqu": 761,
    "Ġover": 762,
    "ĠSara": 763,
    "dy": 764,
    "Ġheard": 765,
    "ace": 766,
    "Ġnever": 767,
    "Ġeach": 768,
    "ty": 769,
    "by": 770,
    "Ġroom": 771,
    "Ġeat": 772,
    "ĠWe": 773,
    "ĠEvery": 774,
    "ause": 775,
    "Ġexpl": 776,
    "ĠAnna": 777,
    "other": 778,
    "Ġpick": 779,
    "Ġpret": 780,
    "Mom": 781,
    "Ġplayed": 782,
    "ion": 783,
    "etter": 784,
    "ge": 785,
    "ak": 786,
    "Ġhugged": 787,
    "Ġjust": 788,
    "Ġgre": 789,
    "here": 790,
    "Ġcom": 791,
    "Ġoff": 792,
    "Ġwat": 793,
    "Ġbox": 794,
    "oth": 795,
    "Ġnice": 796,
    "Ġbecause": 797,
    "Ġneed": 798,
    "'m": 799,
    "Ġstr": 800,
    "ile": 801,
    "Ġmany": 802,
    "Ġfo": 803,
    "Ġsmall": 804,
    "Ġbear": 805,
    "Ġjo": 806,
    "Ġbu": 807,
    "iz": 808,
    "uc": 809,
    "ving": 810,
    "gry": 811,
    "Ġlong": 812,
    "ine": 813,
    "imal": 814,
    "Ġanimal": 815,
    "ort": 816,
    "Ġsn": 817,
    "ough": 818,
    "Ġtry": 819,
    "Ġunt": 820,
    "urt": 821,
    "ild": 822,
    "sel": 823,
    "Ġuntil": 824,
    "sed": 825,
    "Ġlearned": 826,
    "ĠJack": 827,
    "Ġkind": 828,
    "Ġlove": 829,
    "Ġim": 830,
    "Ġbetter": 831,
    "Ġflow": 832,
    "ft": 833,
    "Ġcall": 834,
    "He": 835,
    "Ġdon": 836,
    "ull": 837,
    "Ġend": 838,
    "Ġbest": 839,
    "Ġad": 840,
    "ĠMia": 841,
    "em": 842,
    "ars": 843,
    "Yes": 844,
    "vent": 845,
    "ady": 846,
    "urp": 847,
    "ĠJo": 848,
    "aut": 849,
    "Ġcle": 850,
    "urn": 851,
    "ream": 852,
    "ĠAnd": 853,
    "ves": 854,
    "arden": 855,
    "ĠC": 856,
    "Ġgarden": 857,
    "Ġcareful": 858,
    "Ġfast": 859,
    "ber": 860,
    "Ġbeaut": 861,
    "âĤ¬Å": 862,
    "âĤ¬Åĵ": 863,
    "Th": 864,
    "Ġbra": 865,
    "Ġfi": 866,
    "Ġeven": 867,
    "lly": 868,
    "ies": 869,
    "Ġthanked": 870,
    "ĠSo": 871,
    "Ġche": 872,
    "Ġsky": 873,
    "pt": 874,
    "Ġlaughed": 875,
    "It": 876,
    "Ġby": 877,
    "ĠHer": 878,
    "Ġjump": 879,
    "Ġloud": 880,
    "Ġte": 881,
    "ase": 882,
    "Ġgl": 883,
    "self": 884,
    "iny": 885,
    "Ġlist": 886,
    "wn": 887,
    "Ġbeauti": 888,
    "Ġcome": 889,
    "Ġway": 890,
    "lew": 891,
    "Ġbeautiful": 892,
    "Ġhard": 893,
    "Ġwo": 894,
    "Ġlots": 895,
    "Ġanimals": 896,
    "Ġfam": 897,
    "Ġhurt": 898,
    "Ġstill": 899,
    "Ġra": 900,
    "Ġunder": 901,
    "ĠÃ¢": 902,
    "ĠThen": 903,
    "ect": 904,
    "ct": 905,
    "Ġlet": 906,
    "Ġstay": 907,
    "ning": 908,
    "Ġboth": 909,
    "Ġcu": 910,
    "hes": 911,
    "ĠHis": 912,
    "be": 913,
    "Ġsafe": 914,
    "ĠFrom": 915,
    "ool": 916,
    "Ġcol": 917,
    "Ġbad": 918,
    "ree": 919,
    "Ġimp": 920,
    "ople": 921,
    "Ġtwo": 922,
    "kay": 923,
    "Ġbook": 924,
    "Ġrem": 925,
    "Ġlived": 926,
    "ock": 927,
    "ane": 928,
    "Tim": 929,
    "Ġwalked": 930,
    "ast": 931,
    "Ġshould": 932,
    "Ġbrave": 933,
    "Ġits": 934,
    "ob": 935,
    "ucy": 936,
    "urpr": 937,
    "Ġangry": 938,
    "ished": 939,
    "ress": 940,
    "Ġfamily": 941,
    "Ġsurpr": 942,
    "igh": 943,
    "Ġred": 944,
    "Ġpeople": 945,
    "!ĊĊ": 946,
    "Ġflew": 947,
    "No": 948,
    "When": 949,
    "Ġcalled": 950,
    "Ġstor": 951,
    "ip": 952,
    "Ġfin": 953,
    "Ġsoon": 954,
    "Let": 955,
    "Ġshare": 956,
    "Ġdan": 957,
    "fore": 958,
    "led": 959,
    "Ġfore": 960,
    "Ġfly": 961,
    "Ġkept": 962,
    "hn": 963,
    "xt": 964,
    "ised": 965,
    "Ġpic": 966,
    "dded": 967,
    "Ġdoor": 968,
    "ĠP": 969,
    "Ġgoing": 970,
    "Ġpretty": 971,
    "âĤ¬â": 972,
    "ĠWhen": 973,
    "Ġclean": 974,
    "Ġkeep": 975,
    "Ġrock": 976,
    "Ġdra": 977,
    "Ġnow": 978,
    "ary": 979,
    "ummy": 980,
    "Ġshiny": 981,
    "Ben": 982,
    "Ġadvent": 983,
    "Ġnoise": 984,
    "Ġcry": 985,
    "Ġopened": 986,
    "Ġwind": 987,
    "age": 988,
    "Ġdoll": 989,
    "Ġbefore": 990,
    "Ġcon": 991,
    "Ġreal": 992,
    "Ġide": 993,
    "illy": 994,
    "ied": 995,
    "Ġexplore": 996,
    "so": 997,
    "Ġsto": 998,
    "What": 999,
    "Ġalso": 1000,
    "Ġground": 1001,
    "les": 1002,
    "Ġturn": 1003,
    "Ġey": 1004,
    "Ġfr": 1005,
    "That": 1006,
    "Ħ¢": 1007,
    "âĤ¬âĦ¢": 1008,
    "Ġidea": 1009,
    "Ġfar": 1010,
    "Ġcolor": 1011,
    "oon": 1012,
    "Ġnodded": 1013,
    "Ġwar": 1014,
    "oy": 1015,
    "th": 1016,
    "Ġpicked": 1017,
    "Ġfeeling": 1018,
    "imb": 1019,
    "Ġnext": 1020,
    "Ġun": 1021,
    "Ġhas": 1022,
    "thing": 1023,
    "ture": 1024,
    "Ġwalking": 1025,
    "Ġclimb": 1026,
    "ĠLucy": 1027,
    "Ġma": 1028,
    "uch": 1029,
    "ĠDad": 1030,
    "Ġwhile": 1031,
    "kes": 1032,
    "eet": 1033,
    "Ġthr": 1034,
    "Ġsmile": 1035,
    "Ġbed": 1036,
    "Ġadventure": 1037,
    "aybe": 1038,
    "Thank": 1039,
    "ger": 1040,
    "iced": 1041,
    "ious": 1042,
    "Ġbeing": 1043,
    "ĠG": 1044,
    "Ġdif": 1045,
    "Ġwr": 1046,
    "Ġfood": 1047,
    "Ġclos": 1048,
    "Ġgive": 1049,
    "Ġpicture": 1050,
    "joy": 1051,
    "ted": 1052,
    "Ġthink": 1053,
    "ĠSp": 1054,
    "Ġtruck": 1055,
    "Ġtow": 1056,
    "ff": 1057,
    "Ġlisten": 1058,
    "Ġlooking": 1059,
    "ac": 1060,
    "Ġeyes": 1061,
    "Ġwait": 1062,
    "Ġdel": 1063,
    "ught": 1064,
    "Ġbro": 1065,
    "ting": 1066,
    "Ġstopped": 1067,
    "Ġrepl": 1068,
    "Ġafter": 1069,
    "Ġbre": 1070,
    "Ġown": 1071,
    "Ġwalk": 1072,
    "Ġvo": 1073,
    "ember": 1074,
    "ĠSuddenly": 1075,
    "Ġhands": 1076,
    "Ġhead": 1077,
    "Ġgreat": 1078,
    "Ġflowers": 1079,
    "Ġshout": 1080,
    "Ġwonder": 1081,
    "Suddenly": 1082,
    "Ġblue": 1083,
    "Ġenjoy": 1084,
    "Ġimport": 1085,
    "Ġever": 1086,
    "ized": 1087,
    "She": 1088,
    "Ġnoticed": 1089,
    "Ġforest": 1090,
    "Ġnear": 1091,
    "bbit": 1092,
    "irst": 1093,
    "Ġdis": 1094,
    "Ġquick": 1095,
    "Ġapp": 1096,
    "Ġfish": 1097,
    "able": 1098,
    "Ġimportant": 1099,
    "Ġde": 1100,
    "Ġremember": 1101,
    "llow": 1102,
    "Ġsound": 1103,
    "Ġslide": 1104,
    "maz": 1105,
    "Ġus": 1106,
    "Ġamaz": 1107,
    "Ġreplied": 1108,
    "Ġrain": 1109,
    "Ġokay": 1110,
    "Ġshowed": 1111,
    "Ġwatch": 1112,
    "Ġac": 1113,
    "lease": 1114,
    "Ġwork": 1115,
    "Ġmean": 1116,
    "Ġask": 1117,
    "Ġtal": 1118,
    "gan": 1119,
    "bbed": 1120,
    "fere": 1121,
    "bye": 1122,
    "Ġrabbit": 1123,
    "Ġdiffere": 1124,
    "day": 1125,
    "Ġright": 1126,
    "Ġbright": 1127,
    "Ġstick": 1128,
    "We": 1129,
    "Ġfollow": 1130,
    "Ġsqu": 1131,
    "Ġwatched": 1132,
    "Ġstrong": 1133,
    "ĠSpot": 1134,
    "Ġeveryone": 1135,
    "Ġye": 1136,
    "Ġuse": 1137,
    "Ġtra": 1138,
    "Anna": 1139,
    "Ġbeen": 1140,
    "Ġmor": 1141,
    "Ġour": 1142,
    "Ġwhere": 1143,
    "Ġvoice": 1144,
    "Ġyell": 1145,
    "So": 1146,
    "ered": 1147,
    "ĠN": 1148,
    "ath": 1149,
    "Ġquickly": 1150,
    "Ġboat": 1151,
    "ĠMommy": 1152,
    "Ġdifferent": 1153,
    "ĠBob": 1154,
    "Ġcuri": 1155,
    "Ġchild": 1156,
    "ĠSue": 1157,
    "Ġface": 1158,
    "ng": 1159,
    "Ġsure": 1160,
    "Ġbecame": 1161,
    "Ġhop": 1162,
    "Look": 1163,
    "Ġgoodbye": 1164,
    "Ġam": 1165,
    "Ġplace": 1166,
    "Ġdoes": 1167,
    "ange": 1168,
    "Ġstore": 1169,
    "Ġhigh": 1170,
    "Ġcloser": 1171,
    "Sara": 1172,
    "aught": 1173,
    "ĠR": 1174,
    "Ġcr": 1175,
    "Ġdress": 1176,
    "Ġwarm": 1177,
    "Ġmag": 1178,
    "ila": 1179,
    "Ġcurious": 1180,
    "unny": 1181,
    "Ġtell": 1182,
    "Ġforg": 1183,
    "Ġcook": 1184,
    "Ġbel": 1185,
    "Ġfav": 1186,
    "ass": 1187,
    "ndma": 1188,
    "Ġcake": 1189,
    "co": 1190,
    "Jo": 1191,
    "ount": 1192,
    "leep": 1193,
    "Ġthree": 1194,
    "Ġopen": 1195,
    "Ġnight": 1196,
    "more": 1197,
    "Ġanymore": 1198,
    "Ġblock": 1199,
    "Ġhere": 1200,
    "Ġpull": 1201,
    "itc": 1202,
    "Ġbus": 1203,
    "iss": 1204,
    "Her": 1205,
    "Ġfirst": 1206,
    "ached": 1207,
    "ired": 1208,
    "imes": 1209,
    "Ġbutter": 1210,
    "Ġz": 1211,
    "Ġpain": 1212,
    "ĠTh": 1213,
    "\"I": 1214,
    "orn": 1215,
    "Ġkid": 1216,
    "Ġgrabbed": 1217,
    "Ġsweet": 1218,
    "Can": 1219,
    "Ġpu": 1220,
    "isy": 1221,
    "Ġfell": 1222,
    "Ġmon": 1223,
    "Ġlea": 1224,
    "Ġonly": 1225,
    "Ġru": 1226,
    "Ġbirds": 1227,
    "Ġba": 1228,
    "Ġsand": 1229,
    "Ġcont": 1230,
    "itchen": 1231,
    "Ġkitchen": 1232,
    "Ġjumped": 1233,
    "Ġglad": 1234,
    "Ġbit": 1235,
    "Ġsees": 1236,
    "Ġfire": 1237,
    "Ġhelped": 1238,
    "Ġstop": 1239,
    "Ġflo": 1240,
    "Ġper": 1241,
    "Ġsing": 1242,
    "ĠSarah": 1243,
    "Ġhappened": 1244,
    "Ġgrass": 1245,
    "Ġtri": 1246,
    "Ġshouted": 1247,
    "Ġdr": 1248,
    "ĠLet": 1249,
    "Ġbunny": 1250,
    "After": 1251,
    "Ġstory": 1252,
    "nts": 1253,
    "\"O": 1254,
    "air": 1255,
    "Ġbeh": 1256,
    "ĠDo": 1257,
    "Ġrealized": 1258,
    "Ġreached": 1259,
    "Ġbrother": 1260,
    "ppy": 1261,
    "Ġyummy": 1262,
    "ĠJane": 1263,
    "Ġlady": 1264,
    "Ġhaving": 1265,
    "Ġprin": 1266,
    "ins": 1267,
    "Ġfavor": 1268,
    "ĠAs": 1269,
    "Ġdraw": 1270,
    "akes": 1271,
    "Ġmess": 1272,
    "Ġmum": 1273,
    "Ġcre": 1274,
    "Ġate": 1275,
    "Ġhat": 1276,
    "'re": 1277,
    "Ġfavorite": 1278,
    "Ġless": 1279,
    "Ġunderst": 1280,
    "Ġsoft": 1281,
    "Ġgame": 1282,
    "ĠEveryone": 1283,
    "Ġrest": 1284,
    "zy": 1285,
    "Ġthrough": 1286,
    "Ġpare": 1287,
    "Ġthing": 1288,
    "Mommy": 1289,
    "where": 1290,
    "Ġready": 1291,
    "ĠCan": 1292,
    "Ġpretend": 1293,
    "ĠThat": 1294,
    "Ġreally": 1295,
    "Ġpap": 1296,
    "ather": 1297,
    "Ġbegan": 1298,
    "Ġlooks": 1299,
    "Ġmagic": 1300,
    "ken": 1301,
    "Ġworld": 1302,
    "Ġcut": 1303,
    "Ġhimself": 1304,
    "ater": 1305,
    "Ġmaking": 1306,
    "fully": 1307,
    "Ġdone": 1308,
    "Ġduck": 1309,
    "Ġbutterf": 1310,
    "Ġkids": 1311,
    "ĠJoe": 1312,
    "Ġcoming": 1313,
    "Ġwaved": 1314,
    "Ġpond": 1315,
    "Ġwhy": 1316,
    "ster": 1317,
    "Ġtired": 1318,
    "Ġprom": 1319,
    "Ġfix": 1320,
    "Ġcars": 1321,
    "Ġfro": 1322,
    "Wow": 1323,
    "Ġworry": 1324,
    "Ġste": 1325,
    "Ġname": 1326,
    "Ġpart": 1327,
    "eddy": 1328,
    "Ġdelic": 1329,
    "Ġtouch": 1330,
    "Ġcatch": 1331,
    "Ġmouse": 1332,
    "aisy": 1333,
    "Ġfill": 1334,
    "Ġflower": 1335,
    "olly": 1336,
    "ign": 1337,
    "Ġused": 1338,
    "Ġfunny": 1339,
    "Ġhair": 1340,
    "rel": 1341,
    "sh": 1342,
    "Ġcried": 1343,
    "bo": 1344,
    "uff": 1345,
    "Ġseen": 1346,
    "Ġtop": 1347,
    "Ġanother": 1348,
    "ient": 1349,
    "Ġhold": 1350,
    "Ġparents": 1351,
    "Ġtast": 1352,
    "oney": 1353,
    "Ġblocks": 1354,
    "Ġpus": 1355,
    "Ġcool": 1356,
    "ĠJohn": 1357,
    "iver": 1358,
    "Ġhopped": 1359,
    "Ġdoing": 1360,
    "mer": 1361,
    "hy": 1362,
    "Ġgreen": 1363,
    "Ġlight": 1364,
    "As": 1365,
    "Timmy": 1366,
    "Ġsurprise": 1367,
    "Ġlesson": 1368,
    "Ġthank": 1369,
    "ation": 1370,
    "âĤ¬ĊĊ": 1371,
    "Ġfloor": 1372,
    "Don": 1373,
    "Ġread": 1374,
    "Ġdin": 1375,
    "Ġdri": 1376,
    "Ġcra": 1377,
    "Ġwindow": 1378,
    "Ġfull": 1379,
    "ards": 1380,
    "Ġgi": 1381,
    "Ġpaper": 1382,
    "Ġlikes": 1383,
    "Ġwood": 1384,
    "Ġrunning": 1385,
    "Ġdro": 1386,
    "Ġwished": 1387,
    "Ġbehind": 1388,
    "Ġsmell": 1389,
    "Ġyellow": 1390,
    "Ġtrees": 1391,
    "Ġworked": 1392,
    "Ġdark": 1393,
    "Ġswim": 1394,
    "Ġspot": 1395,
    "Ġbag": 1396,
    "andy": 1397,
    "ul": 1398,
    "Ġbow": 1399,
    "Ġ-": 1400,
    "Ġyears": 1401,
    "Sam": 1402,
    "ued": 1403,
    "ren": 1404,
    "Ġsat": 1405,
    "Ġsho": 1406,
    "Ġsleep": 1407,
    "Ġhappily": 1408,
    "ely": 1409,
    "ike": 1410,
    "aring": 1411,
    "John": 1412,
    "Ġsurprised": 1413,
    "Ġlost": 1414,
    "Ġbutterfly": 1415,
    "Ġfrog": 1416,
    "Ġswing": 1417,
    "Ġset": 1418,
    "Ġslow": 1419,
    "Ġcarefully": 1420,
    "ello": 1421,
    "Ġremembered": 1422,
    "Ġheld": 1423,
    "Ġcold": 1424,
    "Hello": 1425,
    "ĠIn": 1426,
    "Ġlaugh": 1427,
    "Ġneeded": 1428,
    "Ġice": 1429,
    "rew": 1430,
    "Ġhole": 1431,
    "Ġbuy": 1432,
    "Ġperf": 1433,
    "ons": 1434,
    "Ġleft": 1435,
    "Ġmove": 1436,
    "Ġhear": 1437,
    "Ġwrong": 1438,
    "Ġanything": 1439,
    "uit": 1440,
    "ĠĊ": 1441,
    "cess": 1442,
    "Ġtall": 1443,
    "reed": 1444,
    "Ġenjoyed": 1445,
    "Ġfair": 1446,
    "Ġfollowed": 1447,
    "Ġdream": 1448,
    "inally": 1449,
    "Ġhun": 1450,
    "Ġbooks": 1451,
    "Ġair": 1452,
    "Ġarri": 1453,
    "Ġtable": 1454,
    "ross": 1455,
    "Ġdir": 1456,
    "Ġchildren": 1457,
    "Ġel": 1458,
    "Ġsnow": 1459,
    "Ġdelicious": 1460,
    "Ġfinished": 1461,
    "Ġfriendly": 1462,
    "Ġcontin": 1463,
    "Ġherself": 1464,
    "Ġhot": 1465,
    "Ġhill": 1466,
    "ds": 1467,
    "Ġunderstand": 1468,
    "ens": 1469,
    "Ġplease": 1470,
    "!Ã¢": 1471,
    "ĠAfter": 1472,
    "lf": 1473,
    "Ġclose": 1474,
    "Ġhid": 1475,
    "Ġarm": 1476,
    "ined": 1477,
    "Ġmight": 1478,
    "Ġcast": 1479,
    "sp": 1480,
    "Ġtight": 1481,
    "Ġgent": 1482,
    "Ġforgot": 1483,
    "Ġarrived": 1484,
    "Ġelse": 1485,
    "Ġbaby": 1486,
    "Ġwonderful": 1487,
    "Ġbuild": 1488,
    "Ġcolors": 1489,
    "ield": 1490,
    "Ġbug": 1491,
    "Ġrel": 1492,
    "ĠDaisy": 1493,
    "ĠBenny": 1494,
    "ĠLila": 1495,
    "Ġbroken": 1496,
    "av": 1497,
    "Ġgone": 1498,
    "Ġable": 1499,
    "irrel": 1500,
    "ĠNow": 1501,
    "ner": 1502,
    "Ġsong": 1503,
    "Ġyes": 1504,
    "ĠSally": 1505,
    "Ġwall": 1506,
    ".Ã¢": 1507,
    "Then": 1508,
    "Ġmat": 1509,
    "Ġfilled": 1510,
    "Ġsomeone": 1511,
    "Ġcreat": 1512,
    "Ġagreed": 1513,
    "asure": 1514,
    "ich": 1515,
    "\"Look": 1516,
    "Ġwants": 1517,
    "room": 1518,
    "Ġcontinued": 1519,
    "Ġsquirrel": 1520,
    "Ġpat": 1521,
    "Jack": 1522,
    "Ġcount": 1523,
    "'ll": 1524,
    "ask": 1525,
    "Ġpink": 1526,
    "Ġleaves": 1527,
    "Ġlion": 1528,
    "ĠThere": 1529,
    "ĠEm": 1530,
    "ee": 1531,
    "From": 1532,
    "ĠTommy": 1533,
    "Ġenough": 1534,
    "Ġvis": 1535,
    "ama": 1536,
    "ey": 1537,
    "Ġmoment": 1538,
    "Ġgetting": 1539,
    "Ġmorning": 1540,
    "Ġfinally": 1541,
    "Ġbreak": 1542,
    "Ġcookies": 1543,
    "Ġstayed": 1544,
    "ĠMaybe": 1545,
    "Ġpoin": 1546,
    "ash": 1547,
    "ance": 1548,
    "app": 1549,
    "Ġsometimes": 1550,
    "Ġscary": 1551,
    "ries": 1552,
    "Ġfight": 1553,
    "Ġhungry": 1554,
    "Ġbeach": 1555,
    "Ġfall": 1556,
    "Ġgrandma": 1557,
    "ĠK": 1558,
    "row": 1559,
    "Ġfew": 1560,
    "Ġju": 1561,
    "Ġwet": 1562,
    "ced": 1563,
    "Ġdinner": 1564,
    "red": 1565,
    "Ġturned": 1566,
    "Ġtrying": 1567,
    "Ġmakes": 1568,
    "gon": 1569,
    "Ġpi": 1570,
    "Ġamazing": 1571,
    "Ġdaddy": 1572,
    "Ġothers": 1573,
    "Ġmother": 1574,
    "ĠWhat": 1575,
    "Ġcream": 1576,
    "apped": 1577,
    "icy": 1578,
    "Ġclimbed": 1579,
    "His": 1580,
    "Ġcastle": 1581,
    "Ġpictures": 1582,
    "key": 1583,
    "Ġcomp": 1584,
    "Ġperfect": 1585,
    "ĠThis": 1586,
    "At": 1587,
    "This": 1588,
    "Ġtalk": 1589,
    "Ġmus": 1590,
    "Ġmet": 1591,
    "Ġsmiles": 1592,
    "amp": 1593,
    "oom": 1594,
    "man": 1595,
    "Ġlistened": 1596,
    "Ġfur": 1597,
    "Ġballoon": 1598,
    "oup": 1599,
    "Ġwhite": 1600,
    "Ġclot": 1601,
    "oring": 1602,
    "Ġclothes": 1603,
    "Ġtail": 1604,
    "Ġpol": 1605,
    "Ġmar": 1606,
    "ĠBilly": 1607,
    "lc": 1608,
    "rot": 1609,
    "Ġalone": 1610,
    "Ġspl": 1611,
    "ĠGra": 1612,
    "Ġpuppy": 1613,
    "Ġjoy": 1614,
    "ctor": 1615,
    "Ġwasn": 1616,
    "ated": 1617,
    "ence": 1618,
    "Ġpet": 1619,
    "Ġbrought": 1620,
    "Ġeverything": 1621,
    "Ġdeep": 1622,
    "Ġsit": 1623,
    "Ġsear": 1624,
    "ister": 1625,
    "Ġasks": 1626,
    "Ġspark": 1627,
    "Ġsail": 1628,
    "Ġpulled": 1629,
    "Ġgrow": 1630,
    "Ġstrange": 1631,
    "der": 1632,
    "ott": 1633,
    "Ġwoods": 1634,
    "ĠTo": 1635,
    "ling": 1636,
    "\".": 1637,
    "uffy": 1638,
    "Ġride": 1639,
    "Ġplan": 1640,
    "Ġwon": 1641,
    "Ġdanger": 1642,
    "eter": 1643,
    "ucky": 1644,
    "Ġroll": 1645,
    "Ġfox": 1646,
    "Ġpie": 1647,
    "Ġvisit": 1648,
    "os": 1649,
    "\"S": 1650,
    "Ġtreat": 1651,
    "med": 1652,
    "Ġmusic": 1653,
    "Ġleave": 1654,
    "Ġteddy": 1655,
    "ĠJen": 1656,
    "ĠAmy": 1657,
    "Ġhide": 1658,
    "Ġamazed": 1659,
    "Ġwaited": 1660,
    "ang": 1661,
    "me": 1662,
    "ever": 1663,
    "Ġtowards": 1664,
    "ĠO": 1665,
    "ower": 1666,
    "Max": 1667,
    "Ġland": 1668,
    "\"Yes": 1669,
    "Ġruns": 1670,
    "zz": 1671,
    "Ġfield": 1672,
    "Ġflying": 1673,
    "ape": 1674,
    "Ġowner": 1675,
    "Ġpen": 1676,
    "Ġpre": 1677,
    "Ġsilly": 1678,
    "ained": 1679,
    "Ġshared": 1680,
    "Ġliving": 1681,
    "Ġjob": 1682,
    "ames": 1683,
    "Ġqui": 1684,
    "Ġcloud": 1685,
    "Maybe": 1686,
    "Ġpromised": 1687,
    "Ġside": 1688,
    "igg": 1689,
    "Ġthinks": 1690,
    "ugg": 1691,
    "Ġbelie": 1692,
    "Ġgu": 1693,
    "gs": 1694,
    "ol": 1695,
    "Ġpaint": 1696,
    "Ġmoral": 1697,
    "thy": 1698,
    "orm": 1699,
    "cket": 1700,
    "Ġpa": 1701,
    "ope": 1702,
    "Ġlake": 1703,
    "ises": 1704,
    "Ġwear": 1705,
    "Ġsec": 1706,
    "Ġrace": 1707,
    "Ġquiet": 1708,
    "Ġsister": 1709,
    "avy": 1710,
    "Ġparty": 1711,
    "Ġmust": 1712,
    "Ġmoney": 1713,
    "cle": 1714,
    "ually": 1715,
    "sw": 1716,
    "Ġbran": 1717,
    "eces": 1718,
    "Ġcolorful": 1719,
    "up": 1720,
    "Ġcup": 1721,
    "ased": 1722,
    "Ġpieces": 1723,
    "Ġworried": 1724,
    "Ġansw": 1725,
    "Ġslowly": 1726,
    "Ġbott": 1727,
    "unch": 1728,
    "Ġgrate": 1729,
    "Ġow": 1730,
    "Ġbroke": 1731,
    "Ġfaster": 1732,
    "ĠJim": 1733,
    "Ġdance": 1734,
    "ix": 1735,
    "Ġpot": 1736,
    "Ġwelc": 1737,
    "Ġbigger": 1738,
    "Ġgrateful": 1739,
    "ze": 1740,
    "Ġsuch": 1741,
    "Ġcandy": 1742,
    "Ġtrain": 1743,
    "Ġmonster": 1744,
    "Ġreach": 1745,
    "Ġcho": 1746,
    "\"No": 1747,
    "\"Wow": 1748,
    "Ġgif": 1749,
    "ph": 1750,
    "Ġsnack": 1751,
    "fort": 1752,
    "\"Let": 1753,
    "Ġblank": 1754,
    "ĠAll": 1755,
    "Ġriver": 1756,
    "Ġblack": 1757,
    "Ġplant": 1758,
    "Ġpro": 1759,
    "less": 1760,
    "Ġtreasure": 1761,
    "Ġbike": 1762,
    "Ġscream": 1763,
    "Ġele": 1764,
    "Ġve": 1765,
    "Ġjoin": 1766,
    "Ġwin": 1767,
    "ire": 1768,
    "Ġdangerous": 1769,
    "Ġblanket": 1770,
    "Ġbar": 1771,
    "Ġeverywhere": 1772,
    "Ġmagical": 1773,
    "Ġprincess": 1774,
    "ear": 1775,
    "Ġsmart": 1776,
    "outh": 1777,
    "Ġdragon": 1778,
    "Ġhelping": 1779,
    "Ġnap": 1780,
    "Ġacross": 1781,
    "Ġmouth": 1782,
    "Ġmonkey": 1783,
    "Ġmost": 1784,
    "Ġtower": 1785,
    "Ġfarmer": 1786,
    "Ġsign": 1787,
    "set": 1788,
    "Ġem": 1789,
    "ipped": 1790,
    "ĠDaddy": 1791,
    "Ġdisapp": 1792,
    "Ġje": 1793,
    "Ġdolls": 1794,
    "Why": 1795,
    "Ġwords": 1796,
    "Ġdirty": 1797,
    "Ġheavy": 1798,
    "ming": 1799,
    "Hi": 1800,
    "Ġpass": 1801,
    "de": 1802,
    "Ġdoctor": 1803,
    "Ġtwins": 1804,
    "Ġthrew": 1805,
    "Ġbite": 1806,
    "bble": 1807,
    "Ġbowl": 1808,
    "eared": 1809,
    "ored": 1810,
    "Ġcrying": 1811,
    "Ġsame": 1812,
    "Ġstepped": 1813,
    "ĠFl": 1814,
    "Ġstre": 1815,
    "Ġbee": 1816,
    "ident": 1817,
    "ere": 1818,
    "Ġspr": 1819,
    "Ġacc": 1820,
    "Ġheal": 1821,
    "Ġbelieve": 1822,
    "Ġbath": 1823,
    "Ġcarrot": 1824,
    "Ġwouldn": 1825,
    "cked": 1826,
    "Ġfruit": 1827,
    "Ġheart": 1828,
    "ĠMolly": 1829,
    "Ġclosed": 1830,
    "Ġhig": 1831,
    "Mia": 1832,
    "chool": 1833,
    "Ġcour": 1834,
    "Ġbuck": 1835,
    "Ġstuck": 1836,
    "ĠMr": 1837,
    "Ġatt": 1838,
    "Ġhoped": 1839,
    "Ġteac": 1840,
    "Ġmix": 1841,
    "asket": 1842,
    "Ġfeels": 1843,
    "ĠJill": 1844,
    "Ġmin": 1845,
    "Ġbasket": 1846,
    "Ġbrown": 1847,
    "Ġsuddenly": 1848,
    "Ġschool": 1849,
    "Ġcray": 1850,
    "Ġbutt": 1851,
    "Ġeating": 1852,
    "Ġtown": 1853,
    "Ġcourse": 1854,
    "Ġfairy": 1855,
    "Ġchair": 1856,
    "iting": 1857,
    "Ġclapped": 1858,
    "Ġcoll": 1859,
    "Ġpack": 1860,
    "?Ã¢": 1861,
    "Ġgentle": 1862,
    "Ġstand": 1863,
    "pping": 1864,
    "Ġpushed": 1865,
    "ier": 1866,
    "Ġdrove": 1867,
    "issed": 1868,
    "ventually": 1869,
    "ts": 1870,
    "Ġwelcome": 1871,
    "ors": 1872,
    "Ġswings": 1873,
    "Ġwithout": 1874,
    "Ġhit": 1875,
    "Ġneigh": 1876,
    "ord": 1877,
    "Ġtoday": 1878,
    "\"What": 1879,
    "Ġhigher": 1880,
    "orrow": 1881,
    "Ġpocket": 1882,
    "Ġteacher": 1883,
    "br": 1884,
    "Ġneighb": 1885,
    "Ġpers": 1886,
    "Ġben": 1887,
    "Ġforget": 1888,
    "Ġwings": 1889,
    "Ġgames": 1890,
    "Ġpiece": 1891,
    "Ġyard": 1892,
    "ract": 1893,
    "Ġsmo": 1894,
    "Ġexplained": 1895,
    "Ġfree": 1896,
    "Ġaccident": 1897,
    "Ġlonger": 1898,
    "Ġneck": 1899,
    "Ġcheered": 1900,
    "ho": 1901,
    "Finally": 1902,
    "Ġcorn": 1903,
    "umb": 1904,
    "Ġnoises": 1905,
    "ourn": 1906,
    "ĠMary": 1907,
    "ead": 1908,
    "Ġdry": 1909,
    "Lila": 1910,
    "Ġjourn": 1911,
    "ible": 1912,
    "Ġalong": 1913,
    "Ġhappen": 1914,
    "Ġinst": 1915,
    "Ġlate": 1916,
    "Ġsang": 1917,
    "Ġhugs": 1918,
    "ment": 1919,
    "Ġthrow": 1920,
    "\"Can": 1921,
    "Ġturns": 1922,
    "cy": 1923,
    "itting": 1924,
    "Ġlon": 1925,
    "Ġshoes": 1926,
    "Ġstories": 1927,
    "Ġmiss": 1928,
    "Ġwell": 1929,
    "vel": 1930,
    "Ġsinging": 1931,
    "phant": 1932,
    "ches": 1933,
    "Ġyoung": 1934,
    "Ġtrou": 1935,
    "Ġadventures": 1936,
    "Ġlonely": 1937,
    "Ġsea": 1938,
    "oun": 1939,
    "Ġupset": 1940,
    "Ġlunch": 1941,
    "Ġsecret": 1942,
    "Ġshap": 1943,
    ".Ċ": 1944,
    "Ġdist": 1945,
    "Ġwish": 1946,
    "Ġelephant": 1947,
    "Ġkey": 1948,
    "Ġplac": 1949,
    "Ġshook": 1950,
    "Ġfence": 1951,
    "Ġapple": 1952,
    "Ġstar": 1953,
    "Ġmine": 1954,
    "ountain": 1955,
    "Ġbelong": 1956,
    "Ġpurp": 1957,
    "Ġstreet": 1958,
    "Ġtom": 1959,
    "bby": 1960,
    "fused": 1961,
    "aughty": 1962,
    "Ġyear": 1963,
    "ek": 1964,
    "Ġmoved": 1965,
    "Ġstars": 1966,
    "Ġnaughty": 1967,
    "Ġshop": 1968,
    "Ġexploring": 1969,
    "Ġcaught": 1970,
    "Ġph": 1971,
    "Ġwhe": 1972,
    "Ġwise": 1973,
    "Do": 1974,
    "Ġjar": 1975,
    "Ġnearby": 1976,
    "ocked": 1977,
    "Ġsoup": 1978,
    "Ġowl": 1979,
    "bow": 1980,
    "yard": 1981,
    "Ġbring": 1982,
    "Ġsu": 1983,
    "Ġdropped": 1984,
    "Ġinv": 1985,
    "Ġrocks": 1986,
    "Ġbackyard": 1987,
    "Ġes": 1988,
    "Ġexp": 1989,
    "Ġseemed": 1990,
    "Ġbucket": 1991,
    "llo": 1992,
    "ĠGrandma": 1993,
    "Ġdrink": 1994,
    "ail": 1995,
    "Ġswam": 1996,
    "Ġpurple": 1997,
    "Ġca": 1998,
    "ward": 1999,
    "Ġshapes": 2000,
    "Ġbat": 2001,
    "ces": 2002,
    "Ġ3": 2003,
    "Ġrelie": 2004,
    "Ġtaking": 2005,
    "Ġfarm": 2006,
    "Ġresp": 2007,
    "Ġdes": 2008,
    "Ġorange": 2009,
    "ush": 2010,
    "col": 2011,
    "Ġmail": 2012,
    "aughter": 2013,
    "Ġthough": 2014,
    "ĠEmma": 2015,
    "adow": 2016,
    "Ġbench": 2017,
    "And": 2018,
    "ions": 2019,
    "Ġpast": 2020,
    "Ġwoke": 2021,
    "ĠThank": 2022,
    "Ġaf": 2023,
    "Ġcow": 2024,
    "Ġstu": 2025,
    "ung": 2026,
    "Ġnest": 2027,
    "Ġsounds": 2028,
    "weet": 2029,
    "Ġbusy": 2030,
    "Ġtakes": 2031,
    "sy": 2032,
    "ese": 2033,
    "Ġnose": 2034,
    "Ġfit": 2035,
    "Ġtiny": 2036,
    "Ġjuice": 2037,
    "Ġmark": 2038,
    "ity": 2039,
    "Ġcou": 2040,
    "Ġarms": 2041,
    "Ġmad": 2042,
    "Ġrainbow": 2043,
    "Ġcomes": 2044,
    "Ġholding": 2045,
    "Okay": 2046,
    "Ġwondered": 2047,
    "Ġob": 2048,
    "ĠFluffy": 2049,
    "fish": 2050,
    "Ġnothing": 2051,
    "thday": 2052,
    "Ġsitting": 2053,
    "to": 2054,
    "Ġkite": 2055,
    "Ġpig": 2056,
    "Ġdaughter": 2057,
    "Ġbranch": 2058,
    "read": 2059,
    "Ġcoat": 2060,
    "Ġcir": 2061,
    "ining": 2062,
    "raid": 2063,
    "Ġafraid": 2064,
    "cing": 2065,
    "og": 2066,
    "Oh": 2067,
    "Ġdriver": 2068,
    "idge": 2069,
    "pper": 2070,
    "ĠInside": 2071,
    "Ġlift": 2072,
    "Ġspoon": 2073,
    "Ġcute": 2074,
    "Ġmil": 2075,
    "Ġsick": 2076,
    "Ġforever": 2077,
    "Ġboun": 2078,
    "vered": 2079,
    "Ġrelieved": 2080,
    "Ġcarry": 2081,
    "ose": 2082,
    "\"It": 2083,
    "Ġround": 2084,
    "ours": 2085,
    "Ġpeace": 2086,
    "Ġking": 2087,
    "Ġgift": 2088,
    "sting": 2089,
    "Ġhello": 2090,
    "ĠFinally": 2091,
    "Ġbirthday": 2092,
    "unt": 2093,
    "Ġtou": 2094,
    "Ġtouched": 2095,
    "Ġpatient": 2096,
    "ĠCome": 2097,
    "Ġpromise": 2098,
    "Ġcheese": 2099,
    "\"Hello": 2100,
    "cer": 2101,
    "eth": 2102,
    "Ġletter": 2103,
    "let": 2104,
    "\"Thank": 2105,
    "Ġact": 2106,
    "Ġgrab": 2107,
    "Ġhuge": 2108,
    "Ġfing": 2109,
    "Ġintere": 2110,
    "sc": 2111,
    "Ġonto": 2112,
    "board": 2113,
    "ittens": 2114,
    "Ġdays": 2115,
    "Ġsunny": 2116,
    "Ġlaughing": 2117,
    "Ġbread": 2118,
    "Ġband": 2119,
    "Hey": 2120,
    "Ġgigg": 2121,
    "Ġshell": 2122,
    "Ġcreature": 2123,
    "Ġexciting": 2124,
    "ped": 2125,
    "arp": 2126,
    "ĠMama": 2127,
    "Ġpower": 2128,
    "Ġlife": 2129,
    "Ġswimming": 2130,
    "Ġdisco": 2131,
    "Ġcraw": 2132,
    "Ġjourney": 2133,
    "Ġbottle": 2134,
    "Ġhope": 2135,
    "Ġkick": 2136,
    "Ġwhist": 2137,
    "shine": 2138,
    "gged": 2139,
    "Ġret": 2140,
    "Ġmist": 2141,
    "Ġimag": 2142,
    "Ġspin": 2143,
    "Ġcozy": 2144,
    "Ġbush": 2145,
    "Ġcomfort": 2146,
    "alm": 2147,
    "Ġsharp": 2148,
    "Ġinc": 2149,
    "Ġwra": 2150,
    "Ġsuc": 2151,
    "gg": 2152,
    "Ġmilk": 2153,
    "Ġinstead": 2154,
    "Tommy": 2155,
    "Ġwatching": 2156,
    "Ġaccidentally": 2157,
    "Ġear": 2158,
    "Ġputs": 2159,
    "Ġlucky": 2160,
    "Ġcave": 2161,
    "Ġeas": 2162,
    "ten": 2163,
    "Ġpudd": 2164,
    "Ġsunshine": 2165,
    "Ġreturn": 2166,
    "Ġgives": 2167,
    "ĠSammy": 2168,
    "ĠSoon": 2169,
    "Ġpointed": 2170,
    "ness": 2171,
    "Ġcollect": 2172,
    "Later": 2173,
    "Ġhoney": 2174,
    "itch": 2175,
    "pa": 2176,
    "Ġtalked": 2177,
    "Ġspo": 2178,
    "Ġlater": 2179,
    "Ġent": 2180,
    "Ġhor": 2181,
    "Ġroad": 2182,
    "Ġgather": 2183,
    "Ġsearched": 2184,
    "Ġsmiling": 2185,
    "irt": 2186,
    "Ġwom": 2187,
    "Ġbought": 2188,
    "Ġanyone": 2189,
    "ball": 2190,
    "Ġwoman": 2191,
    "els": 2192,
    "itten": 2193,
    "ĠTweet": 2194,
    "Ġducks": 2195,
    "ize": 2196,
    "Ġmeet": 2197,
    "Bob": 2198,
    "Ġfan": 2199,
    "blem": 2200,
    "Ġce": 2201,
    "Ġsandw": 2202,
    "Ġproblem": 2203,
    "\"OK": 2204,
    "round": 2205,
    "Ġapples": 2206,
    "Ġloves": 2207,
    "Good": 2208,
    "Ġmach": 2209,
    "Ġhealthy": 2210,
    "ub": 2211,
    "Ġspid": 2212,
    "Ġpile": 2213,
    "Ġinteresting": 2214,
    "Ġkiss": 2215,
    "amed": 2216,
    "Ġadm": 2217,
    "Ġrope": 2218,
    "Ġwide": 2219,
    "eb": 2220,
    "Ġcrayons": 2221,
    "âĤ¬ÅĵI": 2222,
    "Ġtrouble": 2223,
    "Lucy": 2224,
    "aur": 2225,
    "Ġbutton": 2226,
    "ont": 2227,
    "Ġvill": 2228,
    "cks": 2229,
    "Ġpres": 2230,
    "Ġzoom": 2231,
    "Ġtasty": 2232,
    "Ġclever": 2233,
    "Ġprot": 2234,
    "Ġsmelled": 2235,
    "ove": 2236,
    "Ġperson": 2237,
    "Ġfeather": 2238,
    "Ġclouds": 2239,
    "owed": 2240,
    "Ġplane": 2241,
    "Ġshining": 2242,
    "Ġmatter": 2243,
    "Ġeag": 2244,
    "Ġpop": 2245,
    "ĠWith": 2246,
    "Ġprotect": 2247,
    "ndpa": 2248,
    "Ġpath": 2249,
    "Ġstorm": 2250,
    "Ġpill": 2251,
    "Ġfront": 2252,
    "ĠJimmy": 2253,
    "\"W": 2254,
    "Ġmud": 2255,
    "Ġpract": 2256,
    "erly": 2257,
    "Ġscreamed": 2258,
    "Ġval": 2259,
    "Ġsnowman": 2260,
    "Ġrespect": 2261,
    "Ġhon": 2262,
    "Ġap": 2263,
    "Ġspotted": 2264,
    "Ġorgan": 2265,
    "Ġsaf": 2266,
    "Ġzoo": 2267,
    "Come": 2268,
    "Ġminut": 2269,
    "isa": 2270,
    "ĠEll": 2271,
    "Ġpresent": 2272,
    "Ġdanced": 2273,
    "Ġpar": 2274,
    "Ġsnake": 2275,
    "\"That": 2276,
    "Ġquest": 2277,
    "Ġpuzz": 2278,
    "Ġmyster": 2279,
    "Ġseat": 2280,
    "Ġbark": 2281,
    "epend": 2282,
    "ond": 2283,
    "Ġthin": 2284,
    "Ġappeared": 2285,
    "Ġteach": 2286,
    "Ġwhich": 2287,
    "Ġlovely": 2288,
    "Just": 2289,
    "Ġanswer": 2290,
    "Ġasleep": 2291,
    "Ġcheer": 2292,
    "Ġwild": 2293,
    "Ġsur": 2294,
    "Ġneighbor": 2295,
    "Jim": 2296,
    "ert": 2297,
    "ale": 2298,
    "Ġmed": 2299,
    "Ġgently": 2300,
    "Ġgoes": 2301,
    "Ġhorse": 2302,
    "Molly": 2303,
    "Ġwhole": 2304,
    "Ġtries": 2305,
    "ometimes": 2306,
    "Ġwearing": 2307,
    "een": 2308,
    "Ġcorner": 2309,
    "Ġplaces": 2310,
    "Mum": 2311,
    "ular": 2312,
    "Ġdirt": 2313,
    "Ġsearch": 2314,
    "Ġimpress": 2315,
    "oose": 2316,
    "Ġconfused": 2317,
    "Ġphone": 2318,
    "Ġsplas": 2319,
    "Ġshr": 2320,
    "Ġforgive": 2321,
    "Ġlive": 2322,
    "Every": 2323,
    "Ġtrip": 2324,
    "ĠEmily": 2325,
    "Ġgiant": 2326,
    "cean": 2327,
    "Ġrolled": 2328,
    "Ġocean": 2329,
    "Ġash": 2330,
    "Ġcard": 2331,
    "Ġteeth": 2332,
    "\".ĊĊ": 2333,
    "la": 2334,
    "Ġmind": 2335,
    "Ġsupp": 2336,
    "Ġtasted": 2337,
    "Ġdi": 2338,
    "Ġslid": 2339,
    "ĠGo": 2340,
    "itty": 2341,
    "nic": 2342,
    "Ġrude": 2343,
    "Ġpour": 2344,
    "Ġspent": 2345,
    "Ġspider": 2346,
    "Ġpicnic": 2347,
    "ex": 2348,
    "Ġmachine": 2349,
    "Ġcalm": 2350,
    "Ġdrive": 2351,
    "ĠHow": 2352,
    "Ġser": 2353,
    "ato": 2354,
    "Ġpretended": 2355,
    "Sure": 2356,
    "Ġpan": 2357,
    "Ġoven": 2358,
    "Ġworm": 2359,
    "izz": 2360,
    "In": 2361,
    "ssed": 2362,
    "Ġrec": 2363,
    "Ġfurry": 2364,
    "Ġlast": 2365,
    "Ġdelight": 2366,
    "unk": 2367,
    "Ġlay": 2368,
    "Ġfeet": 2369,
    "Ġcookie": 2370,
    "ĠMittens": 2371,
    "Ġfaces": 2372,
    "Ġring": 2373,
    "ones": 2374,
    "Ġbubble": 2375,
    "Ġlad": 2376,
    "ĠCh": 2377,
    "Ġhelpful": 2378,
    "Ġwave": 2379,
    "umber": 2380,
    "Ġwip": 2381,
    "Ġchocol": 2382,
    "Ġban": 2383,
    "Ġfold": 2384,
    "Ġcouch": 2385,
    "Ġrob": 2386,
    "Ġtomorrow": 2387,
    "Ġmountain": 2388,
    "Ġsal": 2389,
    "Ġchick": 2390,
    "Ġtalking": 2391,
    "Ġeventually": 2392,
    "Ġtun": 2393,
    "Ġtool": 2394,
    "Ġfoot": 2395,
    "Ġshy": 2396,
    "Ġcart": 2397,
    "Ġcoin": 2398,
    "Ġemb": 2399,
    "Ġpush": 2400,
    "Ġremind": 2401,
    "ife": 2402,
    "arge": 2403,
    "Ġign": 2404,
    "Ġspread": 2405,
    "Ġsel": 2406,
    "Ġtid": 2407,
    "Ġvillage": 2408,
    "Ġladder": 2409,
    "Ġbuilding": 2410,
    "ĠJenny": 2411,
    "Ġwrite": 2412,
    "Ġhiding": 2413,
    "Ġwore": 2414,
    "ighed": 2415,
    "Ġstret": 2416,
    "Ġknee": 2417,
    "Ġfighting": 2418,
    "Ġneckl": 2419,
    "hile": 2420,
    "Ġchased": 2421,
    "Ġpuddle": 2422,
    "Ġbugs": 2423,
    "Ġsmooth": 2424,
    "\"Maybe": 2425,
    "ator": 2426,
    "Ġblew": 2427,
    "Ġtreats": 2428,
    "Ġbell": 2429,
    "Ġwaiting": 2430,
    "Ġwhenever": 2431,
    "Ġrobot": 2432,
    "Ġcross": 2433,
    "not": 2434,
    "oph": 2435,
    "mo": 2436,
    "My": 2437,
    "Ġpool": 2438,
    "Ġfinish": 2439,
    "als": 2440,
    "top": 2441,
    "arra": 2442,
    "Ġchocolate": 2443,
    "Ġstring": 2444,
    "Ġstep": 2445,
    "Ġcannot": 2446,
    "Ġembarra": 2447,
    "Ġant": 2448,
    "Ġleaf": 2449,
    "Ġcrab": 2450,
    "Ġsongs": 2451,
    "lex": 2452,
    "Ġstir": 2453,
    "Ġcoo": 2454,
    "Ġselfish": 2455,
    "Ġstra": 2456,
    "Ġshelf": 2457,
    "Soon": 2458,
    "Ġpaw": 2459,
    "Of": 2460,
    "\"Mom": 2461,
    "\"Oh": 2462,
    "Ġsack": 2463,
    "Ġtaste": 2464,
    "Ġmaybe": 2465,
    "Ġlarge": 2466,
    "Ġwash": 2467,
    "Ġspe": 2468,
    "ult": 2469,
    "Ġrep": 2470,
    "Ġscar": 2471,
    "Ġbanan": 2472,
    "Ġbarked": 2473,
    "Ġsol": 2474,
    "Ġfixed": 2475,
    "Ġhum": 2476,
    "box": 2477,
    "Ġple": 2478,
    "ĠSometimes": 2479,
    "ĠEverywhere": 2480,
    "Ġspray": 2481,
    "Ġcloth": 2482,
    "umpy": 2483,
    "ĠJake": 2484,
    "Ġstone": 2485,
    "Mama": 2486,
    "Ġtidy": 2487,
    "ĠJust": 2488,
    "old": 2489,
    "lebr": 2490,
    "Ġnet": 2491,
    "Please": 2492,
    "hnn": 2493,
    "Ġpeaceful": 2494,
    "Ġcelebr": 2495,
    "Ġgen": 2496,
    "ĠLe": 2497,
    "\"We": 2498,
    "Ġcolour": 2499,
    "Ġ'": 2500,
    "Ġnecklace": 2501,
    "elly": 2502,
    "ungle": 2503,
    "Ġmissed": 2504,
    "ird": 2505,
    "arm": 2506,
    "Dad": 2507,
    "lice": 2508,
    "Ġjungle": 2509,
    "ĠPlease": 2510,
    "iger": 2511,
    "ĠTheir": 2512,
    "hnny": 2513,
    "Ġlanded": 2514,
    "Now": 2515,
    "Ġhears": 2516,
    "oin": 2517,
    "orry": 2518,
    "ĠTV": 2519,
    "Ġcreative": 2520,
    "Ġtrust": 2521,
    "Ġmoon": 2522,
    "Ġdecor": 2523,
    "Ġdeter": 2524,
    "Ġjumping": 2525,
    "Ġsticks": 2526,
    "Ġhel": 2527,
    "airs": 2528,
    "Ġdeterm": 2529,
    "Ġforward": 2530,
    "\"Sure": 2531,
    "Ġshirt": 2532,
    "Ġsharing": 2533,
    "Ġembarrassed": 2534,
    "Ġtea": 2535,
    "Ġcarrots": 2536,
    "most": 2537,
    "Ġknocked": 2538,
    "Ġwhis": 2539,
    "Ġhonest": 2540,
    "dge": 2541,
    "ĠDon": 2542,
    "Sarah": 2543,
    "Ġtightly": 2544,
    "Ġstood": 2545,
    "Ġbal": 2546,
    "aking": 2547,
    "Ġlegs": 2548,
    "Ġplate": 2549,
    "Ġdisappoin": 2550,
    "Ġalmost": 2551,
    "ĠSome": 2552,
    "ying": 2553,
    "Ġashamed": 2554,
    "Ġwhistle": 2555,
    "ned": 2556,
    "Ġtells": 2557,
    "Ġsplash": 2558,
    "Ġsuccess": 2559,
    "ĠLisa": 2560,
    "Ġbreath": 2561,
    "Ġgrew": 2562,
    "getable": 2563,
    "\"You": 2564,
    "Ġgener": 2565,
    "Ġsour": 2566,
    "Ġgray": 2567,
    "Ġemp": 2568,
    "Ġvegetable": 2569,
    "Ġmeant": 2570,
    "dle": 2571,
    "ĠTeddy": 2572,
    "Ġmeadow": 2573,
    "Be": 2574,
    "Ġempty": 2575,
    "ĠAnn": 2576,
    "Ġpillow": 2577,
    "Ġber": 2578,
    "Ġgas": 2579,
    "Ġpolice": 2580,
    "ground": 2581,
    "ĠOn": 2582,
    "ĠWhy": 2583,
    "Ġunderstood": 2584,
    "ian": 2585,
    "Ġcarried": 2586,
    "Ġsave": 2587,
    "Ġgold": 2588,
    "Ġsheep": 2589,
    "Ġnods": 2590,
    "To": 2591,
    "Ġlem": 2592,
    "den": 2593,
    "Ġyelled": 2594,
    "ets": 2595,
    "Ġjew": 2596,
    "Ġwhisp": 2597,
    "ony": 2598,
    "urse": 2599,
    "ital": 2600,
    "Ġsnacks": 2601,
    "ustr": 2602,
    "Ġthese": 2603,
    "Ġhours": 2604,
    "erp": 2605,
    "Ġhosp": 2606,
    "Ġnut": 2607,
    "vous": 2608,
    "hin": 2609,
    "Ġkitten": 2610,
    "Ġdisappointed": 2611,
    "arl": 2612,
    "Ġhospital": 2613,
    "Ġsparkly": 2614,
    "Ġpay": 2615,
    "ĠMum": 2616,
    "ĠEven": 2617,
    "ina": 2618,
    "Ġtaught": 2619,
    "Ġscarf": 2620,
    "Ġline": 2621,
    "Ġship": 2622,
    "ĠTogether": 2623,
    "Ġfrustr": 2624,
    "Ġbored": 2625,
    "Ġplants": 2626,
    "iff": 2627,
    "Ġhidden": 2628,
    "Ġstanding": 2629,
    "Ġgenerous": 2630,
    "Ġchew": 2631,
    "Ġsighed": 2632,
    "Ġpizz": 2633,
    "Ġmatch": 2634,
    "Ġblow": 2635,
    "Ġshore": 2636,
    "ork": 2637,
    "Ġbedroom": 2638,
    "Ġeasy": 2639,
    "Ġseed": 2640,
    "Ġseek": 2641,
    "Ġtest": 2642,
    "Ġmysterious": 2643,
    "obby": 2644,
    "Ġrad": 2645,
    "Ġknowing": 2646,
    "Ġclass": 2647,
    "Ġjelly": 2648,
    "Ġglass": 2649,
    "kin": 2650,
    "Ġminutes": 2651,
    "Ġwaves": 2652,
    "Ġpolite": 2653,
    "Ġdrew": 2654,
    "Ġspicy": 2655,
    "Ġreturned": 2656,
    "Ġpuzzle": 2657,
    "Ġhur": 2658,
    "Ġpir": 2659,
    "ĠBe": 2660,
    "ĠPeter": 2661,
    "Ġgroup": 2662,
    "Ġmessy": 2663,
    "Ġpowerful": 2664,
    "Ġthankful": 2665,
    "Ġner": 2666,
    "Ġsleepy": 2667,
    "Ġfeed": 2668,
    "Jane": 2669,
    "Ġgun": 2670,
    "usie": 2671,
    "ĠSt": 2672,
    "Ġpassed": 2673,
    "Ġdetermined": 2674,
    "'d": 2675,
    "\"Hey": 2676,
    "fl": 2677,
    "Ġfinger": 2678,
    "Ġwolf": 2679,
    "Ġpri": 2680,
    "Ġnervous": 2681,
    "Ġreg": 2682,
    "Ġfig": 2683,
    "Ġfrustrated": 2684,
    "Ġfear": 2685,
    "Ġpizza": 2686,
    "osaur": 2687,
    "Ġcloset": 2688,
    "Ġsandwich": 2689,
    "Ġfancy": 2690,
    "Ġpin": 2691,
    "There": 2692,
    "af": 2693,
    "oop": 2694,
    "Ġkissed": 2695,
    "Ġvan": 2696,
    "Ġmot": 2697,
    "Ġgate": 2698,
    "ano": 2699,
    "aul": 2700,
    "Ġsold": 2701,
    "Ġbridge": 2702,
    "Ġwis": 2703,
    "Ġesc": 2704,
    "Ġtick": 2705,
    "Ġlock": 2706,
    "cles": 2707,
    "Ġhang": 2708,
    "Ġgathered": 2709,
    "Ġav": 2710,
    "Ġcries": 2711,
    "Ġspoil": 2712,
    "Ġyourself": 2713,
    "Ġgrumpy": 2714,
    "pack": 2715,
    "erpill": 2716,
    "ĠZ": 2717,
    "Ġcaterpill": 2718,
    "Ġdinosaur": 2719,
    "iddle": 2720,
    "Ġexcite": 2721,
    "Ġflag": 2722,
    "Are": 2723,
    "Ġprince": 2724,
    "itter": 2725,
    "Ġchest": 2726,
    "Ġtears": 2727,
    "era": 2728,
    "Ġtwirl": 2729,
    "Ġburn": 2730,
    "Ġoften": 2731,
    "ote": 2732,
    "work": 2733,
    "Ġpoor": 2734,
    "mb": 2735,
    "sist": 2736,
    "Ġfil": 2737,
    "selves": 2738,
    "Ġmummy": 2739,
    "issors": 2740,
    "Ġhopping": 2741,
    "gly": 2742,
    "ĠRex": 2743,
    "uce": 2744,
    "Ġdrop": 2745,
    "Ġcand": 2746,
    "Ġscr": 2747,
    "illed": 2748,
    "Ġanswered": 2749,
    "Ġcrown": 2750,
    "Ġugly": 2751,
    "\"H": 2752,
    "izzy": 2753,
    "Ġscissors": 2754,
    "ĠBr": 2755,
    "Ġtaken": 2756,
    "ensive": 2757,
    "Ġmiddle": 2758,
    "Ġsaved": 2759,
    "Ġtent": 2760,
    "oof": 2761,
    "Ġworking": 2762,
    "Ġcaterpillar": 2763,
    "Ġexpensive": 2764,
    "Ġwagged": 2765,
    "Ġexcitement": 2766,
    "Ġleg": 2767,
    "Ġdeer": 2768,
    "Ġtrue": 2769,
    "ella": 2770,
    "Ġpicks": 2771,
    "Ġones": 2772,
    "Ġlit": 2773,
    "que": 2774,
    "Ġtie": 2775,
    "Ġboring": 2776,
    "ugar": 2777,
    "Ġpleased": 2778,
    "ates": 2779,
    "Ġok": 2780,
    "Ġgets": 2781,
    "Ġspend": 2782,
    "ual": 2783,
    "Their": 2784,
    "Ġvase": 2785,
    "Ġmedic": 2786,
    "OK": 2787,
    "Ġpress": 2788,
    "Ġbrush": 2789,
    "ecially": 2790,
    "Ġboss": 2791,
    "Ġasking": 2792,
    "Ġmistake": 2793,
    "Ġgiggled": 2794,
    "body": 2795,
    "Ġcomfortable": 2796,
    "Ġwander": 2797,
    "ete": 2798,
    "Ġpacked": 2799,
    "light": 2800,
    "Ġstuff": 2801,
    "ser": 2802,
    "Ġrocket": 2803,
    "ĠLeo": 2804,
    "Ġmedicine": 2805,
    "Ġmir": 2806,
    "Ġbone": 2807,
    "pecially": 2808,
    "Ġsugar": 2809,
    "Ġespecially": 2810,
    "Ġfruits": 2811,
    "Ġdancing": 2812,
    "Jimmy": 2813,
    "ots": 2814,
    "Ġcage": 2815,
    "ĠBl": 2816,
    "Ġvegetables": 2817,
    "ĠJohnny": 2818,
    "Ġcap": 2819,
    "Ġsight": 2820,
    "ggs": 2821,
    "ushed": 2822,
    "Ġeggs": 2823,
    "Ġclap": 2824,
    "Ġflut": 2825,
    "Ġdistance": 2826,
    "Ġdest": 2827,
    "Ġclown": 2828,
    "iness": 2829,
    "Ġwalks": 2830,
    "Ġknight": 2831,
    "Ġnumber": 2832,
    "ror": 2833,
    "Ġfake": 2834,
    "Ġlying": 2835,
    "Ġdrawing": 2836,
    "Ġdisappeared": 2837,
    "Ġeld": 2838,
    "Ġsweetie": 2839,
    "Ġdrum": 2840,
    "\"Hi": 2841,
    "Ġbake": 2842,
    "Ġsplashed": 2843,
    "Ġmov": 2844,
    "ĠOK": 2845,
    "Ġlose": 2846,
    "Ġlicked": 2847,
    "Ġtwist": 2848,
    "Ġmoving": 2849,
    "Ġfeathers": 2850,
    "Ġglue": 2851,
    "aged": 2852,
    "Ġchange": 2853,
    "Ġmoms": 2854,
    "ory": 2855,
    "Ġlemon": 2856,
    "Ġcalling": 2857,
    "Ġlead": 2858,
    "Ġweak": 2859,
    "Ġdogs": 2860,
    "Ġbecome": 2861,
    "Ġsmelly": 2862,
    "Ġroar": 2863,
    "Ġcri": 2864,
    "Ġexam": 2865,
    "Ġbody": 2866,
    "ĠIf": 2867,
    "Ġbathroom": 2868,
    "elp": 2869,
    "ha": 2870,
    "Ġweek": 2871,
    "Ġpray": 2872,
    "Ġplayground": 2873,
    "Ġincred": 2874,
    "Ġnod": 2875,
    "Ġwheel": 2876,
    "yal": 2877,
    "Ġadd": 2878,
    "Ġnoisy": 2879,
    "Me": 2880,
    "Ġhorn": 2881,
    "Ġgar": 2882,
    "Ġlazy": 2883,
    "Ġcrack": 2884,
    "Ġmic": 2885,
    "Ġquestions": 2886,
    "uggest": 2887,
    "Ġsuggest": 2888,
    "Sally": 2889,
    "Ġteam": 2890,
    "Ġdrank": 2891,
    "Ġtape": 2892,
    "Ġmirror": 2893,
    "Ġfluffy": 2894,
    "Ġdig": 2895,
    "Ġstones": 2896,
    "Ġskipped": 2897,
    "Ġfis": 2898,
    "Ġdish": 2899,
    ",Ã¢": 2900,
    "Ġsell": 2901,
    "Ġfamous": 2902,
    "Ġrelax": 2903,
    "Billy": 2904,
    "Ġyours": 2905,
    "Gra": 2906,
    "Ġruined": 2907,
    "Ġclear": 2908,
    "eez": 2909,
    "Ġsoap": 2910,
    "Ġballs": 2911,
    "Ġelderly": 2912,
    "Ġwrote": 2913,
    "ating": 2914,
    "Ġqueen": 2915,
    "Ġmarch": 2916,
    "Joe": 2917,
    "enny": 2918,
    "Ġcovered": 2919,
    "Ġeager": 2920,
    "Ġord": 2921,
    "Ġjuicy": 2922,
    "\"Okay": 2923,
    "Ġrid": 2924,
    "land": 2925,
    "ination": 2926,
    "Ġind": 2927,
    "Ġshows": 2928,
    "Ġcheck": 2929,
    "Ġrich": 2930,
    "ti": 2931,
    "Ġyog": 2932,
    "Ġed": 2933,
    "Ġrare": 2934,
    "Ġext": 2935,
    "Ġcontent": 2936,
    "Ġloyal": 2937,
    "Ġlamp": 2938,
    "Ġincredible": 2939,
    "Ġbubbles": 2940,
    "Ġfigure": 2941,
    "ĠAt": 2942,
    "Ġswan": 2943,
    "hip": 2944,
    "Ġcoins": 2945,
    "Ġfather": 2946,
    "illi": 2947,
    "Ġtowel": 2948,
    "Ġsailed": 2949,
    "Ġmeasure": 2950,
    "Ġmap": 2951,
    "imp": 2952,
    "Ġdecide": 2953,
    "umbled": 2954,
    "ĠEnd": 2955,
    "Ġcleaned": 2956,
    "Ġaw": 2957,
    "Ġneeds": 2958,
    "Ġboard": 2959,
    "Ġbranches": 2960,
    "Ġglow": 2961,
    "Ġham": 2962,
    "Ġstraw": 2963,
    "Ġoffered": 2964,
    "Ġrealised": 2965,
    "Ġshoot": 2966,
    "Ġdiscovered": 2967,
    "Ġtag": 2968,
    "Ġfine": 2969,
    "ately": 2970,
    "asing": 2971,
    "ĠNo": 2972,
    "Ġlifted": 2973,
    "Ġadventur": 2974,
    "Jill": 2975,
    "fic": 2976,
    "Ġborrow": 2977,
    "Ġbalance": 2978,
    "Ġjoke": 2979,
    "Ġmotor": 2980,
    "Ġextra": 2981,
    "Amy": 2982,
    "Ġboys": 2983,
    "Ġeye": 2984,
    "Ġbarn": 2985,
    "Ġmod": 2986,
    "keep": 2987,
    "Ġadventurous": 2988,
    "ique": 2989,
    "Ġchicken": 2990,
    "Ġtiger": 2991,
    "Ġorganized": 2992,
    "Ġdiffic": 2993,
    "Ġfrown": 2994,
    "cept": 2995,
    "ĠLittle": 2996,
    "alous": 2997,
    "Ġcolourful": 2998,
    "Ġdolp": 2999,
    "Ġbottom": 3000,
    "Sp": 3001,
    "Ġword": 3002,
    "Ġtoug": 3003,
    "lla": 3004,
    "Ġturt": 3005,
    "Ġcover": 3006,
    "Ġjealous": 3007,
    "ĠBlue": 3008,
    "Ġhappening": 3009,
    "Ġunique": 3010,
    "Ġhurts": 3011,
    "Ġthick": 3012,
    "rag": 3013,
    "Ġdifficult": 3014,
    "Ġwand": 3015,
    "Ġtrack": 3016,
    "Ġcircle": 3017,
    "Ġcost": 3018,
    "port": 3019,
    "cil": 3020,
    "Ġisland": 3021,
    "Ġarg": 3022,
    "Mummy": 3023,
    "Ġfright": 3024,
    "imed": 3025,
    "Ġhunt": 3026,
    "Ġpencil": 3027,
    "Ġhose": 3028,
    "alk": 3029,
    "Ġlouder": 3030,
    "Ġweird": 3031,
    "olog": 3032,
    "Ġknife": 3033,
    "Ġberries": 3034,
    "ĠBrown": 3035,
    "Ġcrawled": 3036,
    "Ġgarage": 3037,
    "Ġonce": 3038,
    "Ġlearning": 3039,
    "ĠSusie": 3040,
    "Ġmighty": 3041,
    "Ġmanaged": 3042,
    "Ġchase": 3043,
    "ipper": 3044,
    "Ġunus": 3045,
    "Ġapolog": 3046,
    "Ġfavour": 3047,
    "Sue": 3048,
    "Ġbald": 3049,
    "ĠKitty": 3050,
    "Ġpointing": 3051,
    "Ġtough": 3052,
    "Ġsil": 3053,
    "Ġballoons": 3054,
    "ages": 3055,
    "ject": 3056,
    "Ġspun": 3057,
    "Ġharder": 3058,
    "Ġkindness": 3059,
    "Ġjewel": 3060,
    "ured": 3061,
    "ĠMark": 3062,
    "Ġpump": 3063,
    "keeper": 3064,
    "Ġsaying": 3065,
    "Ġang": 3066,
    "Ġdizzy": 3067,
    "Ġrecord": 3068,
    "Ġshake": 3069,
    "Ġunusual": 3070,
    "aw": 3071,
    "lies": 3072,
    "und": 3073,
    "Ġnorm": 3074,
    "iv": 3075,
    "-up": 3076,
    "ready": 3077,
    "Ġguess": 3078,
    "Ġtrucks": 3079,
    "Ġfavourite": 3080,
    "Ġfour": 3081,
    "Ġguit": 3082,
    "head": 3083,
    "Ġvalu": 3084,
    "Ġlaughs": 3085,
    "Ġref": 3086,
    "Ġgiving": 3087,
    "Ġsword": 3088,
    "Ġfool": 3089,
    "Ġenjoying": 3090,
    "Ġimpressed": 3091,
    "Ġsmoke": 3092,
    "Ġstrawber": 3093,
    "Ġadded": 3094,
    "ipp": 3095,
    "Ġbanana": 3096,
    "Here": 3097,
    "Ġalready": 3098,
    "Ġbelonged": 3099,
    "Ġgrown": 3100,
    "Ġhero": 3101,
    "Ġears": 3102,
    "ĠBobby": 3103,
    "Ġbatter": 3104,
    "Ġwrapped": 3105,
    "Ġmarket": 3106,
    "Ġnormal": 3107,
    "Ġedge": 3108,
    "Ġter": 3109,
    "Ġhats": 3110,
    "Ġgrace": 3111,
    "Ġharm": 3112,
    "Ġwhale": 3113,
    "Ġpainting": 3114,
    "Ġgoat": 3115,
    "Ġboxes": 3116,
    "Ġbrilli": 3117,
    "Ġloudly": 3118,
    "emo": 3119,
    "Ġhelps": 3120,
    "Ġscare": 3121,
    "Ġtrunk": 3122,
    "uggled": 3123,
    "anged": 3124,
    "Ġbrilliant": 3125,
    "Ġcircles": 3126,
    "rage": 3127,
    "Ġbossy": 3128,
    "Ġcab": 3129,
    "Ġguitar": 3130,
    "Ġjack": 3131,
    "Ġlibr": 3132,
    "ilt": 3133,
    "Ġturtle": 3134,
    "Ġbirdie": 3135,
    "Ġbrothers": 3136,
    "ipe": 3137,
    "Ġescape": 3138,
    "ym": 3139,
    "Ġcheerful": 3140,
    "Ġagainst": 3141,
    "Ġskin": 3142,
    "ola": 3143,
    "Ġmelt": 3144,
    "Ġshape": 3145,
    "Ġsafely": 3146,
    "Ġchoose": 3147,
    "Ġdepend": 3148,
    "Ġfrightened": 3149,
    "Ġgrand": 3150,
    "Ġdreamed": 3151,
    "ature": 3152,
    "Ġflash": 3153,
    "Ġinvited": 3154,
    "Ġproudly": 3155,
    "Ġmeans": 3156,
    "cient": 3157,
    "ery": 3158,
    "Ġcompet": 3159,
    "Ġcabin": 3160,
    "gy": 3161,
    "Ġfridge": 3162,
    "fast": 3163,
    "Ġbuttons": 3164,
    "Ġslipped": 3165,
    "Ġcrayon": 3166,
    "Ġdesign": 3167,
    "Ġpee": 3168,
    "erry": 3169,
    "Ġfalls": 3170,
    "Ġmovie": 3171,
    "Ġfat": 3172,
    "Ġvaluable": 3173,
    "Ġstubb": 3174,
    "Ġclay": 3175,
    "Ġwrap": 3176,
    "Ġwake": 3177,
    "Ġbreakfast": 3178,
    "ye": 3179,
    "ouses": 3180,
    "Ġbloom": 3181,
    "Ġancient": 3182,
    "Ġterri": 3183,
    "edient": 3184,
    "ĠDan": 3185,
    "Ġtoast": 3186,
    "Ġpil": 3187,
    "ĠFred": 3188,
    "ĠEllie": 3189,
    "Ġhappiness": 3190,
    "Ġknows": 3191,
    "atch": 3192,
    "Ġcity": 3193,
    "orge": 3194,
    "Ġshark": 3195,
    "Ġfier": 3196,
    "Ġcudd": 3197,
    "Ġwalls": 3198,
    "Ġicy": 3199,
    "Ġfoolish": 3200,
    "pes": 3201,
    "Ġlog": 3202,
    "Ġstubborn": 3203,
    "apping": 3204,
    "Ġaccept": 3205,
    "ĠPete": 3206,
    "omed": 3207,
    "Ġsuccessful": 3208,
    "Ġstream": 3209,
    "Ġfierce": 3210,
    "Ġrough": 3211,
    "Ġstudy": 3212,
    "Ġnicely": 3213,
    "ĠTweety": 3214,
    "Ġhouses": 3215,
    "ĠToday": 3216,
    "Ġnosy": 3217,
    "Ġspace": 3218,
    "az": 3219,
    "Ġunl": 3220,
    "Ġnotice": 3221,
    "Ġthu": 3222,
    "ĠMy": 3223,
    "Ġobedient": 3224,
    "oot": 3225,
    "laimed": 3226,
    "Ġsuggested": 3227,
    "Ġdelicate": 3228,
    "Ġlean": 3229,
    "Ġpoured": 3230,
    "Ġuseful": 3231,
    "Ġwagon": 3232,
    "Ġlocked": 3233,
    "Ġcher": 3234,
    "Ġshells": 3235,
    "Ġtools": 3236,
    "Ġcompetit": 3237,
    "Ġstri": 3238,
    "Ġexclaimed": 3239,
    "Ġdreams": 3240,
    "Ġwiped": 3241,
    "Ġmixed": 3242,
    "ext": 3243,
    "ĠBobo": 3244,
    "Ġrose": 3245,
    "Ġlights": 3246,
    "Ġsounded": 3247,
    "Ġcro": 3248,
    "uth": 3249,
    "Ġfrag": 3250,
    "Ġbags": 3251,
    "âĤ¬ÅĵLet": 3252,
    "Ġkinds": 3253,
    "wards": 3254,
    "eorge": 3255,
    "Ġweal": 3256,
    "Ġoffice": 3257,
    "Ġmem": 3258,
    "Ġgrandpa": 3259,
    "Ġexplored": 3260,
    "Ġshadow": 3261,
    "Ġdough": 3262,
    "Ġdead": 3263,
    "Ġstove": 3264,
    "Ġprint": 3265,
    "Ġbushes": 3266,
    "ache": 3267,
    "Ġtimes": 3268,
    "Ġexcitedly": 3269,
    "Ġindepend": 3270,
    "Ġfountain": 3271,
    "Ġsmaller": 3272,
    "Ġegg": 3273,
    "na": 3274,
    "Ġshowing": 3275,
    "Ġstumbled": 3276,
    "Ġdependable": 3277,
    "ention": 3278,
    "Ġjam": 3279,
    "Ġthemselves": 3280,
    "Ġlow": 3281,
    "Ġtomato": 3282,
    "ado": 3283,
    "Ġwitch": 3284,
    "Ġresc": 3285,
    "oppy": 3286,
    "Ġson": 3287,
    "dom": 3288,
    "Spot": 3289,
    "Ġaunt": 3290,
    "reen": 3291,
    "Ġswe": 3292,
    "Ġfragile": 3293,
    "Ġabove": 3294,
    "Ġlaw": 3295,
    "Ġenc": 3296,
    "Ġfingers": 3297,
    "Ġadmired": 3298,
    "Ġcounted": 3299,
    "ĠRose": 3300,
    "Ġlab": 3301,
    "Ġroof": 3302,
    "kn": 3303,
    "Em": 3304,
    "Ġrode": 3305,
    "ormous": 3306,
    "vice": 3307,
    "arth": 3308,
    "Ġspoiled": 3309,
    "Ġstretch": 3310,
    "Ġperform": 3311,
    "Ġspinning": 3312,
    "Ġbrightly": 3313,
    "Ġparrot": 3314,
    "Ġseem": 3315,
    "Ġcam": 3316,
    "Ġenormous": 3317,
    "ĠYour": 3318,
    "Ġzip": 3319,
    "Ġplayful": 3320,
    "arry": 3321,
    "ray": 3322,
    "Ġcop": 3323,
    "Ġindependent": 3324,
    "Ġhelm": 3325,
    "Ġboats": 3326,
    "Ġpractice": 3327,
    "ines": 3328,
    "Ġusing": 3329,
    "mbre": 3330,
    "Ġbuilt": 3331,
    "Ġraced": 3332,
    "Ġumbre": 3333,
    "ĠMrs": 3334,
    "Ġacorn": 3335,
    "Ġways": 3336,
    "ither": 3337,
    "Ġkicked": 3338,
    "inal": 3339,
    "Ġeng": 3340,
    "Ġhammer": 3341,
    "Ġstronger": 3342,
    "Where": 3343,
    "Ġdelighted": 3344,
    "Ġthoughtful": 3345,
    "eeze": 3346,
    "corn": 3347,
    "Ġreminded": 3348,
    "Ġbitter": 3349,
    "Ġhoop": 3350,
    "ict": 3351,
    "ĠNemo": 3352,
    "Ġchanged": 3353,
    "Ġbrace": 3354,
    "Ġchir": 3355,
    "Ġsniff": 3356,
    "Ġtele": 3357,
    "Ġgem": 3358,
    "ĠBu": 3359,
    "Ġwhispered": 3360,
    "ĠU": 3361,
    "Ġclock": 3362,
    "Ġdove": 3363,
    "Ġshone": 3364,
    "Ġrat": 3365,
    "Ġtwig": 3366,
    "Ġorig": 3367,
    "Ġsteal": 3368,
    "iable": 3369,
    "Ġbeak": 3370,
    "Ġtunn": 3371,
    "Ġfre": 3372,
    "Ġpainted": 3373,
    "Ġjolly": 3374,
    "anger": 3375,
    "Ġjog": 3376,
    "Ġpumpkin": 3377,
    "Ġtummy": 3378,
    "known": 3379,
    "Ġcleaning": 3380,
    "Ġmis": 3381,
    "Ġbees": 3382,
    "ĠSn": 3383,
    "Ġsunfl": 3384,
    "Ġcostum": 3385,
    "Ġsolve": 3386,
    "ience": 3387,
    "Ġbump": 3388,
    "Ġserious": 3389,
    "Ġallowed": 3390,
    "Ġcone": 3391,
    "amond": 3392,
    "Ġhanded": 3393,
    "Ġjoined": 3394,
    "Ġmagn": 3395,
    "Ġdust": 3396,
    "atter": 3397,
    "llip": 3398,
    "Ġreliable": 3399,
    "Ġmoder": 3400,
    "Ġchose": 3401,
    "het": 3402,
    "ĠElla": 3403,
    "llipop": 3404,
    "Ġbarber": 3405,
    "anut": 3406,
    "Ġgasped": 3407,
    "Ġunknown": 3408,
    "Ġbounce": 3409,
    "Ġmetal": 3410,
    "Ġguard": 3411,
    "iew": 3412,
    "Ġhalf": 3413,
    "Ġoriginal": 3414,
    "Ġleaving": 3415,
    "Ġdolphin": 3416,
    "Ġpopcorn": 3417,
    "Ġclum": 3418,
    "Ġhairy": 3419,
    "Ġdiamond": 3420,
    "\"But": 3421,
    "Ġlollipop": 3422,
    "Ġmarble": 3423,
    "Ġfinding": 3424,
    "upid": 3425,
    "uring": 3426,
    "Ġpost": 3427,
    "gu": 3428,
    "Ġview": 3429,
    "âĤ¬ÅĵYes": 3430,
    "ĠMar": 3431,
    "\"Don": 3432,
    "Ġforth": 3433,
    "Ġterrible": 3434,
    "aghet": 3435,
    "Ġpotato": 3436,
    "aghetti": 3437,
    "inary": 3438,
    "Ġbean": 3439,
    "Ġrubb": 3440,
    "Ġsauce": 3441,
    "Ġpicking": 3442,
    "Ġthose": 3443,
    "\"Tom": 3444,
    "Ġholds": 3445,
    "Ġdoesn": 3446,
    "Ġyet": 3447,
    "Ġsink": 3448,
    "Ġsalad": 3449,
    "tern": 3450,
    "ĠAlice": 3451,
    "Ġwealthy": 3452,
    "Ġstat": 3453,
    "Ġregular": 3454,
    "How": 3455,
    "Ġrub": 3456,
    "robe": 3457,
    "Ġstamp": 3458,
    "Ġsleeping": 3459,
    "Ġpirate": 3460,
    "Ġclumsy": 3461,
    "ilty": 3462,
    "ĠDucky": 3463,
    "Ġadvice": 3464,
    "Ġmodern": 3465,
    "Ġyarn": 3466,
    "Ġcreate": 3467,
    "Ġguilty": 3468,
    "Well": 3469,
    "Ġcompass": 3470,
    "Ġtelling": 3471,
    "Ġspaghetti": 3472,
    "Ġstairs": 3473,
    "illa": 3474,
    "ugged": 3475,
    "ĠGrandpa": 3476,
    "ebra": 3477,
    "Ġhay": 3478,
    "Ġthunder": 3479,
    "Ġthinking": 3480,
    "Ġing": 3481,
    "ĠWhenever": 3482,
    "Ġtor": 3483,
    "Ġstupid": 3484,
    "Ġprep": 3485,
    "Ġopens": 3486,
    "Ġsearching": 3487,
    "Ġsquare": 3488,
    "com": 3489,
    "\"Ben": 3490,
    "cod": 3491,
    "Ġtank": 3492,
    "Ġrushed": 3493,
    "Ġingred": 3494,
    "Ġingredient": 3495,
    "Ġumbrella": 3496,
    "Ġknock": 3497,
    "irsty": 3498,
    "Ġcamera": 3499,
    "âĤ¬ÅĵWhat": 3500,
    "Ġbeet": 3501,
    "Ġangel": 3502,
    "Ġpatch": 3503,
    "Ġcheap": 3504,
    "Mary": 3505,
    "ĠFr": 3506,
    "Ġstage": 3507,
    "Ġchar": 3508,
    "Ġzebra": 3509,
    "eezed": 3510,
    "Ġmask": 3511,
    "Ġwashed": 3512,
    "Ġbull": 3513,
    "Ġcur": 3514,
    "Ġpebble": 3515,
    "Ġpopular": 3516,
    "Ġarrow": 3517,
    "ĠBella": 3518,
    "Ġpige": 3519,
    "ations": 3520,
    "Go": 3521,
    "isk": 3522,
    "Ġengine": 3523,
    "ĠMike": 3524,
    "Ġmissing": 3525,
    "io": 3526,
    "Ġpeanut": 3527,
    "Ġgoose": 3528,
    "Ġcarrying": 3529,
    "time": 3530,
    "Ġcrocod": 3531,
    "Ġflex": 3532,
    "Ġjacket": 3533,
    "Ġrubbed": 3534,
    "fa": 3535,
    "Ġdull": 3536,
    "Ġgraceful": 3537,
    "Ġpersist": 3538,
    "\"R": 3539,
    "Ġcrazy": 3540,
    "Ġdriving": 3541,
    "âĤ¬ÅĵIt": 3542,
    "âĤ¬âĢ": 3543,
    "umbers": 3544,
    "Ġshel": 3545,
    "Ġshiver": 3546,
    "Ġfresh": 3547,
    "Ġimpressive": 3548,
    "Ġstranger": 3549,
    "Ġtied": 3550,
    "Ġload": 3551,
    "\"B": 3552,
    "Ġdestro": 3553,
    "\"Y": 3554,
    "Ġtruth": 3555,
    "Ġfriendship": 3556,
    "-c": 3557,
    "ophie": 3558,
    "Ġseeds": 3559,
    "uper": 3560,
    "ĠFin": 3561,
    "Ġdreaming": 3562,
    "Ġtem": 3563,
    "Ġcompassion": 3564,
    "Ġrug": 3565,
    "Ġthirsty": 3566,
    "Ġshocked": 3567,
    "Ġsne": 3568,
    "Ġhandle": 3569,
    "Ġreward": 3570,
    "Ġsparkled": 3571,
    "ibb": 3572,
    "Ġdeliver": 3573,
    "Ġcareless": 3574,
    "Ġcomb": 3575,
    "Ġending": 3576,
    "Ġnature": 3577,
    "Ġwire": 3578,
    "Ġcomput": 3579,
    "Ġimagined": 3580,
    "Ġsudden": 3581,
    "Ġflashlight": 3582,
    "Ġstops": 3583,
    "oomy": 3584,
    "Ġflexible": 3585,
    "Ġbracelet": 3586,
    "Ġwheels": 3587,
    "ief": 3588,
    "\"Mommy": 3589,
    "ement": 3590,
    "Ġearly": 3591,
    "?\".": 3592,
    "Ġmeal": 3593,
    "Ġingredients": 3594,
    "Ġdesk": 3595,
    "Ġenth": 3596,
    "Ġpant": 3597,
    "Ġcryst": 3598,
    "Ġpattern": 3599,
    "arsh": 3600,
    "Ġpeeked": 3601,
    "Ġcere": 3602,
    "Ġspilled": 3603,
    "ince": 3604,
    "Ġenthus": 3605,
    "Ġreading": 3606,
    "\"Help": 3607,
    "Ġlibrary": 3608,
    "ric": 3609,
    "Ġenvel": 3610,
    "loo": 3611,
    "Ġdiscover": 3612,
    "Ġpenny": 3613,
    "Ġprize": 3614,
    "Ġmailbox": 3615,
    "Ġnumbers": 3616,
    "Ġstack": 3617,
    "Ġpengu": 3618,
    "Ġencou": 3619,
    "Ġwing": 3620,
    "gest": 3621,
    "Ġbutterflies": 3622,
    "ision": 3623,
    "Ġflute": 3624,
    "Ġsadly": 3625,
    "Ġfork": 3626,
    "Ġsurf": 3627,
    "Ġscoot": 3628,
    "Ġsuit": 3629,
    "âĤ¬ÅĵLetÃ¢": 3630,
    "Ġwarned": 3631,
    "Ġwindows": 3632,
    "Ġplaced": 3633,
    "Ġstatue": 3634,
    "Ġscale": 3635,
    "Ġbeetle": 3636,
    "ellig": 3637,
    "ikes": 3638,
    "ĠWhile": 3639,
    "Ġbiggest": 3640,
    "ĠDave": 3641,
    "Ġspring": 3642,
    "Ġnurse": 3643,
    "Ġpup": 3644,
    "Ġtravel": 3645,
    "Ġorder": 3646,
    "host": 3647,
    "Ġtowers": 3648,
    "Ġbent": 3649,
    "bled": 3650,
    "Ġintellig": 3651,
    "ĠMummy": 3652,
    "Ġbadly": 3653,
    "iches": 3654,
    "Ġslides": 3655,
    "Ġtur": 3656,
    "Ġliz": 3657,
    "Ġahead": 3658,
    "Ġsorts": 3659,
    "awn": 3660,
    "Ġspoke": 3661,
    "Ġgum": 3662,
    "Ġnote": 3663,
    "Ġanx": 3664,
    "Ġhumble": 3665,
    "Ġrece": 3666,
    "Ġtorn": 3667,
    "Ġearth": 3668,
    "Ġobject": 3669,
    "Ġavo": 3670,
    "Ġcompl": 3671,
    "Ġolder": 3672,
    "Ġghost": 3673,
    "Ġenv": 3674,
    "Ġjumps": 3675,
    "comfort": 3676,
    "Ġgrowing": 3677,
    "\"Good": 3678,
    "ĠcouldnÃ¢": 3679,
    "Ġtunnel": 3680,
    "-a": 3681,
    "ĠPe": 3682,
    "Ġharmless": 3683,
    "Ġanxious": 3684,
    "Ġvalue": 3685,
    "Ġcrocodile": 3686,
    "Ġcomplet": 3687,
    "ctop": 3688,
    "Ġpow": 3689,
    "ctopus": 3690,
    "Ġbeauty": 3691,
    "Ġpale": 3692,
    "comfortable": 3693,
    "ĠHere": 3694,
    "Ġnail": 3695,
    "Ġuncomfortable": 3696,
    "Ġsofa": 3697,
    "Ġtrap": 3698,
    "Ġer": 3699,
    "illie": 3700,
    "ĠBear": 3701,
    "\"Sorry": 3702,
    "Ġperm": 3703,
    "Ġcereal": 3704,
    "Ġcelebrate": 3705,
    "Ġpersistent": 3706,
    "Ġmel": 3707,
    "Ġturkey": 3708,
    "Ġrefused": 3709,
    "ĠKim": 3710,
    "Ġcupboard": 3711,
    "Ġscatter": 3712,
    "Ġcounting": 3713,
    "Ġsunflower": 3714,
    "Ġsuper": 3715,
    "While": 3716,
    "Ġmole": 3717,
    "Ġcooking": 3718,
    "Ġcomputer": 3719,
    "Ġnames": 3720,
    "Ġhung": 3721,
    "Ġoctopus": 3722,
    "ĠMandy": 3723,
    "Ġdestroy": 3724,
    "Ġmush": 3725,
    "Ġcrane": 3726,
    "ĠGive": 3727,
    "Ġshut": 3728,
    "Ġpretending": 3729,
    "Ġcurt": 3730,
    "Ġpony": 3731,
    "ĠLook": 3732,
    "\"Come": 3733,
    "Ġsandwiches": 3734,
    "Ġcurtain": 3735,
    "Ġtriang": 3736,
    "Ġpiano": 3737,
    "Ġcharming": 3738,
    "Ġtrick": 3739,
    "Ġneat": 3740,
    "Ġflour": 3741,
    "Ġsupport": 3742,
    "Ġdeaf": 3743,
    "Ġbase": 3744,
    "stri": 3745,
    "Ġchasing": 3746,
    "ĠToby": 3747,
    "ices": 3748,
    "Ġquestion": 3749,
    "Ġuncle": 3750,
    "Ġsnuggled": 3751,
    "Ġgifted": 3752,
    "ĠLola": 3753,
    "Ġcrawl": 3754,
    "Ġordinary": 3755,
    "Ġattract": 3756,
    "Ġlively": 3757,
    "Ġdrawer": 3758,
    "ceed": 3759,
    "aches": 3760,
    "-old": 3761,
    "Ġtwirled": 3762,
    "ud": 3763,
    "ubby": 3764,
    "Ġmay": 3765,
    "Ġspeed": 3766,
    "Ġlizard": 3767,
    "ips": 3768,
    "Ġcamp": 3769,
    "uddy": 3770,
    "-cream": 3771,
    "oe": 3772,
    "cu": 3773,
    "Ġrules": 3774,
    "Ġintelligent": 3775,
    "Ġsett": 3776,
    "Ġcourage": 3777,
    "Ġcrystal": 3778,
    "Ġvi": 3779,
    "Ġcarp": 3780,
    "Ġenvelope": 3781,
    "Ġtrash": 3782,
    "Daisy": 3783,
    "Ġhunter": 3784,
    "erable": 3785,
    "Alice": 3786,
    "Ġsend": 3787,
    "ĠBill": 3788,
    "orant": 3789,
    "used": 3790,
    "Ġhelmet": 3791,
    "Ġmiserable": 3792,
    "Ġbeep": 3793,
    "Ġyawn": 3794,
    "Ġparade": 3795,
    "Ġtask": 3796,
    "\"Stop": 3797,
    "Ġshaking": 3798,
    "Ġgloomy": 3799,
    "Ġscreen": 3800,
    "Ġneedle": 3801,
    "Ġpigeon": 3802,
    "cut": 3803,
    "Ġthief": 3804,
    "aff": 3805,
    "\"Of": 3806,
    "Ġhurry": 3807,
    "Ġblueber": 3808,
    "Ġalert": 3809,
    "Ġuniver": 3810,
    "Ġbandage": 3811,
    "gust": 3812,
    "Ġvide": 3813,
    "Ġphot": 3814,
    "Ġcreatures": 3815,
    "Ġsoldier": 3816,
    "Ġcartoon": 3817,
    "Ġleash": 3818,
    "Ġstation": 3819,
    "Ġjet": 3820,
    "Ġpackage": 3821,
    "Ġdisgust": 3822,
    "heart": 3823,
    "Ġanywhere": 3824,
    "Ġraven": 3825,
    "Ġwishes": 3826,
    "Ġresist": 3827,
    "Ġignorant": 3828,
    "enry": 3829,
    "Ġclub": 3830,
    "Ġpepper": 3831,
    "Ġmushroom": 3832,
    "Ġdug": 3833,
    "Ġcollar": 3834,
    "Ġletters": 3835,
    "Ġcricket": 3836,
    "Ġgir": 3837,
    "Give": 3838,
    "arlie": 3839,
    "Ġfireman": 3840,
    "Ġled": 3841,
    "iest": 3842,
    "tter": 3843,
    "âĤ¬ÅĵThat": 3844,
    "ĠEventually": 3845,
    "aby": 3846,
    "Ġsucceed": 3847,
    "Ġener": 3848,
    "Ġchubby": 3849,
    "Ġbounced": 3850,
    "-aid": 3851,
    "Ġpracticed": 3852,
    "Ġtooth": 3853,
    "Ġhelpless": 3854,
    "Ġcompassionate": 3855,
    "Ġstretched": 3856,
    "Ġimpat": 3857,
    "Ġshine": 3858,
    "Ġtap": 3859,
    "ĠGeorge": 3860,
    "Benny": 3861,
    "Ġgor": 3862,
    "Ġstickers": 3863,
    "Ġjug": 3864,
    "urb": 3865,
    "Ġbicy": 3866,
    "ĠCl": 3867,
    "strich": 3868,
    "ses": 3869,
    "Ġchance": 3870,
    "Ġrepe": 3871,
    "Ġcompetitive": 3872,
    "Ġpressed": 3873,
    "Ġattractive": 3874,
    "Ġattic": 3875,
    "Ġmuff": 3876,
    "Ġpants": 3877,
    "Ġsquash": 3878,
    "Ġdecorate": 3879,
    "Ġvine": 3880,
    "Ġcarpet": 3881,
    "Ġstarts": 3882,
    "orable": 3883,
    "Ġdisturb": 3884,
    "Ġfu": 3885,
    "Ġrespectful": 3886,
    "ummer": 3887,
    "Ġimpatient": 3888,
    "arian": 3889,
    "Ġjeep": 3890,
    "Stop": 3891,
    "Ġotter": 3892,
    "Ġnobody": 3893,
    "Ġradio": 3894,
    "ccol": 3895,
    "Ġbet": 3896,
    "Ġanyway": 3897,
    "ccoli": 3898,
    "Ġpasta": 3899,
    "noon": 3900,
    "Ġafternoon": 3901,
    "Ġtrump": 3902,
    "Ġshouts": 3903,
    "Ġcandle": 3904,
    "Ġstirred": 3905,
    "ĠWh": 3906,
    "ĠAre": 3907,
    "Ġsteps": 3908,
    "ĠBrownie": 3909,
    "Ġtroubled": 3910,
    "Ġbelt": 3911,
    "Ġitself": 3912,
    "Ġrestless": 3913,
    "Ġmill": 3914,
    "Ġfurther": 3915,
    "Ġribb": 3916,
    "Ġbrighter": 3917,
    "Ġfearful": 3918,
    "Ġfort": 3919,
    "aurant": 3920,
    "coa": 3921,
    "Ġskip": 3922,
    "Ġtire": 3923,
    "Ġrestaurant": 3924,
    "Ġsomewhere": 3925,
    "aked": 3926,
    "Ġsecond": 3927,
    "Ġscooter": 3928,
    "Ġtray": 3929,
    "olin": 3930,
    "Ġbackpack": 3931,
    "Ġadorable": 3932,
    "Ġbri": 3933,
    "Ġfilthy": 3934,
    "ĠWhere": 3935,
    "Ġcube": 3936,
    "Ġmug": 3937,
    "Ġdisgusting": 3938,
    "ĠPolly": 3939,
    "Ġquar": 3940,
    "stic": 3941,
    "Ġnuts": 3942,
    "Ġcards": 3943,
    "ĠAl": 3944,
    "Ġallig": 3945,
    "Ġten": 3946,
    "Ġpun": 3947,
    "gn": 3948,
    "Ġtemp": 3949,
    "ĠLee": 3950,
    "Ġscrew": 3951,
    "Ġseal": 3952,
    "Ġthread": 3953,
    "Ġleop": 3954,
    "\"Are": 3955,
    "Ġhook": 3956,
    "Ġenthusia": 3957,
    "Ġpipe": 3958,
    "Ġcocoa": 3959,
    "Ġenthusiastic": 3960,
    "ĠSh": 3961,
    "Ġgiggle": 3962,
    "Ġbroccoli": 3963,
    "Ġwaff": 3964,
    "Ġsandbox": 3965,
    "opl": 3966,
    "eropl": 3967,
    "Ġsweetheart": 3968,
    "If": 3969,
    "Ġgorilla": 3970,
    "Ġcase": 3971,
    "Ġbarking": 3972,
    "Ġdistant": 3973,
    "Ġnowhere": 3974,
    "Ġlid": 3975,
    "Ġshoe": 3976,
    "Ġhipp": 3977,
    "Ġtrumpet": 3978,
    "par": 3979,
    "Ġexper": 3980,
    "Ġmeas": 3981,
    "Ġaeropl": 3982,
    "Ġadmire": 3983,
    "Ġpand": 3984,
    "Ġenvious": 3985,
    "Ġbatht": 3986,
    "Ġreco": 3987,
    "Ġdess": 3988,
    "Ġpoem": 3989,
    "Ġunpack": 3990,
    "-y": 3991,
    "Little": 3992,
    "Ġmonkeys": 3993,
    "come": 3994,
    "Ġexplain": 3995,
    "Ġbathtub": 3996,
    "Ġrepair": 3997,
    "Ġsheet": 3998,
    "aroo": 3999,
    "irit": 4000,
    "Ġsepar": 4001,
    "angaroo": 4002,
    "ĠSm": 4003,
    "Ġostrich": 4004,
    "gging": 4005,
    "Ġsent": 4006,
    "gie": 4007,
    "Ġharsh": 4008,
    "Ġsoar": 4009,
    "night": 4010,
    "Ġlistening": 4011,
    "Grandma": 4012,
    "ophone": 4013,
    "ĠWould": 4014,
    "Ġants": 4015,
    "Ġcooked": 4016,
    "Ġhappier": 4017,
    "Ġspell": 4018,
    "Ġquite": 4019,
    "Ġcats": 4020,
    "ĠEverything": 4021,
    "Ġgrabs": 4022,
    "ĠSnow": 4023,
    "Ġhuman": 4024,
    "Ġkangaroo": 4025,
    "Ġbreat": 4026,
    "llie": 4027,
    "Ġcomet": 4028,
    "Ġcountry": 4029,
    "opter": 4030,
    "icopter": 4031,
    "ĠJoey": 4032,
    "Ġcows": 4033,
    "ĠPat": 4034,
    "stairs": 4035,
    "Ġsummer": 4036,
    "Ġsort": 4037,
    "Ġspeak": 4038,
    "Ġmama": 4039,
    "Ġleopard": 4040,
    "Ġjellyfish": 4041,
    "apa": 4042,
    "Ġur": 4043,
    "Ġstared": 4044,
    "Ġimpro": 4045,
    "cycle": 4046,
    "Ġhelicopter": 4047,
    "Ġsplit": 4048,
    "Ġpor": 4049,
    "Ġmessage": 4050,
    "\"Who": 4051,
    "Ġmodest": 4052,
    "Ġpaws": 4053,
    "uct": 4054,
    "Ġpal": 4055,
    "shed": 4056,
    "Ġpulls": 4057,
    "Ġsize": 4058,
    "Ġtripped": 4059,
    "See": 4060,
    "Ġchalk": 4061,
    "Ġfive": 4062,
    "Ġbicycle": 4063,
    "Ġfinds": 4064,
    "Ġgiven": 4065,
    "!\".": 4066,
    "Ġalligator": 4067,
    "Ġobser": 4068,
    "Ġhall": 4069,
    "ĠdidnÃ¢": 4070,
    "imi": 4071,
    "Ġhedge": 4072,
    "-year": 4073,
    "hood": 4074,
    "Ġforgave": 4075,
    "Ġcact": 4076,
    "Ġorganize": 4077,
    "ĠTweetie": 4078,
    "Ġbikes": 4079,
    "Ġmagnet": 4080,
    "Ġfle": 4081,
    "Ġrescue": 4082,
    "Ġspirit": 4083,
    "Ġpaid": 4084,
    "Ġmelon": 4085,
    "Ġpurse": 4086,
    "Ġrice": 4087,
    "bul": 4088,
    "Everyone": 4089,
    "Ġsalt": 4090,
    "ucked": 4091,
    "Ġroared": 4092,
    "Ġsweater": 4093,
    "iskers": 4094,
    "Jenny": 4095,
    "Ġholes": 4096,
    "Ġviolin": 4097,
    "Ġhaircut": 4098,
    "Ġbehave": 4099,
    "Ġmicr": 4100,
    "Ġpushing": 4101,
    "Ġwheat": 4102,
    "Ġcush": 4103,
    "ipping": 4104,
    "Ġmath": 4105,
    "Ġsle": 4106,
    "Ġbin": 4107,
    "Ġchain": 4108,
    "Ġscold": 4109,
    "\"Ow": 4110,
    "Ġrecogn": 4111,
    "Ġloop": 4112,
    "Ġprov": 4113,
    "Ġdessert": 4114,
    "ĠAlex": 4115,
    "Ġbuzz": 4116,
    "seum": 4117,
    "Ġlightning": 4118,
    "Ġpalace": 4119,
    "Ġhippo": 4120,
    "Ġtriangle": 4121,
    "Ġfrowned": 4122,
    "Ġoat": 4123,
    "aled": 4124,
    "rec": 4125,
    "Ġfirework": 4126,
    "Ġknot": 4127,
    "Ġswinging": 4128,
    "Who": 4129,
    "lcano": 4130,
    "Ġlions": 4131,
    "Ġpilot": 4132,
    "eer": 4133,
    "Ġeither": 4134,
    "Ġmicrophone": 4135,
    "Ġstarting": 4136,
    "Ġmeat": 4137,
    "Ġbarrel": 4138,
    "Ġriding": 4139,
    "Ġmuseum": 4140,
    "Ġboots": 4141,
    "Ġsticker": 4142,
    "ĠSophie": 4143,
    "Ġcactus": 4144,
    "Ġbur": 4145,
    "Ġeras": 4146,
    "Ġshakes": 4147,
    "Ġlip": 4148,
    "Ġpapers": 4149,
    "âĤ¬ÅĵYou": 4150,
    "Ġjokes": 4151,
    "Ġenergy": 4152,
    "Ġstrawberry": 4153,
    "Ġshopkeeper": 4154,
    "Ġtax": 4155,
    "Ġtrains": 4156,
    "inking": 4157,
    "astic": 4158,
    "te": 4159,
    "Ġinse": 4160,
    "Ġvolcano": 4161,
    "Ġpushes": 4162,
    "Ġluck": 4163,
    "Ġsailor": 4164,
    "reci": 4165,
    "\"Me": 4166,
    "Ġmule": 4167,
    "iling": 4168,
    "play": 4169,
    "ĠRed": 4170,
    "Daddy": 4171,
    "Ġyogurt": 4172,
    "Ġwallet": 4173,
    "Ġped": 4174,
    "Ġraft": 4175,
    "Ġshield": 4176,
    "Ġappreci": 4177,
    "Ġshade": 4178,
    "\"A": 4179,
    "Ġrod": 4180,
    "ebook": 4181,
    "Ġlear": 4182,
    "Ġlearnt": 4183,
    "Ġnotebook": 4184,
    "Ġsilver": 4185,
    "Ġsock": 4186,
    "Ġbananas": 4187,
    "ĠJerry": 4188,
    "ĠAndy": 4189,
    "Ġbears": 4190,
    "Ġalive": 4191,
    "ffe": 4192,
    "Ġneighbour": 4193,
    "Ġended": 4194,
    "Ġambul": 4195,
    "Ġdrawings": 4196,
    "Ġcolours": 4197,
    "Ġrolling": 4198,
    "ffee": 4199,
    "Ġchecked": 4200,
    "Ġsoftly": 4201,
    "Ġstrugg": 4202,
    "Ġlend": 4203,
    "Ġhadn": 4204,
    "Ġpole": 4205,
    "Ġsmells": 4206,
    "Ġfalling": 4207,
    "Ġshovel": 4208,
    "Ġmild": 4209,
    "Ġporch": 4210,
    "edy": 4211,
    "Ġsteak": 4212,
    "cast": 4213,
    "icer": 4214,
    "Ġlaund": 4215,
    "Ġhive": 4216,
    "ooped": 4217,
    "Ġevening": 4218,
    "Ġavoc": 4219,
    "Ġreind": 4220,
    "Ġbarks": 4221,
    "Ġgrapes": 4222,
    "Ġdisplay": 4223,
    "Ġzoomed": 4224,
    "ube": 4225,
    "Ġputting": 4226,
    "Ġpenguin": 4227,
    "Ġcostume": 4228,
    "Ġfilm": 4229,
    "Ġlaundry": 4230,
    "ense": 4231,
    "Ġtaxi": 4232,
    "Ġvisited": 4233,
    "Ġsandcast": 4234,
    "Ġclapping": 4235,
    "Ġambulance": 4236,
    "Ġtricks": 4237,
    "Ġshelter": 4238,
    "Ġcord": 4239,
    "Ġelev": 4240,
    "Ġquarrel": 4241,
    "Ġaeroplane": 4242,
    "Ġsprink": 4243,
    "ĠTr": 4244,
    "Ġmarched": 4245,
    "ges": 4246,
    "happy": 4247,
    "Ġinsist": 4248,
    "Ġpanda": 4249,
    "Ġrubber": 4250,
    "aggie": 4251,
    "Ġgoal": 4252,
    "Ġgro": 4253,
    "Ġbelongs": 4254,
    "Ġmedal": 4255,
    "Ġairport": 4256,
    "Ġsaus": 4257,
    "Ġskill": 4258,
    "Sorry": 4259,
    "ait": 4260,
    "Ġavail": 4261,
    "Ġapologized": 4262,
    "Ġleaned": 4263,
    "Ġfeelings": 4264,
    "Ġol": 4265,
    "elery": 4266,
    "Ġprun": 4267,
    "ĠBet": 4268,
    "Ġelevator": 4269,
    "iron": 4270,
    "Ġink": 4271,
    "ĠSmith": 4272,
    "Ġreindeer": 4273,
    "Ġjudge": 4274,
    "ĠOr": 4275,
    "Ġdishes": 4276,
    "ĠdonÃ¢": 4277,
    "Ġbasketball": 4278,
    "Ġplanet": 4279,
    "Ġpeek": 4280,
    "Ġunlock": 4281,
    "Ġclimbing": 4282,
    "Ġrag": 4283,
    "Ġtube": 4284,
    "sely": 4285,
    "Ġeraser": 4286,
    "Ġraining": 4287,
    "ĠPapa": 4288,
    "ophy": 4289,
    "Ġcardboard": 4290,
    "Ġpolish": 4291,
    "urch": 4292,
    "ĠPaul": 4293,
    "Ġart": 4294,
    "Ġyach": 4295,
    "Ġfields": 4296,
    "Ġcoffee": 4297,
    "Ġmen": 4298,
    "Ġpad": 4299,
    "Ġtrophy": 4300,
    "Ġstom": 4301,
    "Ġavailable": 4302,
    "ĠBuddy": 4303,
    "Ġunhappy": 4304,
    "Ġshouldn": 4305,
    "Ġshort": 4306,
    "Ġoy": 4307,
    "Ġthanks": 4308,
    "Ġshrimp": 4309,
    "reeze": 4310,
    "Ġperfectly": 4311,
    "Ġmarry": 4312,
    "ĠWhiskers": 4313,
    "Ġkitty": 4314,
    "Ġpage": 4315,
    "Ġdrops": 4316,
    "Ġflies": 4317,
    "anic": 4318,
    "eath": 4319,
    "hino": 4320,
    "Ġyacht": 4321,
    "Ġsoil": 4322,
    "Ġwife": 4323,
    "Ġhoping": 4324,
    "ron": 4325,
    "Ġdive": 4326,
    "Ġplayer": 4327,
    "nam": 4328,
    "Ġvend": 4329,
    "Ġincl": 4330,
    "Ġminute": 4331,
    "chanic": 4332,
    "Ġclosely": 4333,
    "gen": 4334,
    "place": 4335,
    "Ġcomplete": 4336,
    "âĤ¬âĢľ": 4337,
    "Ġappl": 4338,
    "Ġmagaz": 4339,
    "Ġimagine": 4340,
    "Ġwinter": 4341,
    "Ġwool": 4342,
    "ected": 4343,
    "Ġcelery": 4344,
    "Ġbreaks": 4345,
    "nger": 4346,
    "Ġmechanic": 4347,
    "Ġfurn": 4348,
    "iture": 4349,
    "Ġtub": 4350,
    "aulif": 4351,
    "aulifl": 4352,
    "Ġcups": 4353,
    "Ġgolf": 4354,
    "Ġfurniture": 4355,
    "Ġrever": 4356,
    "ĠBunny": 4357,
    "Ġonion": 4358,
    "Ġmixer": 4359,
    "Ġfrogs": 4360,
    "Ġrhino": 4361,
    "ecause": 4362,
    "Ġstuffed": 4363,
    "ween": 4364,
    "Ġbaking": 4365,
    "Ġimagination": 4366,
    "Ġswitch": 4367,
    "Ġfolder": 4368,
    "affe": 4369,
    "Ġbetween": 4370,
    "Ġswung": 4371,
    "Ġjournal": 4372,
    "Ġbul": 4373,
    "Ġtreasures": 4374,
    "Ġskull": 4375,
    "Ġcounter": 4376,
    "Ġheads": 4377,
    "Ġfreez": 4378,
    "Ġherb": 4379,
    "Ġpair": 4380,
    "Ġeagerly": 4381,
    "ctory": 4382,
    "Ġquit": 4383,
    "stead": 4384,
    "mand": 4385,
    "Ġdisag": 4386,
    "Ġinsect": 4387,
    "Ġcaulifl": 4388,
    "Ġknob": 4389,
    "ides": 4390,
    "\"Where": 4391,
    "Ġpainter": 4392,
    "Ġthrows": 4393,
    "pe": 4394,
    "Ġfisher": 4395,
    "Ġcooler": 4396,
    "osie": 4397,
    "Ġfactory": 4398,
    "Ġfootball": 4399,
    "Ġdiary": 4400,
    "Ġoffer": 4401,
    "Ġheaded": 4402,
    "Ġpit": 4403,
    "Ġsunset": 4404,
    "Ch": 4405,
    "azz": 4406,
    "ccer": 4407,
    "Ġvendor": 4408,
    "ĠWill": 4409,
    "Ġvideo": 4410,
    "Ġseeing": 4411,
    "Ġlie": 4412,
    "Ġtut": 4413,
    "Ġtwink": 4414,
    "Ġchirp": 4415,
    "nament": 4416,
    "Ġcheek": 4417,
    "Ġsym": 4418,
    "Ġornament": 4419,
    "Ġsoccer": 4420,
    "Ġbulb": 4421,
    "right": 4422,
    "Ġframe": 4423,
    "Ġpirates": 4424,
    "zzy": 4425,
    "Ġshouting": 4426,
    "Ġcreated": 4427,
    "Ġcauliflower": 4428,
    "\"Lily": 4429,
    "Ġblowing": 4430,
    "Ġstud": 4431,
    "Ġhut": 4432,
    "izes": 4433,
    "any": 4434,
    "ories": 4435,
    "Ġhotel": 4436,
    "ĠBun": 4437,
    "ĠRo": 4438,
    "kelet": 4439,
    "Ġgiraffe": 4440,
    "Ġlives": 4441,
    "orses": 4442,
    "..": 4443,
    "aws": 4444,
    "Ġvet": 4445,
    "Ġfireplace": 4446,
    "Ġflame": 4447,
    "Ġmaze": 4448,
    "Ġtrail": 4449,
    "ĠTed": 4450,
    "Ġchurch": 4451,
    "bol": 4452,
    "Ġmotorcycle": 4453,
    "render": 4454,
    "Ġitch": 4455,
    "Ġlaser": 4456,
    "Ġhorses": 4457,
    "\"Why": 4458,
    "angu": 4459,
    "ites": 4460,
    "Ġcoal": 4461,
    "quit": 4462,
    "Ġoil": 4463,
    "Ġglove": 4464,
    "Ġyoga": 4465,
    "Ġpoke": 4466,
    "Ġpoints": 4467,
    "Ġsymbol": 4468,
    "Ġswamp": 4469,
    "Ġwaving": 4470,
    "ĠMimi": 4471,
    "Ġanch": 4472,
    "ab": 4473,
    "ĠGod": 4474,
    "Ġskelet": 4475,
    "Ġsub": 4476,
    "Ġlangu": 4477,
    "Ġax": 4478,
    "Ġwipe": 4479,
    "Ġpeach": 4480,
    "Ġattention": 4481,
    "ef": 4482,
    "Ġforgotten": 4483,
    "Ġsung": 4484,
    "lass": 4485,
    "ĠSandy": 4486,
    "mm": 4487,
    "Ġflea": 4488,
    "Ġweather": 4489,
    "ceros": 4490,
    "Ġpine": 4491,
    "Ġslept": 4492,
    "Ġtuna": 4493,
    "Ġpoint": 4494,
    "quito": 4495,
    "Ġmos": 4496,
    "Ġig": 4497,
    "Ġfishing": 4498,
    "Ġsince": 4499,
    "Ġtemple": 4500,
    "spap": 4501,
    "Ġdear": 4502,
    "Ġigloo": 4503,
    "Ġcable": 4504,
    "Ġkay": 4505,
    "ĠIÃ¢": 4506,
    "Ġnewspap": 4507,
    "Ġargue": 4508,
    "Ġcelebrated": 4509,
    "Ġreve": 4510,
    "Ġpopped": 4511,
    "rod": 4512,
    "Ġcushion": 4513,
    "Ġbreeze": 4514,
    "Ġvest": 4515,
    "Ġparent": 4516,
    "Ġsneak": 4517,
    "Inside": 4518,
    "Ġpowder": 4519,
    "unately": 4520,
    "Ġpetals": 4521,
    "Ġphoto": 4522,
    "Ġrhinoceros": 4523,
    "Ġintrod": 4524,
    "Ġmosquito": 4525,
    "Ġrot": 4526,
    "Ġdancer": 4527,
    "Ġbaseball": 4528,
    "Ġmeeting": 4529,
    "elcome": 4530,
    "ĠJess": 4531,
    "Ġgrin": 4532,
    "Ġkingdom": 4533,
    "ues": 4534,
    "Ġsir": 4535,
    "Ġsurround": 4536,
    "Ġfisherman": 4537,
    "ĠGrace": 4538,
    "Ġbattery": 4539,
    "ĠCharlie": 4540,
    "hero": 4541,
    "Ġstreng": 4542,
    "Ġanchor": 4543,
    "Ġaxe": 4544,
    "Ġgolden": 4545,
    "Ġmop": 4546,
    "Ġcomplain": 4547,
    "chair": 4548,
    "ĠLilly": 4549,
    "Ġtutor": 4550,
    "ĠAnnie": 4551,
    "ĠMaria": 4552,
    "Ġsniffed": 4553,
    "Ġlime": 4554,
    "Eventually": 4555,
    "Ġstrength": 4556,
    "Ġfog": 4557,
    "Ġsquirrels": 4558,
    "Ġmistakes": 4559,
    "Ġsuperhero": 4560,
    "Ġgreedy": 4561,
    "Ġbouncing": 4562,
    "Ġpear": 4563,
    "Ġdiscu": 4564,
    "Ġskeleton": 4565,
    "ckey": 4566,
    "ney": 4567,
    "Ġhockey": 4568,
    "Ġgrocer": 4569,
    "Ġseas": 4570,
    "Ġplastic": 4571,
    "istol": 4572,
    "Ġceiling": 4573,
    "Ġglowing": 4574,
    "Ġlawy": 4575,
    "Ġdoors": 4576,
    "lasses": 4577,
    "Ġcalls": 4578,
    "Ġpinch": 4579,
    "Ġskirt": 4580,
    "Ġzipper": 4581,
    "Ġmemories": 4582,
    "ĠBaby": 4583,
    "Ġeaten": 4584,
    "Ġiron": 4585,
    "Ġpistol": 4586,
    "Ġslipper": 4587,
    "Ġsunglasses": 4588,
    "Ġtrave": 4589,
    "Ġcob": 4590,
    "Ġstaff": 4591,
    "aces": 4592,
    "Ġhanging": 4593,
    "Ġinvest": 4594,
    "Ġwelcomed": 4595,
    "Ġagree": 4596,
    "Ġsque": 4597,
    "ĠitÃ¢": 4598,
    "Ġchickens": 4599,
    "ĠMillie": 4600,
    "Ġslippery": 4601,
    "Ġbury": 4602,
    "Ġtoil": 4603,
    "Ġsurrender": 4604,
    "Ġtheater": 4605,
    "Ġarmchair": 4606,
    "Ġinvestig": 4607,
    "tain": 4608,
    "Ġmusician": 4609,
    "Ġflapped": 4610,
    "Ġcherries": 4611,
    "Ġlotion": 4612,
    "Ġshoulder": 4613,
    "house": 4614,
    "Ġradish": 4615,
    "men": 4616,
    "web": 4617,
    "Ġquietly": 4618,
    "Ġsticky": 4619,
    "chie": 4620,
    "tress": 4621,
    "Ġnapkin": 4622,
    "Ġmattress": 4623,
    "Ġfought": 4624,
    "medi": 4625,
    "ĠUn": 4626,
    "ĠInstead": 4627,
    "ison": 4628,
    "mediately": 4629,
    "Ġvroom": 4630,
    "Ġtoilet": 4631,
    "Qu": 4632,
    "Ġsuff": 4633,
    "Ġsailing": 4634,
    "Ġnovel": 4635,
    "Ġwags": 4636,
    "was": 4637,
    "\"Here": 4638,
    "Today": 4639,
    "Ġthrowing": 4640,
    "aud": 4641,
    "Ġmystery": 4642,
    "rosc": 4643,
    "Ġmoves": 4644,
    "Emma": 4645,
    "ssible": 4646,
    "Ġfauc": 4647,
    "Ġfreezer": 4648,
    "Ġunif": 4649,
    "Yay": 4650,
    "case": 4651,
    "Ġcobweb": 4652,
    "Ġshower": 4653,
    "Ġhar": 4654,
    "Ġreef": 4655,
    "Ġuniform": 4656,
    "Ġminer": 4657,
    "erc": 4658,
    "washer": 4659,
    "inked": 4660,
    "ĠTony": 4661,
    "reek": 4662,
    "Ġinvestigate": 4663,
    "Together": 4664,
    "Ġregret": 4665,
    "Ġsprayed": 4666,
    "Ġmicrosc": 4667,
    "Ġweigh": 4668,
    "Ġveil": 4669,
    "ĠHenry": 4670,
    "Ġaccepted": 4671,
    "Ġcreek": 4672,
    "Ġtug": 4673,
    "ler": 4674,
    "Ġdishwasher": 4675,
    "Ġhappens": 4676,
    "Ġcrib": 4677,
    "Ġchess": 4678,
    "Ġmagazine": 4679,
    "Ġfaucet": 4680,
    "Ġshrugged": 4681,
    "Ġavocado": 4682,
    "Ġwriting": 4683,
    "Ġlawyer": 4684,
    "Ġhopes": 4685,
    "Ġmicroscope": 4686,
    "Ġagre": 4687,
    "Ġkayak": 4688,
    "alley": 4689,
    "ĠSu": 4690,
    "lend": 4691,
    "Ġquack": 4692,
    "Ġworth": 4693,
    "âĤ¬ÅĵItÃ¢": 4694,
    "Ġpassport": 4695,
    "Ġburned": 4696,
    "Sammy": 4697,
    "Ġoyster": 4698,
    "Ġcastles": 4699,
    "Ġmakeup": 4700,
    "Ġseparate": 4701,
    "Ġcared": 4702,
    "Ġcollected": 4703,
    "Ġblankets": 4704,
    "Ġclassroom": 4705,
    "ives": 4706,
    "Ġcandles": 4707,
    "Ġscolded": 4708,
    "Ġnews": 4709,
    "\"This": 4710,
    "Ġapplaud": 4711,
    "ĠKate": 4712,
    "Next": 4713,
    "Ġentered": 4714,
    "Ġalarm": 4715,
    "Ġvalley": 4716,
    "Ġcub": 4717,
    "Ġpresents": 4718,
    "anny": 4719,
    "Ġignored": 4720,
    "Ġfollows": 4721,
    "Ġcoats": 4722,
    "Ġexerc": 4723,
    "imney": 4724,
    "Ġbeef": 4725,
    "Ġtear": 4726,
    "Ġattach": 4727,
    "Ġward": 4728,
    "una": 4729,
    "Ġoak": 4730,
    "ĠRosie": 4731,
    "Ġchoice": 4732,
    "Ġapart": 4733,
    "Ġchimney": 4734,
    "Ġeasily": 4735,
    "Ġtucked": 4736,
    "ring": 4737,
    "ĠNext": 4738,
    "Ġjewelry": 4739,
    "Ġtrusted": 4740,
    "Ġstraight": 4741,
    "Ġsplashing": 4742,
    "Ġwardrobe": 4743,
    "Ġprevent": 4744,
    "Ġchairs": 4745,
    "Ġkisses": 4746,
    "atched": 4747,
    "Ġcabinet": 4748,
    "Ġrooms": 4749,
    "Ġblouse": 4750,
    "Ġrake": 4751,
    "Ġticket": 4752,
    "Ġbother": 4753,
    "eterin": 4754,
    "eterinarian": 4755,
    "ĠDanny": 4756,
    "sit": 4757,
    "Ġrise": 4758,
    "Ġdressed": 4759,
    "Ġnewspaper": 4760,
    "Ġveterinarian": 4761,
    "Ġclaws": 4762,
    "ety": 4763,
    "Ġpuddles": 4764,
    "Ġplanes": 4765,
    "Ġappro": 4766,
    "Ġmissile": 4767,
    "Ġkeeping": 4768,
    "ĠRu": 4769,
    "iction": 4770,
    "\"Please": 4771,
    "Ġsizes": 4772,
    "Ann": 4773,
    "anges": 4774,
    "Ġlawn": 4775,
    "Ġscratch": 4776,
    "Ġteleph": 4777,
    "Ġopera": 4778,
    "ived": 4779,
    "Ġdisappear": 4780,
    "Ġyield": 4781,
    "Ġcaring": 4782,
    "ictionary": 4783,
    "ĠHelp": 4784,
    "iday": 4785,
    "Ġblinked": 4786,
    "Ġamazement": 4787,
    "Ġsubway": 4788,
    "Ġperfu": 4789,
    "mend": 4790,
    "raged": 4791,
    "Ġcrossed": 4792,
    "Ġcane": 4793,
    "Ġdictionary": 4794,
    "Ġlanguage": 4795,
    "Ġtelephone": 4796,
    "Ġbookshe": 4797,
    "ggy": 4798,
    "Ġcell": 4799,
    "Ġstable": 4800,
    "Ġletting": 4801,
    "Ġpuzzles": 4802,
    "Ġmustache": 4803,
    "ĠSee": 4804,
    "Ġstro": 4805,
    "Ġbookcase": 4806,
    "Ġtrade": 4807,
    "Ġgym": 4808,
    "Ġwhisper": 4809,
    "ommend": 4810,
    "Ġaut": 4811,
    "Ġbirdc": 4812,
    "Ġrecommend": 4813,
    "Ġinf": 4814,
    "Ġpra": 4815,
    "Ġsqueezed": 4816,
    "rs": 4817,
    "Ġmatches": 4818,
    "Ġlicks": 4819,
    "Ġincre": 4820,
    "ampoo": 4821,
    "Ġrequ": 4822,
    "appy": 4823,
    "hic": 4824,
    "Ġsigh": 4825,
    "Ġcrawling": 4826,
    "Ġvehic": 4827,
    "Ġbirdcage": 4828,
    "Ġraz": 4829,
    "Ġbookshelf": 4830,
    "Mandy": 4831,
    "Ġhelper": 4832,
    "ival": 4833,
    "Ġperfume": 4834,
    "ĠMiss": 4835,
    "ction": 4836,
    "bbie": 4837,
    "omes": 4838,
    "Ġpur": 4839,
    "Ġspear": 4840,
    "Ġdelay": 4841,
    "Ġsteam": 4842,
    "Ġgrill": 4843,
    "Ġblueberries": 4844,
    "Ġhol": 4845,
    "Ġserve": 4846,
    "Ġsnap": 4847,
    "Ġlumber": 4848,
    "Ġmint": 4849,
    "Ġpoked": 4850,
    "Ġringing": 4851,
    "Ġshampoo": 4852,
    "Ġholiday": 4853,
    "Ġribbon": 4854,
    "Ġimprove": 4855,
    "Ġsneeze": 4856,
    "Ġblood": 4857,
    "ĠJul": 4858,
    "Ġsqueeze": 4859,
    "vision": 4860,
    "Ġcliff": 4861,
    "Ġmuffin": 4862,
    "Ġfollowing": 4863,
    "ĠHarry": 4864,
    "ĠRe": 4865,
    "Ġsi": 4866,
    "Ġrequest": 4867,
    "Ġcalend": 4868,
    "atie": 4869,
    "Ġgear": 4870,
    "Ġgrowled": 4871,
    "Ġwaste": 4872,
    "Ġdemand": 4873,
    "ores": 4874,
    "ĠTrue": 4875,
    "Ġfuel": 4876,
    "Ġyucky": 4877,
    "Ġrazor": 4878,
    "Ġexperience": 4879,
    "uckily": 4880,
    "Ġfile": 4881,
    "Ġworms": 4882,
    "Ġcrow": 4883,
    "Ġhearts": 4884,
    "Ġpastry": 4885,
    "Ġble": 4886,
    "inky": 4887,
    "Ġrefre": 4888,
    "Ġcalendar": 4889,
    "Ġisn": 4890,
    "fortunately": 4891,
    "Ġharb": 4892,
    "ĠFo": 4893,
    "Ġwandered": 4894,
    "Ġfest": 4895,
    "Ġinstr": 4896,
    "Ġhurting": 4897,
    "Ġbill": 4898,
    "Ġprop": 4899,
    "Ġtornado": 4900,
    "Ġfallen": 4901,
    "Ġjunk": 4902,
    "Ġtelevision": 4903,
    "Ġmarried": 4904,
    "ĠClara": 4905,
    "Ġshrink": 4906,
    "Ġwarmth": 4907,
    "Ġberry": 4908,
    "Ġideas": 4909,
    "ĠSnowy": 4910,
    "Ġimmediately": 4911,
    "Ġinvite": 4912,
    "Ġflutter": 4913,
    "Ġsandcastle": 4914,
    "Ġbegged": 4915,
    "Ġsurprises": 4916,
    "ising": 4917,
    "Ġcrash": 4918,
    "ĠAb": 4919,
    "Ġbelow": 4920,
    "Ġenter": 4921,
    "Ġweep": 4922,
    "Did": 4923,
    "Ġalright": 4924,
    "Ġairpl": 4925,
    "Ġwigg": 4926,
    "Ġrelaxed": 4927,
    "omeday": 4928,
    "Ġskills": 4929,
    "Ġburied": 4930,
    "Ġrabbits": 4931,
    "Ġfloat": 4932,
    "lier": 4933,
    "Ġrail": 4934,
    "Ġbravely": 4935,
    "Ġroot": 4936,
    "Ġunderstanding": 4937,
    "Ġharbor": 4938,
    "Ġplates": 4939,
    "Ġdire": 4940,
    "ah": 4941,
    "ucture": 4942,
    "Ġadmir": 4943,
    "Ġreaches": 4944,
    "Ġweap": 4945,
    "Ġspade": 4946,
    "cakes": 4947,
    "riger": 4948,
    "Ġstructure": 4949,
    "Ġcaptain": 4950,
    "Ġrefriger": 4951,
    "Ġkneel": 4952,
    "Ġlaught": 4953,
    "Ġpages": 4954,
    "amber": 4955,
    "Ġrefrigerator": 4956,
    "Ġsafety": 4957,
    "Thanks": 4958,
    "omob": 4959,
    "Ġrow": 4960,
    "Ġstrawberries": 4961,
    "asis": 4962,
    "Ġitem": 4963,
    "oral": 4964,
    "Ġbeamed": 4965,
    "ĠWho": 4966,
    "Ġraise": 4967,
    "ĠKing": 4968,
    "cus": 4969,
    "!'": 4970,
    "icing": 4971,
    "ĠSte": 4972,
    "Ġautomob": 4973,
    "Ġwhip": 4974,
    "Ġlaughter": 4975,
    "Ġignore": 4976,
    "htray": 4977,
    "ĠFreddy": 4978,
    "Ġlic": 4979,
    "Lisa": 4980,
    "Ġquiz": 4981,
    "Ġashtray": 4982,
    "Ġapron": 4983,
    "Ġbumped": 4984,
    "Ġspots": 4985,
    "Ġmyself": 4986,
    "Ġvanished": 4987,
    "Ġmoments": 4988,
    "anna": 4989,
    "Ġtong": 4990,
    "xy": 4991,
    "'ve": 4992,
    "Ġbathe": 4993,
    "Ġsomeday": 4994,
    "Ġdrain": 4995,
    "aped": 4996,
    "?\"Ċ": 4997,
    "!\"Ċ": 4998,
    "Ġoasis": 4999,
    "Ġsnapped": 5000,
    "ĠMay": 5001,
    "Ġblackboard": 5002,
    "Ġjewels": 5003,
    "Ġboot": 5004,
    "Ġreverse": 5005,
    "asp": 5006,
    "Ġvac": 5007,
    "Ġjail": 5008,
    "Ġthumb": 5009,
    "Ġsupply": 5010,
    "Ġfestival": 5011,
    "Ġbuckle": 5012,
    "ission": 5013,
    "ari": 5014,
    "achel": 5015,
    "âĤ¬ÅĵNo": 5016,
    "Ġbreathe": 5017,
    "-ups": 5018,
    "Ġinsisted": 5019,
    "ĠIs": 5020,
    "Ġsparkling": 5021,
    "Ġreceived": 5022,
    "Ġearlier": 5023,
    "ĠPeople": 5024,
    "Ġpermission": 5025,
    "Ġprepare": 5026,
    "Ġbalan": 5027,
    "Ġdestroyed": 5028,
    "Ġsaving": 5029,
    "Ġspending": 5030,
    "Ġres": 5031,
    "Ġscattered": 5032,
    "Ġknown": 5033,
    "Ġmass": 5034,
    "Ġteaching": 5035,
    "Ġdried": 5036,
    "Ġsits": 5037,
    "ĠIts": 5038,
    "Ġtoes": 5039,
    "Ġlemonade": 5040,
    "Ġport": 5041,
    "Ġdaisy": 5042,
    "ctly": 5043,
    "ĠJames": 5044,
    "Ġmodel": 5045,
    "Ġpride": 5046,
    "Ġlicense": 5047,
    "ents": 5048,
    "Ġtease": 5049,
    "Ġchamber": 5050,
    "Ġsettled": 5051,
    "ops": 5052,
    "Ġsocks": 5053,
    "Ġremove": 5054,
    "antly": 5055,
    "Ġyawned": 5056,
    "Ġguy": 5057,
    "sing": 5058,
    "ĠBefore": 5059,
    "Ġpulling": 5060,
    "Ġcuddled": 5061,
    "Ġhits": 5062,
    "sters": 5063,
    "Ġremain": 5064,
    "Ġsparkle": 5065,
    "With": 5066,
    "Your": 5067,
    "Ġhardly": 5068,
    "igail": 5069,
    "Ġbuzzing": 5070,
    "Ġencouraged": 5071,
    "ĠHave": 5072,
    "Ġbleed": 5073,
    "Ġachie": 5074,
    "Ġscooped": 5075,
    "Ġchirping": 5076,
    "Ġdecorations": 5077,
    "Ġpraised": 5078,
    "Ġnation": 5079,
    "Ġwaffle": 5080,
    "Ġequ": 5081,
    "Ok": 5082,
    "Peter": 5083,
    "Ġmention": 5084,
    "Ġglo": 5085,
    "Ġsimp": 5086,
    "Ġdare": 5087,
    "Ġsuffer": 5088,
    "Ġhate": 5089,
    "reat": 5090,
    "Ġfastest": 5091,
    "Ġreplace": 5092,
    "nies": 5093,
    "Ġbeans": 5094,
    "Ġpalm": 5095,
    "Ġappreciate": 5096,
    "Ġshot": 5097,
    "Ġscore": 5098,
    "izard": 5099,
    "Ġhomes": 5100,
    "Ġdestination": 5101,
    "Ġdresses": 5102,
    "Ġtaller": 5103,
    "Emily": 5104,
    "Ġpatiently": 5105,
    "Ġlabel": 5106,
    "Ġtore": 5107,
    "Ġflav": 5108,
    "Ġrespons": 5109,
    "Ġbelieved": 5110,
    "osed": 5111,
    "Ġclimbs": 5112,
    "Ġstruggling": 5113,
    "xture": 5114,
    "Ġbathrobe": 5115,
    "ĠTina": 5116,
    "Ġhanger": 5117,
    "Ġdifferen": 5118,
    "ude": 5119,
    "Ġrhy": 5120,
    "Ġpanic": 5121,
    "Ġwashing": 5122,
    "Ġdigg": 5123,
    "Ġinfant": 5124,
    "Ġtour": 5125,
    "Ġautomobile": 5126,
    "Ġbrain": 5127,
    "Re": 5128,
    "ĠEach": 5129,
    "Ġthrilled": 5130,
    "Ġdeeper": 5131,
    "Ġhesit": 5132,
    "Ġdiscuss": 5133,
    "Ġnone": 5134,
    "Ġapproached": 5135,
    "Ġfiref": 5136,
    "Ġdigging": 5137,
    "Ġsneezed": 5138,
    "Ġsport": 5139,
    "Ġtongue": 5140,
    "Ġwine": 5141,
    "avid": 5142,
    "Mmm": 5143,
    "Ġpoppy": 5144,
    "Ġshed": 5145,
    "Ġtwisted": 5146,
    "Bye": 5147,
    "Ġpunish": 5148,
    "Ġhers": 5149,
    "Ġworse": 5150,
    "fied": 5151,
    "Ġsparkles": 5152,
    "Ġmall": 5153,
    "Ġheat": 5154,
    "Ġhills": 5155,
    "Ġpoison": 5156,
    "Ġparts": 5157,
    "Ġawe": 5158,
    "Ġairplane": 5159,
    "ium": 5160,
    "bey": 5161,
    "Ġbang": 5162,
    "Ġinvit": 5163,
    "Ġsausage": 5164,
    "All": 5165,
    "rm": 5166,
    "rr": 5167,
    "Ġvacation": 5168,
    "Ġexamine": 5169,
    "Ġpillows": 5170,
    "Ġwizard": 5171,
    "Ġoranges": 5172,
    "Ġsetting": 5173,
    "Ġsolved": 5174,
    "Will": 5175,
    "Ġchores": 5176,
    "ĠCo": 5177,
    "Ġprovide": 5178,
    "Ġevent": 5179,
    "Ġuniverse": 5180,
    "Ġleak": 5181,
    "Ġmitten": 5182,
    "Ġmarbles": 5183,
    "Ġglowed": 5184,
    "Ġplays": 5185,
    "sity": 5186,
    "Ġupstairs": 5187,
    "Ġbites": 5188,
    "Ġtherm": 5189,
    "Ġfloated": 5190,
    "Ġfixing": 5191,
    "These": 5192,
    "ĠBuzz": 5193,
    "Ġpaints": 5194,
    "Ġvehicle": 5195,
    "ĠOllie": 5196,
    "Ġbillboard": 5197,
    "Ġsty": 5198,
    "!\",": 5199,
    "Ġwarning": 5200,
    "Ġremained": 5201,
    "ĠMaggie": 5202,
    "Ġweeks": 5203,
    "Ġcrunch": 5204,
    "ls": 5205,
    "Ġthermomet": 5206,
    "Fl": 5207,
    "osity": 5208,
    "Ġrestore": 5209,
    "bbles": 5210,
    "ĠEveryday": 5211,
    "Ġgrinned": 5212,
    "allen": 5213,
    "Ġgirls": 5214,
    "thm": 5215,
    "Ġgrey": 5216,
    "Jake": 5217,
    "Ġfloating": 5218,
    "Ġmeasured": 5219,
    "Welcome": 5220,
    "Ġsprinkles": 5221,
    "Ġflood": 5222,
    "Ġrepeat": 5223,
    "Jen": 5224,
    "Ġgifts": 5225,
    "Ġchallen": 5226,
    "Ġneighborhood": 5227,
    "Ġlily": 5228,
    "Ġshooting": 5229,
    "Ġfut": 5230,
    "ĠBetsy": 5231,
    "Ġsupposed": 5232,
    "Ġthermometer": 5233,
    "do": 5234,
    "Ġfuture": 5235,
    "Ġhurric": 5236,
    "ĠLiz": 5237,
    "rise": 5238,
    "ging": 5239,
    "Ġcherry": 5240,
    "\"Go": 5241,
    "Mark": 5242,
    "ĠGood": 5243,
    "Ġcollection": 5244,
    "Ġactually": 5245,
    "Ġurge": 5246,
    "Ġconf": 5247,
    "Ġranch": 5248,
    "Ġbrings": 5249,
    "Ġstomach": 5250,
    "Ġsew": 5251,
    "Ġmemory": 5252,
    "emember": 5253,
    "Ġrhythm": 5254,
    "Ġjazz": 5255,
    "vet": 5256,
    "Ġmailman": 5257,
    "Ġdiscovery": 5258,
    ".\"Ċ": 5259,
    "Ġduring": 5260,
    "Ġsunrise": 5261,
    "Ġmeowed": 5262,
    "allow": 5263,
    "Ġweapon": 5264,
    "Ġmassage": 5265,
    "Not": 5266,
    "Ġtide": 5267,
    "Ġfasc": 5268,
    "Ġsurrounded": 5269,
    "âĤ¬ÅĵIÃ¢": 5270,
    "Ġpaused": 5271,
    "Ġwisdom": 5272,
    "Ġinclud": 5273,
    "ero": 5274,
    "Ġbricks": 5275,
    "Ġgust": 5276,
    "\"Anna": 5277,
    "Ġrush": 5278,
    "Ġchirped": 5279,
    "Ġhurricane": 5280,
    "aspoon": 5281,
    "Help": 5282,
    "?ĊĊ": 5283,
    "\"Re": 5284,
    "Ġstrang": 5285,
    "-ray": 5286,
    "umble": 5287,
    "eration": 5288,
    "adium": 5289,
    "Ġunite": 5290,
    "Ġuniversity": 5291,
    "Ġbrus": 5292,
    "Ġteaspoon": 5293,
    "Ġbak": 5294,
    "Ġsore": 5295,
    "Ġstadium": 5296,
    "irp": 5297,
    "Ġgrape": 5298,
    "Ġcartoons": 5299,
    "ĠLater": 5300,
    "ishing": 5301,
    "iers": 5302,
    "Ġelephants": 5303,
    "Ġcakes": 5304,
    "Ġfolded": 5305,
    "Ġrust": 5306,
    "Ġwherever": 5307,
    "Ġcurled": 5308,
    "Ġtracks": 5309,
    "uing": 5310,
    "Ġlugg": 5311,
    "Ġseats": 5312,
    "Ġchewed": 5313,
    "Ġdifference": 5314,
    "\"Be": 5315,
    "eed": 5316,
    "Ġluggage": 5317,
    "Ġobserve": 5318,
    "Ġscur": 5319,
    "Ġdecision": 5320,
    "ipment": 5321,
    "Ġmanage": 5322,
    "Ġcollecting": 5323,
    "Ġsunlight": 5324,
    "Ġsigns": 5325,
    "Ġmelted": 5326,
    "Ġexercise": 5327,
    "Le": 5328,
    "Ġemer": 5329,
    "ities": 5330,
    "Ġtomatoes": 5331,
    "Ġequipment": 5332,
    "Ġspill": 5333,
    "walk": 5334,
    "Ġfascin": 5335,
    "Ġwatches": 5336,
    "âĤ¬ÅĵThatÃ¢": 5337,
    "ĠV": 5338,
    "Ġtoe": 5339,
    "Johnny": 5340,
    "Ġslice": 5341,
    "Ġsip": 5342,
    "Ex": 5343,
    "Ġwatered": 5344,
    "Ġspaces": 5345,
    "Ġlick": 5346,
    "?\".ĊĊ": 5347,
    "ĠSomeone": 5348,
    "Ġpossible": 5349,
    "Ġordered": 5350,
    "unday": 5351,
    "Ġbes": 5352,
    "Ġmineral": 5353,
    "Ġproblems": 5354,
    "bers": 5355,
    "Ġx": 5356,
    "Ġlands": 5357,
    "Ġgloves": 5358,
    "Ġadmiring": 5359,
    "loe": 5360,
    "Ġcontain": 5361,
    "Ġsliding": 5362,
    "ases": 5363,
    "cious": 5364,
    "Ġfet": 5365,
    "ĠRuby": 5366,
    "ĠMe": 5367,
    "Ġmountains": 5368,
    "Ġpetted": 5369,
    "Ġjogging": 5370,
    "Ġsidewalk": 5371,
    "Ġgaz": 5372,
    "Ġzipped": 5373,
    "son": 5374,
    "ĠSunday": 5375,
    "Ġlets": 5376,
    "ĠSpike": 5377,
    "Ġinvitation": 5378,
    "Ġsoldiers": 5379,
    "Ġstrangers": 5380,
    "Ġcontinue": 5381,
    "Ġtwigs": 5382,
    "Ġpotatoes": 5383,
    "oved": 5384,
    "ĠJoy": 5385,
    "-se": 5386,
    "Ġsatis": 5387,
    "Ġwhistling": 5388,
    "Ġkindly": 5389,
    "ĠRachel": 5390,
    "Ġspit": 5391,
    "Ġgain": 5392,
    "\"Give": 5393,
    "Ġreceive": 5394,
    "Ġlaid": 5395,
    "Ġpigs": 5396,
    "Ġmarching": 5397,
    "Ġdoggy": 5398,
    "Ġkeeper": 5399,
    "zag": 5400,
    "ĠCat": 5401,
    "Ġgrocery": 5402,
    "Ġmister": 5403,
    "Ġbeg": 5404,
    "Ġpatterns": 5405,
    "ddy": 5406,
    "Ġbeside": 5407,
    "Ġskipping": 5408,
    "Ġgotten": 5409,
    "Ġglitter": 5410,
    "ĠPoppy": 5411,
    "joyed": 5412,
    "Before": 5413,
    "mother": 5414,
    "Ġcopper": 5415,
    "Ġeff": 5416,
    "Ġours": 5417,
    "Ġoverjoyed": 5418,
    "Ġracing": 5419,
    "Ġattached": 5420,
    "Ġoperation": 5421,
    "-and": 5422,
    "fy": 5423,
    "Ġpeered": 5424,
    "ĠMilly": 5425,
    "Ġbeat": 5426,
    "Ġdrinks": 5427,
    "Ġhappiest": 5428,
    "Ġnavy": 5429,
    "Ġraised": 5430,
    "âĤ¬ÅĵThank": 5431,
    "ĠSpark": 5432,
    "ĠLetÃ¢": 5433,
    "Ġwhistled": 5434,
    "igzag": 5435,
    "Susie": 5436,
    "Ġcrashed": 5437,
    "Al": 5438,
    "amie": 5439,
    "hest": 5440,
    "Ġbuildings": 5441,
    "Ġburning": 5442,
    "Ġfed": 5443,
    "Ġpeanuts": 5444,
    "Ġprayed": 5445,
    "Ġscratched": 5446,
    "Ġsafari": 5447,
    "Ġescaped": 5448,
    "-seek": 5449,
    "Ġhist": 5450,
    "ĠLuna": 5451,
    "Ġflap": 5452,
    "Ġspoons": 5453,
    "Ġearthqu": 5454,
    "Ġhurried": 5455,
    "Ġonwards": 5456,
    "Ġworks": 5457,
    "Ġdisagreed": 5458,
    "Ġsings": 5459,
    "Ġrefreshed": 5460,
    "ĠSteve": 5461,
    "Ġcompany": 5462,
    "Ġbrick": 5463,
    "Ġweight": 5464,
    "Ġwooden": 5465,
    "aded": 5466,
    "bbled": 5467,
    "Ġeagle": 5468,
    "Ġbrid": 5469,
    "Ġtalent": 5470,
    "Ġhistory": 5471,
    "Ġwre": 5472,
    "Moral": 5473,
    "omas": 5474,
    "Ġremem": 5475,
    "\",": 5476,
    "Ġremembers": 5477,
    "Ġlips": 5478,
    "Ġprune": 5479,
    "ecture": 5480,
    "Ġbye": 5481,
    "ĠSharing": 5482,
    "Ġofficer": 5483,
    "Ġpies": 5484,
    "Ġscreams": 5485,
    "Ġweren": 5486,
    "Ġacorns": 5487,
    "Ġrevealed": 5488,
    "adly": 5489,
    "Ġcomfy": 5490,
    "St": 5491,
    "Ġexa": 5492,
    "Ġhated": 5493,
    ":ĊĊ": 5494,
    "Ġtremb": 5495,
    "ĠPenny": 5496,
    "Ġpupp": 5497,
    "Ġcrunchy": 5498,
    "Ġlecture": 5499,
    "Ġplanted": 5500,
    "ĠFro": 5501,
    "xygen": 5502,
    "Ġprice": 5503,
    "Ġprecious": 5504,
    "Ġturning": 5505,
    "Ġselling": 5506,
    "Ġbridges": 5507,
    "Ġappear": 5508,
    "Ġbrand": 5509,
    "Ġclearing": 5510,
    "Ġprinter": 5511,
    "âĤ¬ÅĵWe": 5512,
    "Ġprepared": 5513,
    "omething": 5514,
    "Ġrecognized": 5515,
    "ĠQu": 5516,
    "Ġmeow": 5517,
    "Ġaccom": 5518,
    "Ġwarn": 5519,
    "Ġsteel": 5520,
    "Ġlandsc": 5521,
    "Ġmenu": 5522,
    "Ġwaist": 5523,
    "Ġbones": 5524,
    "Ġdrinking": 5525,
    "Ġeasier": 5526,
    "Ġmeasuring": 5527,
    "Ġnetwork": 5528,
    "ĠNot": 5529,
    "die": 5530,
    "Ġbowed": 5531,
    "Ġbeds": 5532,
    "Ġwid": 5533,
    "Ġspaceship": 5534,
    "Ġdinosaurs": 5535,
    "ĠAbigail": 5536,
    "ĠZoe": 5537,
    "Ġchat": 5538,
    "Ġpitch": 5539,
    "ĠKatie": 5540,
    "Is": 5541,
    "Ġslip": 5542,
    "Ġstrip": 5543,
    "ĠRemy": 5544,
    "ĠMat": 5545,
    "Ġmuddy": 5546,
    "\"My": 5547,
    "âĤ¬.": 5548,
    "Ġsnowball": 5549,
    "Ġcrept": 5550,
    "Ġsucceeded": 5551,
    "Ġeffort": 5552,
    "Ġserved": 5553,
    "Ġallow": 5554,
    "Ġcal": 5555,
    "Ġtrapped": 5556,
    "cc": 5557,
    "Ġsettle": 5558,
    "Ġwonders": 5559,
    "Ġwaits": 5560,
    "Ġvel": 5561,
    "Ġobey": 5562,
    "Ġcuddle": 5563,
    "ĠNut": 5564,
    "Ġsimple": 5565,
    "Ġpets": 5566,
    "Ġfireworks": 5567,
    "Ġswims": 5568,
    "Ġaccompl": 5569,
    "Ġreminder": 5570,
    "Ġperched": 5571,
    "ĠChirp": 5572,
    "Ġolive": 5573,
    "Ġvict": 5574,
    "Ġeveryday": 5575,
    "Ġvelvet": 5576,
    "Ġanytime": 5577,
    "Ġtastes": 5578,
    "rin": 5579,
    "Ġapologize": 5580,
    "ĠRa": 5581,
    "Ġvoices": 5582,
    "Ġoats": 5583,
    "nie": 5584,
    "amb": 5585,
    "Ġrang": 5586,
    "Ġsoared": 5587,
    "Ġscoop": 5588,
    "Ġrained": 5589,
    "Ġlandscape": 5590,
    "Ġrested": 5591,
    "iggy": 5592,
    "Ġcutting": 5593,
    "Ġearthquake": 5594,
    "Ġsecrets": 5595,
    "Ġpadd": 5596,
    "ley": 5597,
    "ĠChr": 5598,
    "Ġcomforted": 5599,
    "Ġresponsible": 5600,
    "Ġfash": 5601,
    "Ġzigzag": 5602,
    "Ġshadows": 5603,
    "Ġtip": 5604,
    "Ġagreement": 5605,
    "Ġwhatever": 5606,
    "Ġpracticing": 5607,
    "Ġvillag": 5608,
    "Ġshopping": 5609,
    "Ġanswers": 5610,
    "Ġcostumes": 5611,
    "Ġpedal": 5612,
    "Ġexactly": 5613,
    "Ġbun": 5614,
    "Ġvisiting": 5615,
    "neath": 5616,
    "mble": 5617,
    "Ġmouths": 5618,
    "ffic": 5619,
    "âĤ¬ÅĵCan": 5620,
    "Ġbreaking": 5621,
    "Ġdisturbed": 5622,
    "Ġbrushed": 5623,
    "Ġcreation": 5624,
    "Ġolives": 5625,
    "Would": 5626,
    "Ġitems": 5627,
    "'.": 5628,
    "annah": 5629,
    "Luckily": 5630,
    "ien": 5631,
    "enty": 5632,
    "mare": 5633,
    "Ġowned": 5634,
    "Ġimage": 5635,
    "Ġsoak": 5636,
    "Ġtraffic": 5637,
    "Tweet": 5638,
    "Ġactiv": 5639,
    "Ġbringing": 5640,
    "Ġpupil": 5641,
    "terday": 5642,
    "Ġbeneath": 5643,
    "Ġsisters": 5644,
    "Ġstyle": 5645,
    "izing": 5646,
    "Ġoxygen": 5647,
    "Ġdoctors": 5648,
    "Ġladyb": 5649,
    "Ġrele": 5650,
    "Ġfashion": 5651,
    "ĠSuzy": 5652,
    "ishes": 5653,
    "Ġcircus": 5654,
    "Ġmonsters": 5655,
    "ĠDavid": 5656,
    "!\".ĊĊ": 5657,
    "Ġchef": 5658,
    "Ġleather": 5659,
    "laire": 5660,
    "ĠThese": 5661,
    "Ġtremble": 5662,
    "Ġoutdo": 5663,
    "Ġripped": 5664,
    "Ġcatching": 5665,
    "Ġnightmare": 5666,
    "Ġstripes": 5667,
    "Ġdied": 5668,
    "ĠFrank": 5669,
    "Ġvillagers": 5670,
    "ĠSunny": 5671,
    "Ġwaffles": 5672,
    "Ġunderground": 5673,
    "Ġfascinated": 5674,
    "Ġwanting": 5675,
    "Ġbleeding": 5676,
    "Ġnails": 5677,
    "Ġencourage": 5678,
    "Ġunlocked": 5679,
    "Ġsoaring": 5680,
    "icorn": 5681,
    "Ġeats": 5682,
    "Ġcuriosity": 5683,
    "Ġunicorn": 5684,
    "Ġdownstairs": 5685,
    "Ġrecognize": 5686,
    "oming": 5687,
    "\"Bye": 5688,
    "Ġgrandmother": 5689,
    "Ġstealing": 5690,
    "\"Yay": 5691,
    "ĠSomething": 5692,
    "Ġknelt": 5693,
    "Ġdrag": 5694,
    "inda": 5695,
    "Ġsadness": 5696,
    "âĤ¬ÅĵDon": 5697,
    "\"Yuck": 5698,
    "isten": 5699,
    "Ġguessed": 5700,
    "First": 5701,
    "Ġaccidents": 5702,
    "Ġfetch": 5703,
    "ĠOw": 5704,
    "Ġblueberry": 5705,
    "Ġsix": 5706,
    "Ġcaut": 5707,
    "Ġfreeze": 5708,
    "Ġfamil": 5709,
    "ĠHowever": 5710,
    "Ġgained": 5711,
    "ĠNutty": 5712,
    "Ġcape": 5713,
    "Ġbend": 5714,
    "ik": 5715,
    "Ġstudied": 5716,
    "ding": 5717,
    "Ġmission": 5718,
    "Ġloaded": 5719,
    "ĠFirst": 5720,
    "ĠItÃ¢": 5721,
    "Ġlemons": 5722,
    "Ġvictory": 5723,
    "Ġwondering": 5724,
    "Ġnicer": 5725,
    "ayla": 5726,
    "Ġcomple": 5727,
    "Ġfirefight": 5728,
    "ĠBeth": 5729,
    "Ġplanned": 5730,
    "ib": 5731,
    "Ġsitu": 5732,
    "Ġdecorated": 5733,
    "Ġpiles": 5734,
    "Ġmice": 5735,
    "Ġmachines": 5736,
    "Ġarea": 5737,
    "Ġexamined": 5738,
    "Ġfiremen": 5739,
    "Ġwagging": 5740,
    "ica": 5741,
    "Ġargued": 5742,
    "Ġstirring": 5743,
    "Ġunderneath": 5744,
    "Ġshivering": 5745,
    "Ġinstruct": 5746,
    "Ġtune": 5747,
    "Ġintroduc": 5748,
    "Ġstruggled": 5749,
    "Ġyelling": 5750,
    "Ġtugged": 5751,
    "ĠJe": 5752,
    "Ġtickets": 5753,
    "Ġincrease": 5754,
    "Ġkeys": 5755,
    "Ġpunished": 5756,
    "dam": 5757,
    "Ġproperly": 5758,
    "Un": 5759,
    "Ġsiren": 5760,
    "Ġcontro": 5761,
    "Ġpermit": 5762,
    "Ġexit": 5763,
    "Ġjogged": 5764,
    "Ġbunnies": 5765,
    "Ġwinning": 5766,
    "Ġslapped": 5767,
    "agull": 5768,
    "Ġbare": 5769,
    "Ġwreck": 5770,
    "Ġpeel": 5771,
    "Ġteasing": 5772,
    "Fluffy": 5773,
    "Ġzooming": 5774,
    "Ġrides": 5775,
    "Ġtwirling": 5776,
    "Ġherbs": 5777,
    "ĠFloppy": 5778,
    "Ġoutdoors": 5779,
    ".'": 5780,
    "ĠChirpy": 5781,
    "Ġsights": 5782,
    "Ġbegin": 5783,
    "Ġrealize": 5784,
    "Ġsatisfied": 5785,
    "Ġmixing": 5786,
    "ux": 5787,
    "Ġchallenge": 5788,
    "Ġpancakes": 5789,
    "Ġsupplies": 5790,
    "looking": 5791,
    "Ġweighed": 5792,
    "ulu": 5793,
    "uke": 5794,
    "ĠOl": 5795,
    "Ġneighbourhood": 5796,
    "Ġseagull": 5797,
    "Ġburrow": 5798,
    "Ġwinner": 5799,
    "indy": 5800,
    "ĠDid": 5801,
    "ĠUncle": 5802,
    "ales": 5803,
    "Dave": 5804,
    "aky": 5805,
    "Ġreleased": 5806,
    "oh": 5807,
    "ĠJan": 5808,
    "Ġann": 5809,
    "Ġprinted": 5810,
    "shing": 5811,
    "Ġsneaked": 5812,
    "ira": 5813,
    "Ġdraws": 5814,
    "Ġdam": 5815,
    "\"Wait": 5816,
    "uxu": 5817,
    "Ġpinched": 5818,
    "Ġwrites": 5819,
    "ĠTw": 5820,
    "ĠKe": 5821,
    "Ġpearl": 5822,
    "Ġzero": 5823,
    "Ġspiders": 5824,
    "usan": 5825,
    "-looking": 5826,
    "Ġdeser": 5827,
    "Ġinstructions": 5828,
    "Ġbeha": 5829,
    "Ġshoulders": 5830,
    "Ġpeaches": 5831,
    "Ġconfident": 5832,
    "Ġlines": 5833,
    "Ġloving": 5834,
    "Ġemergen": 5835,
    "Ġgathering": 5836,
    "Ġfrosting": 5837,
    "Ġprunes": 5838,
    "ĠJulie": 5839,
    "ĠLucky": 5840,
    "Ġinch": 5841,
    "Ġpears": 5842,
    "Ġpastel": 5843,
    "Ġstruck": 5844,
    "Ġbroom": 5845,
    "bbing": 5846,
    "Ġintroduce": 5847,
    "ĠLike": 5848,
    "Ġopin": 5849,
    "Cl": 5850,
    "oed": 5851,
    "Ġsolut": 5852,
    "Ġpockets": 5853,
    "Ġbaked": 5854,
    "Ġbudge": 5855,
    "Sometimes": 5856,
    "ena": 5857,
    "Lola": 5858,
    "ĠStop": 5859,
    "Mr": 5860,
    "\"Well": 5861,
    "âĤ¬ÅĵLook": 5862,
    "Ġbunch": 5863,
    "Ġstamps": 5864,
    "Ġdecides": 5865,
    "Ġbrushes": 5866,
    "ĠPip": 5867,
    "Ġluxu": 5868,
    "Ġstudying": 5869,
    "Ġgiggling": 5870,
    "Ġweb": 5871,
    "Ġruin": 5872,
    "Ġkeeps": 5873,
    "âĤ¬âĢĿ": 5874,
    "Ġstair": 5875,
    "Ġprints": 5876,
    "Ġourselves": 5877,
    "Ġrelease": 5878,
    "Ġsides": 5879,
    "ays": 5880,
    "ĠY": 5881,
    "ĠChloe": 5882,
    "Ġsting": 5883,
    "âĤ¬ÅĵHello": 5884,
    "ĠCoco": 5885,
    "Ġclaps": 5886,
    "zie": 5887,
    "icky": 5888,
    "Ġtravell": 5889,
    "Ġmuffins": 5890,
    "Ġruler": 5891,
    "ais": 5892,
    "Ġpoking": 5893,
    "ĠHop": 5894,
    "Ġprotected": 5895,
    "-b": 5896,
    "Ġladybug": 5897,
    "Ġscurried": 5898,
    "Ġgrant": 5899,
    "Andy": 5900,
    "Ġago": 5901,
    "Ġbuckets": 5902,
    "ĠletÃ¢": 5903,
    "Ġneighbors": 5904,
    "Ġtim": 5905,
    "gers": 5906,
    "Because": 5907,
    "ĠRob": 5908,
    "Ġcompetition": 5909,
    "Teddy": 5910,
    "va": 5911,
    "Ġcones": 5912,
    "Ġstitch": 5913,
    "George": 5914,
    "nes": 5915,
    "Ġdemanded": 5916,
    "Ġmarks": 5917,
    "Ġstretching": 5918,
    "Wait": 5919,
    "Ġsweeties": 5920,
    "Ġrepeated": 5921,
    "Ġmast": 5922,
    "tiest": 5923,
    "ĠAm": 5924,
    "Ġprettiest": 5925,
    "Ġmentioned": 5926,
    "Mike": 5927,
    "Ġguys": 5928,
    "owers": 5929,
    "Ġribbons": 5930,
    "ody": 5931,
    "Bella": 5932,
    "ednes": 5933,
    "ednesday": 5934,
    "ĠBubbles": 5935,
    "Ġinterest": 5936,
    "âĤ¬ÅĵThis": 5937,
    "jam": 5938,
    "Ġcamping": 5939,
    "Ġdrift": 5940,
    "riage": 5941,
    "Ġsurface": 5942,
    "kins": 5943,
    "Ġhorns": 5944,
    "Ġstrings": 5945,
    "uesday": 5946,
    "Ġdent": 5947,
    "ashed": 5948,
    "len": 5949,
    "ĠRabbit": 5950,
    "Ġyouth": 5951,
    "Ġgazed": 5952,
    "Ġcontrol": 5953,
    "Ġkicking": 5954,
    "Ġcrowd": 5955,
    "Ġshock": 5956,
    "Ġtickle": 5957,
    "Ġexpect": 5958,
    "Ġpurred": 5959,
    "ĠBir": 5960,
    "low": 5961,
    "thank": 5962,
    "uctantly": 5963,
    "zen": 5964,
    "Ġeast": 5965,
    "ĠBig": 5966,
    "Ġguns": 5967,
    "Ġsteep": 5968,
    "ears": 5969,
    "Ġmuscles": 5970,
    "Ġsoaked": 5971,
    "Ġsorting": 5972,
    "hh": 5973,
    "Ġdragged": 5974,
    "Ġparked": 5975,
    "ĠTiny": 5976,
    "Ġgoodnight": 5977,
    "Ella": 5978,
    "ĠWednesday": 5979,
    "Ġdragons": 5980,
    "Ġvent": 5981,
    "anta": 5982,
    "ĠJosh": 5983,
    "edding": 5984,
    "Ġtouching": 5985,
    "ĠTuesday": 5986,
    "Ġapplauded": 5987,
    "Ġbouncy": 5988,
    "Ġforgi": 5989,
    "Ġemergency": 5990,
    "Ġsilence": 5991,
    "Ġbeard": 5992,
    "âĤ¬ÅĵWhy": 5993,
    "ĠAn": 5994,
    "Ġstole": 5995,
    "Ġtonight": 5996,
    "Ġcautious": 5997,
    "Ġchases": 5998,
    "Ġpebbles": 5999,
    "ĠAnne": 6000,
    "Ġtwinkling": 6001,
    "Ġacted": 6002,
    "Ġmittens": 6003,
    "Pete": 6004,
    "Ġproject": 6005,
    "bies": 6006,
    "Ġresult": 6007,
    "Ġtexture": 6008,
    "icked": 6009,
    "exp": 6010,
    "ĠThomas": 6011,
    "Ġdiscovering": 6012,
    "Grandpa": 6013,
    "Ġvowed": 6014,
    "Ġfab": 6015,
    "Ġfabric": 6016,
    "Ġstrike": 6017,
    "âĤ¬ÅĵDonÃ¢": 6018,
    "Ġbarely": 6019,
    "\"See": 6020,
    "Ġpowers": 6021,
    "Ġpoliceman": 6022,
    "Ġcatches": 6023,
    "ĠOnce": 6024,
    "Ġbank": 6025,
    "Ġcurtains": 6026,
    "Ġwest": 6027,
    "Bobby": 6028,
    "ĠCarl": 6029,
    "hins": 6030,
    "Joey": 6031,
    "ern": 6032,
    "Ġflat": 6033,
    "Ġbabies": 6034,
    "Ġ1": 6035,
    "Ġseason": 6036,
    "Ġchewing": 6037,
    "Ġcompleted": 6038,
    "ĠJamie": 6039,
    "ĠSure": 6040,
    "Ġchips": 6041,
    "Ġentire": 6042,
    "\"Do": 6043,
    "ason": 6044,
    "Ġeight": 6045,
    "Ġurged": 6046,
    "Ġshelves": 6047,
    "ĠGr": 6048,
    "Ġslim": 6049,
    "ĠZoom": 6050,
    "Ġfrozen": 6051,
    "Ġloose": 6052,
    "expected": 6053,
    "Ġcrumb": 6054,
    "Ġhonk": 6055,
    "Uh": 6056,
    "Happy": 6057,
    "Henry": 6058,
    "Ġblink": 6059,
    "Ġluxury": 6060,
    "Ġmovies": 6061,
    "acob": 6062,
    "Mar": 6063,
    "Maggie": 6064,
    "ĠBetty": 6065,
    "Ġpouring": 6066,
    "Ġrocking": 6067,
    "Ġwound": 6068,
    "\"Sam": 6069,
    "izzie": 6070,
    "Ġsafer": 6071,
    "Ġintroduced": 6072,
    "Ġrocked": 6073,
    "Ġunexpected": 6074,
    "Ġdrives": 6075,
    "Ġpatience": 6076,
    "Ġstaring": 6077,
    "Ġreluctantly": 6078,
    "Ġimportance": 6079,
    "Ġti": 6080,
    "Ġshivered": 6081,
    "Ġhighest": 6082,
    "usted": 6083,
    "Ġsolution": 6084,
    "Ġdirection": 6085,
    "ledge": 6086,
    "Ġsorted": 6087,
    "Fr": 6088,
    "eezing": 6089,
    "Ġdolphins": 6090,
    "Ġachieve": 6091,
    "Ġcontest": 6092,
    "-f": 6093,
    "Ġroaring": 6094,
    "Ġinclude": 6095,
    "une": 6096,
    "Ġrubbing": 6097,
    "Ġcurly": 6098,
    "uly": 6099,
    "ĠLou": 6100,
    "Ġlibrarian": 6101,
    "Ġtheirs": 6102,
    "Ġmatched": 6103,
    "ateri": 6104,
    "Ġmateri": 6105,
    "irts": 6106,
    "Ġplenty": 6107,
    "Ġfoods": 6108,
    "Ġknowledge": 6109,
    "Ġhugging": 6110,
    "âĤ¬ÅĵOh": 6111,
    "Ġlied": 6112,
    "ĠyouÃ¢": 6113,
    "Fred": 6114,
    "Ġfigured": 6115,
    "Ġsausages": 6116,
    "Ġsighs": 6117,
    "Ġbalancing": 6118,
    "Ġsnail": 6119,
    "Ġhomework": 6120,
    "Ġreplac": 6121,
    "\"Because": 6122,
    "Ġheel": 6123,
    "jamas": 6124,
    "Ġrainbows": 6125,
    "Ġscreaming": 6126,
    "Ġslimy": 6127,
    "Ġsituation": 6128,
    "avi": 6129,
    "Ġbravery": 6130,
    "aa": 6131,
    "fit": 6132,
    "Ġpassing": 6133,
    "Ġwedding": 6134,
    "esome": 6135,
    "ults": 6136,
    "Ġsinger": 6137,
    "bert": 6138,
    "Ġmarkers": 6139,
    "Ġpaintings": 6140,
    "Ġgoals": 6141,
    "Ġshined": 6142,
    "Ġthreat": 6143,
    "Ġplanets": 6144,
    "Ġdared": 6145,
    "Ġsweets": 6146,
    "Ġgreet": 6147,
    "ĠAunt": 6148,
    "Leo": 6149,
    "itely": 6150,
    "Ġpretends": 6151,
    "Ġexha": 6152,
    "Ġwritten": 6153,
    "Remember": 6154,
    "Ġusual": 6155,
    "Ġcheering": 6156,
    "Ġpacking": 6157,
    "ĠcanÃ¢": 6158,
    "Ġoutfit": 6159,
    "though": 6160,
    "ĠAlways": 6161,
    "Ġarguing": 6162,
    "vin": 6163,
    "ĠTilly": 6164,
    "Ġflags": 6165,
    "Ġawesome": 6166,
    "Ġtowels": 6167,
    "cuse": 6168,
    "Ġgrowl": 6169,
    "Ġblooming": 6170,
    "Ġpatted": 6171,
    "Ġsticking": 6172,
    "Ġwaiter": 6173,
    "Ġpout": 6174,
    "ĠSanta": 6175,
    "Ġrescued": 6176,
    "Ġcaused": 6177,
    "Ġreaching": 6178,
    "Ġsnugg": 6179,
    "Excuse": 6180,
    "Ġdusty": 6181,
    "ĠMatt": 6182,
    "ĠClaire": 6183,
    "Danny": 6184,
    "Ġzookeeper": 6185,
    "ĠLulu": 6186,
    "Ġgrowling": 6187,
    "Ġmane": 6188,
    "Kitty": 6189,
    "James": 6190,
    "iar": 6191,
    "!Ċ": 6192,
    "hello": 6193,
    "Ġtruly": 6194,
    "Ġbloomed": 6195,
    "Ġradishes": 6196,
    "Ġreveal": 6197,
    "irm": 6198,
    "ĠSusan": 6199,
    "Ġmarriage": 6200,
    "Ġbead": 6201,
    "Ġsway": 6202,
    "Ġpencils": 6203,
    "Ġrecorded": 6204,
    "Ġmotion": 6205,
    "ĠCar": 6206,
    "Ġregretted": 6207,
    "Ġexpected": 6208,
    "lee": 6209,
    "Ġexhausted": 6210,
    "Ġaccomplish": 6211,
    "Ġcuts": 6212,
    "Ġheav": 6213,
    "Ġspike": 6214,
    "Ġtraveled": 6215,
    "Ġmatching": 6216,
    "Ġworkers": 6217,
    "Grace": 6218,
    "Ġguest": 6219,
    "Ġresting": 6220,
    "Ġspraying": 6221,
    "Ġpajamas": 6222,
    "uzz": 6223,
    "bl": 6224,
    "ences": 6225,
    "Ġcreating": 6226,
    "\"Ha": 6227,
    "Ġflavor": 6228,
    "Ġtrembling": 6229,
    "Ġstruggle": 6230,
    "ĠYes": 6231,
    "Ġcent": 6232,
    "Ġkneeled": 6233,
    "ĠJessie": 6234,
    "ĠMad": 6235,
    "Ġboo": 6236,
    "Ro": 6237,
    "Ġstartled": 6238,
    "Ġobserved": 6239,
    "immer": 6240,
    "Ġpots": 6241,
    "Paul": 6242,
    "ĠFor": 6243,
    "eah": 6244,
    "Ġuses": 6245,
    "Ġranger": 6246,
    "\"Really": 6247,
    "Ġworker": 6248,
    "aisies": 6249,
    "Ġbottles": 6250,
    "Ġarrive": 6251,
    "Ġstare": 6252,
    "Ġprincesses": 6253,
    "Ġbelly": 6254,
    "Ġprayer": 6255,
    "Ġwires": 6256,
    "Ġsled": 6257,
    "...": 6258,
    "Ġinviting": 6259,
    "Ġlearns": 6260,
    "Ġleap": 6261,
    "Ġdaisies": 6262,
    "Ġcompletely": 6263,
    "Ġlap": 6264,
    "Ġslap": 6265,
    "ĠJones": 6266,
    "Ġfart": 6267,
    "Ġcott": 6268,
    "Ġdisagree": 6269,
    "Ġpaddled": 6270,
    "angled": 6271,
    "Ġorganizing": 6272,
    "aty": 6273,
    "njoy": 6274,
    "Sophie": 6275,
    "Ġactivities": 6276,
    "Ġfault": 6277,
    "Ġincluded": 6278,
    "Ġscales": 6279,
    "Ġsuitc": 6280,
    "ora": 6281,
    "Ġremoved": 6282,
    "Ġtimer": 6283,
    "Ġunf": 6284,
    "ĠPinky": 6285,
    "Ġpenguins": 6286,
    "ĠSadly": 6287,
    "Ġventured": 6288,
    "Ġsnakes": 6289,
    "pite": 6290,
    "ĠJohnson": 6291,
    "Ġstorekeeper": 6292,
    "Ġagrees": 6293,
    "vers": 6294,
    "Mrs": 6295,
    "Ready": 6296,
    "Ġflames": 6297,
    "Ġwink": 6298,
    "Ġcountryside": 6299,
    "ĠHoppy": 6300,
    "Ġopening": 6301,
    "\"How": 6302,
    "Afterwards": 6303,
    "essie": 6304,
    "Ġreplaced": 6305,
    "Ġpartic": 6306,
    "Goodbye": 6307,
    "Ġstern": 6308,
    "Ġleader": 6309,
    "Ġquacked": 6310,
    "ĠLinda": 6311,
    "Ġdarkness": 6312,
    "Ġvanish": 6313,
    "Charlie": 6314,
    "ids": 6315,
    "Ġast": 6316,
    "ctions": 6317,
    "Ġroads": 6318,
    "Ġworries": 6319,
    "ĠDolly": 6320,
    "Annie": 6321,
    "iles": 6322,
    "Ġchuck": 6323,
    "Ġfairies": 6324,
    "iding": 6325,
    "ĠBy": 6326,
    "Ġowners": 6327,
    "Ġscra": 6328,
    "Ġthro": 6329,
    "Ġcrumbs": 6330,
    "ĠMomo": 6331,
    "Ġmelting": 6332,
    "ĠwasnÃ¢": 6333,
    "Ġcrabs": 6334,
    "Ġtractor": 6335,
    "Ġwasted": 6336,
    "Ġfaced": 6337,
    "Ġcomm": 6338,
    "Ġfirm": 6339,
    "Ġinterested": 6340,
    "Ġthroat": 6341,
    "However": 6342,
    "ĠFollow": 6343,
    "ĠLeave": 6344,
    "Ġmarked": 6345,
    "Ġtwinkle": 6346,
    "ĠJenna": 6347,
    "Ġvalued": 6348,
    "aze": 6349,
    "you": 6350,
    "Ġdipped": 6351,
    "Ġeverybody": 6352,
    "Ġlollipops": 6353,
    "Ġrobb": 6354,
    "Ġusually": 6355,
    "ĠFox": 6356,
    "Ġpolished": 6357,
    "hell": 6358,
    "Ġsquealed": 6359,
    "Ġunited": 6360,
    "\"M": 6361,
    "Ġdentist": 6362,
    "Ġrelief": 6363,
    "lowly": 6364,
    "Ġlamb": 6365,
    "\"Tim": 6366,
    "ĠOut": 6367,
    "ivery": 6368,
    "Ġreply": 6369,
    "ĠBye": 6370,
    "Ġhealed": 6371,
    "ĠBo": 6372,
    "araway": 6373,
    "Ġrubs": 6374,
    "ĠQuack": 6375,
    "Ġpolishing": 6376,
    "ords": 6377,
    "ophia": 6378,
    "Ġknights": 6379,
    "Ġopinion": 6380,
    "Ġteaches": 6381,
    "Ġbecoming": 6382,
    "Ġfaraway": 6383,
    "Ġseems": 6384,
    "Ġsigned": 6385,
    "ĠSorry": 6386,
    "Ġseesaw": 6387,
    "ĠĊĠĊ": 6388,
    "go": 6389,
    "Ġwandering": 6390,
    "Ġyounger": 6391,
    "asm": 6392,
    "Ġhelmets": 6393,
    "ĠBoth": 6394,
    "Ġkites": 6395,
    "ĠSuzie": 6396,
    "Ġpeeking": 6397,
    "Ġpoems": 6398,
    "Ġmisses": 6399,
    "Ġwrist": 6400,
    "opes": 6401,
    "Ġscru": 6402,
    "ĠJeff": 6403,
    "Ġcough": 6404,
    "Ġripe": 6405,
    "Ġfolding": 6406,
    "Mittens": 6407,
    "Ġrisk": 6408,
    "Ġbeads": 6409,
    "Ġcautiously": 6410,
    "ĠUnfortunately": 6411,
    "Ellie": 6412,
    "ĠPut": 6413,
    "Ġcracked": 6414,
    "ĠMart": 6415,
    "Ġlistens": 6416,
    "Ġstaying": 6417,
    "Ġden": 6418,
    "ĠWatch": 6419,
    "Ġcloses": 6420,
    "Ġsplashes": 6421,
    "Ġcubes": 6422,
    "Ġbaker": 6423,
    "Ġpastries": 6424,
    "Ġblows": 6425,
    "ĠChrist": 6426,
    "ĠAbby": 6427,
    "Ġgroceries": 6428,
    "Ġrings": 6429,
    "Ġforehead": 6430,
    "oline": 6431,
    "ĠHannah": 6432,
    "Ġparticular": 6433,
    "Ġbalanced": 6434,
    "Ġgaze": 6435,
    "ĠAdam": 6436,
    "ĠLuke": 6437,
    "Ġitchy": 6438,
    "Ġsingle": 6439,
    "Ġswirl": 6440,
    "Ġprotecting": 6441,
    "Ġprovided": 6442,
    "Ġdirections": 6443,
    "Ġlogs": 6444,
    "Ġswooped": 6445,
    "Ġroots": 6446,
    "Ġwinked": 6447,
    "Ġcash": 6448,
    "Ġdelivery": 6449,
    "Ġrolls": 6450,
    "dies": 6451,
    "mas": 6452,
    "Ġhowever": 6453,
    "ĠPrin": 6454,
    "Ġactions": 6455,
    "Ġpiggy": 6456,
    "Ġslam": 6457,
    "Ġyesterday": 6458,
    "Ġcause": 6459,
    "Ġpastels": 6460,
    "Ëľ": 6461,
    "âĤ¬Ëľ": 6462,
    "Ġfreed": 6463,
    "Ġboom": 6464,
    "Ġphotos": 6465,
    "Ġroses": 6466,
    "atches": 6467,
    "ilo": 6468,
    "Ġdesert": 6469,
    "Ġfluttered": 6470,
    "ĠKayla": 6471,
    "Ġcopy": 6472,
    "\"Uh": 6473,
    "Ġsnowballs": 6474,
    "ĠBird": 6475,
    "Alex": 6476,
    "rance": 6477,
    "Ġtipt": 6478,
    "igi": 6479,
    "ĠJu": 6480,
    "Ġcrackers": 6481,
    "Ġfilling": 6482,
    "-oh": 6483,
    "ĠNina": 6484,
    "\"T": 6485,
    "Ġfuzzy": 6486,
    "Ġnaps": 6487,
    "bbly": 6488,
    "Ġrefle": 6489,
    "Ġconn": 6490,
    "elle": 6491,
    "per": 6492,
    "Sandy": 6493,
    "oys": 6494,
    "Ġhealth": 6495,
    "Ġpedals": 6496,
    "Ġwiggled": 6497,
    "âĤ¬ÅĵMommy": 6498,
    "Ġcous": 6499,
    "Ġchuckled": 6500,
    "ĠPipp": 6501,
    "ĠDoggy": 6502,
    "Ġsneaky": 6503,
    "Harry": 6504,
    "Unfortunately": 6505,
    "Ġrecording": 6506,
    "arling": 6507,
    "ĠLizzy": 6508,
    "\"Or": 6509,
    "âĤ¬ÅĵWhatÃ¢": 6510,
    "Ġwow": 6511,
    "Ġbumpy": 6512,
    "Ġrockets": 6513,
    "Nina": 6514,
    "ormed": 6515,
    "ĠChristmas": 6516,
    "Ġawake": 6517,
    "Ġhi": 6518,
    "Ġknees": 6519,
    "Ġremote": 6520,
    "Ġsomebody": 6521,
    "\"P": 6522,
    "Ġtrips": 6523,
    "ickey": 6524,
    "Ġlined": 6525,
    "Ġrestored": 6526,
    "Ġtwin": 6527,
    "Ġstem": 6528,
    "Ġstroll": 6529,
    "Ġsilent": 6530,
    "Ġvideos": 6531,
    "?'": 6532,
    "ctar": 6533,
    "ĠJessica": 6534,
    "Ġdetermination": 6535,
    "Ġnectar": 6536,
    "Ab": 6537,
    "Ġliqu": 6538,
    "May": 6539,
    "ĠLizzie": 6540,
    "ĠBeing": 6541,
    "Ġcomplaining": 6542,
    "Ġinsects": 6543,
    "Ġpleasure": 6544,
    "ĠFriend": 6545,
    "ĠMo": 6546,
    "Kate": 6547,
    "ĠKeep": 6548,
    "anes": 6549,
    "Ġsuitcase": 6550,
    "Ġcoloured": 6551,
    "Yum": 6552,
    "-boo": 6553,
    "Ġtallest": 6554,
    "Ġbowls": 6555,
    "Ġsecure": 6556,
    "Ġstays": 6557,
    "Ġty": 6558,
    "ility": 6559,
    "Fine": 6560,
    "Ġcelebration": 6561,
    "aura": 6562,
    "Ġsobbed": 6563,
    "Ġbars": 6564,
    "Ġbacked": 6565,
    "Ġmes": 6566,
    "Ġmesmer": 6567,
    "?\",": 6568,
    "boat": 6569,
    "Ġentrance": 6570,
    "Ġfroze": 6571,
    "yond": 6572,
    "Ġbeyond": 6573,
    "Ġnoon": 6574,
    "Ġtricky": 6575,
    "affes": 6576,
    "ĠMany": 6577,
    "Ġhissed": 6578,
    "\"There": 6579,
    "cited": 6580,
    "Ġcashier": 6581,
    "Ġdarker": 6582,
    "Ġspeaking": 6583,
    "Ġtickled": 6584,
    "Ġtricked": 6585,
    "Ġglee": 6586,
    "Ġwears": 6587,
    "ĠEnjoy": 6588,
    "\"Ouch": 6589,
    "Ġpause": 6590,
    "Ġacting": 6591,
    "Ġburst": 6592,
    "Ġstolen": 6593,
    "Ġsandcastles": 6594,
    "ppers": 6595,
    "\"Sp": 6596,
    "Ġinsp": 6597,
    "Ġgiraffes": 6598,
    "Ġsense": 6599,
    "Ġdeal": 6600,
    "Ġhandful": 6601,
    "Millie": 6602,
    "Ġafterwards": 6603,
    "Ġattack": 6604,
    "Ġtalented": 6605,
    "Ġaccomplishment": 6606,
    "Sh": 6607,
    "abel": 6608,
    "arter": 6609,
    "Ġbumps": 6610,
    "Ġjoking": 6611,
    "umm": 6612,
    "Ġdelivered": 6613,
    "\"Not": 6614,
    "rious": 6615,
    "ĠNothing": 6616,
    "ĠJacob": 6617,
    "Ġcolored": 6618,
    "sequ": 6619,
    "Ġaff": 6620,
    "ĠPrincess": 6621,
    "Ġrule": 6622,
    "Ġmiles": 6623,
    "ĠĠĊĊ": 6624,
    "Ġconsequ": 6625,
    "Ġinstrum": 6626,
    "coat": 6627,
    "ĠMon": 6628,
    "Toby": 6629,
    "Ġcandies": 6630,
    "âĤ¬ÅĵCome": 6631,
    "Ġbehavi": 6632,
    "Ġopp": 6633,
    "Ġtangled": 6634,
    "Bun": 6635,
    "Ġadding": 6636,
    "Ġcovers": 6637,
    "Ġsmarter": 6638,
    "Ġliquid": 6639,
    "Ġcalmed": 6640,
    "Ġglasses": 6641,
    "iled": 6642,
    "Ġlung": 6643,
    "Ġfarther": 6644,
    "choo": 6645,
    "ĠSparky": 6646,
    "Ġmagnets": 6647,
    "Ġyourselves": 6648,
    "Ow": 6649,
    "ĠGet": 6650,
    "Ġcupcakes": 6651,
    "Ġfirefighters": 6652,
    "ĠSque": 6653,
    "ĠJulia": 6654,
    "Ġseeker": 6655,
    "Ġkicks": 6656,
    "Ġreads": 6657,
    "Ġbakery": 6658,
    "Ġcheeks": 6659,
    "Ġlighter": 6660,
    "Ġscarves": 6661,
    "Ġscaring": 6662,
    "Rose": 6663,
    "Ġhider": 6664,
    "Ġshirts": 6665,
    "Ġbadge": 6666,
    "Ġrecommended": 6667,
    "ĠTwo": 6668,
    "Ġindeed": 6669,
    "\"Max": 6670,
    "ossible": 6671,
    "Ġcomplained": 6672,
    "Ġexplorers": 6673,
    "Ġknocks": 6674,
    "Ġthorn": 6675,
    "Ġseashell": 6676,
    "Ġcust": 6677,
    "Ġchoices": 6678,
    "Ġimpossible": 6679,
    "Ġachieved": 6680,
    "Ġsalty": 6681,
    "igers": 6682,
    "Lilly": 6683,
    "brush": 6684,
    "Ġconsequences": 6685,
    "ĠTara": 6686,
    "Ġraincoat": 6687,
    "Ġjackets": 6688,
    "band": 6689,
    "ths": 6690,
    "ĠHappy": 6691,
    "iki": 6692,
    "Ġbeginning": 6693,
    "Days": 6694,
    "-t": 6695,
    "Milly": 6696,
    "Ġexperien": 6697,
    "Ġthird": 6698,
    "rig": 6699,
    "Ġsmiley": 6700,
    "ĠSqu": 6701,
    "ners": 6702,
    "Ġcustom": 6703,
    "Ġhesitated": 6704,
    "ky": 6705,
    "Ġcans": 6706,
    "itches": 6707,
    "Ġseven": 6708,
    "Ġgracefully": 6709,
    "Polly": 6710,
    "blings": 6711,
    "Ġsiblings": 6712,
    "Ouch": 6713,
    "Those": 6714,
    "vest": 6715,
    "Ġdots": 6716,
    "Ġwipes": 6717,
    "ana": 6718,
    "ĠPl": 6719,
    "Ġimproved": 6720,
    "ept": 6721,
    "ouch": 6722,
    "Ġmi": 6723,
    "Ġweeping": 6724,
    "hee": 6725,
    "Ġdarling": 6726,
    "Ġmarker": 6727,
    "Ġsteer": 6728,
    "Ġbatteries": 6729,
    "Ġparties": 6730,
    "Some": 6731,
    "Ġgems": 6732,
    "Ġmixture": 6733,
    "\"They": 6734,
    "Ġflapping": 6735,
    "indr": 6736,
    "Ġleading": 6737,
    "uggles": 6738,
    "âĤ¬Ċ": 6739,
    "ĠCindy": 6740,
    "\"L": 6741,
    "atul": 6742,
    "Ġteased": 6743,
    "Ġstroked": 6744,
    "ans": 6745,
    "anging": 6746,
    "ĠLuckily": 6747,
    "Ġsnuck": 6748,
    "Ġraindr": 6749,
    "Ġhearing": 6750,
    "Ġmasks": 6751,
    "Ġruining": 6752,
    "ĠWater": 6753,
    "step": 6754,
    "ĠJon": 6755,
    "âĤ¬ÅĵDo": 6756,
    "aren": 6757,
    "ĠEl": 6758,
    "urry": 6759,
    "Ġdrums": 6760,
    "ĠLarry": 6761,
    "Ġdeserve": 6762,
    "Ġmushrooms": 6763,
    "Ġsnatched": 6764,
    "Ġswept": 6765,
    "Ġbeam": 6766,
    "Ġpaddle": 6767,
    "ĠMickey": 6768,
    "ĠSnuggles": 6769,
    "Ġbuying": 6770,
    "Ġtigers": 6771,
    "Ġdollhouse": 6772,
    "Ġneither": 6773,
    "obody": 6774,
    "Ġbasement": 6775,
    "ĠwouldnÃ¢": 6776,
    "ĠLena": 6777,
    "Ġheading": 6778,
    "Ġtravelled": 6779,
    "ĠBuzzy": 6780,
    "ĠEverybody": 6781,
    "\"The": 6782,
    "no": 6783,
    "Ġclick": 6784,
    "Ġfever": 6785,
    "Ġwidened": 6786,
    "Ġhoriz": 6787,
    "Ġwee": 6788,
    "umbling": 6789,
    "Ġclowns": 6790,
    "ounce": 6791,
    "Ġscratches": 6792,
    "Ġfamilies": 6793,
    "Ġhallway": 6794,
    "Ru": 6795,
    "Ġfluttering": 6796,
    "Ġhorizon": 6797,
    "ĠOlive": 6798,
    "Ġcreamy": 6799,
    "\"Ready": 6800,
    "ivity": 6801,
    "ĠGigi": 6802,
    "Ġtasks": 6803,
    "Ġarrows": 6804,
    "Ġscrubbed": 6805,
    "Ġyells": 6806,
    "elia": 6807,
    "ĠPandy": 6808,
    "Ġperformance": 6809,
    "Ġpeacefully": 6810,
    "river": 6811,
    "ĠWithout": 6812,
    "Rex": 6813,
    "cers": 6814,
    "Ġbehaved": 6815,
    "ades": 6816,
    "Ġrivers": 6817,
    "Ġtreehouse": 6818,
    "atur": 6819,
    "Ġchefs": 6820,
    "Ġobjects": 6821,
    "Ġcelebrating": 6822,
    "Ġlosing": 6823,
    "âĤ¬ÅĵYouÃ¢": 6824,
    "Ġlun": 6825,
    "Ġpaying": 6826,
    "tuce": 6827,
    "tle": 6828,
    "igning": 6829,
    "Ġbedtime": 6830,
    "Ġrusty": 6831,
    "âĤ¬ÅĵWow": 6832,
    "Ġannoy": 6833,
    "Ġwrapping": 6834,
    "\"Is": 6835,
    "Ġseconds": 6836,
    "âĤ¬ÅĵHi": 6837,
    "Ġlettuce": 6838,
    "Ġcreativity": 6839,
    "Ġcowb": 6840,
    "Ġcuddly": 6841,
    "Ġrumble": 6842,
    "Ġswimsuit": 6843,
    "Ġseparated": 6844,
    "Ġstung": 6845,
    "Ġech": 6846,
    "Ġwilling": 6847,
    "\"Sara": 6848,
    "Bl": 6849,
    "yan": 6850,
    "rigued": 6851,
    "ĠMel": 6852,
    "Ġchoo": 6853,
    "Ġrepa": 6854,
    "ĠGoodbye": 6855,
    "Ġamong": 6856,
    "Ġartist": 6857,
    "hew": 6858,
    "ĠwonÃ¢": 6859,
    "ĠSlowly": 6860,
    "Ġrewarded": 6861,
    "Ġtramp": 6862,
    "Ġconcer": 6863,
    "ĠZip": 6864,
    "Ġgrabbing": 6865,
    "Ġpuppies": 6866,
    "Ġfact": 6867,
    "Ġpassen": 6868,
    "itched": 6869,
    "Ġlower": 6870,
    "Bobo": 6871,
    "ĠSophia": 6872,
    "Ġwins": 6873,
    "Tina": 6874,
    "ĠAbbie": 6875,
    "Ġhides": 6876,
    "Ġfears": 6877,
    "Ġgrassy": 6878,
    "Ġpans": 6879,
    "Ġplayers": 6880,
    "Ġtiptoed": 6881,
    "adie": 6882,
    "Dan": 6883,
    "ĠJazz": 6884,
    "Ġdef": 6885,
    "ishy": 6886,
    "Ġdrifted": 6887,
    "pare": 6888,
    "Ġrepaired": 6889,
    "alph": 6890,
    "Ġrising": 6891,
    "Ġsource": 6892,
    "Ġtemper": 6893,
    "Ġgrowls": 6894,
    "Ġhus": 6895,
    "Ġincluding": 6896,
    "Ġwadd": 6897,
    "ded": 6898,
    "iece": 6899,
    "Ġaud": 6900,
    "ĠRock": 6901,
    "Ġstomped": 6902,
    "immering": 6903,
    "ĠMira": 6904,
    "Ġchop": 6905,
    "Ġtrampoline": 6906,
    "\"Run": 6907,
    "Ġcor": 6908,
    "Ġtempt": 6909,
    "Ġpouted": 6910,
    "Ġsprinkled": 6911,
    "ĠQ": 6912,
    "ĠEarth": 6913,
    "cope": 6914,
    "Ġneedles": 6915,
    "Ġbackwards": 6916,
    "Ġsquares": 6917,
    "Ġdamage": 6918,
    "Ġraindrops": 6919,
    "Ġtapped": 6920,
    "Ġunpacked": 6921,
    "itude": 6922,
    "Great": 6923,
    "ntil": 6924,
    "fall": 6925,
    "oor": 6926,
    "Ġgranted": 6927,
    "\"Did": 6928,
    "Ġaren": 6929,
    "ueen": 6930,
    "Ġpointy": 6931,
    "Ġshrinking": 6932,
    "ongr": 6933,
    "Ġcreations": 6934,
    "Ġheavier": 6935,
    "hog": 6936,
    "Ġimagining": 6937,
    "Ġlimes": 6938,
    "Ġminerals": 6939,
    "\"Spot": 6940,
    "Ġpromises": 6941,
    "Ġsailboat": 6942,
    "ĠEls": 6943,
    "Clara": 6944,
    "ongratul": 6945,
    "Ġmaterials": 6946,
    "Ġscrewd": 6947,
    "sty": 6948,
    "Ġgross": 6949,
    "ĠJune": 6950,
    "Ġuns": 6951,
    "endy": 6952,
    "Pat": 6953,
    "ĠStella": 6954,
    "Ġhesitant": 6955,
    "Ġswans": 6956,
    "imon": 6957,
    "oey": 6958,
    "Ġneighbours": 6959,
    "Ġrefu": 6960,
    "ments": 6961,
    "Ġchip": 6962,
    "Ġslammed": 6963,
    "Ġornaments": 6964,
    "Ġtiss": 6965,
    "Ġwrink": 6966,
    "Ġache": 6967,
    "Ġtodd": 6968,
    "Ġcorners": 6969,
    "Ġhusband": 6970,
    "\"Your": 6971,
    "Ġdiving": 6972,
    "Ġblocking": 6973,
    "Ġdreamt": 6974,
    "ĠPam": 6975,
    "Ġgrandpare": 6976,
    "Ġrecipe": 6977,
    "Ġsnowmen": 6978,
    "ĠRemember": 6979,
    "Ġaudience": 6980,
    "Ġcoup": 6981,
    "Ġpecked": 6982,
    "kend": 6983,
    "âĤ¬ÅĵMy": 6984,
    "Ġcenter": 6985,
    "ael": 6986,
    "Ġrip": 6987,
    "Ġdads": 6988,
    "Ġearn": 6989,
    "Ġtouc": 6990,
    "For": 6991,
    "Ġmer": 6992,
    "Ġweekend": 6993,
    "ĠEmmy": 6994,
    "Ġprinting": 6995,
    "Ġrustling": 6996,
    "--": 6997,
    "Ew": 6998,
    "Ġbeloved": 6999,
    "Ġdiscussed": 7000,
    "âĤ¬.ĊĊ": 7001,
    "ĠBinky": 7002,
    "Ġforgiven": 7003,
    "ably": 7004,
    "yes": 7005,
    "Ġavoid": 7006,
    "Ġspong": 7007,
    "Ġsurroundings": 7008,
    "ĠLaura": 7009,
    "Ġdecorating": 7010,
    "Ġhedgehog": 7011,
    "Ġslices": 7012,
    "Ġscrewdriver": 7013,
    "ĠJay": 7014,
    "Ġnoses": 7015,
    "cl": 7016,
    "ĠDr": 7017,
    "itted": 7018,
    "Ġcoloring": 7019,
    "eds": 7020,
    "Ġstool": 7021,
    "Ġwiping": 7022,
    "Ġstreets": 7023,
    "Ġscrews": 7024,
    "jo": 7025,
    "Ġdesigned": 7026,
    "Ġmeals": 7027,
    "Ġplanning": 7028,
    "Ġwindy": 7029,
    "arrow": 7030,
    "Ġslower": 7031,
    "Ġsunflowers": 7032,
    "ĠNick": 7033,
    "ichael": 7034,
    "Ġtemperature": 7035,
    "Katie": 7036,
    "Fo": 7037,
    "ĠQueen": 7038,
    "aker": 7039,
    "ushing": 7040,
    "Ġafford": 7041,
    "Ġbows": 7042,
    "Ġhelpers": 7043,
    "Ġcousin": 7044,
    "child": 7045,
    "Ġcouple": 7046,
    "Bill": 7047,
    "ĠTess": 7048,
    "Ġspikes": 7049,
    "Ġfeast": 7050,
    "Ġastron": 7051,
    "Ġonions": 7052,
    "Ġwag": 7053,
    "uzzy": 7054,
    "Ġforgets": 7055,
    "unched": 7056,
    "Ġstain": 7057,
    "Ġforks": 7058,
    "ĠRobert": 7059,
    "Ġage": 7060,
    "Ġarr": 7061,
    "Ġcounts": 7062,
    "Ġwobbled": 7063,
    "Ġadult": 7064,
    "ĠHoot": 7065,
    "ĠSc": 7066,
    "Ġastronaut": 7067,
    "Ġgobbled": 7068,
    "Ġmagician": 7069,
    "Ġtails": 7070,
    "Tr": 7071,
    "arshm": 7072,
    "arshmallow": 7073,
    "Ġreflection": 7074,
    "Ġaside": 7075,
    "Ġreass": 7076,
    "Fin": 7077,
    "ĠFinn": 7078,
    "Ġprett": 7079,
    "ccoon": 7080,
    "Ġraccoon": 7081,
    "Ġwarnings": 7082,
    "Ha": 7083,
    "ĠOur": 7084,
    "Ġvanilla": 7085,
    "ĠBee": 7086,
    "ition": 7087,
    "Ġdet": 7088,
    "ĠRobby": 7089,
    "Ġplans": 7090,
    "Ġrequested": 7091,
    "Yuck": 7092,
    "ĠThanks": 7093,
    "Ġscamp": 7094,
    "Ġgardener": 7095,
    "ertain": 7096,
    "ido": 7097,
    "ne": 7098,
    "Ġgri": 7099,
    "Ġsale": 7100,
    "-bye": 7101,
    "ĠRover": 7102,
    "Ġtouches": 7103,
    "Ġpraying": 7104,
    "Ġpresses": 7105,
    "Ġprettier": 7106,
    "Ġsparks": 7107,
    "Ġsnowfl": 7108,
    "Ġsponge": 7109,
    "Baby": 7110,
    "Ġforgetting": 7111,
    "ĠThose": 7112,
    "Ġpeppers": 7113,
    "Ġtissue": 7114,
    "Ġduckling": 7115,
    "Ġgreeted": 7116,
    "Ġhitting": 7117,
    "Ġgrandchild": 7118,
    "Ġsports": 7119,
    "Ġwishing": 7120,
    "wk": 7121,
    "Ġbodies": 7122,
    "Ġtwice": 7123,
    "Ġdances": 7124,
    "Ġhops": 7125,
    "Ġremembering": 7126,
    "Ġsuperheroes": 7127,
    "Ġwoof": 7128,
    "Ġfeeding": 7129,
    "ĠBluey": 7130,
    "Ġfamiliar": 7131,
    "Ġintrigued": 7132,
    "Jul": 7133,
    "Ġzipping": 7134,
    "Ġborrowed": 7135,
    "\"Now": 7136,
    "arac": 7137,
    "Ġcuriously": 7138,
    "Ġposter": 7139,
    "ĠSqueaky": 7140,
    "Ġstudents": 7141,
    "Ġtunnels": 7142,
    "oni": 7143,
    "Ġchanging": 7144,
    "Ġpotion": 7145,
    "Ste": 7146,
    "Ġthrown": 7147,
    "ae": 7148,
    "Ġhour": 7149,
    "Ġgasp": 7150,
    "Ġmarshmallow": 7151,
    "Ġmuscle": 7152,
    "osen": 7153,
    "Ġchosen": 7154,
    "Ġdived": 7155,
    "Ġshops": 7156,
    "llen": 7157,
    "ĠMilo": 7158,
    "Ġdod": 7159,
    "Ġflight": 7160,
    "Ġsnuggle": 7161,
    "Ġbreathed": 7162,
    "Ġplain": 7163,
    "Ġsailors": 7164,
    "Ġstands": 7165,
    "Ġreason": 7166,
    "Ġseaw": 7167,
    "Ġspoonful": 7168,
    "Ġhopeful": 7169,
    "Ġflavors": 7170,
    "ounced": 7171,
    "Ġgrows": 7172,
    "Ġhandsome": 7173,
    "Ġtriangles": 7174,
    "using": 7175,
    "Ġenthusi": 7176,
    "Ġwraps": 7177,
    "Ġdollars": 7178,
    "Ġheroes": 7179,
    "Ġmesmerized": 7180,
    "opsy": 7181,
    "ĠNobody": 7182,
    "Ġleaning": 7183,
    "Ġpens": 7184,
    "Ġspreading": 7185,
    "Ġ10": 7186,
    "Ġenthusiasm": 7187,
    "\"Mmm": 7188,
    "iley": 7189,
    "Ġswords": 7190,
    "ters": 7191,
    "ĠGranny": 7192,
    "Ġmoo": 7193,
    "Ġshaped": 7194,
    "ĠUntil": 7195,
    "Ġnine": 7196,
    "Ġcharac": 7197,
    "Ġleast": 7198,
    "ĠBirthday": 7199,
    "otten": 7200,
    "Ġdelivering": 7201,
    "Ġembarrass": 7202,
    "ĠFriends": 7203,
    "Ġcorre": 7204,
    "Ġnibb": 7205,
    "Ġzebras": 7206,
    "cky": 7207,
    "Ġbaths": 7208,
    "Ġbuzzed": 7209,
    "Ġskunk": 7210,
    "stick": 7211,
    "ĠMikey": 7212,
    "Ġguests": 7213,
    "Ġneatly": 7214,
    "\"Shh": 7215,
    "\"Yeah": 7216,
    "Ġposs": 7217,
    "Ġwhispers": 7218,
    "ĠMaya": 7219,
    "Ġneare": 7220,
    "Ġseaweed": 7221,
    "Ġrotten": 7222,
    "Ġwarmer": 7223,
    "An": 7224,
    "Nemo": 7225,
    "Tweety": 7226,
    "Ġglued": 7227,
    "Ġonward": 7228,
    "Maria": 7229,
    "âĤ¬ÅĵMom": 7230,
    "Ġpuppet": 7231,
    "ados": 7232,
    "Ġlungs": 7233,
    "Ġencourag": 7234,
    "Ġhawk": 7235,
    "Ġrefreshing": 7236,
    "Pe": 7237,
    "Ġpuff": 7238,
    "ippy": 7239,
    "ĠPr": 7240,
    "Ġge": 7241,
    "ĠRyan": 7242,
    "Have": 7243,
    "ently": 7244,
    "Ġcrashing": 7245,
    "Ġgrandparents": 7246,
    "fly": 7247,
    "ĠListen": 7248,
    "Ġpreparing": 7249,
    "Ducky": 7250,
    "Ġhonked": 7251,
    "ĠthatÃ¢": 7252,
    "Ruby": 7253,
    "Ġoh": 7254,
    "Ġstarfish": 7255,
    "Ġthud": 7256,
    "-sh": 7257,
    "Ġsteady": 7258,
    "bba": 7259,
    "Ġcond": 7260,
    "\"Ro": 7261,
    "By": 7262,
    "Really": 7263,
    "ĠAsh": 7264,
    "Ġalien": 7265,
    "Su": 7266,
    "ĠCra": 7267,
    "Ġrobber": 7268,
    "Ġdaring": 7269,
    "Ġdefe": 7270,
    "ĠBaa": 7271,
    "Ġscraped": 7272,
    "Miss": 7273,
    "Time": 7274,
    "\"V": 7275,
    "Ġdancers": 7276,
    "Ġlifts": 7277,
    "Ġscen": 7278,
    "Ġsuffering": 7279,
    "years": 7280,
    "Ġdropping": 7281,
    "Ġplucked": 7282,
    "Ġsneezing": 7283,
    "-years": 7284,
    "Ġperformed": 7285,
    "Ġsending": 7286,
    "Ġbully": 7287,
    "Ġpolitely": 7288,
    "Ġbiting": 7289,
    "\"Mama": 7290,
    "Ġconfl": 7291,
    "Ġincreased": 7292,
    "âĤ¬ÅĵWell": 7293,
    "Ġproper": 7294,
    "Ġtalks": 7295,
    "allowed": 7296,
    "armer": 7297,
    "ĠZoey": 7298,
    "Ġnapkins": 7299,
    "Ġresisted": 7300,
    "Ġavocados": 7301,
    "Ġmints": 7302,
    "Ġnecklaces": 7303,
    "Ġwobbly": 7304,
    "Ġswallowed": 7305,
    "Ġmerry": 7306,
    "Ġmatters": 7307,
    "Ġsniffs": 7308,
    "Ġdip": 7309,
    "Ġropes": 7310,
    "Ġamount": 7311,
    "aster": 7312,
    "Ġjoining": 7313,
    "Sadly": 7314,
    "Ġtables": 7315,
    "Ġlifting": 7316,
    "Ġsofter": 7317,
    "Ġtoddler": 7318,
    "ĠStar": 7319,
    "the": 7320,
    "Ġscampered": 7321,
    "Ġtoaster": 7322,
    "ection": 7323,
    "Ġlessons": 7324,
    "Frank": 7325,
    "Ġflas": 7326,
    "Ġquarreling": 7327,
    "lets": 7328,
    "Ġcrew": 7329,
    "Ġpennies": 7330,
    "iona": 7331,
    "ĠEx": 7332,
    "ĠFrosty": 7333,
    "antha": 7334,
    "Ġblast": 7335,
    "Ġleads": 7336,
    "Ġpanicked": 7337,
    "Ġdie": 7338,
    "Ġstacked": 7339,
    "ĠMartha": 7340,
    "Ġjoyful": 7341,
    "ĠChris": 7342,
    "Ġrespond": 7343,
    "Ġdrivers": 7344,
    "\"Bad": 7345,
    "\"Roar": 7346,
    "Blue": 7347,
    "Ġfirefly": 7348,
    "Ġslips": 7349,
    "Back": 7350,
    "ĠOnly": 7351,
    "Ġnur": 7352,
    "Ġpops": 7353,
    "Ġrushing": 7354,
    "Ġrespected": 7355,
    "âĤ¬ÅĵBut": 7356,
    "ĠSun": 7357,
    "Ġgeese": 7358,
    "Woof": 7359,
    "Ġtrembled": 7360,
    "ĠKiki": 7361,
    "Ġexpress": 7362,
    "onna": 7363,
    "Ġtested": 7364,
    "Ġworn": 7365,
    "int": 7366,
    "Ġfirefighter": 7367,
    "urious": 7368,
    "ĠStay": 7369,
    "Ġspat": 7370,
    "ĠTodd": 7371,
    "Ġfoc": 7372,
    "Ġunsure": 7373,
    "Ġwatering": 7374,
    "Tw": 7375,
    "Ġfocused": 7376,
    "Ġwiggle": 7377,
    "Ġadults": 7378,
    "Ġleapt": 7379,
    "Ġcoc": 7380,
    "now": 7381,
    "please": 7382,
    "Ġdrawn": 7383,
    "while": 7384,
    "ĠAbi": 7385,
    "Ġtrot": 7386,
    "Ġwaterfall": 7387,
    "Ġsan": 7388,
    "Ġwrigg": 7389,
    "Ġdresser": 7390,
    "eal": 7391,
    "Ġfits": 7392,
    "Ġscored": 7393,
    "\"Dad": 7394,
    "ĠSquirrel": 7395,
    "Ġdrawers": 7396,
    "Ġsqueak": 7397,
    "Ġtwinkled": 7398,
    "Ġfaded": 7399,
    "Ġpours": 7400,
    "but": 7401,
    "cake": 7402,
    "retty": 7403,
    "ĠLove": 7404,
    "Ġthroughout": 7405,
    "Ġechoed": 7406,
    "Ġnood": 7407,
    "Ġstrongest": 7408,
    "Br": 7409,
    "âĤ¬ÅĵWhere": 7410,
    "Wh": 7411,
    "Ġpigeons": 7412,
    "Ġrout": 7413,
    "fus": 7414,
    "Ġmunch": 7415,
    "Ġscient": 7416,
    "Ġprob": 7417,
    "Ġexplo": 7418,
    "Ġwakes": 7419,
    "rey": 7420,
    "ĠOwl": 7421,
    "Ġnervously": 7422,
    "Ġhumans": 7423,
    "Ġprobably": 7424,
    "Ġencouraging": 7425,
    "Ġfreedom": 7426,
    "Ġscientist": 7427,
    "Ġbravest": 7428,
    "Ġappreciation": 7429,
    "Ġplaytime": 7430,
    "meal": 7431,
    "Whee": 7432,
    "Ġcertain": 7433,
    "bage": 7434,
    "Ġocc": 7435,
    "Ġsank": 7436,
    "fia": 7437,
    "Ġcushions": 7438,
    "Ġfrowning": 7439,
    "Ġgarbage": 7440,
    "Ġwaddled": 7441,
    "ĠChe": 7442,
    "Ġpolar": 7443,
    "vant": 7444,
    "Ġcosy": 7445,
    "ĠThatÃ¢": 7446,
    "Ġoatmeal": 7447,
    "Ġoffic": 7448,
    "ĠTake": 7449,
    "Ġgonna": 7450,
    "Ġmarshmallows": 7451,
    "Ġpeck": 7452,
    "Ġperforming": 7453,
    "Ġthoughts": 7454,
    "ĠJacky": 7455,
    "Ġblinking": 7456,
    "Ġev": 7457,
    "Ġsweetest": 7458,
    "ĠFrog": 7459,
    "rrr": 7460,
    "Ġgest": 7461,
    "-s": 7462,
    "Bet": 7463,
    "Ġcausing": 7464,
    "Ġovercome": 7465,
    "ĠWendy": 7466,
    "Ġtossed": 7467,
    "ĠQuick": 7468,
    "Ġsadd": 7469,
    "Ġflown": 7470,
    "iment": 7471,
    "Ġtighter": 7472,
    "Ġbehaving": 7473,
    "Ġpostman": 7474,
    "oke": 7475,
    "During": 7476,
    "Ġmaster": 7477,
    "Ġsquishy": 7478,
    "ĠJanie": 7479,
    "Ġcobwebs": 7480,
    "Yummy": 7481,
    "bird": 7482,
    "Our": 7483,
    "ĠMeg": 7484,
    "Ġspins": 7485,
    "Quick": 7486,
    "ĠSadie": 7487,
    "Ġwept": 7488,
    "Ġfirmly": 7489,
    "Ġcolder": 7490,
    "Ġloading": 7491,
    "Ġpumpkins": 7492,
    "ĠFido": 7493,
    "fire": 7494,
    "Ġplayroom": 7495,
    "Ġbells": 7496,
    "Ġdesigns": 7497,
    "Ġgiggles": 7498,
    "cher": 7499,
    "roken": 7500,
    "Ġpassengers": 7501,
    "Ġpassports": 7502,
    "Ġsewing": 7503,
    "Ġties": 7504,
    "anwhile": 7505,
    "Kim": 7506,
    "plash": 7507,
    "ĠAlong": 7508,
    "Ġroars": 7509,
    "alloween": 7510,
    "Ġelf": 7511,
    "Ġaimed": 7512,
    "Ġconvers": 7513,
    "Ġhealing": 7514,
    "Ġshown": 7515,
    "Ah": 7516,
    "\"He": 7517,
    "eezes": 7518,
    "Ġmate": 7519,
    "Ġspices": 7520,
    "Ġmanag": 7521,
    "Ġsqueezing": 7522,
    "Ġtil": 7523,
    "Ġclues": 7524,
    "Ġcraft": 7525,
    "Ġbits": 7526,
    "upt": 7527,
    "ĠMarie": 7528,
    "Ġmonths": 7529,
    "Ġund": 7530,
    "âĤ¬ÅĵOkay": 7531,
    "âĤ¬ÅĵIf": 7532,
    "Ġ2": 7533,
    "ĠFire": 7534,
    "Ġtwisty": 7535,
    "Ġbehavior": 7536,
    "Ġdoorway": 7537,
    "Ġresults": 7538,
    "Mad": 7539,
    "espite": 7540,
    "\"Yum": 7541,
    "ĠHalloween": 7542,
    "ĠHoney": 7543,
    "idey": 7544,
    "ĠBessie": 7545,
    "Ġnearly": 7546,
    "Ġcottage": 7547,
    "Mimi": 7548,
    "undred": 7549,
    "ĠTuna": 7550,
    "Ġreversed": 7551,
    "mates": 7552,
    "Ġreun": 7553,
    "\"C": 7554,
    "Ġnuzz": 7555,
    "Ġcoug": 7556,
    "Ġforgiving": 7557,
    "Ġtricycle": 7558,
    "Ġyielded": 7559,
    "asty": 7560,
    "urprise": 7561,
    "Ġnapping": 7562,
    "Ġnotes": 7563,
    "rying": 7564,
    "Follow": 7565,
    "Ġpays": 7566,
    "ugs": 7567,
    "Ġexplorer": 7568,
    "Ġsurrendered": 7569,
    "Ġpound": 7570,
    "Ġrobots": 7571,
    "Ġtwisting": 7572,
    "Ġconflict": 7573,
    "aying": 7574,
    "Ġcongratul": 7575,
    "Ġcleaner": 7576,
    "Ġinstruments": 7577,
    "ĠZara": 7578,
    "Ġprove": 7579,
    "Jerry": 7580,
    "Ġpaintbrush": 7581,
    "Ġpaths": 7582,
    "Ġnoodles": 7583,
    "ĠUnder": 7584,
    "Ġfleas": 7585,
    "broken": 7586,
    "bbling": 7587,
    "ĠFlopsy": 7588,
    "Ġmerma": 7589,
    "Ġdistract": 7590,
    "ĠJudy": 7591,
    "Ġbrushing": 7592,
    "ĠMaddie": 7593,
    "Ġrainy": 7594,
    "Ġangels": 7595,
    "Ġshady": 7596,
    "Ġtuck": 7597,
    "Ġtying": 7598,
    "eel": 7599,
    "ĠWell": 7600,
    "Ġcrossing": 7601,
    "onies": 7602,
    "Ġsuffered": 7603,
    "!'ĊĊ": 7604,
    "Ġanger": 7605,
    "ading": 7606,
    "Ġbuses": 7607,
    "Ġinj": 7608,
    "Ġsever": 7609,
    "Even": 7610,
    "Ġhaird": 7611,
    "Ġseveral": 7612,
    "ilda": 7613,
    "\"Ah": 7614,
    "David": 7615,
    "ino": 7616,
    "Ġais": 7617,
    "Ġappreciated": 7618,
    "Ġblocked": 7619,
    "Ġbreathing": 7620,
    "Ġyum": 7621,
    "ĠFarmer": 7622,
    "ĠMouse": 7623,
    "ĠRobbie": 7624,
    "Ġdamaged": 7625,
    "Ġguide": 7626,
    "Ġtablet": 7627,
    "Tony": 7628,
    "Ġbracelets": 7629,
    "Ġsoaking": 7630,
    "âĤ¬,": 7631,
    "âĤ¬ÅĵNow": 7632,
    "Ġrepeating": 7633,
    "Ġshoo": 7634,
    "Ġsweep": 7635,
    "ĠLi": 7636,
    "Ġwider": 7637,
    "Ted": 7638,
    "Ġfigures": 7639,
    "Ġsweat": 7640,
    "Ġgrandd": 7641,
    "Ġslipping": 7642,
    "\"Mia": 7643,
    "Ġaction": 7644,
    "Ġsharks": 7645,
    "Ġdefin": 7646,
    "Steve": 7647,
    "Ġthorns": 7648,
    "Ġconnected": 7649,
    "Ġedges": 7650,
    "Ġpuzzled": 7651,
    "Ġkittens": 7652,
    "Ġmailed": 7653,
    "Ġslither": 7654,
    "Ġtoward": 7655,
    "abby": 7656,
    "Ġwithin": 7657,
    "Ġshovels": 7658,
    "Ġunw": 7659,
    "\"And": 7660,
    "ĠSimon": 7661,
    "Ġbelts": 7662,
    "Ġease": 7663,
    "Ġlaying": 7664,
    "Ġquieter": 7665,
    "Ġcoral": 7666,
    "ca": 7667,
    "Ġfinishing": 7668,
    "Ġaccomplished": 7669,
    "Ġignoring": 7670,
    "Ġlicking": 7671,
    "Ġsurv": 7672,
    "Or": 7673,
    "ĠJackie": 7674,
    "Ġevil": 7675,
    "Ġhundred": 7676,
    "Ġoysters": 7677,
    "Ġsou": 7678,
    "Ġdrown": 7679,
    "Ġfrowns": 7680,
    "Ġheartbroken": 7681,
    "\"G": 7682,
    "byes": 7683,
    "Ġchopped": 7684,
    "rie": 7685,
    "Ġsy": 7686,
    "isions": 7687,
    "Ġrisks": 7688,
    "Ġsnort": 7689,
    "Ġsurfing": 7690,
    "Boo": 7691,
    "Ġgoodbyes": 7692,
    "Ġrains": 7693,
    "ĠPatch": 7694,
    "Ġstitches": 7695,
    "Ġwhose": 7696,
    "ighting": 7697,
    "Ġlending": 7698,
    "ammy": 7699,
    "Ġgesture": 7700,
    "Ġponies": 7701,
    "Ġrather": 7702,
    "lves": 7703,
    "Ġwisely": 7704,
    "Ġreminding": 7705,
    "Ġsupported": 7706,
    "hil": 7707,
    "steps": 7708,
    "Ġcotton": 7709,
    "Ġcuddles": 7710,
    "ĠBecause": 7711,
    "ĠGreen": 7712,
    "Ġdefinitely": 7713,
    "Ġfant": 7714,
    "iel": 7715,
    "Ġsymbols": 7716,
    "ĠBubba": 7717,
    "Ġfills": 7718,
    "Ġsnowflakes": 7719,
    "ĠX": 7720,
    "Ġbru": 7721,
    "Ġcloudy": 7722,
    "Ġnasty": 7723,
    "worm": 7724,
    "Ġawoke": 7725,
    "Ġencount": 7726,
    "Ġstreamers": 7727,
    ",ĊĊ": 7728,
    "Ġofficers": 7729,
    "Ġprick": 7730,
    "ĠAli": 7731,
    "ening": 7732,
    "Ġships": 7733,
    "Ġdespite": 7734,
    "Ġstudent": 7735,
    "Abigail": 7736,
    "Ġvines": 7737,
    "ĠUp": 7738,
    "Ġelbow": 7739,
    "Ġsurfboard": 7740,
    "found": 7741,
    "isc": 7742,
    "âĤ¬ÅĵPlease": 7743,
    "Ġfootsteps": 7744,
    "ĠDory": 7745,
    "perate": 7746,
    "ppies": 7747,
    "Ġcommun": 7748,
    "Ġfocus": 7749,
    "Ġwarri": 7750,
    "\"Excuse": 7751,
    "crow": 7752,
    "ĠAmelia": 7753,
    "Ġluckily": 7754,
    "Ġsimply": 7755,
    "Ġspits": 7756,
    "onse": 7757,
    "Ġbanged": 7758,
    "Ġdecisions": 7759,
    "Ġhumming": 7760,
    "Ġresponse": 7761,
    "Ġseller": 7762,
    "Whenever": 7763,
    "ĠMabel": 7764,
    "ĠRalph": 7765,
    "ĠSpidey": 7766,
    "Ġkings": 7767,
    "Ġsped": 7768,
    "dding": 7769,
    "Ġbandages": 7770,
    "Ġfishes": 7771,
    "Ġreassured": 7772,
    "ĠMichael": 7773,
    "\"F": 7774,
    "-go": 7775,
    "Hannah": 7776,
    "agic": 7777,
    "ooky": 7778,
    "ĠDavey": 7779,
    "Ġdisturbing": 7780,
    "Ġpins": 7781,
    "âĤ¬ÅĵOf": 7782,
    "Ġdriveway": 7783,
    "Ġresponsib": 7784,
    "Ġafar": 7785,
    "Ġhairdress": 7786,
    "Ġni": 7787,
    "arlings": 7788,
    "Ġaddress": 7789,
    "Ġdarlings": 7790,
    "ĠFuzzy": 7791,
    "Ġchanges": 7792,
    "Ġpeeled": 7793,
    "Ġweeds": 7794,
    "da": 7795,
    "Jamie": 7796,
    "Ġbelieving": 7797,
    "Ġbattle": 7798,
    "Ġoccas": 7799,
    "Ġpunishment": 7800,
    "Ġwindowsill": 7801,
    "ĠHolly": 7802,
    "onnie": 7803,
    "ĠSnowman": 7804,
    "Ġcorrectly": 7805,
    "Ġfantastic": 7806,
    "Ġapologised": 7807,
    "Excited": 7808,
    "sol": 7809,
    "Ġnewfound": 7810,
    "Ġpedaled": 7811,
    "Ġsmallest": 7812,
    "Ġwobble": 7813,
    "ĠRocky": 7814,
    "Ġexcept": 7815,
    "Ġtravels": 7816,
    "\"Oops": 7817,
    "ongo": 7818,
    "Ġchocolates": 7819,
    "Ġmasterp": 7820,
    "father": 7821,
    "manda": 7822,
    "Ġsmelling": 7823,
    "eeling": 7824,
    "ĠRay": 7825,
    "Ġsails": 7826,
    "Ġartwork": 7827,
    "Ġexercises": 7828,
    "ĠBirdy": 7829,
    "Ġfinal": 7830,
    "Ġgrandson": 7831,
    "Ġhanding": 7832,
    "Poppy": 7833,
    "ddie": 7834,
    "Ġinspired": 7835,
    "whe": 7836,
    "Ġspills": 7837,
    "Ġcheers": 7838,
    "Ġstopping": 7839,
    "Ġunderstands": 7840,
    "line": 7841,
    "Ġchilly": 7842,
    "Ġreunited": 7843,
    "ĠLouise": 7844,
    "Ġpackages": 7845,
    "Ġscarecrow": 7846,
    "cent": 7847,
    "ĠAlthough": 7848,
    "Ġhairdresser": 7849,
    "Ġplanting": 7850,
    "Ġpresented": 7851,
    "erk": 7852,
    "Ġtipped": 7853,
    "Ġgears": 7854,
    "Ġsqueaked": 7855,
    "Ġworrying": 7856,
    "âĤ¬ÅĵHey": 7857,
    "Ġdiscussing": 7858,
    "Ġpuck": 7859,
    "Ġsurprising": 7860,
    "ĠOkay": 7861,
    "ĠPippin": 7862,
    "Ġbirdhouse": 7863,
    "Ġlies": 7864,
    "Ġpleaded": 7865,
    "ĠElly": 7866,
    "Ġforests": 7867,
    "Ġtravelling": 7868,
    "ĠFreddie": 7869,
    "Chloe": 7870,
    "Ġdep": 7871,
    "mered": 7872,
    "ĠIm": 7873,
    "Ġarranged": 7874,
    "ppa": 7875,
    "Ġconvin": 7876,
    "Ġmagnif": 7877,
    "Ġsuits": 7878,
    "utter": 7879,
    "Mira": 7880,
    "Since": 7881,
    "Ġbusiness": 7882,
    "ancy": 7883,
    "anie": 7884,
    ".'ĊĊ": 7885,
    "Ġgranddaughter": 7886,
    "Ġreapp": 7887,
    "Ġbraver": 7888,
    "Ġencouragement": 7889,
    "Ġdonkey": 7890,
    "Ġlent": 7891,
    "Ġwrinkled": 7892,
    "Alright": 7893,
    "Ġknots": 7894,
    "Ġspies": 7895,
    "Ġtar": 7896,
    "Ġantic": 7897,
    "Ġpurr": 7898,
    "Ġvehicles": 7899,
    "Ġcovering": 7900,
    "athy": 7901,
    "ms": 7902,
    "ĠGina": 7903,
    "Ġcrowns": 7904,
    "Ġtrotted": 7905,
    "Jess": 7906,
    "ails": 7907,
    "ĠRuth": 7908,
    "Ġmasterpiece": 7909,
    "Ġwealth": 7910,
    "elie": 7911,
    "emma": 7912,
    "Ġimages": 7913,
    "Ġpoppies": 7914,
    "Ġsniffing": 7915,
    "ider": 7916,
    "Ġaware": 7917,
    "Ġcongratulated": 7918,
    "Ġjars": 7919,
    "Ġtasting": 7920,
    "Ġadmiration": 7921,
    "Ġheight": 7922,
    "Ġyel": 7923,
    "acles": 7924,
    "artled": 7925,
    "screen": 7926,
    "Ġcomforting": 7927,
    "True": 7928,
    "Ġconcert": 7929,
    "Ġflipped": 7930,
    "Ġyelped": 7931,
    "ecca": 7932,
    "Ġbless": 7933,
    "Ġcampfire": 7934,
    "Ġsuggestion": 7935,
    "ĠWil": 7936,
    "ĠWally": 7937,
    "Ġdump": 7938,
    "Ġmarve": 7939,
    "ĠWelcome": 7940,
    "Ġcoach": 7941,
    "flies": 7942,
    "ĠAng": 7943,
    "Adam": 7944,
    "iza": 7945,
    "nytime": 7946,
    "Ġterrified": 7947,
    "acle": 7948,
    "Ġmermaid": 7949,
    "eedy": 7950,
    "Ġteachers": 7951,
    "issa": 7952,
    "Ġbackpacks": 7953,
    "ĠDog": 7954,
    "Ġcowboy": 7955,
    "Ġexpert": 7956,
    "Ġfoxes": 7957,
    "Ġmaker": 7958,
    "Ġrefuse": 7959,
    "ĠFighting": 7960,
    "ighing": 7961,
    "Ġsunscreen": 7962,
    "Ġtoolbox": 7963,
    "-round": 7964,
    "Ġseashells": 7965,
    "pen": 7966,
    "Ġdelayed": 7967,
    "Ġdisc": 7968,
    "Ġefforts": 7969,
    "-p": 7970,
    "ibbit": 7971,
    "Ġgrip": 7972,
    "Ġnodding": 7973,
    "Ġspeeding": 7974,
    "ĠPippa": 7975,
    "Ġinsisting": 7976,
    "Thomas": 7977,
    "ris": 7978,
    "ĠLia": 7979,
    "Ġactivity": 7980,
    "Ġbaskets": 7981,
    "Ġcalmly": 7982,
    "Josh": 7983,
    "ĠTry": 7984,
    "rier": 7985,
    "inted": 7986,
    "Ġtarget": 7987,
    "we": 7988,
    "Ġcollap": 7989,
    "Ġjoins": 7990,
    "Ġunfortunately": 7991,
    "wise": 7992,
    "ĠRain": 7993,
    "ugging": 7994,
    "Ġhunters": 7995,
    "Ġnibbled": 7996,
    "Ġposit": 7997,
    "usty": 7998,
    "ĠKaren": 7999,
    "ĠMegan": 8000,
    "Ġstomp": 8001,
    "Ġbuddy": 8002,
    "Ġorders": 8003,
    "Ġtilted": 8004,
    "Ġmagazines": 8005,
    "Ġsewed": 8006,
    "Ġsquaw": 8007,
    "Ġtubes": 8008,
    "Ġhoo": 8009,
    "Ġspooky": 8010,
    "inkle": 8011,
    "Ġbitten": 8012,
    "Ġfins": 8013,
    "Ġstumble": 8014,
    "Ġdragonfly": 8015,
    "Ġsolving": 8016,
    "ipes": 8017,
    "Ġcustomers": 8018,
    "Ġdecl": 8019,
    "ortunately": 8020,
    "ĠBounce": 8021,
    "Ġexperienced": 8022,
    "Ġstored": 8023,
    "Ġbothering": 8024,
    "Ġfilms": 8025,
    "Ġpurpose": 8026,
    "Ġexch": 8027,
    "Ġmaterial": 8028,
    "Ġuntied": 8029,
    "vroom": 8030,
    "Ġhoops": 8031,
    "Ġsill": 8032,
    "Ġtrans": 8033,
    "Ġwarmly": 8034,
    "Bunny": 8035,
    "Ġque": 8036,
    "Take": 8037,
    "arlott": 8038,
    "Ġalthough": 8039,
    "Ġfires": 8040,
    "Ġgenie": 8041,
    "Ġnurses": 8042,
    "Ġclerk": 8043,
    "Ġdisplayed": 8044,
    "Ġwhispering": 8045,
    "arlotte": 8046,
    "chievous": 8047,
    "ĠAuntie": 8048,
    "Ġmood": 8049,
    "Anne": 8050,
    "Ġmischievous": 8051,
    "ument": 8052,
    "ĠDuck": 8053,
    "Ġscent": 8054,
    "attered": 8055,
    "ĠKaty": 8056,
    "Ġsquir": 8057,
    "Ġtumbled": 8058,
    "aturday": 8059,
    "what": 8060,
    "Ġsav": 8061,
    "Ke": 8062,
    "Ġannoyed": 8063,
    "Ġpeas": 8064,
    "ats": 8065,
    "mbers": 8066,
    "ĠAlly": 8067,
    "Ġmembers": 8068,
    "âĤ¬ÅĵSure": 8069,
    "ĠSaturday": 8070,
    "Ġtroubles": 8071,
    "Ġturtles": 8072,
    "aint": 8073,
    "ĠSofia": 8074,
    "Ġconqu": 8075,
    "Ġgazing": 8076,
    "Ġgoats": 8077,
    "amma": 8078,
    "ĠFiona": 8079,
    "Ġjoked": 8080,
    "Ġpupils": 8081,
    "Ġtreated": 8082,
    "\"D": 8083,
    "Ġburying": 8084,
    "Ġspells": 8085,
    "\"Rex": 8086,
    "Ġbelongings": 8087,
    "Ġdiamonds": 8088,
    "Ġtoss": 8089,
    "ollen": 8090,
    "Ġgap": 8091,
    "Ġger": 8092,
    "Ġwounds": 8093,
    "order": 8094,
    "Ġrin": 8095,
    "Ġtesting": 8096,
    "Ġprayers": 8097,
    "Mat": 8098,
    "ĠQuackers": 8099,
    "Ġswollen": 8100,
    "Penny": 8101,
    "âĤ¬ÅĵGood": 8102,
    "ĠFroggy": 8103,
    "Ġscram": 8104,
    "Beth": 8105,
    "Ġloses": 8106,
    "Quack": 8107,
    "Ġconversation": 8108,
    "Ġtransf": 8109,
    "Meanwhile": 8110,
    "aven": 8111,
    "Ġuntie": 8112,
    "bell": 8113,
    "Ġbeaming": 8114,
    "Ġsweaty": 8115,
    "Ġwasting": 8116,
    "Leave": 8117,
    "illiam": 8118,
    "ĠJojo": 8119,
    "Ġcharacters": 8120,
    "ĠOther": 8121,
    "Am": 8122,
    "Ġtype": 8123,
    "ĠJoan": 8124,
    "ĠEva": 8125,
    "Ġdot": 8126,
    "Ġglittering": 8127,
    "Ġtidied": 8128,
    "Ġtweet": 8129,
    "Yeah": 8130,
    "Ġdiso": 8131,
    "Ġraces": 8132,
    "uel": 8133,
    "ĠWoo": 8134,
    "Ġencountered": 8135,
    "Ġmeowing": 8136,
    "âĤ¬ÅĵSee": 8137,
    "Ġoppos": 8138,
    "ĠDespite": 8139,
    "Ġexplains": 8140,
    "Ġgrandfather": 8141,
    "Ġpermitted": 8142,
    "Ġscurrying": 8143,
    "Joy": 8144,
    "âĤ¬ÅĵThe": 8145,
    "Ġanticip": 8146,
    "Ġshall": 8147,
    "airy": 8148,
    "ĠHope": 8149,
    "Ġsheets": 8150,
    "Ġsternly": 8151,
    "Ġtires": 8152,
    "Ġenviron": 8153,
    "Ġinchworm": 8154,
    "Ġqueens": 8155,
    "Ġrotting": 8156,
    "Ġwhimp": 8157,
    "Rachel": 8158,
    "Ġobeyed": 8159,
    "Rosie": 8160,
    "rest": 8161,
    "Ġbea": 8162,
    "ĠPepper": 8163,
    "Ġpriz": 8164,
    "-w": 8165,
    "Ġopposite": 8166,
    "Ġparted": 8167,
    "Ġenvironment": 8168,
    "Ġexamining": 8169,
    "ivia": 8170,
    "Ġloops": 8171,
    "rily": 8172,
    "iscuit": 8173,
    "Ġemerged": 8174,
    "Ġnearest": 8175,
    "ouqu": 8176,
    "Ġbouqu": 8177,
    "Ġconvinced": 8178,
    "Ġtapping": 8179,
    "Ġyoungest": 8180,
    "Meow": 8181,
    "ĠMina": 8182,
    "ĠSpeedy": 8183,
    "Ġcleared": 8184,
    "Ġting": 8185,
    "rian": 8186,
    "Ġends": 8187,
    "Ġsurvive": 8188,
    "Ġvisitors": 8189,
    "ĠFlo": 8190,
    "Ġforce": 8191,
    "Ġservant": 8192,
    "Ġvibr": 8193,
    "acy": 8194,
    "ĠPen": 8195,
    "Ġforgiveness": 8196,
    "Ġgrat": 8197,
    "Ġrescuing": 8198,
    "Ġzooms": 8199,
    "ĠBongo": 8200,
    "Ġaim": 8201,
    "Ġstroke": 8202,
    "Ġdeclared": 8203,
    "Ġpandas": 8204,
    "Ġquarre": 8205,
    "Ġthanking": 8206,
    "Ġattacked": 8207,
    "Ġscratching": 8208,
    "Ġclassmates": 8209,
    "Ġdressing": 8210,
    "Ġjud": 8211,
    "Ġmatey": 8212,
    "Ġnibble": 8213,
    "Ġpeep": 8214,
    "Ġrays": 8215,
    "Ġtwists": 8216,
    "Ġwarrior": 8217,
    "Ġquestioned": 8218,
    "Ġramp": 8219,
    "Claire": 8220,
    "Tweetie": 8221,
    "Ġbeeped": 8222,
    "asha": 8223,
    "ching": 8224,
    "ĠSnowball": 8225,
    "Ġgratitude": 8226,
    "Ġscrambled": 8227,
    "mies": 8228,
    "ĠSplash": 8229,
    "Ġguessing": 8230,
    "Ġlabels": 8231,
    "Ġlipstick": 8232,
    "Ġmanners": 8233,
    "ilities": 8234,
    "ortun": 8235,
    "ĠSamantha": 8236,
    "yl": 8237,
    "âĤ¬ÅĵWho": 8238,
    "ĠExcited": 8239,
    "Ġaeroplanes": 8240,
    "Ġdiscoveries": 8241,
    "Ġfailed": 8242,
    "iens": 8243,
    "orter": 8244,
    "ĠRos": 8245,
    "Ġaisle": 8246,
    "Ġopportun": 8247,
    "Ġrely": 8248,
    "ĠAshley": 8249,
    "Ġaliens": 8250,
    "Ġrumbling": 8251,
    "elope": 8252,
    "ĠYouÃ¢": 8253,
    "Ġshimmering": 8254,
    "Jessie": 8255,
    "Ġanticipation": 8256,
    "Ġflaps": 8257,
    "Ġseagulls": 8258,
    "ĠElsa": 8259,
    "Always": 8260,
    "Ġsmashed": 8261,
    "Je": 8262,
    "Ġbeeh": 8263,
    "Ġknocking": 8264,
    "act": 8265,
    "ĠBow": 8266,
    "Ġresponded": 8267,
    "Ġpicnics": 8268,
    "Ġspy": 8269,
    "\"Thanks": 8270,
    "Ġblond": 8271,
    "Ġinstantly": 8272,
    "Ġsnug": 8273,
    "Ġwiggly": 8274,
    "athan": 8275,
    "ĠElle": 8276,
    "empt": 8277,
    "Ġattempt": 8278,
    "Ġlowered": 8279,
    "Ġdecoration": 8280,
    "Ġmomma": 8281,
    "Ġswap": 8282,
    "lo": 8283,
    "aula": 8284,
    "ĠHold": 8285,
    "Ġloc": 8286,
    "Ġmillion": 8287,
    "Ġswaying": 8288,
    "\"These": 8289,
    "Julie": 8290,
    "Ġmosquitoes": 8291,
    "abra": 8292,
    "igger": 8293,
    "ole": 8294,
    "oscope": 8295,
    "Ġstall": 8296,
    "Ġlapt": 8297,
    "Ġslowed": 8298,
    "Cindy": 8299,
    "inger": 8300,
    "Ġargument": 8301,
    "Car": 8302,
    "Ġprickly": 8303,
    "Ġdripping": 8304,
    "Ġhonking": 8305,
    "belle": 8306,
    "gain": 8307,
    "idence": 8308,
    "ĠRobo": 8309,
    "Ġrowed": 8310,
    "Ġpurrs": 8311,
    "hind": 8312,
    "munk": 8313,
    "Ġbuckled": 8314,
    "ĠLion": 8315,
    "ĠSw": 8316,
    "Ġform": 8317,
    "Ġlanguages": 8318,
    "Ġsoot": 8319,
    "ittered": 8320,
    "Ġgoodies": 8321,
    "\"Next": 8322,
    "Ġcocoon": 8323,
    "Ġswitched": 8324,
    "Ġbrightest": 8325,
    "Ġcracks": 8326,
    "Ġstatues": 8327,
    "ĠKevin": 8328,
    "ĠSparkle": 8329,
    "Rob": 8330,
    "ooking": 8331,
    "Ġdrowned": 8332,
    "Ġnuzzled": 8333,
    "Ġprevented": 8334,
    "-choo": 8335,
    "ssss": 8336,
    "ummies": 8337,
    "Ġbadger": 8338,
    "Ġshrunk": 8339,
    "udged": 8340,
    "ĠMaddy": 8341,
    "Ġdoorbell": 8342,
    "Ġresponsibility": 8343,
    "Ġbreaths": 8344,
    "Ġmovements": 8345,
    "Ġactive": 8346,
    "Ġsens": 8347,
    "Ġsigning": 8348,
    "angle": 8349,
    "ĠSpring": 8350,
    "Ġcrops": 8351,
    "Ġsprout": 8352,
    "Ġsteth": 8353,
    "lied": 8354,
    "ĠMaisy": 8355,
    "Ġmunched": 8356,
    "Ġswayed": 8357,
    "Ġbeautifully": 8358,
    "Ġdesigning": 8359,
    "Ġfloors": 8360,
    "Ġghosts": 8361,
    "Ġtaped": 8362,
    "Freddy": 8363,
    "romise": 8364,
    "Ġcustomer": 8365,
    "Ġdangers": 8366,
    "ĠReady": 8367,
    "Ġcons": 8368,
    "Ġobserving": 8369,
    "bee": 8370,
    "Ġlaptop": 8371,
    "Ġvegg": 8372,
    "chy": 8373,
    "rick": 8374,
    "Ġearned": 8375,
    "Ġoffering": 8376,
    "ĠTaking": 8377,
    "Ġjobs": 8378,
    "Ġastronauts": 8379,
    "Ġchipmunk": 8380,
    "Ġhealthier": 8381,
    "Ġself": 8382,
    "Ġshines": 8383,
    "Ġwhistles": 8384,
    "Buddy": 8385,
    "cie": 8386,
    "\"Like": 8387,
    "ĠAva": 8388,
    "Ġvisits": 8389,
    "oosh": 8390,
    "ĠPhil": 8391,
    "Ġcharge": 8392,
    "Ġcrawls": 8393,
    "Ġincreasing": 8394,
    "Ġtin": 8395,
    "storm": 8396,
    "Ġgerms": 8397,
    "Ġnovels": 8398,
    "Ġbond": 8399,
    "Ġcares": 8400,
    "Ġrobbers": 8401,
    "Ġstethoscope": 8402,
    "ippers": 8403,
    "ĠChick": 8404,
    "Ġsmelt": 8405,
    "lor": 8406,
    "rink": 8407,
    "ĠKelly": 8408,
    "Ġminds": 8409,
    "aret": 8410,
    "âĤ¬ÅĵMaybe": 8411,
    "Ġmanager": 8412,
    "ĠZoomy": 8413,
    "Ġcupcake": 8414,
    "ebecca": 8415,
    "yd": 8416,
    "Ġclosing": 8417,
    "Ġdisobey": 8418,
    "Ġelect": 8419,
    "ĠIzzy": 8420,
    "Ġannounced": 8421,
    "Ġhen": 8422,
    "Ġknives": 8423,
    "Ġstamped": 8424,
    "Ġwinding": 8425,
    "'.ĊĊ": 8426,
    "Ġdodged": 8427,
    "Ġflips": 8428,
    "ĠgirlÃ¢": 8429,
    "Ġhike": 8430,
    "Ġnests": 8431,
    "-d": 8432,
    "bit": 8433,
    "Ġrats": 8434,
    "Ġshin": 8435,
    "Ġshorts": 8436,
    "ĠPeppa": 8437,
    "Ġchatter": 8438,
    "roll": 8439,
    "ĠJonny": 8440,
    "Lena": 8441,
    "Ġbeating": 8442,
    "Ġfloats": 8443,
    "Ġrecorder": 8444,
    "Ġsteering": 8445,
    "Ġweapons": 8446,
    "Bad": 8447,
    "pr": 8448,
    "ĠPatty": 8449,
    "ĠSk": 8450,
    "Ġposes": 8451,
    "Ġscooters": 8452,
    "Ġwhoever": 8453,
    "Uncle": 8454,
    "otch": 8455,
    "Ġgenerosity": 8456,
    "Ġgroan": 8457,
    "ering": 8458,
    "rup": 8459,
    "ingo": 8460,
    "yler": 8461,
    "Ġbouquet": 8462,
    "Ġkilled": 8463,
    "Ġscolds": 8464,
    "Ġtummies": 8465,
    "Ġunpacking": 8466,
    "flowers": 8467,
    "Out": 8468,
    "Two": 8469,
    "Ġbathing": 8470,
    "Ġroutine": 8471,
    "Ġunwra": 8472,
    "ĠJaney": 8473,
    "Ġsupplied": 8474,
    "Ġtidying": 8475,
    "Ġreminds": 8476,
    "Ġcourt": 8477,
    "oc": 8478,
    "pit": 8479,
    "ĠJax": 8480,
    "Ġchatted": 8481,
    "Ġcheckout": 8482,
    "Ġfarmers": 8483,
    "Ġbeehive": 8484,
    "Ġclicked": 8485,
    "Ġexpecting": 8486,
    "Ġawful": 8487,
    "Ġbounces": 8488,
    "ĠBecky": 8489,
    "ĠTime": 8490,
    "Ġdisappoint": 8491,
    "Ġexploded": 8492,
    "Ġhood": 8493,
    "Ġhardest": 8494,
    "Ġsets": 8495,
    "earing": 8496,
    "Ġbeaver": 8497,
    "Ġlocks": 8498,
    "Ġpaddling": 8499,
    "ĠPoor": 8500,
    "ĠStitch": 8501,
    "Ġsyrup": 8502,
    "Ġteles": 8503,
    "ĠKay": 8504,
    "Ġapplause": 8505,
    "Ġdears": 8506,
    "Ġdeed": 8507,
    "Ġsnaps": 8508,
    "ĠRudy": 8509,
    "lt": 8510,
    "Ġhaven": 8511,
    "Ġparticularly": 8512,
    "Ġvisitor": 8513,
    "Ġburnt": 8514,
    "Choo": 8515,
    "anced": 8516,
    "idnight": 8517,
    "Ġtelescope": 8518,
    "Ġtraded": 8519,
    "ĠAr": 8520,
    "\"N": 8521,
    "lph": 8522,
    "ĠStan": 8523,
    "Ġflashing": 8524,
    "Ġopinions": 8525,
    "ĠEddie": 8526,
    "Ġexperiences": 8527,
    "Ġtests": 8528,
    "orking": 8529,
    "ĠAna": 8530,
    "ĠBad": 8531,
    "ĠLuc": 8532,
    "ĠMae": 8533,
    "Ġconduct": 8534,
    "\"Vroom": 8535,
    "Get": 8536,
    "Surprise": 8537,
    "anda": 8538,
    "ĠTessa": 8539,
    "Momma": 8540,
    "rough": 8541,
    "Ġcombed": 8542,
    "Ġelectric": 8543,
    "Ġouch": 8544,
    "Ġdestroying": 8545,
    "\"K": 8546,
    "-h": 8547,
    "boards": 8548,
    "idents": 8549,
    "ĠTrust": 8550,
    "Ġhonesty": 8551,
    "Ġproviding": 8552,
    "Yesterday": 8553,
    "innie": 8554,
    "llas": 8555,
    "ulp": 8556,
    "Ġill": 8557,
    "Ġexplor": 8558,
    "Ġflashed": 8559,
    "Ġsculp": 8560,
    "uddles": 8561,
    "-col": 8562,
    "Ġcubs": 8563,
    "Ġoverhead": 8564,
    "ĠNever": 8565,
    "Ġcrystals": 8566,
    "Ġumbrellas": 8567,
    "Ġwiser": 8568,
    "ooks": 8569,
    "Ġchecks": 8570,
    "âĤ¬Â": 8571,
    "ĠAmanda": 8572,
    "Ġshorter": 8573,
    "Ġtearing": 8574,
    "arable": 8575,
    "Ġheaven": 8576,
    "Ġsadder": 8577,
    "Ġseals": 8578,
    "Red": 8579,
    "lest": 8580,
    "ĠDonÃ¢": 8581,
    "ĠFinny": 8582,
    "Ġkit": 8583,
    "Ġstretches": 8584,
    "Ġunderw": 8585,
    "Ġveggies": 8586,
    "Robbie": 8587,
    "lephant": 8588,
    "Ġchecking": 8589,
    "Ġconductor": 8590,
    "ĠSweet": 8591,
    "Ġblown": 8592,
    "Ġbothered": 8593,
    "Ġcarries": 8594,
    "Ġcontainer": 8595,
    "Ġexamp": 8596,
    "Ġmember": 8597,
    "Ġscrub": 8598,
    "Ġicing": 8599,
    "Ġmac": 8600,
    "-five": 8601,
    "Ġforgives": 8602,
    "Ġket": 8603,
    "âĤ¬Â¦": 8604,
    "ĠMomma": 8605,
    "Ġnatur": 8606,
    "ĠIsn": 8607,
    "ĠwhatÃ¢": 8608,
    "Mart": 8609,
    "Tilly": 8610,
    "Ġadds": 8611,
    "Ġglimmering": 8612,
    "Ġinches": 8613,
    "Ġplugged": 8614,
    "Ġstrum": 8615,
    "ita": 8616,
    "Ġglided": 8617,
    "Ġhunting": 8618,
    "Ġreturning": 8619,
    "Very": 8620,
    "omb": 8621,
    "ĠDe": 8622,
    "Ġbluebird": 8623,
    "Ġscri": 8624,
    "Ġswallow": 8625,
    "adabra": 8626,
    "Ġgrumbled": 8627,
    "ccidents": 8628,
    "ended": 8629,
    "ordinary": 8630,
    "âĤ¬ÅĵBe": 8631,
    "Ġbeast": 8632,
    "Ġpetting": 8633,
    "Abby": 8634,
    "Ġfaint": 8635,
    "Ġserving": 8636,
    "Ġtwenty": 8637,
    "?!\"": 8638,
    "Ġdefeated": 8639,
    "Ġgardens": 8640,
    "Ġsingers": 8641,
    "aptain": 8642,
    "Ġcollapsed": 8643,
    "Ġhotter": 8644,
    "LetÃ¢": 8645,
    "ĠCrabby": 8646,
    "Ġgall": 8647,
    "Ġwildflowers": 8648,
    "Ġborn": 8649,
    "Ġdollar": 8650,
    "Ġsprays": 8651,
    "ative": 8652,
    "rrrr": 8653,
    "ĠDaniel": 8654,
    "Goodnight": 8655,
    "Karen": 8656,
    "rench": 8657,
    "ĠCla": 8658,
    "Ġcaw": 8659,
    "Ġnights": 8660,
    "\"Quick": 8661,
    "Bear": 8662,
    "Listen": 8663,
    "ances": 8664,
    "iving": 8665,
    "Ġsprinkle": 8666,
    "Ġwaded": 8667,
    "Jacob": 8668,
    "Ġapplauding": 8669,
    "Ġsprang": 8670,
    "Ġsquished": 8671,
    "Ġsculpture": 8672,
    "\"Mine": 8673,
    "centr": 8674,
    "ouraged": 8675,
    "Ġfaith": 8676,
    "-l": 8677,
    "pril": 8678,
    "Ġstrips": 8679,
    "Ġtrusting": 8680,
    "udo": 8681,
    "ĠElsie": 8682,
    "Ġotters": 8683,
    "Ġplayd": 8684,
    "Ġsalon": 8685,
    "Ġteams": 8686,
    "udolph": 8687,
    "ĠWooly": 8688,
    "Ġexample": 8689,
    "ĠRoger": 8690,
    "Ġconfidence": 8691,
    "Ġswimmer": 8692,
    "Suzy": 8693,
    "str": 8694,
    "ĠWo": 8695,
    "Ġbiscuit": 8696,
    "Ġconcentr": 8697,
    "Ġraising": 8698,
    "Papa": 8699,
    "lers": 8700,
    "ĠCle": 8701,
    "ĠSay": 8702,
    "Ġfascinating": 8703,
    "Ġflick": 8704,
    "Ġinvent": 8705,
    "âĤ¬ÅĵOk": 8706,
    "ĠZero": 8707,
    "Ġgoo": 8708,
    "Ġinstrument": 8709,
    "Ġrealizes": 8710,
    "Ġunlo": 8711,
    "\"Would": 8712,
    "Ġextraordinary": 8713,
    "Ġwaters": 8714,
    "Liz": 8715,
    "owing": 8716,
    "ĠSmo": 8717,
    "Ġattitude": 8718,
    "ĠmomÃ¢": 8719,
    "Bu": 8720,
    "Buzz": 8721,
    "Ġflip": 8722,
    "ĠCurious": 8723,
    "Ġimaginary": 8724,
    "Ġinter": 8725,
    "Ġmunching": 8726,
    "ators": 8727,
    "icate": 8728,
    "ĠPin": 8729,
    "Ġcheated": 8730,
    "Ġsirens": 8731,
    "Ġpossess": 8732,
    "Ġtypes": 8733,
    "Ġconv": 8734,
    "Ġflowing": 8735,
    "Ġnecks": 8736,
    "\"Daddy": 8737,
    "Ġcompan": 8738,
    "Ġthump": 8739,
    "ĠFlora": 8740,
    "Ġbride": 8741,
    "Ġburns": 8742,
    "ĠGary": 8743,
    "ĠJean": 8744,
    "Ġcountries": 8745,
    "ĠWigg": 8746,
    "Ġcells": 8747,
    "elieve": 8748,
    "Ġcheat": 8749,
    "Each": 8750,
    "over": 8751,
    "Ġconvince": 8752,
    "Ġpapa": 8753,
    "Honey": 8754,
    "ĠTammy": 8755,
    "Ġdryer": 8756,
    "Ġhiss": 8757,
    "ĠCharlotte": 8758,
    "Ġsweaters": 8759,
    "Friend": 8760,
    "Ġconquered": 8761,
    "Ġtraveling": 8762,
    "\".Ċ": 8763,
    "Jon": 8764,
    "Ġannoying": 8765,
    "Ġgrassho": 8766,
    "Ġnatural": 8767,
    "Ġtips": 8768,
    "Ġupside": 8769,
    "Ol": 8770,
    "iolet": 8771,
    "Ġawhile": 8772,
    "Ġclearly": 8773,
    "Ġhangers": 8774,
    "Ġodd": 8775,
    "cadabra": 8776,
    "Ġlongest": 8777,
    "Ġpeeped": 8778,
    "Someone": 8779,
    "Ġcommon": 8780,
    "Ġgulp": 8781,
    "Ġplug": 8782,
    "Aunt": 8783,
    "getic": 8784,
    "ĠFoxy": 8785,
    "Ġtrigger": 8786,
    "ĠAnt": 8787,
    "Ġmeows": 8788,
    "Brown": 8789,
    "iggie": 8790,
    "jest": 8791,
    "whel": 8792,
    "Ġexploration": 8793,
    "\"Then": 8794,
    "ĠFairy": 8795,
    "Ġenvelopes": 8796,
    "Ġmelody": 8797,
    "Ġpasses": 8798,
    "Ġprizes": 8799,
    "Mon": 8800,
    "adually": 8801,
    "ĠBang": 8802,
    "Ġdock": 8803,
    "Ġinsep": 8804,
    "val": 8805,
    "Ġcirc": 8806,
    "Ġdeserved": 8807,
    "Ġglittered": 8808,
    "Ġoverwhel": 8809,
    "Gina": 8810,
    "asmine": 8811,
    "ĠHelen": 8812,
    "ĠPretty": 8813,
    "ĠSe": 8814,
    "Ġcompete": 8815,
    "Ġfond": 8816,
    "Ġpills": 8817,
    "Ġrelaxing": 8818,
    "emies": 8819,
    "erg": 8820,
    "ĠLa": 8821,
    "Ġcowboys": 8822,
    "Ġenemies": 8823,
    "\"Mummy": 8824,
    "âĤ¬ÅĵA": 8825,
    "ĠEric": 8826,
    "Ġbehaviour": 8827,
    "Ġinseparable": 8828,
    "Ġsoapy": 8829,
    "Ġcurl": 8830,
    "Ġmommies": 8831,
    "\"Beep": 8832,
    "balls": 8833,
    "prin": 8834,
    "Ġbomb": 8835,
    "Ġbicycles": 8836,
    "Ġflock": 8837,
    "Ġmoat": 8838,
    "Ġwashes": 8839,
    "Ġwriggled": 8840,
    "ĠJason": 8841,
    "ĠShow": 8842,
    "ĠWilliam": 8843,
    "Ġwhales": 8844,
    "Ġ5": 8845,
    "Ġdetails": 8846,
    "Ġexpression": 8847,
    "Ġreappeared": 8848,
    "Ġsincere": 8849,
    "Ġwhisk": 8850,
    "-shaped": 8851,
    "Ġdistracted": 8852,
    "Ġenjoyable": 8853,
    "ship": 8854,
    "ĠYum": 8855,
    "Ġability": 8856,
    "Ġcoolest": 8857,
    "Ġdiscouraged": 8858,
    "Ġoutfits": 8859,
    "-vroom": 8860,
    "Dear": 8861,
    "ending": 8862,
    "hny": 8863,
    "oard": 8864,
    "Ġbecomes": 8865,
    "Ġswirls": 8866,
    "Ġunco": 8867,
    "ĠSasha": 8868,
    "ĠSir": 8869,
    "Ġlump": 8870,
    "\"Goodbye": 8871,
    "Ġcheaper": 8872,
    "Ġskies": 8873,
    "ĠFrankie": 8874,
    "ĠGrand": 8875,
    "Ġopportunity": 8876,
    "Ġthicker": 8877,
    "Ġshallow": 8878,
    "Ġaboard": 8879,
    "Ġchatting": 8880,
    "Ġmodels": 8881,
    "Kayla": 8882,
    "ĠJilly": 8883,
    "ĠOlivia": 8884,
    "Ġbubbly": 8885,
    "Ġcrocodiles": 8886,
    "Ġengines": 8887,
    "Whiskers": 8888,
    "Ġchin": 8889,
    "Ġcompanion": 8890,
    "Ġroast": 8891,
    "Ġweighing": 8892,
    "\"Meow": 8893,
    "ĠPick": 8894,
    "Ġmattered": 8895,
    "Ġsandy": 8896,
    "Ġvibrant": 8897,
    "Stay": 8898,
    "ouched": 8899,
    "ĠTerry": 8900,
    "Ġcrowded": 8901,
    "Ġsometime": 8902,
    "bur": 8903,
    "Ġdoz": 8904,
    "Ġgrasshopper": 8905,
    "Ġquacking": 8906,
    "Ġsqueaky": 8907,
    "ĠCr": 8908,
    "ĠFel": 8909,
    "ĠMother": 8910,
    "Ġcafe": 8911,
    "Ġgallop": 8912,
    "Ġnewspapers": 8913,
    "\"Mum": 8914,
    "Instead": 8915,
    "ĠImmediately": 8916,
    "Ġcheerfully": 8917,
    "ĠNice": 8918,
    "off": 8919,
    "Ġcalmer": 8920,
    "Ġpatches": 8921,
    "Watch": 8922,
    "ĠMidnight": 8923,
    "ĠRudolph": 8924,
    "ĠSparkles": 8925,
    "...\"": 8926,
    "ĠBobbie": 8927,
    "Ġmarking": 8928,
    "Ġstur": 8929,
    "ĠButter": 8930,
    "Ġrobin": 8931,
    "faction": 8932,
    "Ġslee": 8933,
    "Ġtickling": 8934,
    "ĠAmber": 8935,
    "ĠMatilda": 8936,
    "Ġfreezing": 8937,
    "Ġmesses": 8938,
    "Ġsatisfaction": 8939,
    "Ġsoundly": 8940,
    "venir": 8941,
    "ĠAccidents": 8942,
    "ĠBrian": 8943,
    "ĠMagic": 8944,
    "ĠPeggy": 8945,
    "ĠVroom": 8946,
    "Ġhabit": 8947,
    "Ġmoonlight": 8948,
    "Ġsipped": 8949,
    "Ġspilling": 8950,
    "Ġuniforms": 8951,
    "Ġweighs": 8952,
    "Keep": 8953,
    "ifi": 8954,
    "Ġsouvenir": 8955,
    "Ġhisses": 8956,
    "Ġunable": 8957,
    "Ġchill": 8958,
    "Ġprod": 8959,
    "Ġsnowy": 8960,
    "Co": 8961,
    "vy": 8962,
    "Feeling": 8963,
    "hole": 8964,
    "ĠNana": 8965,
    "Ġmicrow": 8966,
    "bu": 8967,
    "ĠDino": 8968,
    "ĠPrince": 8969,
    "ĠShelly": 8970,
    "Ġlim": 8971,
    "Ġstorms": 8972,
    "atty": 8973,
    "Ġbacks": 8974,
    "Ġexplaining": 8975,
    "Ġhummed": 8976,
    "Ġpressing": 8977,
    "Ġrows": 8978,
    "Ġscares": 8979,
    "Zoom": 8980,
    "lyn": 8981,
    "Ġapproach": 8982,
    "Ġbound": 8983,
    "Ġsurely": 8984,
    "Ġblushed": 8985,
    "Ġcoughed": 8986,
    "Ġtreas": 8987,
    "immered": 8988,
    "ĠPenelope": 8989,
    "Ġairplanes": 8990,
    "Ġtalents": 8991,
    "stand": 8992,
    "Ġmicrowave": 8993,
    "ĠCaptain": 8994,
    "ĠRicky": 8995,
    "ĠZee": 8996,
    "Ġforts": 8997,
    "Ġmiracle": 8998,
    "Ġanswering": 8999,
    "Ġrepairman": 9000,
    "Ġsquinted": 9001,
    "ĠWhoever": 9002,
    "Ġjugg": 9003,
    "Ġjoyfully": 9004,
    "Ġlocal": 9005,
    "Ġpleas": 9006,
    "Ġshrug": 9007,
    "Ġtorto": 9008,
    "Ġclip": 9009,
    "Ġformed": 9010,
    "Ġwhined": 9011,
    "Lizzy": 9012,
    "iter": 9013,
    "ĠAngel": 9014,
    "Ġscattering": 9015,
    "Ġshattered": 9016,
    "shadow": 9017,
    "ĠEliza": 9018,
    "ĠMake": 9019,
    "Ġcleans": 9020,
    "Ġpositive": 9021,
    "Ġunfair": 9022,
    "Ġburger": 9023,
    "Ġcheating": 9024,
    "Ġmeatballs": 9025,
    "Ġpipes": 9026,
    "',": 9027,
    "Hop": 9028,
    "Ġcompliment": 9029,
    "Ġdev": 9030,
    "Ġhaircuts": 9031,
    "Ġstuffing": 9032,
    "Ġnoticing": 9033,
    "amil": 9034,
    "endant": 9035,
    "isp": 9036,
    "ĠStri": 9037,
    "Ġleaking": 9038,
    "Ġminded": 9039,
    "Ġpossib": 9040,
    "Ġtortoise": 9041,
    "ift": 9042,
    "ĠTyler": 9043,
    "Ġbeetles": 9044,
    "Ġexchange": 9045,
    "Ġpantry": 9046,
    "Lulu": 9047,
    "mel": 9048,
    "ware": 9049,
    "Ġdigs": 9050,
    "Ġsituations": 9051,
    "Ġtraps": 9052,
    "sie": 9053,
    "scotch": 9054,
    "ĠNe": 9055,
    "Ġfinishes": 9056,
    "Ġtreasured": 9057,
    "elvet": 9058,
    "ĠBert": 9059,
    "Ġblonde": 9060,
    "Ġchews": 9061,
    "Ġsuccessfully": 9062,
    "Ġyumm": 9063,
    "Ollie": 9064,
    "amiliar": 9065,
    "ĠHello": 9066,
    "Ġrewards": 9067,
    "Ġshrank": 9068,
    "bank": 9069,
    "ĠSeeing": 9070,
    "ĠStep": 9071,
    "Ġapology": 9072,
    "Ġsmartest": 9073,
    "Ġsneezes": 9074,
    "Ġunfamiliar": 9075,
    "\"Will": 9076,
    "Gr": 9077,
    "Ġscow": 9078,
    "HE": 9079,
    "Ġpractised": 9080,
    "oss": 9081,
    "Ġangrily": 9082,
    "Ġbund": 9083,
    "Ġerase": 9084,
    "Ġyawning": 9085,
    "Snow": 9086,
    "belt": 9087,
    "ĠAny": 9088,
    "Ġbulbs": 9089,
    "Ġclue": 9090,
    "Ġmugs": 9091,
    "Ġsandpit": 9092,
    "Tara": 9093,
    "Ġwelcoming": 9094,
    "Ġbends": 9095,
    "Ġtentacles": 9096,
    "Betty": 9097,
    "ĠCara": 9098,
    "ĠNancy": 9099,
    "Ġdoorstep": 9100,
    "Ġoccasion": 9101,
    "Ġwatermel": 9102,
    "Lizzie": 9103,
    "its": 9104,
    "Ġglittery": 9105,
    "Ġpounced": 9106,
    "Ġtempted": 9107,
    "Betsy": 9108,
    "ĠRufus": 9109,
    "Ġalley": 9110,
    "Ġconnect": 9111,
    "Ġgroaned": 9112,
    "Ġtunes": 9113,
    "\"Tommy": 9114,
    "beep": 9115,
    "sey": 9116,
    "ĠStill": 9117,
    "Ġlookout": 9118,
    "Ġscenery": 9119,
    "ĠDoes": 9120,
    "ĠHo": 9121,
    "Ġaston": 9122,
    "Ġbinoc": 9123,
    "Ġseatbelt": 9124,
    "Ġsweeter": 9125,
    "icious": 9126,
    "Ġballer": 9127,
    "Ġpinching": 9128,
    "Big": 9129,
    "ĠQuickly": 9130,
    "Ġthie": 9131,
    "racadabra": 9132,
    "ĠHootie": 9133,
    "Ġactor": 9134,
    "Ġenergetic": 9135,
    "âĤ¬ÅĵYay": 9136,
    "ĠGus": 9137,
    "Ġrowing": 9138,
    "Ġsmoking": 9139,
    "Zoe": 9140,
    "ĠBehind": 9141,
    "ĠSince": 9142,
    "ĠZack": 9143,
    "Ġhorri": 9144,
    "ĠPlaying": 9145,
    "ĠRich": 9146,
    "ĠWilly": 9147,
    "Ġcroaked": 9148,
    "Ġoverwhelmed": 9149,
    "Ġcaterpillars": 9150,
    "Ġmoons": 9151,
    "Ġripp": 9152,
    "Ġstew": 9153,
    "Ġsturdy": 9154,
    "Brownie": 9155,
    "Susan": 9156,
    "ĠTwinkle": 9157,
    "Ġtugging": 9158,
    "Danger": 9159,
    "umper": 9160,
    "ĠElephant": 9161,
    "Ġburgers": 9162,
    "Ġclut": 9163,
    "Ġdou": 9164,
    "Ġfireflies": 9165,
    "Ġprotection": 9166,
    "Ġicky": 9167,
    "ĠLina": 9168,
    "Ġpepperoni": 9169,
    "Ġthieves": 9170,
    "\"Welcome": 9171,
    "Maya": 9172,
    "ighty": 9173,
    "jack": 9174,
    "Ġdemanding": 9175,
    "Ġslithered": 9176,
    "Ġspears": 9177,
    "ĠRight": 9178,
    "Ġcrisp": 9179,
    "Ġpopsic": 9180,
    "iring": 9181,
    "ka": 9182,
    "Ġank": 9183,
    "Ġgasps": 9184,
    "Ġrebu": 9185,
    "Ġshares": 9186,
    "Ġsnapping": 9187,
    "\"Grandma": 9188,
    "ĠBirdie": 9189,
    "ĠRebecca": 9190,
    "Ġintently": 9191,
    "Ġrewarding": 9192,
    "chup": 9193,
    "lish": 9194,
    "ĠBonnie": 9195,
    "ĠGray": 9196,
    "ĠRosa": 9197,
    "Ġlar": 9198,
    "Ġteap": 9199,
    "Ġunderwater": 9200,
    "isdom": 9201,
    "Ġembra": 9202,
    "Ġerupt": 9203,
    "Ġhesitation": 9204,
    "Ġjudges": 9205,
    "Matt": 9206,
    "ulars": 9207,
    "Ġfunn": 9208,
    "Ġrack": 9209,
    "Ġrunner": 9210,
    "Mabel": 9211,
    "ĠMine": 9212,
    "Ġballerina": 9213,
    "Ġcertainly": 9214,
    "Ġfade": 9215,
    "Ġmessages": 9216,
    "-Bun": 9217,
    "rupt": 9218,
    "ĠBoo": 9219,
    "ĠMoo": 9220,
    "Ġchopping": 9221,
    "Jeff": 9222,
    "uggy": 9223,
    "ĠChoo": 9224,
    "Ġbubbling": 9225,
    "Ġthrill": 9226,
    "Ġtransformed": 9227,
    "Ġamused": 9228,
    "Ġcreams": 9229,
    "Ġobst": 9230,
    "Ġrips": 9231,
    "Ġsacks": 9232,
    "Ġteapot": 9233,
    "-g": 9234,
    "how": 9235,
    "scar": 9236,
    "Ġbinoculars": 9237,
    "Ġbruises": 9238,
    "Ġrubbish": 9239,
    "Ġsnorted": 9240,
    "Ġtextures": 9241,
    "acock": 9242,
    "ĠStartled": 9243,
    "Ġcages": 9244,
    "Hold": 9245,
    "eremy": 9246,
    "uno": 9247,
    "Ġinvites": 9248,
    "Ġlull": 9249,
    "Ġprog": 9250,
    "Ġstores": 9251,
    "ĠJenn": 9252,
    "Ġdefeat": 9253,
    "Ġgates": 9254,
    "Ġhopscotch": 9255,
    "Ġnightmares": 9256,
    "Ġrecess": 9257,
    "Ġteamwork": 9258,
    "ĠOf": 9259,
    "Ġdifferently": 9260,
    "Ġdisappointment": 9261,
    "Ġketchup": 9262,
    "Ġmonth": 9263,
    "Ġshoel": 9264,
    "Ġspare": 9265,
    "Ġswimsuits": 9266,
    "spe": 9267,
    "Ġbirdy": 9268,
    "Ġcoop": 9269,
    "Ġgoodness": 9270,
    "Ġmeadows": 9271,
    "Ġtopp": 9272,
    "\"St": 9273,
    "ĠApril": 9274,
    "ĠNora": 9275,
    "Ġpilots": 9276,
    "Ġsweetly": 9277,
    "-to": 9278,
    "ial": 9279,
    "ĠBelle": 9280,
    "ĠLooking": 9281,
    "Ġchoosing": 9282,
    "Ġlanding": 9283,
    "Ġscene": 9284,
    "Che": 9285,
    "iciest": 9286,
    "âĤ¬ÅĵWeÃ¢": 9287,
    "Ġcommunicate": 9288,
    "Ġmelons": 9289,
    "Ġraking": 9290,
    "Ġthunderstorm": 9291,
    "ĠweÃ¢": 9292,
    "aving": 9293,
    "hings": 9294,
    "otion": 9295,
    "uction": 9296,
    "ĠMonkey": 9297,
    "Ġarrest": 9298,
    "Ġcomputers": 9299,
    "Ġhundreds": 9300,
    "Ġintelligence": 9301,
    "Ġjets": 9302,
    "Ġmajest": 9303,
    "cts": 9304,
    "ĠLiam": 9305,
    "Ġcherish": 9306,
    "Ġelectricity": 9307,
    "Ġfist": 9308,
    "Ġfoam": 9309,
    "Ġwatermelon": 9310,
    "Ralph": 9311,
    "Suzie": 9312,
    "andra": 9313,
    "ĠSuper": 9314,
    "ĠTiger": 9315,
    "Ġinju": 9316,
    "ai": 9317,
    "Ġboards": 9318,
    "Ġguarding": 9319,
    "Ġplaydate": 9320,
    "Ġriverbank": 9321,
    "Ġsqueezes": 9322,
    "Ġtrusty": 9323,
    "Both": 9324,
    "Maddy": 9325,
    "ĠChickie": 9326,
    "Ġbenches": 9327,
    "Ġcrouched": 9328,
    "Ġcrickets": 9329,
    "Ġding": 9330,
    "Ġseasons": 9331,
    "Luke": 9332,
    "Put": 9333,
    "ĠMelissa": 9334,
    "ĠVelvet": 9335,
    "Ġexperiment": 9336,
    "Ġloyalty": 9337,
    "Ġmeaning": 9338,
    "Ġslapping": 9339,
    "ili": 9340,
    "solut": 9341,
    "Ġcanv": 9342,
    "Ġmarveled": 9343,
    "Ġspoiling": 9344,
    "Excitedly": 9345,
    "amboo": 9346,
    "cycles": 9347,
    "oto": 9348,
    "sers": 9349,
    "ĠPatrick": 9350,
    "Ġcops": 9351,
    "Ġheels": 9352,
    "Ġinjured": 9353,
    "Ġstrolled": 9354,
    "Ġwhimpered": 9355,
    "anted": 9356,
    "ĠBarry": 9357,
    "ĠBess": 9358,
    "ĠLiza": 9359,
    "ĠSky": 9360,
    "Ġacts": 9361,
    "Ġcharm": 9362,
    "Ġmysteries": 9363,
    "?'ĊĊ": 9364,
    "Everyday": 9365,
    "emy": 9366,
    "uess": 9367,
    "Ġleans": 9368,
    "Ġpokes": 9369,
    "Ġprank": 9370,
    "Ġstepping": 9371,
    "ĠJody": 9372,
    "ĠWait": 9373,
    "chief": 9374,
    "ige": 9375,
    "ĠSleep": 9376,
    "Ġauntie": 9377,
    "Ġsupporting": 9378,
    "Bee": 9379,
    "ĠMan": 9380,
    "Ġenemy": 9381,
    "Ġstyles": 9382,
    "ĠFifi": 9383,
    "ĠAgain": 9384,
    "ĠJoanna": 9385,
    "ĠOink": 9386,
    "Ġgroups": 9387,
    "Ġnapped": 9388,
    "Ġruff": 9389,
    "Ġsection": 9390,
    "âĤ¬ÅĵHow": 9391,
    "Ġbowing": 9392,
    "Ġmiller": 9393,
    "Ġplayhouse": 9394,
    "Ġshyly": 9395,
    "\"Kids": 9396,
    "ĠPet": 9397,
    "ĠTre": 9398,
    "Ġboil": 9399,
    "Ġcamel": 9400,
    "Ġcanvas": 9401,
    "Ġfoggy": 9402,
    "Cat": 9403,
    "Ġskirts": 9404,
    "Ġtemptation": 9405,
    "Ġwarmed": 9406,
    "Ġwhir": 9407,
    "\"Lila": 9408,
    "Fro": 9409,
    "Ġastonished": 9410,
    "Ġdisappearing": 9411,
    "Ġluckiest": 9412,
    "icest": 9413,
    "rum": 9414,
    "ĠOliver": 9415,
    "ĠPer": 9416,
    "Ġfrustration": 9417,
    "Ġmagnifying": 9418,
    "Ġowns": 9419,
    "edic": 9420,
    "yle": 9421,
    "ĠOh": 9422,
    "ĠSteven": 9423,
    "ĠWin": 9424,
    "Ġcurre": 9425,
    "Ġhissing": 9426,
    "Ġkeyhole": 9427,
    "Ġpouch": 9428,
    "Ġpeacock": 9429,
    "Still": 9430,
    "udy": 9431,
    "ĠTears": 9432,
    "Ġfishy": 9433,
    "Ġpuppets": 9434,
    "Ġtickles": 9435,
    "gar": 9436,
    "use": 9437,
    "ĠClaus": 9438,
    "ĠWeÃ¢": 9439,
    "Ġcherished": 9440,
    "Ġlevers": 9441,
    "ĠBra": 9442,
    "Ġankle": 9443,
    "Ġbas": 9444,
    "Ġlumberjack": 9445,
    "Ġnicest": 9446,
    "Ġtoothbrush": 9447,
    "\"Timmy": 9448,
    "Fortunately": 9449,
    "Lia": 9450,
    "guard": 9451,
    "ĠAndrew": 9452,
    "Ġda": 9453,
    "Nick": 9454,
    "Ġwoodcut": 9455,
    "Ġzips": 9456,
    "\"Listen": 9457,
    "\"Sh": 9458,
    "Lou": 9459,
    "Maddie": 9460,
    "ost": 9461,
    "rob": 9462,
    "that": 9463,
    "ĠGracie": 9464,
    "Bo": 9465,
    "ĠLight": 9466,
    "Ġdart": 9467,
    "Ġlevel": 9468,
    "Ġworst": 9469,
    "Everything": 9470,
    "Jessica": 9471,
    "oured": 9472,
    "stantly": 9473,
    "Ġ--": 9474,
    "ĠLenny": 9475,
    "Ġblades": 9476,
    "Ġbushy": 9477,
    "Ġimproving": 9478,
    "Ġreversing": 9479,
    "Ġwiggling": 9480,
    "Ġyelp": 9481,
    "Jackie": 9482,
    "Milo": 9483,
    "inging": 9484,
    "rap": 9485,
    "reg": 9486,
    "sm": 9487,
    "Ġclaw": 9488,
    "Ġhudd": 9489,
    "Ġtant": 9490,
    "ĠAnnabelle": 9491,
    "ĠCarla": 9492,
    "Ġfootprin": 9493,
    "Ġguards": 9494,
    "Ġmooed": 9495,
    "ĠMamma": 9496,
    "Ġbaa": 9497,
    "Ġcentre": 9498,
    "Ġcondition": 9499,
    "Ġcuddling": 9500,
    "Ġembarrassing": 9501,
    "Ġpopping": 9502,
    "Ġunwrapped": 9503,
    "alled": 9504,
    "ĠPaula": 9505,
    "...\"ĊĊ": 9506,
    "Pip": 9507,
    "THE": 9508,
    "ĠCare": 9509,
    "ĠPeep": 9510,
    "Ġalongside": 9511,
    "Ġbamboo": 9512,
    "Ġcooperate": 9513,
    "Ġrebuild": 9514,
    "Ġtimid": 9515,
    "Ġwhine": 9516,
    "Ġ4": 9517,
    "Ġdrip": 9518,
    "Ġfetched": 9519,
    "aling": 9520,
    "ĠOuch": 9521,
    "ĠAnother": 9522,
    "Ġbold": 9523,
    "Ġtantrum": 9524,
    "Ġtot": 9525,
    "Ġunless": 9526,
    "Curious": 9527,
    "Julia": 9528,
    "sa": 9529,
    "ulf": 9530,
    "ĠWas": 9531,
    "Ġthumbs": 9532,
    ",Ċ": 9533,
    "aisie": 9534,
    "uster": 9535,
    "Ġquilt": 9536,
    "gets": 9537,
    "ĠBunBun": 9538,
    "ĠFish": 9539,
    "ĠLots": 9540,
    "ĠFly": 9541,
    "Ġallowing": 9542,
    "Ġboiling": 9543,
    "Ġcircled": 9544,
    "Ġrevealing": 9545,
    "artment": 9546,
    "ogo": 9547,
    "ĠBruce": 9548,
    "ĠIce": 9549,
    "Ġdrying": 9550,
    "Ġkangaroos": 9551,
    "Ġmotorcycles": 9552,
    "Ġnarrow": 9553,
    "Ġsoothing": 9554,
    "Ġtrusts": 9555,
    "Baa": 9556,
    "ani": 9557,
    "solutely": 9558,
    "Ġconsider": 9559,
    "Ġinstin": 9560,
    "Ġpedaling": 9561,
    "Ġtrading": 9562,
    "Ġwoodcutter": 9563,
    "\"Watch": 9564,
    ",'": 9565,
    "bbi": 9566,
    "pect": 9567,
    "under": 9568,
    "ĠBeep": 9569,
    "Ġdisagre": 9570,
    "Ġhatched": 9571,
    "Davey": 9572,
    "Mikey": 9573,
    "Ra": 9574,
    "ormation": 9575,
    "ĠLife": 9576,
    "ĠTe": 9577,
    "ĠTree": 9578,
    "Ġcoughing": 9579,
    "Ġmindful": 9580,
    "-one": 9581,
    "well": 9582,
    "ĠDot": 9583,
    "ĠMona": 9584,
    "ĠPinchy": 9585,
    "Ġdashed": 9586,
    "Ġharvest": 9587,
    "Ġroo": 9588,
    "\"Fine": 9589,
    "Ġsoftened": 9590,
    "Ġfries": 9591,
    "Ġmedals": 9592,
    "Ġplo": 9593,
    "Abracadabra": 9594,
    "arky": 9595,
    "ĠRavi": 9596,
    "ĠShare": 9597,
    "Ġgroom": 9598,
    "Ġlullaby": 9599,
    "Ġrealise": 9600,
    "Ġshrugs": 9601,
    "Ġknobs": 9602,
    "Ġmustered": 9603,
    "Ġsleeps": 9604,
    "Ġwriter": 9605,
    "-colored": 9606,
    "Ġcourageous": 9607,
    "Ġstructures": 9608,
    "Ġtops": 9609,
    "Linda": 9610,
    "Pretty": 9611,
    "reya": 9612,
    "Ġallerg": 9613,
    "Ġcompared": 9614,
    "Ġcooled": 9615,
    "Ġkneeling": 9616,
    "Ġspringtime": 9617,
    "Anytime": 9618,
    "ala": 9619,
    "cell": 9620,
    "speople": 9621,
    "Ġcupboards": 9622,
    "Ġrepeats": 9623,
    "Ġstun": 9624,
    "Slowly": 9625,
    "Ġ''": 9626,
    "ĠRatty": 9627,
    "Ġfacts": 9628,
    "Ġtownspeople": 9629,
    "Ġwhoosh": 9630,
    "âĤ¬ÅĵWelcome": 9631,
    "ĠVery": 9632,
    "ĠdoesnÃ¢": 9633,
    "Ġmagically": 9634,
    "Ġmold": 9635,
    "Ġwarmest": 9636,
    "Nice": 9637,
    "elling": 9638,
    "ĠEd": 9639,
    "ĠZiggy": 9640,
    "Ġarom": 9641,
    "Ġblooms": 9642,
    "Ġloudest": 9643,
    "Ġnecess": 9644,
    "Ġspeaks": 9645,
    "Ġwhirl": 9646,
    "ashes": 9647,
    "ker": 9648,
    "ĠRiley": 9649,
    "Ġallowance": 9650,
    "Ġbanging": 9651,
    "Ġcracker": 9652,
    "Ġfacing": 9653,
    "Ġpoisonous": 9654,
    "Ġwrench": 9655,
    "\"Very": 9656,
    "iky": 9657,
    "ĠCandy": 9658,
    "ĠGabby": 9659,
    "ĠHurry": 9660,
    "ĠWilbur": 9661,
    "Ġfights": 9662,
    "Ġlizards": 9663,
    "Ġopt": 9664,
    "Ġscoops": 9665,
    "Ġhollow": 9666,
    "Ġhooves": 9667,
    "Ġlush": 9668,
    "Ġlarger": 9669,
    "Ġrepairing": 9670,
    "Jan": 9671,
    "Sophia": 9672,
    "barrow": 9673,
    "ĠPink": 9674,
    "Ġcousins": 9675,
    "Ġwheelbarrow": 9676,
    "striches": 9677,
    "ĠCould": 9678,
    "ĠOutside": 9679,
    "Ġpizzas": 9680,
    "\"Time": 9681,
    "Chirp": 9682,
    "âĤ¬ÅĵThere": 9683,
    "ĠMath": 9684,
    "ĠNate": 9685,
    "Ġguardian": 9686,
    "Ġpeak": 9687,
    "lfie": 9688,
    "ĠPeanut": 9689,
    "ĠSl": 9690,
    "Ġangrier": 9691,
    "Ġcalming": 9692,
    "Ġlunchtime": 9693,
    "Ġnearer": 9694,
    "Ġrecommendation": 9695,
    "Ġthrone": 9696,
    "June": 9697,
    "Jacky": 9698,
    "People": 9699,
    "berry": 9700,
    "Ġblamed": 9701,
    "Ġlifeguard": 9702,
    ":Ċ": 9703,
    "this": 9704,
    "âĤ¬ÅĵThanks": 9705,
    "ĠAfterwards": 9706,
    "ĠCD": 9707,
    "ĠWoof": 9708,
    "Ġsensation": 9709,
    "Ġweaker": 9710,
    "ibly": 9711,
    "vering": 9712,
    "Ãĥ": 9713,
    "ĠBoun": 9714,
    "ĠCook": 9715,
    "Ġgratefully": 9716,
    "Ġsobbing": 9717,
    "Ġsooner": 9718,
    "antern": 9719,
    "mark": 9720,
    "ĠKen": 9721,
    "ĠTomorrow": 9722,
    "Ġsus": 9723,
    "aroni": 9724,
    "cri": 9725,
    "just": 9726,
    "ĠJasmine": 9727,
    "ĠPatches": 9728,
    "Ġglisten": 9729,
    "Ġhuddled": 9730,
    "Ġpreschool": 9731,
    "Hmm": 9732,
    "inny": 9733,
    "ĠWhatÃ¢": 9734,
    "Ġaloud": 9735,
    "Ġchallenges": 9736,
    "Ġcharacter": 9737,
    "ĠisnÃ¢": 9738,
    "Ġlava": 9739,
    "Ġnets": 9740,
    "Ġshoots": 9741,
    "Ġspiky": 9742,
    "ĠHar": 9743,
    "ĠSmoke": 9744,
    "Ġbumping": 9745,
    "Ġforeshadow": 9746,
    "Ġquarreled": 9747,
    "Ġstrokes": 9748,
    "mie": 9749,
    "Ġachievement": 9750,
    "Ġhangs": 9751,
    "Ġmayor": 9752,
    "Ġpose": 9753,
    "ushes": 9754,
    "Ġblade": 9755,
    "Ġdeeply": 9756,
    "Ġdolly": 9757,
    "Ġjourneys": 9758,
    "Ġotherwise": 9759,
    "\"Happy": 9760,
    "Ġcig": 9761,
    "Ġcooed": 9762,
    "Ġcurrent": 9763,
    "Ġflooded": 9764,
    "Ġshinier": 9765,
    "Ġwolves": 9766,
    "omp": 9767,
    "ĠFelix": 9768,
    "Ġfootprints": 9769,
    "Ġheavily": 9770,
    "Ġkissing": 9771,
    "Oops": 9772,
    "pan": 9773,
    "ĠEver": 9774,
    "ĠSal": 9775,
    "Ġclubs": 9776,
    "Ġcontinuing": 9777,
    "Ġcopied": 9778,
    "Ġdaily": 9779,
    "Ġdisagreement": 9780,
    "Ġgrump": 9781,
    "Ġhonks": 9782,
    "Ġjing": 9783,
    "Ġowls": 9784,
    "Remy": 9785,
    "Sunny": 9786,
    "aste": 9787,
    "ĠJackÃ¢": 9788,
    "ĠMartin": 9789,
    "ĠToto": 9790,
    "Ġfloppy": 9791,
    "ĠheÃ¢": 9792,
    "Ġspeaker": 9793,
    "ggles": 9794,
    "perately": 9795,
    "ĠGold": 9796,
    "ĠJennie": 9797,
    "Ġconcerned": 9798,
    "Ġdisaster": 9799,
    "ifer": 9800,
    "ĠMa": 9801,
    "Ġcreep": 9802,
    "Ġdesks": 9803,
    "Ġdoves": 9804,
    "Ġpecks": 9805,
    "ĠBa": 9806,
    "Ġcigaret": 9807,
    "Ġtill": 9808,
    "tled": 9809,
    "âĤ¬ÅĵWould": 9810,
    "ĠMighty": 9811,
    "Ġharmony": 9812,
    "Ġrinse": 9813,
    "Ġsneaks": 9814,
    "Ġwaking": 9815,
    "ĠExcitedly": 9816,
    "ĠMarley": 9817,
    "ĠSunshine": 9818,
    "Ġdozed": 9819,
    "Ġinvitations": 9820,
    "othy": 9821,
    "ĠDra": 9822,
    "Ġcloths": 9823,
    "Ġfooled": 9824,
    "Ġglared": 9825,
    "Ġhooks": 9826,
    "Ġsoda": 9827,
    "Mother": 9828,
    "isbee": 9829,
    "âĤ¬âĦ¢ĊĊ": 9830,
    "ĠDeal": 9831,
    "ĠLeah": 9832,
    "Ġbats": 9833,
    "Ġbrains": 9834,
    "Ġincredibly": 9835,
    "Ġroamed": 9836,
    "Ġsilently": 9837,
    "Ġsleds": 9838,
    "Jump": 9839,
    "Ġabsolutely": 9840,
    "Ġgoggles": 9841,
    "Ġstacking": 9842,
    "Ġswapped": 9843,
    "agine": 9844,
    "wen": 9845,
    "ĠYesterday": 9846,
    "Ġattempts": 9847,
    "Ġglanced": 9848,
    "Ġjuiciest": 9849,
    "Ġminding": 9850,
    "Ġoldest": 9851,
    "Ġtale": 9852,
    "ĠHopper": 9853,
    "ĠMila": 9854,
    "ĠPo": 9855,
    "ĠmanÃ¢": 9856,
    "Ġpersistence": 9857,
    "Ġstains": 9858,
    "oned": 9859,
    "ĠAllie": 9860,
    "Ġaroma": 9861,
    "Ġbud": 9862,
    "Ġcompleting": 9863,
    "Ġcontented": 9864,
    "Ġdoggie": 9865,
    "Ġhips": 9866,
    "Ġinstincts": 9867,
    "Ġprocess": 9868,
    "Ġskate": 9869,
    "onest": 9870,
    "Ġparks": 9871,
    "Ġplopped": 9872,
    "ssy": 9873,
    "ĠChuck": 9874,
    "Ġbellies": 9875,
    "Ġbooth": 9876,
    "Ġflashes": 9877,
    "Ġknit": 9878,
    "Ġnecessary": 9879,
    "Ġpleasant": 9880,
    "Ġrealizing": 9881,
    "Ġundone": 9882,
    "ĠJose": 9883,
    "Ġcaution": 9884,
    "Ġproperty": 9885,
    "Although": 9886,
    "Moo": 9887,
    "Open": 9888,
    "Tiny": 9889,
    "Ġcapture": 9890,
    "Ġinterrupt": 9891,
    "Ġquacks": 9892,
    "Ġshh": 9893,
    "Ġstalk": 9894,
    "Ġcosts": 9895,
    "Ġdesperately": 9896,
    "Ġmacaroni": 9897,
    "Ġmesmerised": 9898,
    "Ġwax": 9899,
    "aith": 9900,
    "emon": 9901,
    "lling": 9902,
    "ĠDuring": 9903,
    "Ġmusicians": 9904,
    "Ġpossibilities": 9905,
    "Ġtheat": 9906,
    "Ġticking": 9907,
    "Outside": 9908,
    "Spike": 9909,
    "oga": 9910,
    "urity": 9911,
    "ĠColin": 9912,
    "ĠOscar": 9913,
    "Ġdesperate": 9914,
    "Ġuntangle": 9915,
    "Hurry": 9916,
    "Ġhoses": 9917,
    "iments": 9918,
    "mers": 9919,
    "âĤ¬ÅĵOK": 9920,
    "ĠDay": 9921,
    "ĠOver": 9922,
    "Ġarmy": 9923,
    "Ġbathed": 9924,
    "Ġlever": 9925,
    "Ġtroll": 9926,
    "Jenna": 9927,
    "icent": 9928,
    "idi": 9929,
    "ĠMoon": 9930,
    "Ġhoot": 9931,
    "Ġshave": 9932,
    "Ġwebs": 9933,
    "Ġwrapper": 9934,
    "Ġadmit": 9935,
    "Ġgummy": 9936,
    "Ġtrim": 9937,
    "Ġvinegar": 9938,
    "Along": 9939,
    "acey": 9940,
    "ĠLu": 9941,
    "Ġboiled": 9942,
    "Ġcuc": 9943,
    "Ġdifferences": 9944,
    "Ġmovement": 9945,
    "Ġpounds": 9946,
    "Ġsnoring": 9947,
    "Ġsusp": 9948,
    "Ġuncovered": 9949,
    "-shirt": 9950,
    "aps": 9951,
    "ics": 9952,
    "âĤ¬ÅĵAre": 9953,
    "Ġwhipped": 9954,
    "eor": 9955,
    "ĠJodie": 9956,
    "ĠRainbow": 9957,
    "Ġkayaking": 9958,
    "Ġpassenger": 9959,
    "Ġpiled": 9960,
    "Ġspringing": 9961,
    "ically": 9962,
    "ĠJump": 9963,
    "Ġallergic": 9964,
    "Ġench": 9965,
    "Ġprogress": 9966,
    "Ġscre": 9967,
    "Ġtheatre": 9968,
    "Ġunfold": 9969,
    "Never": 9970,
    "keepers": 9971,
    "orse": 9972,
    "Ġbuilder": 9973,
    "Ġenerg": 9974,
    "Ġglobe": 9975,
    "Ġimaginations": 9976,
    "Pam": 9977,
    "aron": 9978,
    "ĠBrad": 9979,
    "ĠGinger": 9980,
    "Ġgrownup": 9981,
    "Ġseriously": 9982,
    "Mine": 9983,
    "andel": 9984,
    "erts": 9985,
    "uffin": 9986,
    "ĠMs": 9987,
    "Ġexh": 9988,
    "Ġheadache": 9989,
    "Ġlaws": 9990,
    "Ġpurring": 9991,
    "!'.": 9992,
    "Janie": 9993,
    "Martha": 9994,
    "ĠRusty": 9995,
    "Ġblur": 9996,
    "Ġdedic": 9997,
    "Ġracer": 9998,
    "Ġscratchy": 9999,
    "\"One": 10000,
    "ĠViolet": 10001,
    "Ġcutest": 10002,
    "Ġlearner": 10003,
    "Ġmessed": 10004,
    "Ġoceans": 10005,
    "Ġwinds": 10006,
    "Bird": 10007,
    "Ġcharged": 10008,
    "Ġcomets": 10009,
    "Ġdesserts": 10010,
    "Ġmaps": 10011,
    "\"Bang": 10012,
    "Michael": 10013,
    "umed": 10014,
    "Ġhovering": 10015,
    "Ġrinsed": 10016,
    "Ġsparrow": 10017,
    "Simon": 10018,
    "aming": 10019,
    "Ġchains": 10020,
    "Ġhatch": 10021,
    "Ġhippos": 10022,
    "Ġlasted": 10023,
    "Ġric": 10024,
    "Ġtowns": 10025,
    "cr": 10026,
    "imbo": 10027,
    "onut": 10028,
    "Ġamongst": 10029,
    "Ġcompromise": 10030,
    "Ġcreak": 10031,
    "Ġpurch": 10032,
    "Ġshoelaces": 10033,
    "Abbie": 10034,
    "Dolly": 10035,
    "Only": 10036,
    "oors": 10037,
    "ĠGemma": 10038,
    "ĠJosie": 10039,
    "ĠThrough": 10040,
    "Ġindoors": 10041,
    "Ġkinder": 10042,
    "Ġlunchbox": 10043,
    "Ġmagnificent": 10044,
    "Ġrobe": 10045,
    "Ġstirs": 10046,
    "free": 10047,
    "ĠBooks": 10048,
    "Ġautomobiles": 10049,
    "Ġglistening": 10050,
    "Ġgulped": 10051,
    "Ġphones": 10052,
    "Ġrotted": 10053,
    "Ġscut": 10054,
    "Ġslurp": 10055,
    "Ġtempting": 10056,
    "ambi": 10057,
    "Ġcrafts": 10058,
    "Ġhandy": 10059,
    "Ġobediently": 10060,
    "Ġoverfl": 10061,
    "Ġplumber": 10062,
    "Ġsecurity": 10063,
    "'am": 10064,
    "-out": 10065,
    "laying": 10066,
    "ydia": 10067,
    "Ġchamp": 10068,
    "Ġcoconut": 10069,
    "Ġdepths": 10070,
    "Ġfeathered": 10071,
    "Ġnibbling": 10072,
    "Ġsquirted": 10073,
    "reta": 10074,
    "ĠGirl": 10075,
    "Ġostriches": 10076,
    "Ġpriv": 10077,
    "Ġsteered": 10078,
    "\"Quack": 10079,
    "Chris": 10080,
    "ĠBiggie": 10081,
    "Ġoccasions": 10082,
    "Ġsniffled": 10083,
    "Ġsoftest": 10084,
    "Ġcaps": 10085,
    "Ġchallenged": 10086,
    "Ġdumb": 10087,
    "Ġfashionable": 10088,
    "Ġfolds": 10089,
    "rings": 10090,
    "uppy": 10091,
    "ĠJanet": 10092,
    "Ġalligators": 10093,
    "gr": 10094,
    "ĠJelly": 10095,
    "Ġdepartment": 10096,
    "Ġintroducing": 10097,
    "Ġloads": 10098,
    "Ġperfor": 10099,
    "Ġretrie": 10100,
    "Ġrocky": 10101,
    "ĠWhich": 10102,
    "Ġescap": 10103,
    "Ġkeen": 10104,
    "Ġswat": 10105,
    "Ġtiring": 10106,
    "form": 10107,
    "Ġdate": 10108,
    "Ġdetect": 10109,
    "Ġsmoothly": 10110,
    "Ġswoop": 10111,
    "Mina": 10112,
    "Too": 10113,
    "aper": 10114,
[...]
