{
  "<|pad|>": 0,
  "<|unk|>": 1,
  "<|bos|>": 2,
  "<|eos|>": 3,
  "<|system|>": 4,
  "<|user|>": 5,
  "<|assistant|>": 6,
  "Ā": 7,
  "ā": 8,
  "Ă": 9,
  "ă": 10,
  "Ą": 11,
  "ą": 12,
  "Ć": 13,
  "ć": 14,
  "Ĉ": 15,
  "ĉ": 16,
  "Ċ": 17,
  "ċ": 18,
  "Č": 19,
  "č": 20,
  "Ď": 21,
  "ď": 22,
  "Đ": 23,
  "đ": 24,
  "Ē": 25,
  "ē": 26,
  "Ĕ": 27,
  "ĕ": 28,
  "Ė": 29,
  "ė": 30,
  "Ę": 31,
  "ę": 32,
  "Ě": 33,
  "ě": 34,
  "Ĝ": 35,
  "ĝ": 36,
  "Ğ": 37,
  "ğ": 38,
  "Ġ": 39,
  "!": 40,
  "\"": 41,
  "#": 42,
  "$": 43,
  "%": 44,
  "&": 45,
  "'": 46,
  "(": 47,
  ")": 48,
  "*": 49,
  "+": 50,
  ",": 51,
  "-": 52,
  ".": 53,
  "/": 54,
  "0": 55,
  "1": 56,
  "2": 57,
  "3": 58,
  "4": 59,
  "5": 60,
  "6": 61,
  "7": 62,
  "8": 63,
  "9": 64,
  ":": 65,
  ";": 66,
  "<": 67,
  "=": 68,
  ">": 69,
  "?": 70,
  "@": 71,
  "A": 72,
  "B": 73,
  "C": 74,
  "D": 75,
  "E": 76,
  "F": 77,
  "G": 78,
  "H": 79,
  "I": 80,
  "J": 81,
  "K": 82,
  "L": 83,
  "M": 84,
  "N": 85,
  "O": 86,
  "P": 87,
  "Q": 88,
  "R": 89,
  "S": 90,
  "T": 91,
  "U": 92,
  "V": 93,
  "W": 94,
  "X": 95,
  "Y": 96,
  "Z": 97,
  "[": 98,
  "\\": 99,
  "]": 100,
  "^": 101,
  "_": 102,
  "`": 103,
  "a": 104,
  "b": 105,
  "c": 106,
  "d": 107,
  "e": 108,
  "f": 109,
  "g": 110,
  "h": 111,
  "i": 112,
  "j": 113,
  "k": 114,
  "l": 115,
  "m": 116,
  "n": 117,
  "o": 118,
  "p": 119,
  "q": 120,
  "r": 121,
  "s": 122,
  "t": 123,
  "u": 124,
  "v": 125,
  "w": 126,
  "x": 127,
  "y": 128,
  "z": 129,
  "{": 130,
  "|": 131,
  "}": 132,
  "~": 133,
  "ġ": 134,
  "Ģ": 135,
  "ģ": 136,
  "Ĥ": 137,
  "ĥ": 138,
  "Ħ": 139,
  "ħ": 140,
  "Ĩ": 141,
  "ĩ": 142,
  "Ī": 143,
  "ī": 144,
  "Ĭ": 145,
  "ĭ": 146,
  "Į": 147,
  "į": 148,
  "İ": 149,
  "ı": 150,
  "Ĳ": 151,
  "ĳ": 152,
  "Ĵ": 153,
  "ĵ": 154,
  "Ķ": 155,
  "ķ": 156,
  "ĸ": 157,
  "Ĺ": 158,
  "ĺ": 159,
  "Ļ": 160,
  "ļ": 161,
  "Ľ": 162,
  "ľ": 163,
  "Ŀ": 164,
  "ŀ": 165,
  "Ł": 166,
  "ł": 167,
  "¡": 168,
  "¢": 169,
  "£": 170,
  "¤": 171,
  "¥": 172,
  "¦": 173,
  "§": 174,
  "¨": 175,
  "©": 176,
  "ª": 177,
  "«": 178,
  "¬": 179,
  "Ń": 180,
  "®": 181,
  "¯": 182,
  "°": 183,
  "±": 184,
  "²": 185,
  "³": 186,
  "´": 187,
  "µ": 188,
  "¶": 189,
  "·": 190,
  "¸": 191,
  "¹": 192,
  "º": 193,
  "»": 194,
  "¼": 195,
  "½": 196,
  "¾": 197,
  "¿": 198,
  "À": 199,
  "Á": 200,
  "Â": 201,
  "Ã": 202,
  "Ä": 203,
  "Å": 204,
  "Æ": 205,
  "Ç": 206,
  "È": 207,
  "É": 208,
  "Ê": 209,
  "Ë": 210,
  "Ì": 211,
  "Í": 212,
  "Î": 213,
  "Ï": 214,
  "Ð": 215,
  "Ñ": 216,
  "Ò": 217,
  "Ó": 218,
  "Ô": 219,
  "Õ": 220,
  "Ö": 221,
  "×": 222,
  "Ø": 223,
  "Ù": 224,
  "Ú": 225,
  "Û": 226,
  "Ü": 227,
  "Ý": 228,
  "Þ": 229,
  "ß": 230,
  "à": 231,
  "á": 232,
  "â": 233,
  "ã": 234,
  "ä": 235,
  "å": 236,
  "æ": 237,
  "ç": 238,
  "è": 239,
  "é": 240,
  "ê": 241,
  "ë": 242,
  "ì": 243,
  "í": 244,
  "î": 245,
  "ï": 246,
  "ð": 247,
  "ñ": 248,
  "ò": 249,
  "ó": 250,
  "ô": 251,
  "õ": 252,
  "ö": 253,
  "÷": 254,
  "ø": 255,
  "ù": 256,
  "ú": 257,
  "û": 258,
  "ü": 259,
  "ý": 260,
  "þ": 261,
  "ÿ": 262,
  "Ġt": 263,
  "he": 264,
  "Ġa": 265,
  "in": 266,
  "Ġthe": 267,
  "er": 268,
  "on": 269,
  "re": 270,
  "Ġs": 271,
  "nd": 272,
  "Ġw": 273,
  "Ġo": 274,
  "ed": 275,
  "at": 276,
  "Ġ,": 277,
  "Ġc": 278,
  "en": 279,
  "or": 280,
  "es": 281,
  "it": 282,
  "Ġf": 283,
  "is": 284,
  "an": 285,
  "Ġb": 286,
  "ar": 287,
  "ing": 288,
  "al": 289,
  "Ġin": 290,
  "Ġof": 291,
  "Ġ.": 292,
  "Ġp": 293,
  "Ġand": 294,
  "ou": 295,
  "as": 296,
  "Ġto": 297,
  "Ġm": 298,
  "ic": 299,
  "Ġd": 300,
  "Ġh": 301,
  "ion": 302,
  "le": 303,
  "ro": 304,
  "Ġre": 305,
  "ent": 306,
  "il": 307,
  "ĠT": 308,
  "Ġth": 309,
  "st": 310,
  "Ġe": 311,
  "om": 312,
  "ĠS": 313,
  "Ġl": 314,
  "el": 315,
  "ĠA": 316,
  "ac": 317,
  "Ġn": 318,
  "am": 319,
  "Ġ\"": 320,
  "ad": 321,
  "Ġ1": 322,
  "ĠC": 323,
  "ec": 324,
  "et": 325,
  "Ġg": 326,
  "ly": 327,
  "id": 328,
  "Ġon": 329,
  "Ġwas": 330,
  "im": 331,
  "ol": 332,
  "ur": 333,
  "Ġfor": 334,
  "iv": 335,
  "Ġ=": 336,
  "ĠM": 337,
  "ot": 338,
  "ig": 339,
  "ir": 340,
  "ut": 341,
  "ow": 342,
  "Ġhe": 343,
  "us": 344,
  "ĠI": 345,
  "ĠB": 346,
  "ay": 347,
  "Ġas": 348,
  "ter": 349,
  "ith": 350,
  "Ġst": 351,
  "ĠThe": 352,
  "ation": 353,
  "Ġthat": 354,
  "ver": 355,
  "Ġ'": 356,
  "ĠH": 357,
  "Ġwith": 358,
  "Ġbe": 359,
  "ce": 360,
  "Ġis": 361,
  "ul": 362,
  "un": 363,
  "ĠP": 364,
  "em": 365,
  "ch": 366,
  "Ġ2": 367,
  "Ġwh": 368,
  "ers": 369,
  "Ġal": 370,
  "Ġcon": 371,
  "ĠR": 372,
  "Ġan": 373,
  "Ġit": 374,
  "ct": 375,
  "th": 376,
  "ĠD": 377,
  "est": 378,
  "ra": 379,
  "Ġby": 380,
  "os": 381,
  "ĠW": 382,
  "her": 383,
  "ĠG": 384,
  "Ġat": 385,
  "Ġ.Ċ": 386,
  "Ġpro": 387,
  "ĠF": 388,
  "ri": 389,
  "Ġ(": 390,
  "av": 391,
  "ist": 392,
  "ag": 393,
  "ĠL": 394,
  "um": 395,
  "and": 396,
  "if": 397,
  "op": 398,
  "ĠN": 399,
  "ain": 400,
  "Ġy": 401,
  "od": 402,
  "rom": 403,
  "Ġ)": 404,
  "Ġcom": 405,
  "ore": 406,
  "ld": 407,
  "ĠE": 408,
  "Ġv": 409,
  "Ġ19": 410,
  "ĠJ": 411,
  "ill": 412,
  "Ġr": 413,
  "pp": 414,
  "Ġsu": 415,
  "ant": 416,
  "Ġfrom": 417,
  "ate": 418,
  "ak": 419,
  "our": 420,
  "00": 421,
  "res": 422,
  "Ġhis": 423,
  "igh": 424,
  "ess": 425,
  "ew": 426,
  "Ġor": 427,
  "Ġex": 428,
  "ies": 429,
  "Ġare": 430,
  "ort": 431,
  "ab": 432,
  "qu": 433,
  "art": 434,
  "ĊĊ": 435,
  "oc": 436,
  "all": 437,
  "Ġde": 438,
  "se": 439,
  "ud": 440,
  "ĠO": 441,
  "Ġse": 442,
  "Ġch": 443,
  "ity": 444,
  "ive": 445,
  "ere": 446,
  "ard": 447,
  "Ġsh": 448,
  "ect": 449,
  "ich": 450,
  "Ġpl": 451,
  "gh": 452,
  "ber": 453,
  "pt": 454,
  "Ġwere": 455,
  "rou": 456,
  "ong": 457,
  "ment": 458,
  "Ġk": 459,
  "ack": 460,
  "Ġle": 461,
  "ated": 462,
  "ear": 463,
  "âĢ": 464,
  "ip": 465,
  "ial": 466,
  "ure": 467,
  "ast": 468,
  "Ġhad": 469,
  "ame": 470,
  "ge": 471,
  "Ġsp": 472,
  "ust": 473,
  "out": 474,
  "ight": 475,
  "ov": 476,
  "ĠU": 477,
  "ĠIn": 478,
  "ĠK": 479,
  "ave": 480,
  "ell": 481,
  "end": 482,
  "Ġnot": 483,
  "Ġu": 484,
  "ould": 485,
  "Ġwhich": 486,
  "ost": 487,
  "ine": 488,
  "Ġus": 489,
  "ĠSt": 490,
  "ap": 491,
  "ide": 492,
  "Ġtheir": 493,
  "ions": 494,
  "ĠâĢ": 495,
  "ord": 496,
  "Ġher": 497,
  "ian": 498,
  "ical": 499,
  "ia": 500,
  "Ġ=Ċ": 501,
  "oun": 502,
  "ther": 503,
  "Ġinc": 504,
  "ome": 505,
  "ire": 506,
  "ff": 507,
  ".ĊĊ": 508,
  "are": 509,
  "ary": 510,
  "Ġun": 511,
  "cc": 512,
  "Ġab": 513,
  "rit": 514,
  "Ġad": 515,
  "ok": 516,
  "Ġcomp": 517,
  "og": 518,
  "Ġbut": 519,
  "ous": 520,
  "Ġint": 521,
  "orm": 522,
  "ru": 523,
  "Ġcont": 524,
  "so": 525,
  "per": 526,
  "ry": 527,
  "Ġ3": 528,
  "ork": 529,
  "Ġhave": 530,
  "The": 531,
  "Ġwhe": 532,
  "Ġcan": 533,
  "act": 534,
  "ign": 535,
  "Ġen": 536,
  "ĠĠ": 537,
  "du": 538,
  "pl": 539,
  "ish": 540,
  "ie": 541,
  "iz": 542,
  "age": 543,
  "Ġar": 544,
  "ĠCh": 545,
  "ence": 546,
  "Ġcl": 547,
  "ass": 548,
  "fter": 549,
  "Ġalso": 550,
  "low": 551,
  "irst": 552,
  "ime": 553,
  "ran": 554,
  "ater": 555,
  "Ġim": 556,
  "Ġits": 557,
  "ĠV": 558,
  "ue": 559,
  "Ġres": 560,
  "Ġj": 561,
  "Ġhas": 562,
  "Ġthis": 563,
  "ub": 564,
  "Ġyou": 565,
  "ĠHe": 566,
  "Ġ20": 567,
  "ĠTh": 568,
  "Ġthey": 569,
  "ice": 570,
  "ally": 571,
  "Ġ200": 572,
  "ult": 573,
  "Ġwho": 574,
  "wo": 575,
  "ond": 576,
  "ile": 577,
  "Ġwe": 578,
  "Ġfirst": 579,
  "ach": 580,
  "ke": 581,
  "Ġper": 582,
  "ations": 583,
  "ep": 584,
  "ition": 585,
  "ound": 586,
  "Ġsc": 587,
  "own": 588,
  "mer": 589,
  "Ġapp": 590,
  "ind": 591,
  "hed": 592,
  "Ġone": 593,
  "Ġrec": 594,
  "Ġmore": 595,
  "Ġout": 596,
  "ance": 597,
  "ace": 598,
  "lud": 599,
  "ĠIt": 600,
  "fer": 601,
  "Ġman": 602,
  "Ġdis": 603,
  "Ġgo": 604,
  "ely": 605,
  "Ġother": 606,
  "ough": 607,
  "ark": 608,
  "Ġro": 609,
  "Ġover": 610,
  "Ġshe": 611,
  "ĠâĢĵ": 612,
  "able": 613,
  "ory": 614,
  "ree": 615,
  "Ġpart": 616,
  "Ġ4": 617,
  "Ġ;": 618,
  "Ġne": 619,
  "Ġbeen": 620,
  "ib": 621,
  "one": 622,
  "ction": 623,
  "Ġup": 624,
  "Ġbec": 625,
  "'s": 626,
  "form": 627,
  "Ġag": 628,
  "ake": 629,
  "ress": 630,
  "Ġ5": 631,
  "Ġpre": 632,
  "Ġte": 633,
  "Ġdes": 634,
  "Ġser": 635,
  "uring": 636,
  "Ġ:": 637,
  "ric": 638,
  "Ġtwo": 639,
  "vel": 640,
  "ount": 641,
  "Ġinclud": 642,
  "ase": 643,
  "Ġplay": 644,
  "ade": 645,
  "ail": 646,
  "ĠY": 647,
  "Ġwould": 648,
  "ve": 649,
  "Ġinto": 650,
  "Ġtime": 651,
  "Ġev": 652,
  "Ġme": 653,
  "Ġwork": 654,
  "ens": 655,
  "reat": 656,
  "Ġhel": 657,
  "les": 658,
  "ents": 659,
  "Ġ201": 660,
  "Ġ18": 661,
  "ors": 662,
  "ite": 663,
  "wn": 664,
  "ful": 665,
  "ces": 666,
  "int": 667,
  "Ġafter": 668,
  "we": 669,
  "Ġall": 670,
  "Ġfe": 671,
  "Ġabout": 672,
  "ne": 673,
  "ember": 674,
  "Ġatt": 675,
  "ĠAl": 676,
  "Ġyear": 677,
  "Ġimp": 678,
  "ang": 679,
  "te": 680,
  "ings": 681,
  "rough": 682,
  "ook": 683,
  "ced": 684,
  "Ġass": 685,
  "oy": 686,
  "Ġthem": 687,
  "Ġhelp": 688,
  "Ġcomm": 689,
  "land": 690,
  "Ġinter": 691,
  "amp": 692,
  "ren": 693,
  "nder": 694,
  "ph": 695,
  "ates": 696,
  "Ġsa": 697,
  "Ġhim": 698,
  "Ġnew": 699,
  "old": 700,
  "ased": 701,
  "urn": 702,
  "Ġso": 703,
  "Ġoff": 704,
  "ild": 705,
  "man": 706,
  "ons": 707,
  "ose": 708,
  "ick": 709,
  "ward": 710,
  "Ġsome": 711,
  "Ġqu": 712,
  "round": 713,
  "way": 714,
  "Ġco": 715,
  "ited": 716,
  "ious": 717,
  "ft": 718,
  "Ġpr": 719,
  "als": 720,
  "Ġbet": 721,
  "ĠUn": 722,
  "Ġwhen": 723,
  "Ġkn": 724,
  "ied": 725,
  "ood": 726,
  "Ġyour": 727,
  "aus": 728,
  "ike": 729,
  "Ġ6": 730,
  "gan": 731,
  "hn": 732,
  "ob": 733,
  "Ġcons": 734,
  "Ġrep": 735,
  "ilm": 736,
  "ict": 737,
  "red": 738,
  "Ġtr": 739,
  "oth": 740,
  "Ġsec": 741,
  "Ġpe": 742,
  "Ġdo": 743,
  "rib": 744,
  "ans": 745,
  "Ġacc": 746,
  "iss": 747,
  "Ġrem": 748,
  "ollow": 749,
  "Ġdec": 750,
  "very": 751,
  "Ġprodu": 752,
  "Ġcol": 753,
  "Ġthan": 754,
  "Ġthrough": 755,
  "hip": 756,
  "Ġprov": 757,
  "Ġsuch": 758,
  "ĠAn": 759,
  "riend": 760,
  "In": 761,
  "ks": 762,
  "ific": 763,
  "Ġadd": 764,
  "att": 765,
  "fore": 766,
  "ĠThis": 767,
  "Ġthere": 768,
  "Ġmost": 769,
  "Ġunder": 770,
  "ix": 771,
  "ath": 772,
  "orld": 773,
  "Ġrel": 774,
  "Ġact": 775,
  "Ġ7": 776,
  ".Ċ": 777,
  "Ġduring": 778,
  "ily": 779,
  "ating": 780,
  "Ġfl": 781,
  "Ġpo": 782,
  "ts": 783,
  "ubl": 784,
  "Ġagain": 785,
  "ween": 786,
  "ved": 787,
  "Ġday": 788,
  "Ġonly": 789,
  "Ġpos": 790,
  "Ġfilm": 791,
  "lect": 792,
  "ning": 793,
  "iew": 794,
  "ason": 795,
  "rop": 796,
  "ever": 797,
  "ss": 798,
  "tern": 799,
  "Ġind": 800,
  "Ġear": 801,
  "Ġchar": 802,
  "Ġfin": 803,
  "ational": 804,
  "Ġhow": 805,
  "ered": 806,
  "Ġbu": 807,
  "ular": 808,
  "Ġspec": 809,
  "Ġnum": 810,
  "Ġret": 811,
  "orth": 812,
  "ĠMar": 813,
  "ĠAr": 814,
  "Ġbetween": 815,
  "Ġwhile": 816,
  "Ġ8": 817,
  "Ġwill": 818,
  "hes": 819,
  "Ġfollow": 820,
  "Ġam": 821,
  "ug": 822,
  "ron": 823,
  "Ġfriend": 824,
  "aw": 825,
  "Ġsy": 826,
  "Ġwhere": 827,
  "ĠShe": 828,
  "ĠEn": 829,
  "Ġtra": 830,
  "ener": 831,
  "Ġra": 832,
  "Ġmade": 833,
  "Ġreg": 834,
  "Ġem": 835,
  "Ġgame": 836,
  "ife": 837,
  "Ġend": 838,
  "Ġany": 839,
  "ual": 840,
  "ck": 841,
  "Ġcould": 842,
  "Ġsub": 843,
  "ĠNew": 844,
  "hen": 845,
  "Ġused": 846,
  "ĠSe": 847,
  "ted": 848,
  "ters": 849,
  "Ġ9": 850,
  "velop": 851,
  "Ġsupp": 852,
  "Ġ199": 853,
  "ics": 854,
  "Ġmus": 855,
  "Ġrele": 856,
  "ram": 857,
  "Ġmov": 858,
  "Ġthree": 859,
  "ll": 860,
  "Ġinv": 861,
  "ities": 862,
  "Ġdif": 863,
  "Ġform": 864,
  "ident": 865,
  "Ġloc": 866,
  "meric": 867,
  "Ġcent": 868,
  "xt": 869,
  "ject": 870,
  "sp": 871,
  "Ġcre": 872,
  "Ġbl": 873,
  "Ġexp": 874,
  "Ġsong": 875,
  "Ġbefore": 876,
  "Ġhigh": 877,
  "ise": 878,
  "Ġlater": 879,
  "ures": 880,
  "outh": 881,
  "ement": 882,
  "Ġsaid": 883,
  "Ġsm": 884,
  "ins": 885,
  "Ġsur": 886,
  "ton": 887,
  "ral": 888,
  "Ġback": 889,
  "ĠSp": 890,
  "ten": 891,
  "eg": 892,
  "olog": 893,
  "io": 894,
  "ision": 895,
  "Ġwrit": 896,
  "elf": 897,
  "Ġyears": 898,
  "ĠCom": 899,
  "up": 900,
  "vers": 901,
  "Ġteam": 902,
  "ived": 903,
  "Ġthen": 904,
  "Ġwell": 905,
  "Ġent": 906,
  "ock": 907,
  "Ġac": 908,
  "ames": 909,
  "ĠAmeric": 910,
  "air": 911,
  "Ġsecond": 912,
  "Ġdef": 913,
  "other": 914,
  "its": 915,
  "ert": 916,
  "Ġno": 917,
  "iel": 918,
  "ople": 919,
  "ool": 920,
  "ower": 921,
  "Ġuse": 922,
  "Ġset": 923,
  "Ġlike": 924,
  "Ġstud": 925,
  "Ġbeing": 926,
  "aking": 927,
  "000": 928,
  "Ġlead": 929,
  "ause": 930,
  "Ġeff": 931,
  "erson": 932,
  "Ġlar": 933,
  "ished": 934,
  "orn": 935,
  "Ġdevelop": 936,
  "Ġincluding": 937,
  "Ġmany": 938,
  "Ġshow": 939,
  "Ġcall": 940,
  "ars": 941,
  "ative": 942,
  "ĠJo": 943,
  "iet": 944,
  "ode": 945,
  "Ġrecord": 946,
  "Ġfound": 947,
  "led": 948,
  "Ġdid": 949,
  "Ġ10": 950,
  "Ġ-": 951,
  "Ġfour": 952,
  "ines": 953,
  "ys": 954,
  "Ġpres": 955,
  "Ġpol": 956,
  "au": 957,
  "Ġpubl": 958,
  "bum": 959,
  "ting": 960,
  "Ġnumber": 961,
  "row": 962,
  "ĠLe": 963,
  "ik": 964,
  "Ġthese": 965,
  "ĠThey": 966,
  "ather": 967,
  "ale": 968,
  "ĠOn": 969,
  "Ġseason": 970,
  "any": 971,
  "Ġassist": 972,
  "ĠĠĠĠ": 973,
  "Ġboth": 974,
  "Ġ/": 975,
  "Ġinst": 976,
  "ature": 977,
  "Ġperform": 978,
  "ĠSh": 979,
  "Ġtran": 980,
  "Ġcharac": 981,
  "ier": 982,
  "Ġsever": 983,
  "Ġ$": 984,
  "Ġep": 985,
  "Ġlong": 986,
  "Ġart": 987,
  "Ġmin": 988,
  "ivers": 989,
  "Ġsign": 990,
  "ury": 991,
  "Ġph": 992,
  "ĠAs": 993,
  "aj": 994,
  "roup": 995,
  "Ġcar": 996,
  "Ġpeople": 997,
  "Ġmon": 998,
  "get": 999,
  "ince": 1000,
  "Ġmain": 1001,
  "Ġmay": 1002,
  "Ġ000": 1003,
  "erm": 1004,
  "Ġhon": 1005,
  "ments": 1006,
  "az": 1007,
  "Ġagainst": 1008,
  "ĠWh": 1009,
  "Ġalbum": 1010,
  "ized": 1011,
  "ained": 1012,
  "Ġmet": 1013,
  "vern": 1014,
  "ven": 1015,
  "ared": 1016,
  "ired": 1017,
  "stem": 1018,
  "yp": 1019,
  "Ġdesign": 1020,
  "Ġrece": 1021,
  "Ġmake": 1022,
  "Ġop": 1023,
  "ah": 1024,
  "gg": 1025,
  "Ġmy": 1026,
  "ash": 1027,
  "cl": 1028,
  "son": 1029,
  "Ġdep": 1030,
  "ĠHow": 1031,
  "Ġeach": 1032,
  "bs": 1033,
  "ird": 1034,
  "ined": 1035,
  "ility": 1036,
  "view": 1037,
  "ove": 1038,
  "ouse": 1039,
  "Ġsing": 1040,
  "Ġif": 1041,
  "Ġbecame": 1042,
  "Ġdiffer": 1043,
  "iver": 1044,
  "Ġpop": 1045,
  "ris": 1046,
  "ience": 1047,
  "Ġfam": 1048,
  "Ġext": 1049,
  "Ġwhat": 1050,
  "Ġcontin": 1051,
  "Ġcomple": 1052,
  "ink": 1053,
  "der": 1054,
  "irect": 1055,
  "ĠSc": 1056,
  "til": 1057,
  "ible": 1058,
  "ty": 1059,
  "ross": 1060,
  "Ġdown": 1061,
  "fl": 1062,
  "Ġmed": 1063,
  "Ġ0": 1064,
  "app": 1065,
  "Ġown": 1066,
  "Ġstart": 1067,
  "ĠAt": 1068,
  "apt": 1069,
  "Ġepis": 1070,
  "ually": 1071,
  "ccess": 1072,
  "ĠUnited": 1073,
  "atch": 1074,
  "ange": 1075,
  "Ġresp": 1076,
  "anc": 1077,
  "ey": 1078,
  "ĠCon": 1079,
  "chool": 1080,
  "Ġ17": 1081,
  "Ġdet": 1082,
  "Ġbel": 1083,
  "Ġ12": 1084,
  "Ġbro": 1085,
  "ank": 1086,
  "my": 1087,
  "igin": 1088,
  "uch": 1089,
  "ann": 1090,
  "ield": 1091,
  "Ġ15": 1092,
  "ided": 1093,
  "ek": 1094,
  "ĠAd": 1095,
  "ĠEng": 1096,
  "ax": 1097,
  "ĠBrit": 1098,
  "co": 1099,
  "Ġseveral": 1100,
  "ĠâĢĶ": 1101,
  "ism": 1102,
  "Ġserv": 1103,
  "Ġpass": 1104,
  "Ġway": 1105,
  "Ġgu": 1106,
  "Ġexper": 1107,
  "Ġmusic": 1108,
  "emb": 1109,
  "Ġuntil": 1110,
  "imes": 1111,
  "Ġseries": 1112,
  "ness": 1113,
  "vent": 1114,
  "ution": 1115,
  "Ġaround": 1116,
  "ley": 1117,
  "Ġwar": 1118,
  "Ġair": 1119,
  "ĠRe": 1120,
  "ane": 1121,
  "Ġcount": 1122,
  "Ġbr": 1123,
  "Ġstr": 1124,
  "Ġdist": 1125,
  "Ġdesc": 1126,
  "ober": 1127,
  "Ġjust": 1128,
  "oot": 1129,
  "ues": 1130,
  "ised": 1131,
  "Ġ198": 1132,
  "ĠAI": 1133,
  "Ġsupport": 1134,
  "ient": 1135,
  "eng": 1136,
  "Ġmod": 1137,
  "uc": 1138,
  "You": 1139,
  "Ġassistant": 1140,
  "illion": 1141,
  "Ġlife": 1142,
  "Ġgroup": 1143,
  "ĠInd": 1144,
  "Ġvar": 1145,
  "ĠCl": 1146,
  "Ġsim": 1147,
  "Ġworld": 1148,
  "ives": 1149,
  "ene": 1150,
  "Ġreturn": 1151,
  "ĠJohn": 1152,
  "ruct": 1153,
  "Ġsystem": 1154,
  "Ġhelpful": 1155,
  "Ġgener": 1156,
  "ern": 1157,
  "Ġknown": 1158,
  "Ġrun": 1159,
  "Ġfriendly": 1160,
  "Ġconc": 1161,
  "ists": 1162,
  "ption": 1163,
  "Ġfollowing": 1164,
  "Ġ194": 1165,
  "ued": 1166,
  "Ġsuccess": 1167,
  "tle": 1168,
  "ull": 1169,
  "Ġprog": 1170,
  "Ġest": 1171,
  "omet": 1172,
  "Ġhonest": 1173,
  "und": 1174,
  "Ġprom": 1175,
  "Ġgr": 1176,
  "Ġbegan": 1177,
  "Ġneed": 1178,
  "ets": 1179,
  "ants": 1180,
  "iam": 1181,
  "ices": 1182,
  "ially": 1183,
  "Ġorigin": 1184,
  "ural": 1185,
  "Ġhist": 1186,
  "Ġbecause": 1187,
  "Ġperson": 1188,
  "Ġthough": 1189,
  "els": 1190,
  "though": 1191,
  "Ġship": 1192,
  "Ġ16": 1193,
  "ner": 1194,
  "Ġsmall": 1195,
  "ĠDe": 1196,
  "Ġed": 1197,
  "Ġnear": 1198,
  "opi": 1199,
  "Ġdirect": 1200,
  "Ġopen": 1201,
  "Ġresult": 1202,
  "ĠGopi": 1203,
  "ĠAmerican": 1204,
  "ĠBl": 1205,
  "Ġcalled": 1206,
  "Ġtrans": 1207,
  "ble": 1208,
  "ium": 1209,
  "Ġepisode": 1210,
  "ĠWar": 1211,
  "Ġearly": 1212,
  "Ġsame": 1213,
  "Ġmil": 1214,
  "Ġbuild": 1215,
  "alth": 1216,
  "ĠZ": 1217,
  "Ġaut": 1218,
  "Ġpoint": 1219,
  "Ġ197": 1220,
  "ĠAust": 1221,
  "Ġexpl": 1222,
  "ĠFor": 1223,
  "Ġ11": 1224,
  "Ġcrit": 1225,
  "osed": 1226,
  "Ġland": 1227,
  "iving": 1228,
  "ĠCol": 1229,
  "wards": 1230,
  "Ġ196": 1231,
  "erman": 1232,
  "ĠAfter": 1233,
  "amed": 1234,
  "pr": 1235,
  "iven": 1236,
  "Ġalong": 1237,
  "Ġdifferent": 1238,
  "une": 1239,
  "ically": 1240,
  "ract": 1241,
  "ĠCan": 1242,
  "Ġbo": 1243,
  "Ġele": 1244,
  "Ġgovern": 1245,
  "ĠMay": 1246,
  "aving": 1247,
  "erv": 1248,
  "Ġincre": 1249,
  "Ġcare": 1250,
  "echn": 1251,
  "uss": 1252,
  "Ġpartic": 1253,
  "gy": 1254,
  "Ġinform": 1255,
  "Ġlit": 1256,
  "Ġmark": 1257,
  "Ġ[": 1258,
  "ĠHowever": 1259,
  "Ġsk": 1260,
  "ize": 1261,
  "Ġallow": 1262,
  "ional": 1263,
  "ling": 1264,
  "-s": 1265,
  "ajor": 1266,
  "ĠUS": 1267,
  "con": 1268,
  "Ġeven": 1269,
  "-b": 1270,
  "Ã©": 1271,
  "Ġeng": 1272,
  "aced": 1273,
  "ger": 1274,
  "eb": 1275,
  "ĠPro": 1276,
  "raph": 1277,
  "Ġconst": 1278,
  "enc": 1279,
  "Ġoper": 1280,
  "Ġref": 1281,
  "Ġvis": 1282,
  "ged": 1283,
  "Ġcharacter": 1284,
  "arch": 1285,
  "Ġmillion": 1286,
  "Ġwater": 1287,
  "ences": 1288,
  "Ġwant": 1289,
  "Ġreleased": 1290,
  "Ġconsid": 1291,
  "Ġeffect": 1292,
  "Ġsoc": 1293,
  "-t": 1294,
  "Ġrest": 1295,
  "Ġtook": 1296,
  "oss": 1297,
  "ately": 1298,
  "enn": 1299,
  "Ġevery": 1300,
  "Ġmuch": 1301,
  "ages": 1302,
  "Ġdescrib": 1303,
  "ret": 1304,
  "ute": 1305,
  "Ġcity": 1306,
  "inc": 1307,
  "ĠQ": 1308,
  ":ĊĊ": 1309,
  "ĠIs": 1310,
  "Ġhead": 1311,
  "Ġdr": 1312,
  "Ġoffic": 1313,
  "Ġtri": 1314,
  "ĠStates": 1315,
  "ended": 1316,
  "ex": 1317,
  "orp": 1318,
  "ides": 1319,
  "iqu": 1320,
  "ĠPl": 1321,
  "rand": 1322,
  "Ġbre": 1323,
  "Ġshould": 1324,
  "Ġgreat": 1325,
  "Ġreport": 1326,
  "ording": 1327,
  "ĠBe": 1328,
  "ĠGerman": 1329,
  "ection": 1330,
  "ected": 1331,
  "Ġocc": 1332,
  "Ġvery": 1333,
  "side": 1334,
  "Ġadv": 1335,
  "Ġbook": 1336,
  "Ġfind": 1337,
  "ĠBritish": 1338,
  "..": 1339,
  "Ġcommun": 1340,
  "ively": 1341,
  "Ġsent": 1342,
  "Ġpower": 1343,
  "Ġrequ": 1344,
  "Ġarea": 1345,
  "Ġhome": 1346,
  "Ġchild": 1347,
  "Ġ13": 1348,
  "akes": 1349,
  "Ġhand": 1350,
  "ĠWorld": 1351,
  "Ġsl": 1352,
  "cept": 1353,
  "med": 1354,
  "lish": 1355,
  "Ġwin": 1356,
  "Ġreal": 1357,
  "Ġattack": 1358,
  "Ġpublic": 1359,
  "raft": 1360,
  "Ġplace": 1361,
  "Ġlast": 1362,
  "Ġfamily": 1363,
  "ĠFran": 1364,
  "ody": 1365,
  "ains": 1366,
  "Ġstate": 1367,
  "ored": 1368,
  "Ġturn": 1369,
  "ina": 1370,
  "ugust": 1371,
  "line": 1372,
  "Ġorgan": 1373,
  "Ġstory": 1374,
  "Ġclass": 1375,
  "Ġbatt": 1376,
  "urch": 1377,
  "ital": 1378,
  "'t": 1379,
  "ĠWe": 1380,
  "Ġcontro": 1381,
  "ptember": 1382,
  "ats": 1383,
  "ĠBr": 1384,
  "ense": 1385,
  "iness": 1386,
  "Ġschool": 1387,
  "Ġappear": 1388,
  "Ġob": 1389,
  "hing": 1390,
  "Ġ14": 1391,
  "Ġtake": 1392,
  "Ġright": 1393,
  "ĠAugust": 1394,
  "Ġget": 1395,
  "Ġbest": 1396,
  "Ġcur": 1397,
  "Ġlook": 1398,
  "Ġnow": 1399,
  "alk": 1400,
  "ĠSeptember": 1401,
  "arl": 1402,
  "Ġav": 1403,
  "ĠAll": 1404,
  "Ġann": 1405,
  "Ġusing": 1406,
  "Ġprot": 1407,
  "Ġfun": 1408,
  "Ġtechn": 1409,
  "ĠJu": 1410,
  "Ġlist": 1411,
  "Ġleft": 1412,
  "Ġfew": 1413,
  "cess": 1414,
  "ology": 1415,
  "ple": 1416,
  "Ġappro": 1417,
  "gin": 1418,
  "ission": 1419,
  "Ġbus": 1420,
  "Ġ195": 1421,
  "Ġthose": 1422,
  "Ġanother": 1423,
  "Ġevent": 1424,
  "-f": 1425,
  "ĠAustral": 1426,
  "ians": 1427,
  "Ġreceived": 1428,
  "Ġtop": 1429,
  "Ġmar": 1430,
  "ales": 1431,
  "Ġour": 1432,
  "Ġsince": 1433,
  "reen": 1434,
  "Ġsix": 1435,
  "Ġdel": 1436,
  "hern": 1437,
  "Ġlarge": 1438,
  "Ġprogram": 1439,
  "ĠOct": 1440,
  "ining": 1441,
  "ĠNov": 1442,
  "Ġname": 1443,
  "Ġcamp": 1444,
  "Ġmajor": 1445,
  "ĠYork": 1446,
  "Ġstill": 1447,
  "Ġprovide": 1448,
  "Ġposs": 1449,
  "Ġcour": 1450,
  "Ġopp": 1451,
  "arn": 1452,
  "Ġtyp": 1453,
  "Ġkm": 1454,
  "by": 1455,
  "Ġche": 1456,
  "âĢĻ": 1457,
  "ves": 1458,
  "ĠDec": 1459,
  "Ġ193": 1460,
  "Ġfive": 1461,
  "Ġsay": 1462,
  "self": 1463,
  "-p": 1464,
  "Ġke": 1465,
  "Ġreview": 1466,
  "ĠNorth": 1467,
  "rist": 1468,
  "Ġband": 1469,
  "ĠPh": 1470,
  "ney": 1471,
  "arm": 1472,
  "ean": 1473,
  "Ġknow": 1474,
  "ĠAnd": 1475,
  "ĠOctober": 1476,
  "Ġdem": 1477,
  "ĠBy": 1478,
  "Ġimport": 1479,
  "Ġnorth": 1480,
  "Ġinformation": 1481,
  "-c": 1482,
  "ilt": 1483,
  "ified": 1484,
  "ĠComm": 1485,
  "Ġ30": 1486,
  "day": 1487,
  "oint": 1488,
  "Ġshort": 1489,
  "Ġvers": 1490,
  "Ġtrack": 1491,
  "Ġgood": 1492,
  "Ġaddition": 1493,
  "Ġsingle": 1494,
  "Ġ191": 1495,
  "Ġdue": 1496,
  "Ġbelie": 1497,
  "aim": 1498,
  "Ġmonth": 1499,
  "itions": 1500,
  "vious": 1501,
  "elt": 1502,
  "Ġelect": 1503,
  "anu": 1504,
  "Ġplayed": 1505,
  "esp": 1506,
  "ently": 1507,
  "Ġgovernment": 1508,
  "oman": 1509,
  "ĠJune": 1510,
  "Ġhum": 1511,
  "ĠKing": 1512,
  "ior": 1513,
  "atter": 1514,
  "Ġline": 1515,
  "Ġiss": 1516,
  "ott": 1517,
  "ball": 1518,
  "tal": 1519,
  "ery": 1520,
  "Ġvide": 1521,
  "alf": 1522,
  "Ġoften": 1523,
  "ony": 1524,
  "idge": 1525,
  "urther": 1526,
  "augh": 1527,
  "Ġsee": 1528,
  "Ġread": 1529,
  "Ġinfl": 1530,
  "ĠWill": 1531,
  "ead": 1532,
  "hor": 1533,
  "ĠJuly": 1534,
  "Ġnamed": 1535,
  "ĠEu": 1536,
  "oad": 1537,
  "Ġ]": 1538,
  "Ġspe": 1539,
  "Ġnext": 1540,
  "read": 1541,
  "pril": 1542,
  "ched": 1543,
  "embers": 1544,
  "ring": 1545,
  "ĠNovember": 1546,
  "Ġconf": 1547,
  "iety": 1548,
  "Ġport": 1549,
  "Ġsomet": 1550,
  "Th": 1551,
  "avy": 1552,
  "Ġ%": 1553,
  "bo": 1554,
  "sh": 1555,
  "ata": 1556,
  "ĠMarch": 1557,
  "Ġplan": 1558,
  "ĠApril": 1559,
  "Ġbeh": 1560,
  "iversity": 1561,
  "hest": 1562,
  "iod": 1563,
  "Ġimpro": 1564,
  "ĠEd": 1565,
  "itive": 1566,
  "Ġ\"Ċ": 1567,
  "ĠSouth": 1568,
  "ĠHar": 1569,
  "ilar": 1570,
  "Ġold": 1571,
  "Ġfinal": 1572,
  "rodu": 1573,
  "Ġcle": 1574,
  "Ġinclude": 1575,
  "Ġleg": 1576,
  "ĠYou": 1577,
  "ague": 1578,
  "mp": 1579,
  "empt": 1580,
  "Ġ25": 1581,
  "Ġwon": 1582,
  "ĠMc": 1583,
  "Ġcap": 1584,
  "Ġdeath": 1585,
  "Ġsugg": 1586,
  "Ġsuggest": 1587,
  "Ġsound": 1588,
  "ĠGe": 1589,
  "Ġwithin": 1590,
  "ĠPr": 1591,
  "apan": 1592,
  "ĠBro": 1593,
  "Ġbased": 1594,
  "Ġthird": 1595,
  "Ġgl": 1596,
  "Ġlocal": 1597,
  "Ġhealth": 1598,
  "Ġrole": 1599,
  "Ġtit": 1600,
  "oon": 1601,
  "Ġstand": 1602,
  "On": 1603,
  "Ġled": 1604,
  "ister": 1605,
  "let": 1606,
  "Ġincluded": 1607,
  "Ġredu": 1608,
  "ards": 1609,
  "Ġmen": 1610,
  "Ġsignific": 1611,
  "Ġtour": 1612,
  "Ġval": 1613,
  "Ġkill": 1614,
  "ured": 1615,
  "ĠOr": 1616,
  "ech": 1617,
  ".\"": 1618,
  "ival": 1619,
  "rote": 1620,
  "Ġprocess": 1621,
  "Ġcr": 1622,
  "Ġequ": 1623,
  "Ġcentury": 1624,
  "Ġrefer": 1625,
  "Ġview": 1626,
  "com": 1627,
  "ried": 1628,
  "Ġide": 1629,
  "Ġrepl": 1630,
  "rew": 1631,
  "Ġfeel": 1632,
  "Ġfeat": 1633,
  "Ġcreat": 1634,
  "ances": 1635,
  "Ġfact": 1636,
  "Ġmanag": 1637,
  "ĠJapan": 1638,
  "Ġterm": 1639,
  "Ġtrad": 1640,
  "anuary": 1641,
  "-l": 1642,
  "ention": 1643,
  "Ġaff": 1644,
  "Ġcompany": 1645,
  "ories": 1646,
  "Ġprevious": 1647,
  "Ġsouth": 1648,
  "oci": 1649,
  "Ġmembers": 1650,
  "Ġcame": 1651,
  "sw": 1652,
  "Ġprof": 1653,
  "ĠDecember": 1654,
  "Ġeas": 1655,
  "Ġpresent": 1656,
  "ĠII": 1657,
  "ertain": 1658,
  "Ġinvol": 1659,
  "Ġsol": 1660,
  "Ġmaking": 1661,
  "ĠWhen": 1662,
  "Ġpost": 1663,
  "Ġinterest": 1664,
  "Ġpat": 1665,
  "Ġprop": 1666,
  "br": 1667,
  "Ġdays": 1668,
  "omin": 1669,
  "the": 1670,
  "ĠJanuary": 1671,
  "Ġdisc": 1672,
  "Ġlight": 1673,
  "yl": 1674,
  "Ġquest": 1675,
  "ese": 1676,
  "Ġgiven": 1677,
  "Ġ100": 1678,
  "ases": 1679,
  "ĠĠĠ": 1680,
  "aster": 1681,
  "Ġwind": 1682,
  "ograph": 1683,
  "Ġ...": 1684,
  "ĠMus": 1685,
  "ality": 1686,
  "ential": 1687,
  "ached": 1688,
  "ipp": 1689,
  "ĠHis": 1690,
  "-1": 1691,
  "Ġgames": 1692,
  "Ġ192": 1693,
  "Ġnever": 1694,
  "Ġla": 1695,
  "yle": 1696,
  "Ġcapt": 1697,
  "ĠEurop": 1698,
  "ĠThere": 1699,
  "aken": 1700,
  "ulation": 1701,
  "Ġinit": 1702,
  "Ġwithout": 1703,
  "ivid": 1704,
  "Ġdam": 1705,
  "Ġstat": 1706,
  "rench": 1707,
  "ways": 1708,
  "Ġperiod": 1709,
  "Ġwrote": 1710,
  "less": 1711,
  "Ġcaus": 1712,
  "ries": 1713,
  "Ġproject": 1714,
  "ruction": 1715,
  "ĠGu": 1716,
  "Ġdoes": 1717,
  "ask": 1718,
  "Ġins": 1719,
  "Ġlevel": 1720,
  "ray": 1721,
  "Ġfore": 1722,
  "ches": 1723,
  "Ġcult": 1724,
  "Ġless": 1725,
  "Ġdescribed": 1726,
  "aining": 1727,
  "Ġchang": 1728,
  "utes": 1729,
  "ĠFl": 1730,
  "Ġpar": 1731,
  "-m": 1732,
  "Ġlet": 1733,
  "ustom": 1734,
  "Ġtw": 1735,
  "Ġvideo": 1736,
  "Ġattempt": 1737,
  "orts": 1738,
  "Ġtoget": 1739,
  "Ġproduct": 1740,
  "Ġtogether": 1741,
  "rent": 1742,
  "na": 1743,
  "Ġbecome": 1744,
  "St": 1745,
  "ĠCar": 1746,
  "par": 1747,
  "Ġhistory": 1748,
  "ĠChrist": 1749,
  "ator": 1750,
  "Ġinflu": 1751,
  "ploy": 1752,
  "Ġsit": 1753,
  "Ġdest": 1754,
  "ample": 1755,
  "Ġbusiness": 1756,
  "idd": 1757,
  "ots": 1758,
  "Ġlittle": 1759,
  "Ġdeb": 1760,
  "Ġsocial": 1761,
  "Ġpolit": 1762,
  "Ġwent": 1763,
  "ĠOne": 1764,
  "Ġoffer": 1765,
  "Ġsold": 1766,
  "Ġspecies": 1767,
  "Ġtown": 1768,
  "ĠNational": 1769,
  "iron": 1770,
  "ĠThese": 1771,
  "Ġoriginal": 1772,
  "Ġel": 1773,
  "Ġpract": 1774,
  "ords": 1775,
  "-d": 1776,
  "ms": 1777,
  "Ġside": 1778,
  "Ġstrong": 1779,
  "Ġsignificant": 1780,
  "Ġamong": 1781,
  "Ġheld": 1782,
  "Ġtotal": 1783,
  "ivision": 1784,
  "atic": 1785,
  "urs": 1786,
  "Ġhouse": 1787,
  "ef": 1788,
  "Ġweek": 1789,
  "Ġestab": 1790,
  "Ġtoo": 1791,
  "ĠAm": 1792,
  "omen": 1793,
  "Ġcommand": 1794,
  "ours": 1795,
  "Ġdevelopment": 1796,
  "work": 1797,
  "ĠCo": 1798,
  "Ġmag": 1799,
  "oute": 1800,
  "Ġlate": 1801,
  "Ġpromot": 1802,
  "Ġhapp": 1803,
  "Ġfre": 1804,
  "esc": 1805,
  "play": 1806,
  "Ġfurther": 1807,
  "Ġcover": 1808,
  "ĠHer": 1809,
  "eter": 1810,
  "Ġcost": 1811,
  "ebru": 1812,
  "Ġgun": 1813,
  "Ġformer": 1814,
  "ĠFrench": 1815,
  "to": 1816,
  "me": 1817,
  "Ġcreate": 1818,
  "lev": 1819,
  "ebruary": 1820,
  "Ġsum": 1821,
  "uted": 1822,
  "Ġfelt": 1823,
  "ering": 1824,
  "iment": 1825,
  ":Ċ": 1826,
  "Ġ&": 1827,
  "Ġgrow": 1828,
  "Ġsimilar": 1829,
  "Ġbuilt": 1830,
  "ify": 1831,
  "irl": 1832,
  "ĠMon": 1833,
  "ream": 1834,
  "ops": 1835,
  "eting": 1836,
  "ones": 1837,
  "stand": 1838,
  "Ġcomb": 1839,
  "aren": 1840,
  "ĠFebruary": 1841,
  "Ġmatch": 1842,
  "Ġtem": 1843,
  "itary": 1844,
  "ency": 1845,
  "Ġhaving": 1846,
  "ĠX": 1847,
  "Ġpot": 1848,
  "oung": 1849,
  "resent": 1850,
  "Ġrelease": 1851,
  "Ġlow": 1852,
  "ham": 1853,
  "ape": 1854,
  "ges": 1855,
  "Ġdra": 1856,
  "Ġcontinued": 1857,
  "ization": 1858,
  "reet": 1859,
  "Ġrelations": 1860,
  "ocus": 1861,
  "Ġaway": 1862,
  "Ġaud": 1863,
  "ĠEnglish": 1864,
  "Ġcareer": 1865,
  "Ġfeature": 1866,
  "Ġcustom": 1867,
  "Ġanim": 1868,
  "ergy": 1869,
  "irc": 1870,
  "aut": 1871,
  "Ġpopular": 1872,
  "ront": 1873,
  "Ġcommon": 1874,
  "oll": 1875,
  "Ġcountry": 1876,
  "aign": 1877,
  "ope": 1878,
  "ĠÂ": 1879,
  "Ġtimes": 1880,
  "ailed": 1881,
  "Ġactiv": 1882,
  "Ġalthough": 1883,
  "Ġstorm": 1884,
  "omm": 1885,
  "Ġsw": 1886,
  "Ġcontrol": 1887,
  "ĠNo": 1888,
  "ĠWest": 1889,
  "Ġvarious": 1890,
  "ung": 1891,
  "Ġ24": 1892,
  ".S": 1893,
  "osp": 1894,
  "Ġclaim": 1895,
  "Ġident": 1896,
  "ĠEx": 1897,
  "Ġhowever": 1898,
  "Ġorder": 1899,
  "ai": 1900,
  "Ġ21": 1901,
  "Ġparticular": 1902,
  "ĠWilliam": 1903,
  "fic": 1904,
  "Ġappe": 1905,
  "Ġhig": 1906,
  "ĠMan": 1907,
  "Ġask": 1908,
  "Ġservice": 1909,
  "Ġperformance": 1910,
  "Ġimportant": 1911,
  "estern": 1912,
  "Ġjo": 1913,
  "Ġexample": 1914,
  "ration": 1915,
  "Ġconsidered": 1916,
  "Ġlaw": 1917,
  "Ġposition": 1918,
  "Ġimpact": 1919,
  "ropical": 1920,
  "uck": 1921,
  "Ġbuilding": 1922,
  "Ġversion": 1923,
  "alt": 1924,
  "Ġchildren": 1925,
  "Ġsaw": 1926,
  "Ġproduction": 1927,
  "ĠCent": 1928,
  "Ġhalf": 1929,
  "##": 1930,
  "Ġant": 1931,
  "of": 1932,
  "ĠCity": 1933,
  "Ġpain": 1934,
  "angu": 1935,
  "Ġindust": 1936,
  "ĠGeor": 1937,
  "ĠEl": 1938,
  "Ġlim": 1939,
  "aff": 1940,
  "Ġroad": 1941,
  "yn": 1942,
  "Ġ190": 1943,
  "ills": 1944,
  "Ġindivid": 1945,
  "ĠUniversity": 1946,
  "ĠTr": 1947,
  "ald": 1948,
  "Ġenc": 1949,
  "ique": 1950,
  "Ġer": 1951,
  "abor": 1952,
  "Ġtext": 1953,
  "ument": 1954,
  "ĠRec": 1955,
  "ler": 1956,
  "Ġput": 1957,
  "Ġable": 1958,
  "Ġfocus": 1959,
  "ĠBut": 1960,
  "Ġgave": 1961,
  "Ġcast": 1962,
  "Ġfood": 1963,
  "Ġmom": 1964,
  "Ġauthor": 1965,
  "Ġtest": 1966,
  "ĠEngland": 1967,
  "ĠPark": 1968,
  "Ġinf": 1969,
  "Ġconn": 1970,
  "ox": 1971,
  "acy": 1972,
  "Ġtre": 1973,
  "aly": 1974,
  "ĠMich": 1975,
  "ĠDuring": 1976,
  "iting": 1977,
  "ination": 1978,
  "Ġmater": 1979,
  "Ġinvest": 1980,
  "Ġlost": 1981,
  "Ġarr": 1982,
  "ĠBar": 1983,
  "ĠGo": 1984,
  "aces": 1985,
  "Ġstarted": 1986,
  "sequ": 1987,
  "rap": 1988,
  "Ġnight": 1989,
  "Ġmix": 1990,
  "ĠSu": 1991,
  "Ġcor": 1992,
  "Ġmoved": 1993,
  "ĠMin": 1994,
  "Ġexam": 1995,
  "ĠCount": 1996,
  "Ġwritten": 1997,
  "ampions": 1998,
  "Ġbody": 1999,
  "Ġkeep": 2000,
  "ĠDav": 2001,
  "Ġspecial": 2002,
  "Ġcampaign": 2003,
  "Ġ22": 2004,
  "rest": 2005,
  "aur": 2006,
  "Ġfire": 2007,
  "ford": 2008,
  "Ġexperience": 2009,
  "ĠĊĊ": 2010,
  "ĠAng": 2011,
  "Ġrad": 2012,
  "Ġpress": 2013,
  "ondon": 2014,
  "ison": 2015,
  "Ġacross": 2016,
  "ee": 2017,
  "oice": 2018,
  "ĠCal": 2019,
  "Ġcompet": 2020,
  "Ġplayer": 2021,
  "Ġareas": 2022,
  "Ġclub": 2023,
  "iec": 2024,
  "Ġintern": 2025,
  "conom": 2026,
  "Ġadm": 2027,
  "Ġtry": 2028,
  "Ġdon": 2029,
  "Ġfeatures": 2030,
  "Ġfield": 2031,
  "ffic": 2032,
  "Ġcolle": 2033,
  "Ġground": 2034,
  "elling": 2035,
  "ples": 2036,
  "ication": 2037,
  "Ġred": 2038,
  "Ġexc": 2039,
  "Ġfoot": 2040,
  "Ġlove": 2041,
  "roy": 2042,
  "ille": 2043,
  "ĠLondon": 2044,
  "here": 2045,
  "Ġannoun": 2046,
  "Ġothers": 2047,
  "-y": 2048,
  "Ġrese": 2049,
  "Ġcond": 2050,
  "Ġsuccessful": 2051,
  "Ġvict": 2052,
  "Ġlik": 2053,
  "ĠJack": 2054,
  "oney": 2055,
  "ĠWith": 2056,
  "Ġrelationship": 2057,
  "ression": 2058,
  "ump": 2059,
  "ief": 2060,
  "-w": 2061,
  "Ġmaterial": 2062,
  "af": 2063,
  "omb": 2064,
  "ably": 2065,
  "ened": 2066,
  "Ġmedia": 2067,
  "ising": 2068,
  "ĠRep": 2069,
  "Ġthought": 2070,
  "Ġchall": 2071,
  "ĠEm": 2072,
  "iding": 2073,
  "Ġsqu": 2074,
  "Ġste": 2075,
  "ĠIf": 2076,
  "Ġgen": 2077,
  "ources": 2078,
  "ground": 2079,
  "ĠAf": 2080,
  "ript": 2081,
  "Ġaccess": 2082,
  "hel": 2083,
  "ĠCanad": 2084,
  "ccording": 2085,
  "sc": 2086,
  "Ġcharacters": 2087,
  "ĠRiver": 2088,
  "Ġdisco": 2089,
  "ogn": 2090,
  "Ġrepresent": 2091,
  "ĠAir": 2092,
  "Ġbetter": 2093,
  "ĠSm": 2094,
  "Ġfav": 2095,
  "ids": 2096,
  "Ġhimself": 2097,
  "Ġenergy": 2098,
  "Ġspecific": 2099,
  "ush": 2100,
  "orpor": 2101,
  "ĠHigh": 2102,
  "Ġter": 2103,
  "As": 2104,
  "Ġthink": 2105,
  "aul": 2106,
  "Ġfull": 2107,
  "ensive": 2108,
  "swer": 2109,
  "Ġlarg": 2110,
  "oyal": 2111,
  "Ġfather": 2112,
  "eth": 2113,
  "Ġens": 2114,
  "Ġren": 2115,
  "Ġfriends": 2116,
  "Ġ23": 2117,
  "ĠBatt": 2118,
  "Ġminutes": 2119,
  "viron": 2120,
  "Ġcoll": 2121,
  "Ġreported": 2122,
  "Ġ50": 2123,
  "duct": 2124,
  "ither": 2125,
  "Ġbig": 2126,
  "Ġwanted": 2127,
  "Ġseen": 2128,
  "Ġpublished": 2129,
  "Ġreturned": 2130,
  "Ġrange": 2131,
  "ole": 2132,
  "ving": 2133,
  "chie": 2134,
  "aged": 2135,
  "Ġupon": 2136,
  "over": 2137,
  "ĠComp": 2138,
  "ĠAss": 2139,
  "Ġeast": 2140,
  "cer": 2141,
  "Ġmonths": 2142,
  "ae": 2143,
  "Ġdefe": 2144,
  "levision": 2145,
  "ĠFin": 2146,
  "Wh": 2147,
  "ĠTe": 2148,
  "ĠSw": 2149,
  "Ġhold": 2150,
  "ĠSy": 2151,
  "ending": 2152,
  "Ġnon": 2153,
  "Ġstruct": 2154,
  "Ġproble": 2155,
  "ĠPol": 2156,
  "Ġlangu": 2157,
  "ability": 2158,
  "Ġquestion": 2159,
  "Ġmot": 2160,
  "ateg": 2161,
  "idence": 2162,
  "Ġthroughout": 2163,
  "Ġord": 2164,
  "rick": 2165,
  "Ġpersonal": 2166,
  "asing": 2167,
  "ublic": 2168,
  "ects": 2169,
  "Ġwest": 2170,
  "Ġavail": 2171,
  "Ġlearn": 2172,
  "Ġmilitary": 2173,
  "Ġgive": 2174,
  "Ġneg": 2175,
  "oring": 2176,
  "Ġdev": 2177,
  "Ġsomething": 2178,
  "Ġtradition": 2179,
  "craft": 2180,
  "Ġwriting": 2181,
  "olution": 2182,
  "Ġblack": 2183,
  "Ġalways": 2184,
  "Ġyoung": 2185,
  "Ġbegin": 2186,
  "Ġproduced": 2187,
  "imately": 2188,
  "Ġproper": 2189,
  "ĠSec": 2190,
  "âĢĻs": 2191,
  "eder": 2192,
  "most": 2193,
  "enced": 2194,
  "Ġintrodu": 2195,
  "ights": 2196,
  "Ġforces": 2197,
  "Ġcreated": 2198,
  "Ġeconom": 2199,
  "ĠAb": 2200,
  "ressed": 2201,
  "icle": 2202,
  "Ġhistor": 2203,
  "Ġfle": 2204,
  "Ġpoints": 2205,
  "ells": 2206,
  "Ġsongs": 2207,
  "Ġcome": 2208,
  "Ġcross": 2209,
  "atural": 2210,
  "Ġtitle": 2211,
  "ĠState": 2212,
  "Ġstated": 2213,
  "Ġhuman": 2214,
  "umb": 2215,
  "Ġ40": 2216,
  "Ġmult": 2217,
  "Ġopt": 2218,
  "urric": 2219,
  "Ġdeveloped": 2220,
  "Ġten": 2221,
  "Ġbattle": 2222,
  "ĠEar": 2223,
  "oph": 2224,
  "Ġobs": 2225,
  "Ġprofess": 2226,
  "Ġfree": 2227,
  "Ġdata": 2228,
  "Ġroom": 2229,
  "itted": 2230,
  "Ġvol": 2231,
  "ĠTo": 2232,
  "ficult": 2233,
  "ĠGener": 2234,
  "Ġquick": 2235,
  "Ġstyle": 2236,
  "ems": 2237,
  "Ġnational": 2238,
  "erc": 2239,
  "Ġemploy": 2240,
  "ington": 2241,
  "Ġmust": 2242,
  "head": 2243,
  "Ġstudents": 2244,
  "ĠPar": 2245,
  "ampionship": 2246,
  "Ġworking": 2247,
  "Ġcase": 2248,
  "ails": 2249,
  "Ġhard": 2250,
  "Ġpast": 2251,
  "Ġsuper": 2252,
  "Ġbar": 2253,
  "<<": 2254,
  "ĠĊ": 2255,
  "ĠPres": 2256,
  "aves": 2257,
  "Ġfac": 2258,
  "Ġpri": 2259,
  "Ġofficial": 2260,
  "cent": 2261,
  "Ġprim": 2262,
  "Ġ27": 2263,
  "ĠWhile": 2264,
  "Ġbreak": 2265,
  "Ġpositive": 2266,
  "Ġrecorded": 2267,
  "Ġson": 2268,
  "off": 2269,
  "Ġphys": 2270,
  "dom": 2271,
  "Ġbecom": 2272,
  "iber": 2273,
  "omp": 2274,
  "ements": 2275,
  "ĠGl": 2276,
  "Ġplayers": 2277,
  "Ġworks": 2278,
  "Ġ28": 2279,
  "Ġdifficult": 2280,
  "Ġcy": 2281,
  "Ġevents": 2282,
  "Ġdecided": 2283,
  "ming": 2284,
  "cast": 2285,
  "Ġmat": 2286,
  "be": 2287,
  "ael": 2288,
  "20": 2289,
  "Ġage": 2290,
  "Ġcritic": 2291,
  "ĠAustralia": 2292,
  "Ġeduc": 2293,
  "Ġcirc": 2294,
  "Ġchange": 2295,
  "rict": 2296,
  "reg": 2297,
  "Ġisland": 2298,
  "Ġpolitical": 2299,
  "Ġbas": 2300,
  "Ġdied": 2301,
  "-in": 2302,
  "Ġships": 2303,
  "Ġeight": 2304,
  ">>": 2305,
  "outhern": 2306,
  "Ġrev": 2307,
  "Ġpossible": 2308,
  "Ġcut": 2309,
  "Ġtru": 2310,
  "cing": 2311,
  "Ġenviron": 2312,
  "Ġaver": 2313,
  "Ġcurrent": 2314,
  "Ġprovided": 2315,
  "ana": 2316,
  "Ġonce": 2317,
  "Ġinsp": 2318,
  "ster": 2319,
  "Ġgoing": 2320,
  "Ġtaken": 2321,
  "-g": 2322,
  "Ġnort": 2323,
  "ators": 2324,
  "Ġball": 2325,
  "Ġbehind": 2326,
  "uture": 2327,
  "ips": 2328,
  "ĠJames": 2329,
  "Ġachie": 2330,
  "ĠMed": 2331,
  "Ġclear": 2332,
  "Ġkey": 2333,
  "urb": 2334,
  "Ġstru": 2335,
  "thing": 2336,
  "ental": 2337,
  "Ġdestroy": 2338,
  "ĠHere": 2339,
  "ware": 2340,
  "ĠAmerica": 2341,
  "Ġforce": 2342,
  "Ġremained": 2343,
  "ev": 2344,
  "Ġbene": 2345,
  "ĠRuss": 2346,
  "ought": 2347,
  "pped": 2348,
  "Ġhours": 2349,
  "Ġmodern": 2350,
  "ĠBo": 2351,
  "Ġcontrib": 2352,
  "Ġtowards": 2353,
  "oura": 2354,
  "Ġadded": 2355,
  "Ġstar": 2356,
  "Ġ26": 2357,
  "ĠReg": 2358,
  "ara": 2359,
  "-h": 2360,
  "opp": 2361,
  "ze": 2362,
  "Ġplaying": 2363,
  "Ġarch": 2364,
  "Ġappl": 2365,
  "Ġ)Ċ": 2366,
  "Ġmid": 2367,
  "Ġreached": 2368,
  "Ġcommunity": 2369,
  "Ġmight": 2370,
  "Ġwomen": 2371,
  "Ġstudy": 2372,
  "Ġentire": 2373,
  "urg": 2374,
  "ĠSer": 2375,
  "ĠQu": 2376,
  "Ġfollowed": 2377,
  "aper": 2378,
  "Ġmean": 2379,
  "Ġleast": 2380,
  "Ġavailable": 2381,
  "istic": 2382,
  "Ġfall": 2383,
  "oved": 2384,
  "Ġserved": 2385,
  "ĠAdd": 2386,
  "Ġlive": 2387,
  "Ġresearch": 2388,
  "ĠAfric": 2389,
  "ett": 2390,
  "Ġaction": 2391,
  "Ġleading": 2392,
  "Ġunderstand": 2393,
  "ades": 2394,
  "Ġagre": 2395,
  "sport": 2396,
  "Ġclos": 2397,
  "ĠArmy": 2398,
  "lected": 2399,
  "Ġchart": 2400,
  "Ġfront": 2401,
  "ilities": 2402,
  "ĠSim": 2403,
  "ĠLeague": 2404,
  "Ġreally": 2405,
  "Ġreach": 2406,
  "Ġ189": 2407,
  "Ġsurv": 2408,
  "ĠAlthough": 2409,
  "ĠCounty": 2410,
  "ecut": 2411,
  "Ġinstead": 2412,
  "Ġey": 2413,
  "Ġfeet": 2414,
  "Ġlocated": 2415,
  "Ġtravel": 2416,
  "usion": 2417,
  "Ġearl": 2418,
  "Ġpra": 2419,
  "Ġdiv": 2420,
  "oor": 2421,
  "Ġcop": 2422,
  "epend": 2423,
  "tain": 2424,
  "Ġever": 2425,
  "ĠChar": 2426,
  "Ġfight": 2427,
  "Ġpiec": 2428,
  "Ġrock": 2429,
  "Ġft": 2430,
  "rought": 2431,
  "Ġjour": 2432,
  "Ġannounced": 2433,
  "Ġpark": 2434,
  "Ġstation": 2435,
  "stit": 2436,
  "Ġtelevision": 2437,
  "Ġarg": 2438,
  "ele": 2439,
  "Ġcoun": 2440,
  "ivil": 2441,
  "bor": 2442,
  "Ġassoci": 2443,
  "Ġhit": 2444,
  "lished": 2445,
  "Can": 2446,
  "used": 2447,
  "ological": 2448,
  "Ġgirl": 2449,
  "Ġmiles": 2450,
  "ĠJapanese": 2451,
  "iers": 2452,
  "ays": 2453,
  "Ġsym": 2454,
  "urricane": 2455,
  "Ġgeneral": 2456,
  "Ġworked": 2457,
  "ĠMor": 2458,
  "Ġmiss": 2459,
  "eks": 2460,
  "field": 2461,
  "Ġtraining": 2462,
  "Ġz": 2463,
  "back": 2464,
  "hod": 2465,
  "Ġarm": 2466,
  "Ġpred": 2467,
  "ps": 2468,
  "Ġaircraft": 2469,
  "ĠGr": 2470,
  "Ġtro": 2471,
  "sel": 2472,
  "ĠPart": 2473,
  "Ġmeas": 2474,
  "Ġwhite": 2475,
  "Ġbroad": 2476,
  "Ġmember": 2477,
  "Ġobject": 2478,
  "ĠEast": 2479,
  "Ġnoted": 2480,
  "Ġfund": 2481,
  "pper": 2482,
  "Ġconv": 2483,
  "Ġfar": 2484,
  "ĠMy": 2485,
  "Ġclose": 2486,
  "Ġparticip": 2487,
  "ius": 2488,
  "Ġtar": 2489,
  "Ġrespons": 2490,
  "Ġdecl": 2491,
  "Ġstep": 2492,
  "Ġtreat": 2493,
  "Ġrecogn": 2494,
  "Ġperformed": 2495,
  "ĠRoad": 2496,
  "ĠStreet": 2497,
  "now": 2498,
  "rain": 2499,
  "-st": 2500,
  "Ġhere": 2501,
  "rown": 2502,
  "Ġmother": 2503,
  "Ġloss": 2504,
  "Ġstri": 2505,
  "ĠDivision": 2506,
  "ĠMad": 2507,
  "Ġpopulation": 2508,
  "aps": 2509,
  "Ġexist": 2510,
  "ĠGeneral": 2511,
  "Ġfuture": 2512,
  "Ġeventually": 2513,
  "Ġcaused": 2514,
  "ĠAccording": 2515,
  "reek": 2516,
  "Ġflow": 2517,
  "Ġmor": 2518,
  "lease": 2519,
  "ĠIsland": 2520,
  "anks": 2521,
  "Ġesc": 2522,
  "Ġself": 2523,
  "nam": 2524,
  "ĠAct": 2525,
  "oid": 2526,
  "put": 2527,
  "Ġkilled": 2528,
  "aid": 2529,
  "ĠPhil": 2530,
  "Ġnov": 2531,
  "Ġcal": 2532,
  "itar": 2533,
  "Ġregular": 2534,
  "ned": 2535,
  "ĠSome": 2536,
  "Ġconsist": 2537,
  "Ġengine": 2538,
  "emy": 2539,
  "joy": 2540,
  "Ġlanguage": 2541,
  "ote": 2542,
  "ortun": 2543,
  "Ġenvironment": 2544,
  "imate": 2545,
  "ĠGeorge": 2546,
  "Ġplat": 2547,
  "ecess": 2548,
  "Ġess": 2549,
  "50": 2550,
  "etwork": 2551,
  "ibility": 2552,
  "Ġfem": 2553,
  "Ġjob": 2554,
  "Ġdesigned": 2555,
  "go": 2556,
  "Ġaward": 2557,
  "Ġregion": 2558,
  "Ġtaking": 2559,
  "Ġpay": 2560,
  "for": 2561,
  "ĠHouse": 2562,
  "ĠIntern": 2563,
  "Ġbase": 2564,
  "Ġasked": 2565,
  "cil": 2566,
  "ellow": 2567,
  "Ġmem": 2568,
  "rated": 2569,
  "Ġrather": 2570,
  "Ġestablished": 2571,
  "iddle": 2572,
  "Ġcoast": 2573,
  "Ġstay": 2574,
  "ength": 2575,
  "Ġrace": 2576,
  "Ġappeared": 2577,
  "ĠRober": 2578,
  "lex": 2579,
  "medi": 2580,
  "den": 2581,
  "Ġweeks": 2582,
  "ceed": 2583,
  "Ġoccur": 2584,
  "An": 2585,
  "Ġcontent": 2586,
  "Ġlack": 2587,
  "Ġsepar": 2588,
  "face": 2589,
  "Ġindustry": 2590,
  "Ġsite": 2591,
  "Ġthings": 2592,
  "ĠâĢĻ": 2593,
  "board": 2594,
  "ĠSchool": 2595,
  "val": 2596,
  "cial": 2597,
  "ĠDavid": 2598,
  "ĠHen": 2599,
  "uals": 2600,
  "gr": 2601,
  "Ġexperi": 2602,
  "cher": 2603,
  "Ġhost": 2604,
  "ĠRed": 2605,
  "uation": 2606,
  ",\"": 2607,
  "ĠĠĠĠĠĠĠĠ": 2608,
  "Ġparty": 2609,
  "Ġseven": 2610,
  "Ġsoon": 2611,
  "por": 2612,
  "Ġenough": 2613,
  "Ġinj": 2614,
  "Ġadditional": 2615,
  "wood": 2616,
  "Ġdeterm": 2617,
  "Ġservices": 2618,
  "ĠIndian": 2619,
  "osition": 2620,
  "Ġpers": 2621,
  "Ġvill": 2622,
  "Ġphot": 2623,
  "ky": 2624,
  "Ġgoal": 2625,
  "Ġalmost": 2626,
  "Ġwebs": 2627,
  "ĠDo": 2628,
  "ĠSch": 2629,
  "igned": 2630,
  "Ġmount": 2631,
  "Ġsuff": 2632,
  "artment": 2633,
  "iction": 2634,
  "Ġaccept": 2635,
  "iol": 2636,
  "Ġexamples": 2637,
  "Ġopened": 2638,
  "Ġ29": 2639,
  "ider": 2640,
  "Ġchalleng": 2641,
  "ĠMe": 2642,
  "erous": 2643,
  "ĠBill": 2644,
  "ama": 2645,
  "Ġanswer": 2646,
  "ients": 2647,
  "After": 2648,
  "Ġoutside": 2649,
  "ership": 2650,
  "Ġbrother": 2651,
  "ĠBlack": 2652,
  "ĠNe": 2653,
  "Ġinvolved": 2654,
  "Ġnatural": 2655,
  "Ġfig": 2656,
  "Ġpotential": 2657,
  "Ġbrought": 2658,
  "reng": 2659,
  "Ġabove": 2660,
  "Ġinn": 2661,
  "Ġhom": 2662,
  "Ġtropical": 2663,
  "Ġaccount": 2664,
  "Ġprevent": 2665,
  "Ġill": 2666,
  "Ġroute": 2667,
  "Ġaccording": 2668,
  "Ġ:Ċ": 2669,
  "ica": 2670,
  "lement": 2671,
  "aval": 2672,
  "ino": 2673,
  "Ġ!": 2674,
  "Ġformed": 2675,
  "ude": 2676,
  "espite": 2677,
  "ĠAustralian": 2678,
  "Ġelements": 2679,
  "Ġdamage": 2680,
  "ĠEurope": 2681,
  "ĠÃ": 2682,
  "ĠRich": 2683,
  "ĠTom": 2684,
  "Ġtarget": 2685,
  "ĠPer": 2686,
  "Ġconstruction": 2687,
  "men": 2688,
  "Ġscene": 2689,
  "Ġaverage": 2690,
  "Ġlaun": 2691,
  "Ġheavy": 2692,
  "ĠSam": 2693,
  "itch": 2694,
  "Ġvoc": 2695,
  "ĠSqu": 2696,
  "Ġcrew": 2697,
  "Ġcompleted": 2698,
  "Ġallowed": 2699,
  "Ġreve": 2700,
  "Ġstage": 2701,
  "uk": 2702,
  "ĠPe": 2703,
  "Ġrecomm": 2704,
  "Ġve": 2705,
  "ĠRoyal": 2706,
  "ification": 2707,
  "Ġoffice": 2708,
  "-year": 2709,
  "Ġrespect": 2710,
  "Ġtou": 2711,
  "ula": 2712,
  "Ġidea": 2713,
  "Ġtold": 2714,
  "Ġmass": 2715,
  "Ġsat": 2716,
  "vert": 2717,
  "Ġreb": 2718,
  "rison": 2719,
  "Ġincrease": 2720,
  "Ġincreased": 2721,
  "Ġpur": 2722,
  "Ġmove": 2723,
  "Ġface": 2724,
  "Ġcomment": 2725,
  "Ġeither": 2726,
  "Ġdeep": 2727,
  "Ġparticularly": 2728,
  "ging": 2729,
  "Ġmoney": 2730,
  "ror": 2731,
  "Ġhy": 2732,
  "Ġmm": 2733,
  "ĠRes": 2734,
  "ma": 2735,
  "uel": 2736,
  "Ġap": 2737,
  "iation": 2738,
  "uff": 2739,
  "ĠHist": 2740,
  "Ġround": 2741,
  "Ã¡": 2742,
  "Ġaudience": 2743,
  "port": 2744,
  "lin": 2745,
  "itor": 2746,
  "ĠSan": 2747,
  "Ġslow": 2748,
  "Ġ+": 2749,
  "Ġsense": 2750,
  "Ġmarket": 2751,
  "Ġwall": 2752,
  "Ġsaf": 2753,
  "Ġemot": 2754,
  "Ġ31": 2755,
  "Ġdiscover": 2756,
  "Ġ188": 2757,
  "Ġoverall": 2758,
  "ĠFrance": 2759,
  "unk": 2760,
  "Ġdou": 2761,
  "ĠAg": 2762,
  "Ġcourse": 2763,
  "ores": 2764,
  "ĠThat": 2765,
  "Ġbird": 2766,
  "iles": 2767,
  "ĠDr": 2768,
  "imin": 2769,
  "Ġheart": 2770,
  "antic": 2771,
  "ography": 2772,
  "amb": 2773,
  "Ġhor": 2774,
  "Ġgot": 2775,
  "Ġstreng": 2776,
  "ĠDon": 2777,
  "Ġamount": 2778,
  "ols": 2779,
  "Ġmind": 2780,
  "ĠPresident": 2781,
  "Ġsubject": 2782,
  "Ġconduct": 2783,
  "Ġpriv": 2784,
  "ĠMichael": 2785,
  "Ġly": 2786,
  "aring": 2787,
  "ĠWash": 2788,
  "icated": 2789,
  "Ġking": 2790,
  "ont": 2791,
  "ishing": 2792,
  "ĠPort": 2793,
  "Ġquickly": 2794,
  "bert": 2795,
  "lying": 2796,
  "rem": 2797,
  "Ġenjoy": 2798,
  "ference": 2799,
  "Ġris": 2800,
  "Ġpercent": 2801,
  "Ġdiscuss": 2802,
  "ows": 2803,
  "aging": 2804,
  "ift": 2805,
  "cle": 2806,
  "mar": 2807,
  "Ġappoint": 2808,
  "Ġwife": 2809,
  "ears": 2810,
  "Ġchanges": 2811,
  "Ġhelped": 2812,
  "hib": 2813,
  "Ġrul": 2814,
  "nal": 2815,
  "onse": 2816,
  "oose": 2817,
  "Ġcontract": 2818,
  "key": 2819,
  "ĠSte": 2820,
  "Ġgrad": 2821,
  "ĠNor": 2822,
  "Ġpolic": 2823,
  "Ġturned": 2824,
  "Ġborn": 2825,
  "aker": 2826,
  "Ġ186": 2827,
  "Ġ500": 2828,
  "Ġunique": 2829,
  "Ġwalk": 2830,
  "ĠVir": 2831,
  "ios": 2832,
  "oul": 2833,
  "oke": 2834,
  "inist": 2835,
  "Ġspace": 2836,
  "Ġtechnology": 2837,
  "Ġruns": 2838,
  "Ġlower": 2839,
  "ables": 2840,
  "Ġrank": 2841,
  "Ġthreat": 2842,
  "Ġsubsequ": 2843,
  "ĠColle": 2844,
  "Ġoil": 2845,
  "Ġbelieved": 2846,
  "ready": 2847,
  "Ġoriginally": 2848,
  "Ġfourth": 2849,
  "Ġsil": 2850,
  "Ġconsider": 2851,
  "tt": 2852,
  "Ġgoals": 2853,
  "isc": 2854,
  "ĠOther": 2855,
  "Ġbenef": 2856,
  "Ġdark": 2857,
  "Ġpeak": 2858,
  "Ġcru": 2859,
  "illed": 2860,
  "Ġscored": 2861,
  "ume": 2862,
  "Ġboy": 2863,
  "ĠBest": 2864,
  "ires": 2865,
  "Ġesp": 2866,
  "anced": 2867,
  "iff": 2868,
  "ĠDep": 2869,
  "Ġguns": 2870,
  "ĠMary": 2871,
  "ĠMusic": 2872,
  "aughter": 2873,
  "Ġfeatured": 2874,
  "enes": 2875,
  "izing": 2876,
  "Ġbring": 2877,
  "Ġmess": 2878,
  "ĠMark": 2879,
  "Ġspent": 2880,
  "Ġdesp": 2881,
  "osing": 2882,
  "Ġfif": 2883,
  "Ġsure": 2884,
  "Ġtransport": 2885,
  "Ġplaced": 2886,
  "ĠHol": 2887,
  "onst": 2888,
  "Ġprem": 2889,
  "aled": 2890,
  "ĠPaul": 2891,
  "ĠCour": 2892,
  "Ġgre": 2893,
  "ĠAngel": 2894,
  "Ġtraditional": 2895,
  "-2": 2896,
  "ĠQue": 2897,
  "arter": 2898,
  "azine": 2899,
  "ĠWashington": 2900,
  "Ġregard": 2901,
  "Ġgroups": 2902,
  "10": 2903,
  "Ġgenerally": 2904,
  "Ġopportun": 2905,
  "ĠBel": 2906,
  "Ġrelig": 2907,
  "Ġimprove": 2908,
  "action": 2909,
  "anish": 2910,
  "Ġwebsite": 2911,
  "Ġvisit": 2912,
  "Ġlargest": 2913,
  "Ġcomplex": 2914,
  "ĠBen": 2915,
  "ĠGreat": 2916,
  "Ġsaying": 2917,
  "ource": 2918,
  "ĠGod": 2919,
  "ĠEuropean": 2920,
  "This": 2921,
  "Ġfunction": 2922,
  "itte": 2923,
  "Ġcertain": 2924,
  "oes": 2925,
  "ĠBattle": 2926,
  "ico": 2927,
  "ĠFirst": 2928,
  "Ġalready": 2929,
  "Ġspeed": 2930,
  "Ġshare": 2931,
  "Ġincludes": 2932,
  "selves": 2933,
  "ander": 2934,
  "ĠHenry": 2935,
  "iforn": 2936,
  "ecutive": 2937,
  "Ġmakes": 2938,
  "ĠLa": 2939,
  "Ġjoined": 2940,
  "ĠVal": 2941,
  "Ġnar": 2942,
  "ĠPlay": 2943,
  "Ġresponse": 2944,
  "Ġkind": 2945,
  "Ġsex": 2946,
  "Ġrequired": 2947,
  "Ġcourt": 2948,
  "Ġearlier": 2949,
  "Ġrain": 2950,
  "Ġlength": 2951,
  "Ġfinished": 2952,
  "Ġliving": 2953,
  "It": 2954,
  "ites": 2955,
  "Ġarmy": 2956,
  "Ġtype": 2957,
  "Ġ187": 2958,
  "Ġlay": 2959,
  "Ġcompan": 2960,
  "Ġmultip": 2961,
  "Ġrail": 2962,
  "asion": 2963,
  "asc": 2964,
  "ĠHall": 2965,
  "Ġwood": 2966,
  ".\"ĊĊ": 2967,
  "usp": 2968,
  "BC": 2969,
  "ĠCup": 2970,
  "fall": 2971,
  "Ġcommer": 2972,
  "ening": 2973,
  "Ġdig": 2974,
  "ĠRoman": 2975,
  "Ġbeaut": 2976,
  "Ġcook": 2977,
  "ecially": 2978,
  "Ġeffects": 2979,
  "eum": 2980,
  "Ġcou": 2981,
  "Ġmer": 2982,
  "Ġparts": 2983,
  "iled": 2984,
  "Ġpassed": 2985,
  "Ġsurround": 2986,
  "ĠRobert": 2987,
  "ĠAlex": 2988,
  "Ġmi": 2989,
  "Ġabs": 2990,
  "Ġdeal": 2991,
  "amer": 2992,
  "Ġimmedi": 2993,
  "Ġparen": 2994,
  ")Ċ": 2995,
  "ocr": 2996,
  "airs": 2997,
  "Ġpurch": 2998,
  "Ġdecision": 2999,
  "ago": 3000,
  "Ġsentence": 3001,
  "ĠRepublic": 3002,
  "Ġtroops": 3003,
  "omas": 3004,
  "urity": 3005,
  "Ġnomin": 3006,
  "Ġpresident": 3007,
  "ises": 3008,
  "rast": 3009,
  "Ġhot": 3010,
  "Ġshot": 3011,
  "-A": 3012,
  "ollowing": 3013,
  "raw": 3014,
  "Ġdirector": 3015,
  "Ġimm": 3016,
  "Ġcritics": 3017,
  "Ġmethod": 3018,
  "Ġhous": 3019,
  "Ġsoft": 3020,
  "Ġbow": 3021,
  "ests": 3022,
  "Ġfavor": 3023,
  "Ġstates": 3024,
  "Ġdoc": 3025,
  "Ġprior": 3026,
  "ki": 3027,
  "sy": 3028,
  "ĠLou": 3029,
  "urt": 3030,
  "Ġneeded": 3031,
  "anned": 3032,
  "Ġdraw": 3033,
  "Ġemer": 3034,
  "ĠArt": 3035,
  "Ġwords": 3036,
  "Ġvictory": 3037,
  "Ġcred": 3038,
  "Ġreference": 3039,
  "ĠSo": 3040,
  "Ġconcern": 3041,
  "Ġreplaced": 3042,
  "ĠCaliforn": 3043,
  "Ġplatform": 3044,
  "Ġopening": 3045,
  "Ġnovel": 3046,
  "Ġespecially": 3047,
  "Ġhappy": 3048,
  "Ġissues": 3049,
  "Ġhigher": 3050,
  "west": 3051,
  "rian": 3052,
  "odes": 3053,
  "fect": 3054,
  "ĠMal": 3055,
  "atory": 3056,
  "Ġcenter": 3057,
  "Ġsize": 3058,
  "ule": 3059,
  "rab": 3060,
  "Ġwat": 3061,
  "ĠWhat": 3062,
  "Ġknew": 3063,
  "irt": 3064,
  "Ġnetwork": 3065,
  "gar": 3066,
  "resh": 3067,
  "Ġgold": 3068,
  "Ġforced": 3069,
  "rief": 3070,
  "ĠInternational": 3071,
  "Ġdisplay": 3072,
  "Ġsal": 3073,
  "Ġdisp": 3074,
  "irth": 3075,
  "Ġfinanc": 3076,
  "Ġitself": 3077,
  "ĠHam": 3078,
  "vey": 3079,
  "Ġestim": 3080,
  "arily": 3081,
  "Ġfrequ": 3082,
  "Ġlikely": 3083,
  "Ġsequ": 3084,
  "itation": 3085,
  "ĠTim": 3086,
  "ĠSoc": 3087,
  "Ġindepend": 3088,
  "ĠMag": 3089,
  "adron": 3090,
  "Ġinternational": 3091,
  "oms": 3092,
  "Ġsust": 3093,
  "ĠCalifornia": 3094,
  "ĠGame": 3095,
  "ĠIndia": 3096,
  "Ġwid": 3097,
  "Ġdetails": 3098,
  "Ġcountries": 3099,
  "Ġbi": 3100,
  "ny": 3101,
  "ĠSen": 3102,
  "ĠUse": 3103,
  "Ġshows": 3104,
  "ĠMart": 3105,
  "Ġcentral": 3106,
  "ĠChampionship": 3107,
  "Ġadapt": 3108,
  "Ġdone": 3109,
  "Ġwhether": 3110,
  "Ġtemper": 3111,
  "Ġinitially": 3112,
  "ĠScott": 3113,
  "ĠMac": 3114,
  "ibr": 3115,
  "ĠBer": 3116,
  "ĠChurch": 3117,
  "ĠMet": 3118,
  "utions": 3119,
  "Ġcomplete": 3120,
  "unt": 3121,
  "eck": 3122,
  "Ġapproach": 3123,
  "Ġviol": 3124,
  "ective": 3125,
  "Ġprob": 3126,
  "Ġ60": 3127,
  "ville": 3128,
  "ully": 3129,
  ").": 3130,
  "Ġeducation": 3131,
  "atives": 3132,
  "Ġevidence": 3133,
  "Ġsea": 3134,
  "oud": 3135,
  "ĠStud": 3136,
  "Ġlab": 3137,
  "Ġstrugg": 3138,
  "Ġwoman": 3139,
  "Ġfootball": 3140,
  "mon": 3141,
  "Ġhighest": 3142,
  "rel": 3143,
  "ena": 3144,
  "Ġliter": 3145,
  "Ġnature": 3146,
  "Ġplant": 3147,
  "ĠKingdom": 3148,
  "Ġtakes": 3149,
  "Ġchurch": 3150,
  "Ġinterview": 3151,
  "Ġappearance": 3152,
  "aries": 3153,
  "bers": 3154,
  "Ġ<<": 3155,
  "Ġreduce": 3156,
  "Ġattract": 3157,
  "Ġsouthern": 3158,
  "Ġmph": 3159,
  "ĠSl": 3160,
  "acing": 3161,
  "che": 3162,
  "Ġusually": 3163,
  "),": 3164,
  "Ġlo": 3165,
  "Ġlines": 3166,
  "Ġuser": 3167,
  "Ġmeet": 3168,
  "Ġstructure": 3169,
  "Ġmeans": 3170,
  "alled": 3171,
  "ĠSing": 3172,
  "-up": 3173,
  "ston": 3174,
  "ĠMil": 3175,
  "asons": 3176,
  "ĠChe": 3177,
  "Ġended": 3178,
  "ĠCanada": 3179,
  "Ġfr": 3180,
  "Ġsearch": 3181,
  "Ġran": 3182,
  "``": 3183,
  "Ġstudio": 3184,
  "Ġquality": 3185,
  ";Ċ": 3186,
  "Ġthemselves": 3187,
  "aily": 3188,
  "Ġpow": 3189,
  "heast": 3190,
  "Ġinvestig": 3191,
  "ittee": 3192,
  "Ġindividual": 3193,
  "leg": 3194,
  "ĠWhite": 3195,
  "ĠUnion": 3196,
  "Ġincorpor": 3197,
  "Ġability": 3198,
  "icles": 3199,
  "Ġmach": 3200,
  "Ġcolor": 3201,
  "aint": 3202,
  "ĠPal": 3203,
  "Ġsection": 3204,
  "Ġsurface": 3205,
  "Ġlonger": 3206,
  "elled": 3207,
  "ĠWil": 3208,
  "ĠBay": 3209,
  "ĠAtl": 3210,
  "Ġreviews": 3211,
  "antry": 3212,
  "'m": 3213,
  "Ġunits": 3214,
  "Ġincreasing": 3215,
  "elebr": 3216,
  "Ġnecess": 3217,
  "Ġsometimes": 3218,
  "Ġbomb": 3219,
  "Ġensure": 3220,
  "nel": 3221,
  "Ġprovides": 3222,
  "Ġdro": 3223,
  "ĠCompany": 3224,
  "Ġcat": 3225,
  "Ġlocation": 3226,
  "Ġissue": 3227,
  "Ġcompl": 3228,
  "Ġfilms": 3229,
  "ĠNavy": 3230,
  "erved": 3231,
  "Ġbeginning": 3232,
  "Ġdespite": 3233,
  "ha": 3234,
  "ĠBrown": 3235,
  "Ġgrowth": 3236,
  "Ġrunning": 3237,
  "Ġmention": 3238,
  "erve": 3239,
  "itz": 3240,
  "rag": 3241,
  "Ġbox": 3242,
  "ension": 3243,
  "Ġpolice": 3244,
  "Ġdi": 3245,
  "Ġprofessional": 3246,
  "eal": 3247,
  "Ġseem": 3248,
  "ĠThomas": 3249,
  "ĠAssoci": 3250,
  "Ġsusp": 3251,
  "Ġhighway": 3252,
  "ĠMo": 3253,
  "Ġlarger": 3254,
  "rec": 3255,
  "ications": 3256,
  "'re": 3257,
  "ĠAc": 3258,
  "Ġanal": 3259,
  "Ġnorthern": 3260,
  "rics": 3261,
  "Ġcause": 3262,
  "ĠFrom": 3263,
  "Ġtax": 3264,
  "NA": 3265,
  "ĠCollege": 3266,
  "Ġcomplet": 3267,
  "ĠVirgin": 3268,
  "hood": 3269,
  "Ġbur": 3270,
  "Ġvoice": 3271,
  "ida": 3272,
  "Ġwide": 3273,
  "Ġwa": 3274,
  "ĠCharles": 3275,
  "Ġproducts": 3276,
  "ĠGovern": 3277,
  "Ġpoor": 3278,
  "ĠKe": 3279,
  "Ġterms": 3280,
  "Ġâ": 3281,
  ",Ċ": 3282,
  "ĠCourt": 3283,
  "edy": 3284,
  "light": 3285,
  "Ġteams": 3286,
  "acher": 3287,
  "ĠOver": 3288,
  "ĠMcC": 3289,
  "Ġcivil": 3290,
  "Ġdidn": 3291,
  "ranch": 3292,
  "Ġbrand": 3293,
  "gen": 3294,
  "Ġpractice": 3295,
  "Ġinfluence": 3296,
  "Ġlevels": 3297,
  "ĠStar": 3298,
  "ĠDem": 3299,
  "ulf": 3300,
  "ĠâĢľ": 3301,
  "ili": 3302,
  "Ġbeg": 3303,
  "ĠUK": 3304,
  "ĠPat": 3305,
  "Ġpreviously": 3306,
  "Ġvariety": 3307,
  "Ġtransfer": 3308,
  "Ġlimited": 3309,
  "ĠSmith": 3310,
  "Ġindividuals": 3311,
  "Ġphysical": 3312,
  "ession": 3313,
  "ault": 3314,
  "Ġtell": 3315,
  "Ġlot": 3316,
  "aches": 3317,
  "Ġscore": 3318,
  "ĠCong": 3319,
  "iter": 3320,
  "Ch": 3321,
  "Ġmovie": 3322,
  "Ġencoura": 3323,
  "ĠÂ°": 3324,
  "Ġactivities": 3325,
  "Ġdate": 3326,
  "Ġpraised": 3327,
  "ĠApp": 3328,
  "Ġsystems": 3329,
  "idents": 3330,
  "Ġforward": 3331,
  "Ġswe": 3332,
  "Ġremain": 3333,
  "ĠGermany": 3334,
  "Ġwhose": 3335,
  "60": 3336,
  "Ġways": 3337,
  "Ġsales": 3338,
  "Ġordered": 3339,
  "Ġculture": 3340,
  "ĠMex": 3341,
  "ĠRoute": 3342,
  "Ġdemand": 3343,
  "Ġattention": 3344,
  "Ġsigned": 3345,
  "Ġstaff": 3346,
  "rey": 3347,
  "ĠÂ£": 3348,
  "ĠMount": 3349,
  "ĠAward": 3350,
  "Ġmovement": 3351,
  "ĠTwo": 3352,
  "Ġtalk": 3353,
  "isions": 3354,
  "orial": 3355,
  "rack": 3356,
  "ĠDespite": 3357,
  "Ġmodel": 3358,
  "inct": 3359,
  "Ġscreen": 3360,
  "Al": 3361,
  "Ġfailed": 3362,
  "isl": 3363,
  "ivity": 3364,
  "ĠRock": 3365,
  "Ġhurricane": 3366,
  "porary": 3367,
  "Ġneeds": 3368,
  "iced": 3369,
  "zz": 3370,
  "Ġcontinue": 3371,
  "Ġrout": 3372,
  "Ġpressure": 3373,
  "Ġsummer": 3374,
  "Ġremaining": 3375,
  "ĠCont": 3376,
  "Ġbecoming": 3377,
  "Ġdead": 3378,
  "Ġleaving": 3379,
  "ĠGold": 3380,
  "Ġleave": 3381,
  "order": 3382,
  "ĠJos": 3383,
  "Ġconditions": 3384,
  "ĠVict": 3385,
  "ĠChristian": 3386,
  "Ġrap": 3387,
  "Ġpick": 3388,
  "Ġcand": 3389,
  "Ġproblems": 3390,
  "Ġrecording": 3391,
  "Ġcann": 3392,
  "Ġult": 3393,
  "ties": 3394,
  "iring": 3395,
  "Ġwinds": 3396,
  "ĠRichard": 3397,
  "Ġword": 3398,
  "Ġmusical": 3399,
  "incip": 3400,
  "Ġvot": 3401,
  "II": 3402,
  "ĠDan": 3403,
  "Ġarrived": 3404,
  "itionally": 3405,
  "berg": 3406,
  "-based": 3407,
  "Ġcreating": 3408,
  "imum": 3409,
  "Ġwatch": 3410,
  "Ġ?": 3411,
  "ĠIm": 3412,
  "Ġi": 3413,
  "Ġbrief": 3414,
  "ounds": 3415,
  "Ġfeed": 3416,
  "atively": 3417,
  "nes": 3418,
  "Ġconfl": 3419,
  "Ġestablish": 3420,
  "aught": 3421,
  "Step": 3422,
  "ĠJust": 3423,
  "Ġtried": 3424,
  "Ġacqu": 3425,
  "ĠPeter": 3426,
  "uth": 3427,
  "-S": 3428,
  "Ġintroduced": 3429,
  "Ġfarm": 3430,
  "Ġrequire": 3431,
  "itude": 3432,
  "Ġscript": 3433,
  "ription": 3434,
  "Ġbooks": 3435,
  "ĠFrank": 3436,
  "ĠGrand": 3437,
  "change": 3438,
  "Ġdirected": 3439,
  "inese": 3440,
  "ulated": 3441,
  "Ġfort": 3442,
  "ĠBra": 3443,
  "Ġcycl": 3444,
  "ĠCoun": 3445,
  "Ġsun": 3446,
  "ospital": 3447,
  "Ġrelated": 3448,
  "ĠWestern": 3449,
  "Ġwhom": 3450,
  "Ġvalue": 3451,
  "ĠHot": 3452,
  "kn": 3453,
  "uter": 3454,
  "Ġasp": 3455,
  "Ġdebut": 3456,
  "Ġplans": 3457,
  "Ġinside": 3458,
  "ania": 3459,
  "Ġonline": 3460,
  "Ġwhole": 3461,
  "onna": 3462,
  "Ġarran": 3463,
  "Ġbridge": 3464,
  "que": 3465,
  "Ġcelebr": 3466,
  "Ġriver": 3467,
  "Ġ35": 3468,
  "hy": 3469,
  "ĠTra": 3470,
  "band": 3471,
  "rate": 3472,
  "hester": 3473,
  "Ġradio": 3474,
  "Ġtouch": 3475,
  "Ġsays": 3476,
  "Ġgreen": 3477,
  "Ġuses": 3478,
  "irm": 3479,
  "Ġassociated": 3480,
  "Ġcompared": 3481,
  "Ġmeaning": 3482,
  "abit": 3483,
  "What": 3484,
  "Ġguitar": 3485,
  "Ġcompanies": 3486,
  "venue": 3487,
  "Ġver": 3488,
  "itect": 3489,
  "ĠMr": 3490,
  "ĠHill": 3491,
  "ederal": 3492,
  "Ġconnect": 3493,
  "ees": 3494,
  "Ġspir": 3495,
  "30": 3496,
  "Ġhop": 3497,
  "Ġpen": 3498,
  "Ġimplement": 3499,
  "Ġanc": 3500,
  "Ġrights": 3501,
  "Ġchanged": 3502,
  "Ġbelow": 3503,
  "Ġjud": 3504,
  "Ġdaughter": 3505,
  "Ġpurp": 3506,
  "wh": 3507,
  "hold": 3508,
  "Ġsn": 3509,
  "Ġtransl": 3510,
  "Ġnine": 3511,
  "Ġboard": 3512,
  "Ġapprox": 3513,
  "igan": 3514,
  "Ġsens": 3515,
  "Ġeconomic": 3516,
  "Ġden": 3517,
  "Ġbehav": 3518,
  "Ġclaimed": 3519,
  "Ġinteg": 3520,
  "Ġflood": 3521,
  "bed": 3522,
  "Ġresources": 3523,
  "Ġcommercial": 3524,
  "Ġaltern": 3525,
  "etic": 3526,
  "Ġconstruct": 3527,
  "icate": 3528,
  "Ġconcept": 3529,
  "uf": 3530,
  "Ġdog": 3531,
  "Ġreason": 3532,
  "Ġscient": 3533,
  "Ġexpand": 3534,
  "Ġcollabor": 3535,
  "Ġmarketing": 3536,
  "ari": 3537,
  "alion": 3538,
  "Ġshoot": 3539,
  "ĠCast": 3540,
  "ĠSpanish": 3541,
  "Ġadop": 3542,
  "uments": 3543,
  "umn": 3544,
  "oviet": 3545,
  "Ġdiss": 3546,
  "Ġsle": 3547,
  "cean": 3548,
  "uing": 3549,
  "Ġtrue": 3550,
  "Ġprep": 3551,
  "Ġbad": 3552,
  "ĠTran": 3553,
  "ext": 3554,
  "Ġtoday": 3555,
  "ĠDay": 3556,
  "ij": 3557,
  "arliam": 3558,
  "Ġcritical": 3559,
  "Ġ#": 3560,
  "Ġ185": 3561,
  "Ġfinancial": 3562,
  "ysis": 3563,
  "ĠCons": 3564,
  "ĠAwards": 3565,
  "ĠTimes": 3566,
  "Ġoperations": 3567,
  "-M": 3568,
  "Ġeffective": 3569,
  "ĠChinese": 3570,
  "Ġdistrib": 3571,
  "Ġbuildings": 3572,
  "Ġyet": 3573,
  "Ġcarried": 3574,
  "Ġleague": 3575,
  "eget": 3576,
  "ĠBritain": 3577,
  "ares": 3578,
  "Ġfemale": 3579,
  "Ġpack": 3580,
  "Ġcollect": 3581,
  "Ġprison": 3582,
  "ĠRob": 3583,
  "Ġplot": 3584,
  "Ġremains": 3585,
  "Ġanimals": 3586,
  "use": 3587,
  "ying": 3588,
  "rol": 3589,
  "ÃŃ": 3590,
  "Ġsymb": 3591,
  "Ġforest": 3592,
  "Ġconflict": 3593,
  "Ġnumbers": 3594,
  "Ġblood": 3595,
  "Ġoccup": 3596,
  "Ġmoment": 3597,
  "Ġsuggested": 3598,
  "Ġstars": 3599,
  "Ġestimated": 3600,
  "Ġnegative": 3601,
  "arliament": 3602,
  "At": 3603,
  "oo": 3604,
  "Ġcapital": 3605,
  "rect": 3606,
  "Ġmanagement": 3607,
  "Ġtypes": 3608,
  "ĠLily": 3609,
  "Ġfresh": 3610,
  "Ġtrib": 3611,
  "Ġquarter": 3612,
  "Ġprint": 3613,
  "Ġarticle": 3614,
  "Ġcontact": 3615,
  "Ġgra": 3616,
  "Ġsources": 3617,
  "enty": 3618,
  "olic": 3619,
  "Ġprivate": 3620,
  "Ġwriter": 3621,
  "iant": 3622,
  "Ġveh": 3623,
  "Ġrate": 3624,
  "ĠLos": 3625,
  "Ġleader": 3626,
  "Ġtask": 3627,
  "Ġfinally": 3628,
  "ĠSuper": 3629,
  "oe": 3630,
  "ĠServ": 3631,
  "Ġmagazine": 3632,
  "Ġefforts": 3633,
  "ĠGreen": 3634,
  "ĠDis": 3635,
  "lymp": 3636,
  "Ġfans": 3637,
  "ĠTex": 3638,
  "Ġconclud": 3639,
  "ĠChic": 3640,
  "fort": 3641,
  "Ġoffers": 3642,
  "Ġbackground": 3643,
  "rid": 3644,
  "Ġprogress": 3645,
  "Ġskills": 3646,
  "Ġprotect": 3647,
  "Ġpil": 3648,
  "Ġdeg": 3649,
  "ĠFilm": 3650,
  "Ġminor": 3651,
  "Ġwor": 3652,
  "Ġcarry": 3653,
  "ĠSar": 3654,
  "ĠCro": 3655,
  "Ġang": 3656,
  "Ġder": 3657,
  "ĠSoviet": 3658,
  "ĠVictor": 3659,
  "asy": 3660,
  "Ġmaint": 3661,
  "Sure": 3662,
  "pe": 3663,
  "ĠForce": 3664,
  "Ġtrying": 3665,
  "Ġcup": 3666,
  "Ġfail": 3667,
  "Ġheav": 3668,
  "down": 3669,
  "ĠEv": 3670,
  "ĠNY": 3671,
  "Ġproposed": 3672,
  "ĠPac": 3673,
  "ĠSal": 3674,
  "Ġthr": 3675,
  "?Ċ": 3676,
  "Ġlooking": 3677,
  "Ġ80": 3678,
  "Ġexpected": 3679,
  "Ġinstr": 3680,
  "ledge": 3681,
  "Ġbal": 3682,
  "Ġentered": 3683,
  "Ġtow": 3684,
  "ĠItal": 3685,
  "Ġproviding": 3686,
  "ously": 3687,
  "Ġagreed": 3688,
  "Ġweap": 3689,
  "uit": 3690,
  "âĢĿ": 3691,
  "Ġterrit": 3692,
  "Ġsyn": 3693,
  "de": 3694,
  "Ġnearly": 3695,
  "Ġperfect": 3696,
  "ĠChina": 3697,
  "uries": 3698,
  "Ġdiscovered": 3699,
  "Ġoptions": 3700,
  "Ġfast": 3701,
  "ĠOlymp": 3702,
  "Ġideas": 3703,
  "-time": 3704,
  "Ã¼": 3705,
  "iser": 3706,
  "eds": 3707,
  "Ġwestern": 3708,
  "ĠEarth": 3709,
  "ĠEmp": 3710,
  "ĠKore": 3711,
  "Ġmeeting": 3712,
  "ĠĠĠĠĠĠĠ": 3713,
  "ĠFlor": 3714,
  "astic": 3715,
  "Ġrecip": 3716,
  "ception": 3717,
  "Ġlog": 3718,
  "ĠAssociation": 3719,
  "Ġnorm": 3720,
  "Ġ45": 3721,
  "can": 3722,
  "Ġgrand": 3723,
  "Ġuns": 3724,
  "arning": 3725,
  "Ġbirth": 3726,
  "Ġintended": 3727,
  "agon": 3728,
  "Ġnews": 3729,
  "ĠDu": 3730,
  "Ġanti": 3731,
  "ĠClub": 3732,
  "Ġblock": 3733,
  "Ġshown": 3734,
  "Ġoffered": 3735,
  "Ġmur": 3736,
  "iques": 3737,
  "Ġsource": 3738,
  "Ġdefeated": 3739,
  "ĠBur": 3740,
  "ken": 3741,
  "ĠSecond": 3742,
  "Ġmultiple": 3743,
  "ils": 3744,
  "Ġmarried": 3745,
  "ims": 3746,
  "ĠParty": 3747,
  "Ã¶": 3748,
  "Ġclean": 3749,
  "Ġpattern": 3750,
  "Ġadj": 3751,
  "Ġproblem": 3752,
  "mit": 3753,
  "aded": 3754,
  "Ġstrength": 3755,
  "Ġlif": 3756,
  "rd": 3757,
  "Ġsmaller": 3758,
  "Ġimmediately": 3759,
  "Ġtips": 3760,
  "Ġge": 3761,
  "reak": 3762,
  "Ġrecommend": 3763,
  "astern": 3764,
  "Ġhope": 3765,
  "Ġmental": 3766,
  "Ġparents": 3767,
  "Ġresults": 3768,
  "ightly": 3769,
  "Ġvillage": 3770,
  "Ġsect": 3771,
  "Ġhighly": 3772,
  "Ġprec": 3773,
  "orps": 3774,
  "ams": 3775,
  "Yes": 3776,
  "Ġdise": 3777,
  "known": 3778,
  "Ġstatus": 3779,
  "ender": 3780,
  "Ġelection": 3781,
  "Ġsupported": 3782,
  "ĠCouncil": 3783,
  "Ġinitial": 3784,
  "Ġapproximately": 3785,
  "Ġscenes": 3786,
  "atin": 3787,
  "inn": 3788,
  "ĠChicago": 3789,
  "ĠVirginia": 3790,
  "Ġchallenges": 3791,
  "emic": 3792,
  "Ġ32": 3793,
  "Ġexerc": 3794,
  "aling": 3795,
  "oper": 3796,
  "ĠUp": 3797,
  "eff": 3798,
  "Ġepisodes": 3799,
  "ĠLouis": 3800,
  "rong": 3801,
  "AA": 3802,
  "rial": 3803,
  "Ġdram": 3804,
  "mat": 3805,
  "Ġ300": 3806,
  "enth": 3807,
  "Ġcontains": 3808,
  "ĠAdditionally": 3809,
  "ctor": 3810,
  "Ġcoach": 3811,
  "There": 3812,
  "Ġmax": 3813,
  "ĠAfrica": 3814,
  "inal": 3815,
  "ĠJackson": 3816,
  "echan": 3817,
  "Ġdestroyed": 3818,
  "Ġprobably": 3819,
  "Ġlives": 3820,
  "Ġusers": 3821,
  "Ġdoing": 3822,
  "Ġletter": 3823,
  "Ġhands": 3824,
  "Ġcomes": 3825,
  "Ġmixed": 3826,
  "vement": 3827,
  "Ġcommission": 3828,
  "Ġnumerous": 3829,
  "Ġappointed": 3830,
  "rite": 3831,
  "Ġdivision": 3832,
  "Ġfit": 3833,
  "Ġmoving": 3834,
  "Ġlatter": 3835,
  "Ġcustomer": 3836,
  "roll": 3837,
  "Ġproduce": 3838,
  "Ġpowerful": 3839,
  "Ġpaper": 3840,
  "Ġemb": 3841,
  "Ġlearning": 3842,
  "One": 3843,
  "Ġwhy": 3844,
  "ĠCenter": 3845,
  ">Ċ": 3846,
  "Ġeastern": 3847,
  "Ġfell": 3848,
  "estival": 3849,
  "Ġsecret": 3850,
  "Ġeasy": 3851,
  "ĠInter": 3852,
  "bon": 3853,
  "het": 3854,
  "He": 3855,
  "icted": 3856,
  "hips": 3857,
  "Ġcultural": 3858,
  "Ġblue": 3859,
  "40": 3860,
  "Ġadminist": 3861,
  "Ġstories": 3862,
  "ĠTour": 3863,
  "Ġsoldiers": 3864,
  "Ġsituation": 3865,
  "Ġgiving": 3866,
  "Ġveget": 3867,
  "ĠBu": 3868,
  "ĠIr": 3869,
  "Ġneigh": 3870,
  "Ġeyes": 3871,
  "ĠOff": 3872,
  "ĠTer": 3873,
  "Ġsche": 3874,
  "Ġqual": 3875,
  "Ġdirectly": 3876,
  "Ġarchitect": 3877,
  "Ġactive": 3878,
  "ĠMany": 3879,
  "Ġthus": 3880,
  "Ġsch": 3881,
  "Ġintens": 3882,
  "ado": 3883,
  "right": 3884,
  "ĠSun": 3885,
  "ĠIts": 3886,
  "add": 3887,
  "ĠKh": 3888,
  "Ġplanned": 3889,
  "ĠMill": 3890,
  "rug": 3891,
  "Ġawarded": 3892,
  "eph": 3893,
  "cy": 3894,
  "Ġsett": 3895,
  "Ġflav": 3896,
  "ety": 3897,
  "Ġpan": 3898,
  "Ġmission": 3899,
  "izes": 3900,
  "Ġprograms": 3901,
  "ĠInc": 3902,
  "Ġtracks": 3903,
  "Ġportray": 3904,
  "Ġavoid": 3905,
  "19": 3906,
  "riage": 3907,
  "ĠSea": 3908,
  "onic": 3909,
  "isf": 3910,
  "Ġamb": 3911,
  "Ġbit": 3912,
  "ipped": 3913,
  "Ġartist": 3914,
  "Ġmostly": 3915,
  "Ġconsum": 3916,
  "Ġvia": 3917,
  "Ġ180": 3918,
  "Ġactivity": 3919,
  "Ġstrateg": 3920,
  "Ġtrade": 3921,
  "Ġbroadcast": 3922,
  "ux": 3923,
  "ria": 3924,
  "Ġstop": 3925,
  "teen": 3926,
  "ĠFranc": 3927,
  "sen": 3928,
  "arden": 3929,
  "clusion": 3930,
  "tered": 3931,
  "ĠTur": 3932,
  "ĠLater": 3933,
  "Ġrisk": 3934,
  "istics": 3935,
  "Ġdance": 3936,
  "Ġmiddle": 3937,
  "Ġcustomers": 3938,
  "ĠFle": 3939,
  "ady": 3940,
  "udd": 3941,
  "lor": 3942,
  "Ġeffort": 3943,
  "Ġprimary": 3944,
  "igade": 3945,
  "ervation": 3946,
  "Ġcaptured": 3947,
  "ĠJohnson": 3948,
  "iful": 3949,
  "Ġwear": 3950,
  "?\"": 3951,
  "bour": 3952,
  "ĠUnder": 3953,
  "ĠEnter": 3954,
  "ĠInst": 3955,
  "Ġaddress": 3956,
  "Ġ184": 3957,
  "Ġprincip": 3958,
  "ĠHistory": 3959,
  "When": 3960,
  "Ġdocument": 3961,
  "Ġfleet": 3962,
  "Ġpiece": 3963,
  "ka": 3964,
  "othes": 3965,
  "lands": 3966,
  "well": 3967,
  "ĠDist": 3968,
  "Ġraised": 3969,
  "Ġund": 3970,
  "Ġsociety": 3971,
  "Ã³": 3972,
  "ĠTV": 3973,
  "Ġrecent": 3974,
  "ether": 3975,
  "Ġallowing": 3976,
  "Ġstore": 3977,
  "Ġextended": 3978,
  "Ġdepart": 3979,
  "During": 3980,
  "Ġmanager": 3981,
  "Ġlooked": 3982,
  "ucle": 3983,
  "Ġwrite": 3984,
  "sych": 3985,
  "--": 3986,
  "ĠScot": 3987,
  "Ġnecessary": 3988,
  "ĠNot": 3989,
  "ĠMost": 3990,
  "Ġfeeling": 3991,
  "hens": 3992,
  "Ġdisapp": 3993,
  "Ġwithd": 3994,
  "Ġherself": 3995,
  "Ġappears": 3996,
  "ĠLake": 3997,
  "Ġscience": 3998,
  "enge": 3999,
  "oses": 4000,
  "Ġadvance": 4001,
  "reme": 4002,
  "Ġlyrics": 4003,
  "Ġkept": 4004,
  "ĠPacific": 4005,
  "icro": 4006,
  "Ġcollege": 4007,
  "Ġpath": 4008,
  "ĠOper": 4009,
  "ĠTexas": 4010,
  "ipment": 4011,
  "Ġrequest": 4012,
  "Ġstandard": 4013,
  "Ġmorning": 4014,
  "irection": 4015,
  "oly": 4016,
  "iverse": 4017,
  "Ġforms": 4018,
  "Ġanaly": 4019,
  "ĠJim": 4020,
  "Ġpeace": 4021,
  "ĠSong": 4022,
  "Ġthick": 4023,
  "ĠInf": 4024,
  "Ġkil": 4025,
  "Ġmatter": 4026,
  "Ġcer": 4027,
  "ĠLove": 4028,
  "Ġcases": 4029,
  "opped": 4030,
  "ĠDes": 4031,
  "ĠCongress": 4032,
  "mark": 4033,
  "ĠEdward": 4034,
  "Ġcompetition": 4035,
  "ĠCamp": 4036,
  "Ġpair": 4037,
  "ĠPet": 4038,
  "Ġtree": 4039,
  "olk": 4040,
  "house": 4041,
  "Ġconvers": 4042,
  "ĠJew": 4043,
  "ĠGroup": 4044,
  "Ġofficers": 4045,
  "Ġcolon": 4046,
  "Ġded": 4047,
  "Ġeffic": 4048,
  "ĠGre": 4049,
  "rupt": 4050,
  "umber": 4051,
  "ĠItalian": 4052,
  "Ġlived": 4053,
  "ien": 4054,
  "ĠĠĊ": 4055,
  "ĠMont": 4056,
  "Ġdemonst": 4057,
  "Ġsimple": 4058,
  "Ġcorn": 4059,
  "Ġsomeone": 4060,
  "Ġheard": 4061,
  "Ġeverything": 4062,
  "Ġpict": 4063,
  "Ġstarting": 4064,
  "ĠRussian": 4065,
  "ĠFlorida": 4066,
  "Ġprefer": 4067,
  "iral": 4068,
  "Ġsen": 4069,
  "Ġschools": 4070,
  "ĠTw": 4071,
  "Ġcontem": 4072,
  "Ġattacks": 4073,
  "Ġthing": 4074,
  "Ġflag": 4075,
  "ste": 4076,
  "ĠPri": 4077,
  "Ġremoved": 4078,
  "ĠOld": 4079,
  "ogue": 4080,
  "burg": 4081,
  "ĠOl": 4082,
  "Ġdepression": 4083,
  "room": 4084,
  "Ġpresence": 4085,
  "Ġ`": 4086,
  "Ġmeant": 4087,
  "ĠQueen": 4088,
  "ĠEarly": 4089,
  "Ġtraffic": 4090,
  "Ġadult": 4091,
  "Ġsuffered": 4092,
  "ĠLord": 4093,
  "Ġelectric": 4094,
  "Ġleaves": 4095,
  "agement": 4096,
  "Ġwinning": 4097,
  "Ġactions": 4098,
  "Ġfifth": 4099,
  "-cl": 4100,
  "Ġissued": 4101,
  "icip": 4102,
  "Ġserious": 4103,
  "Ġproducer": 4104,
  "fully": 4105,
  "iest": 4106,
  "stitute": 4107,
  "Ġclosed": 4108,
  "Ġbattles": 4109,
  "come": 4110,
  "Ġpurs": 4111,
  "Ġtrain": 4112,
  "Ġ70": 4113,
  "ibly": 4114,
  "Ġrevealed": 4115,
  "Ġtheme": 4116,
  "ends": 4117,
  "Ġallows": 4118,
  "Ġglob": 4119,
  "uated": 4120,
  "Ġdang": 4121,
  "Ġflight": 4122,
  "Ġreligious": 4123,
  "Ġ37": 4124,
  "Ġmajority": 4125,
  "cont": 4126,
  "ĠLaw": 4127,
  "Ġpieces": 4128,
  "ĠBack": 4129,
  "ĠKn": 4130,
  "Ġencoun": 4131,
  "ĠEmpire": 4132,
  "Ġresponsible": 4133,
  "Ġtechniques": 4134,
  "ĠAngeles": 4135,
  "Ġmob": 4136,
  "ĠMel": 4137,
  "Ġstra": 4138,
  "ĠAdm": 4139,
  "Ġnearby": 4140,
  "Ġimage": 4141,
  "Ġlaunched": 4142,
  "ellig": 4143,
  "ĠCentral": 4144,
  "bury": 4145,
  "ulate": 4146,
  "Ġnames": 4147,
  "isted": 4148,
  "Ġreduced": 4149,
  "adium": 4150,
  "Ġice": 4151,
  "Ġbelieve": 4152,
  "Ġweight": 4153,
  "Ġcovered": 4154,
  "udget": 4155,
  "lection": 4156,
  "Ġgreater": 4157,
  "stant": 4158,
  "Ġhar": 4159,
  "ĠRo": 4160,
  "Ġmel": 4161,
  "ply": 4162,
  "Ġjourney": 4163,
  "Ġclim": 4164,
  "Ġbenefits": 4165,
  "Ġcopies": 4166,
  "Ġsister": 4167,
  "odies": 4168,
  "Ġinspired": 4169,
  "uten": 4170,
  "ĠBillboard": 4171,
  "inent": 4172,
  "Ġcounter": 4173,
  "wide": 4174,
  "phas": 4175,
  "Ġpromote": 4176,
  "Ġrespond": 4177,
  "ona": 4178,
  "ini": 4179,
  "Ġshowed": 4180,
  "ĠTown": 4181,
  "Ġfru": 4182,
  "Ġmaterials": 4183,
  "Ġcoming": 4184,
  "Ġlegal": 4185,
  "ĠWood": 4186,
  "ĠMiss": 4187,
  "-n": 4188,
  "eed": 4189,
  "ĠOut": 4190,
  "Ġ90": 4191,
  "aped": 4192,
  "omer": 4193,
  "Ġextra": 4194,
  "andon": 4195,
  "road": 4196,
  "Ġimag": 4197,
  "ĠBig": 4198,
  "Ġonto": 4199,
  "Ġbusinesses": 4200,
  "Ġcm": 4201,
  "Ġmedical": 4202,
  "Ġgrant": 4203,
  "ighter": 4204,
  "ros": 4205,
  "ĠTheir": 4206,
  "ĠAtlantic": 4207,
  "Ġgas": 4208,
  "Ġorganization": 4209,
  "Ġaccomp": 4210,
  "Ġdeliver": 4211,
  "Ġpolicy": 4212,
  "ĠMax": 4213,
  "Ġcontext": 4214,
  "Ġdomin": 4215,
  "Ġnewsp": 4216,
  "Ġoccurred": 4217,
  "Ġidentify": 4218,
  "Ġwild": 4219,
  "isher": 4220,
  "ĠCle": 4221,
  "ĠAfrican": 4222,
  "-to": 4223,
  "Ġanalysis": 4224,
  "Ġexhib": 4225,
  "Ġsecurity": 4226,
  "ĠCarol": 4227,
  "Ġequipment": 4228,
  "Ġtrees": 4229,
  "Ġweather": 4230,
  "ette": 4231,
  "Ġartists": 4232,
  "Ġperformances": 4233,
  "Ġdamaged": 4234,
  "Ġrepe": 4235,
  "Ġing": 4236,
  "Ġtable": 4237,
  "80": 4238,
  "Ġcollection": 4239,
  "more": 4240,
  "ĠRail": 4241,
  "Ġresulted": 4242,
  "Ġattend": 4243,
  "Ġmechan": 4244,
  "!\"": 4245,
  "Ġselected": 4246,
  "ĠDel": 4247,
  "zy": 4248,
  "ĠCanadian": 4249,
  "Ġserve": 4250,
  "Ġearned": 4251,
  "ĠGreek": 4252,
  "Ġseparate": 4253,
  "ani": 4254,
  "ype": 4255,
  "Ġlink": 4256,
  "Ġspread": 4257,
  "Ġdouble": 4258,
  "Ġri": 4259,
  "ĠBoth": 4260,
  "ocks": 4261,
  "Ġstudies": 4262,
  "Ġtal": 4263,
  "ĠFort": 4264,
  "Ġsinger": 4265,
  "ĠBoy": 4266,
  "rad": 4267,
  "ĠMore": 4268,
  "za": 4269,
  "ĠAnt": 4270,
  "Ġsubsequently": 4271,
  "cel": 4272,
  "iate": 4273,
  "Ġcomposed": 4274,
  "ĠSk": 4275,
  "Ġunable": 4276,
  "illing": 4277,
  "uge": 4278,
  "Ġmale": 4279,
  "Ġreferred": 4280,
  "ĠFrancis": 4281,
  "Ġactually": 4282,
  "izations": 4283,
  "By": 4284,
  "ĠFollowing": 4285,
  "Ġresulting": 4286,
  "Ġ*": 4287,
  "Ġtur": 4288,
  "Ġbecomes": 4289,
  "Ġspot": 4290,
  "Ġanything": 4291,
  "itt": 4292,
  "ĠBow": 4293,
  "ĠRev": 4294,
  "Ġrespectively": 4295,
  "arian": 4296,
  "ĠIII": 4297,
  "ĠTor": 4298,
  "Ġrecords": 4299,
  "Ġlearned": 4300,
  "Ġspl": 4301,
  "Ġrapid": 4302,
  "Ġtons": 4303,
  "Ġsustain": 4304,
  "ulations": 4305,
  "Ġcas": 4306,
  "Ġmetal": 4307,
  "lo": 4308,
  "undred": 4309,
  "Ġcontinues": 4310,
  "Ġsetting": 4311,
  "Ġproperty": 4312,
  "mond": 4313,
  "Ġnotes": 4314,
  "ĠTest": 4315,
  "Ġhelps": 4316,
  "Ġgetting": 4317,
  "-3": 4318,
  "Ġessential": 4319,
  "Ġbank": 4320,
  "Ġinteract": 4321,
  "Ġbatter": 4322,
  "Ġfighting": 4323,
  "ĠMur": 4324,
  "Ġupper": 4325,
  "Ġyards": 4326,
  "ĠBob": 4327,
  "We": 4328,
  "Ġquestions": 4329,
  "Ã¤": 4330,
  "olf": 4331,
  "ounded": 4332,
  "ĠDemocr": 4333,
  "Ġstudent": 4334,
  "Ġrat": 4335,
  "like": 4336,
  "ship": 4337,
  "Ġsend": 4338,
  "ĠAnother": 4339,
  "Ġsuppl": 4340,
  "Ġsem": 4341,
  "Ġofficer": 4342,
  "ita": 4343,
  "osen": 4344,
  "Ġ183": 4345,
  "Ġut": 4346,
  "Ġjournal": 4347,
  "Ġknowledge": 4348,
  "Ġexperiences": 4349,
  "ĠMartin": 4350,
  "ĠKent": 4351,
  "Ġlegisl": 4352,
  "Ġexpress": 4353,
  "ronic": 4354,
  "AS": 4355,
  "arters": 4356,
  "ĠDepartment": 4357,
  "Ġcontrast": 4358,
  "Ġcandid": 4359,
  "Ġdirection": 4360,
  "ĠMer": 4361,
  "ĠAcad": 4362,
  "ãĥ": 4363,
  "Ġdefeat": 4364,
  "iance": 4365,
  "Ġemphas": 4366,
  "ĠBet": 4367,
  "Ġcool": 4368,
  "ĠYear": 4369,
  "ĠCam": 4370,
  "Ġsuit": 4371,
  "ĠCr": 4372,
  "Ġ33": 4373,
  "Ġinters": 4374,
  "illa": 4375,
  "Ġfigure": 4376,
  "Ġplants": 4377,
  "Ġoperation": 4378,
  "Ġpresented": 4379,
  "rative": 4380,
  "Ġsides": 4381,
  "Ġdefin": 4382,
  "rier": 4383,
  "VD": 4384,
  "à¤": 4385,
  "Ġdoll": 4386,
  "Ġcheck": 4387,
  "To": 4388,
  "Ġdu": 4389,
  "Ġegg": 4390,
  "Ġrefused": 4391,
  "ufact": 4392,
  "Ġroll": 4393,
  "Ġreflect": 4394,
  "Ġtreatment": 4395,
  "12": 4396,
  "ĠRad": 4397,
  "Ġalone": 4398,
  "ĠYour": 4399,
  "Ġnation": 4400,
  "ĠPre": 4401,
  "Ġmatches": 4402,
  "Ġdistance": 4403,
  "Ġpoem": 4404,
  "Ġattempted": 4405,
  "Ġmachine": 4406,
  "Ġunit": 4407,
  "Ġabandon": 4408,
  "vention": 4409,
  "Ġlargely": 4410,
  "Ġmanaged": 4411,
  "Ġvisual": 4412,
  "Ġplays": 4413,
  "ĠNort": 4414,
  "Ġcompletely": 4415,
  "Ġsounds": 4416,
  "Ġ36": 4417,
  "ĠAv": 4418,
  "utch": 4419,
  "Ġimportance": 4420,
  "ners": 4421,
  "ĠSir": 4422,
  "Ġ00": 4423,
  "Ġmentioned": 4424,
  "ĠMinister": 4425,
  "Ġloved": 4426,
  "Ġassigned": 4427,
  "Ġwarm": 4428,
  "Ġcontain": 4429,
  "Ġannual": 4430,
  "-cent": 4431,
  "-C": 4432,
  "For": 4433,
  "Ġrenew": 4434,
  "force": 4435,
  "-19": 4436,
  "Ġ75": 4437,
  "Ġmanufact": 4438,
  "iable": 4439,
  "-e": 4440,
  "ĠCor": 4441,
  "Ġattacked": 4442,
  "Ġconstit": 4443,
  "Ġlisted": 4444,
  "rical": 4445,
  "Ġseek": 4446,
  "Ġpit": 4447,
  "Ġplease": 4448,
  "ĠSum": 4449,
  "'ll": 4450,
  "ibrary": 4451,
  "Ġslightly": 4452,
  "Ġtypically": 4453,
  "Ġroy": 4454,
  "pass": 4455,
  "Ġheat": 4456,
  "nament": 4457,
  "Ġfish": 4458,
  "Ġultimately": 4459,
  "Ġrestaur": 4460,
  "ĠPenn": 4461,
  "ĠSat": 4462,
  "Ġbegins": 4463,
  "Ġelement": 4464,
  "Ġinches": 4465,
  "Ġmessage": 4466,
  "Once": 4467,
  "Ġdigital": 4468,
  "thlet": 4469,
  "inter": 4470,
  "Ġple": 4471,
  "Ġcannot": 4472,
  "Ġhour": 4473,
  "rowd": 4474,
  "Ġinstit": 4475,
  "ĠHighway": 4476,
  "ĠSquadron": 4477,
  "Ġburn": 4478,
  "Ġspirit": 4479,
  "-B": 4480,
  "Ġdom": 4481,
  "ousand": 4482,
  "ancing": 4483,
  "Ġdrum": 4484,
  "Ġdaily": 4485,
  "Ġcorrect": 4486,
  "Ġble": 4487,
  "Ġdistinct": 4488,
  "Ġrare": 4489,
  "ilies": 4490,
  "ĠMass": 4491,
  "bridge": 4492,
  "ĠStep": 4493,
  "Ġtheat": 4494,
  "range": 4495,
  "ĠCath": 4496,
  "cend": 4497,
  "Ġinput": 4498,
  "Ġ{": 4499,
  "Ġcit": 4500,
  "Ġhyp": 4501,
  "Ġcerem": 4502,
  "ĠCare": 4503,
  "Ġcompos": 4504,
  "uty": 4505,
  "Ġpaid": 4506,
  "rie": 4507,
  "Ġnut": 4508,
  "yr": 4509,
  "gypt": 4510,
  "set": 4511,
  "unch": 4512,
  "Ġpal": 4513,
  "Ġhair": 4514,
  "Ġhospital": 4515,
  "Ġcentre": 4516,
  "Ġranked": 4517,
  "inson": 4518,
  "ĠSol": 4519,
  "ĠTime": 4520,
  "Ġpositions": 4521,
  "ĠMexico": 4522,
  "ĠFore": 4523,
  "Ġnothing": 4524,
  "Ġconducted": 4525,
  "ican": 4526,
  "ĠZeal": 4527,
  "MS": 4528,
  "ĠWales": 4529,
  "rig": 4530,
  "ĠUs": 4531,
  "Ġresist": 4532,
  "everal": 4533,
  "ya": 4534,
  "Ġfaced": 4535,
  "oration": 4536,
  "ĠLu": 4537,
  "ĠCorps": 4538,
  "Ġir": 4539,
  "Ġadding": 4540,
  "Ġcateg": 4541,
  "Ġearth": 4542,
  "Ġupd": 4543,
  "Ġnucle": 4544,
  "Ġbeat": 4545,
  "Ġchem": 4546,
  "Ġsand": 4547,
  "Ġbudget": 4548,
  "avig": 4549,
  "Ġdraft": 4550,
  "gl": 4551,
  "Ġschol": 4552,
  "olved": 4553,
  "-se": 4554,
  ".com": 4555,
  "ĠLuc": 4556,
  "mosp": 4557,
  "Ġbreat": 4558,
  "ras": 4559,
  "Ġgraph": 4560,
  "Ġcities": 4561,
  "Ġ400": 4562,
  "Ġrating": 4563,
  "Ġforeign": 4564,
  "ĠLeg": 4565,
  "antasy": 4566,
  "inary": 4567,
  "ooth": 4568,
  "usband": 4569,
  "Ġarrest": 4570,
  "arent": 4571,
  "Ġcombined": 4572,
  "ecause": 4573,
  "ĠAnn": 4574,
  "ĠMa": 4575,
  "ĠMatt": 4576,
  "ĠTre": 4577,
  "ĠTeam": 4578,
  "Ġpractices": 4579,
  "iated": 4580,
  "imal": 4581,
  "ĠDVD": 4582,
  "ĠZealand": 4583,
  "Ġprote": 4584,
  "Ġoption": 4585,
  "ĠViet": 4586,
  "Ġenh": 4587,
  "Ġstress": 4588,
  "Ġdeclared": 4589,
  "Ġelected": 4590,
  "Ġexperiment": 4591,
  "Ġchoice": 4592,
  "ĠEgypt": 4593,
  "ĠMichigan": 4594,
  ",000": 4595,
  "orter": 4596,
  "Ġcommented": 4597,
  "-class": 4598,
  "inem": 4599,
  "ĠArch": 4600,
  "Ġskin": 4601,
  "Ġhorse": 4602,
  "-sh": 4603,
  "ĠGar": 4604,
  "ĠWal": 4605,
  "Ġrein": 4606,
  "Ġunderstanding": 4607,
  "ushed": 4608,
  "ube": 4609,
  "Ġfully": 4610,
  "Ġitems": 4611,
  "Ġreceive": 4612,
  "Ġfamous": 4613,
  "load": 4614,
  "Ġattended": 4615,
  "ĠSur": 4616,
  "Ġaccepted": 4617,
  "ĠSince": 4618,
  "Ġinstruct": 4619,
  "gest": 4620,
  "Ġinterp": 4621,
  "ĠHel": 4622,
  "annel": 4623,
  "ga": 4624,
  "een": 4625,
  "odd": 4626,
  "Ġcombat": 4627,
  "irmed": 4628,
  "Ġreject": 4629,
  "Ġvocals": 4630,
  "ager": 4631,
  "isation": 4632,
  "arts": 4633,
  "Ġwinter": 4634,
  "ĠHaw": 4635,
  "ittle": 4636,
  "Over": 4637,
  "Ġbed": 4638,
  "Ġworth": 4639,
  "Ġ150": 4640,
  "Ġmarriage": 4641,
  "ada": 4642,
  "ishop": 4643,
  "ih": 4644,
  "Ġbey": 4645,
  "Ġtast": 4646,
  "Ġsave": 4647,
  "ricult": 4648,
  "Ġtools": 4649,
  "Ġcell": 4650,
  "Ġprimarily": 4651,
  "Ġprojects": 4652,
  "-old": 4653,
  "ingu": 4654,
  "Ġbirds": 4655,
  "ertainly": 4656,
  "ĠLet": 4657,
  "Ġahead": 4658,
  "-F": 4659,
  "Ġcosts": 4660,
  "mas": 4661,
  "Ġdrive": 4662,
  "ancy": 4663,
  "writ": 4664,
  "Ġcontrovers": 4665,
  "Ġdropped": 4666,
  "ĠWall": 4667,
  "Ġbeyond": 4668,
  "Ġseg": 4669,
  "Ġinfluenced": 4670,
  "while": 4671,
  "Ġbul": 4672,
  "ĠParis": 4673,
  "ĠVer": 4674,
  "Ġstatement": 4675,
  "Ġconcent": 4676,
  "Ġroyal": 4677,
  "Ġcold": 4678,
  "ĠExp": 4679,
  "urban": 4680,
  "ĠFer": 4681,
  "ament": 4682,
  "Ġmaintain": 4683,
  "Ġ34": 4684,
  "Ġaffected": 4685,
  "Ġcommunication": 4686,
  "Ġbott": 4687,
  "Ġconstructed": 4688,
  "Ġseconds": 4689,
  "Ġcastle": 4690,
  "antly": 4691,
  "Ġconcert": 4692,
  "Ġeveryone": 4693,
  "Ġautom": 4694,
  "Ġcommander": 4695,
  "Ġsteps": 4696,
  "ĠCarl": 4697,
  "Ġhouses": 4698,
  "ĠNews": 4699,
  "iny": 4700,
  "umed": 4701,
  "Ġadvanced": 4702,
  "Ġdyn": 4703,
  "Ġdism": 4704,
  "Ġpet": 4705,
  "Ġcausing": 4706,
  "Ġfair": 4707,
  "Ġfloor": 4708,
  "ashion": 4709,
  "Ġjoin": 4710,
  "Ġrule": 4711,
  "ĠScotland": 4712,
  "Ġgrew": 4713,
  "onder": 4714,
  "Ġshared": 4715,
  "How": 4716,
  "istry": 4717,
  "ala": 4718,
  "Ġcry": 4719,
  "ĠOx": 4720,
  "Ġadvant": 4721,
  "ĠPost": 4722,
  "essions": 4723,
  "ĠFinal": 4724,
  "Ġmeasure": 4725,
  "Ġancient": 4726,
  "Ġsquare": 4727,
  "Ġpsych": 4728,
  "rog": 4729,
  "ĠAut": 4730,
  "Ġfederal": 4731,
  "iling": 4732,
  "Ġending": 4733,
  "ĠMuseum": 4734,
  "Ġcontroll": 4735,
  "earch": 4736,
  "Ġsports": 4737,
  "Ġtransform": 4738,
  "ĠBook": 4739,
  "Ġcho": 4740,
  "ĠCapt": 4741,
  "ĠService": 4742,
  "Ġdry": 4743,
  "aby": 4744,
  "Ġsettle": 4745,
  "ĠĊĠĠĊ": 4746,
  "Ġaccur": 4747,
  "ropri": 4748,
  "ero": 4749,
  "Ġsimply": 4750,
  "Ġbeautiful": 4751,
  "ĠEr": 4752,
  "Ġdrug": 4753,
  "ĠLong": 4754,
  "Ġtim": 4755,
  "Certainly": 4756,
  "Ġadvert": 4757,
  "Ġmaximum": 4758,
  "Ġatmosp": 4759,
  "Ġfeaturing": 4760,
  "Ġpurpose": 4761,
  "Ġindependent": 4762,
  "Ġtemperature": 4763,
  "Ġviewers": 4764,
  "Ġmill": 4765,
  "__": 4766,
  "Ġopportunity": 4767,
  "Ġaware": 4768,
  "uate": 4769,
  "Ġgrowing": 4770,
  "Ġbreed": 4771,
  "Ġhyd": 4772,
  "shire": 4773,
  "uce": 4774,
  "Ġtells": 4775,
  "ĠCommun": 4776,
  "track": 4777,
  "Ġrough": 4778,
  "Ġpoll": 4779,
  "ĠFox": 4780,
  "alle": 4781,
  "Ġwidely": 4782,
  "Ġhundred": 4783,
  "Ġ49": 4784,
  "ĠChris": 4785,
  "Ġrelationships": 4786,
  "Ġolder": 4787,
  "Ġsoftware": 4788,
  "ĠBus": 4789,
  "unction": 4790,
  "Ġcouple": 4791,
  "ĠSpec": 4792,
  "acity": 4793,
  "akers": 4794,
  "ĠBost": 4795,
  "Ġacad": 4796,
  "ĠIre": 4797,
  "Ġserving": 4798,
  "Ġhusband": 4799,
  "Ġresidents": 4800,
  "Ġstating": 4801,
  "ĠDef": 4802,
  "ĠPan": 4803,
  "Ġsleep": 4804,
  "vant": 4805,
  "ĠLatin": 4806,
  "Ġrelatively": 4807,
  "Ġcard": 4808,
  "onents": 4809,
  "Ġchap": 4810,
  "win": 4811,
  "ĠJer": 4812,
  "agn": 4813,
  "ĠMajor": 4814,
  "ĠOh": 4815,
  "dd": 4816,
  "ĠRem": 4817,
  "Ġpoet": 4818,
  "Ġsuc": 4819,
  "-day": 4820,
  "Ġmarked": 4821,
  "Ġeasily": 4822,
  "Ġtrust": 4823,
  "Ġdeveloping": 4824,
  "redients": 4825,
  "Ġcrowd": 4826,
  "Ġchampionship": 4827,
  "inks": 4828,
  "Ġdisease": 4829,
  "Ġwalls": 4830,
  "peror": 4831,
  "Ġ38": 4832,
  "Ġofficials": 4833,
  "Ġthousand": 4834,
  "ĠGood": 4835,
  "Ġedition": 4836,
  "Ġtwenty": 4837,
  "Ġwriters": 4838,
  "Ġworkers": 4839,
  "Ġchief": 4840,
  "ieuten": 4841,
  "ĠDar": 4842,
  "Ġthemes": 4843,
  "ĠWilliams": 4844,
  "Ġeye": 4845,
  "Ġemotional": 4846,
  "awn": 4847,
  "asket": 4848,
  "Ġenter": 4849,
  "Ġvirt": 4850,
  "ĠDou": 4851,
  "ĠTri": 4852,
  "bit": 4853,
  "Ġcamer": 4854,
  "ĠClass": 4855,
  "Ġbehavior": 4856,
  "ĠSociety": 4857,
  "Ġbound": 4858,
  "With": 4859,
  "Ġcalc": 4860,
  "Ġwit": 4861,
  "ĠCap": 4862,
  "Ġprice": 4863,
  "ograp": 4864,
  "resp": 4865,
  "ceeded": 4866,
  "ĠCross": 4867,
  "ĠBC": 4868,
  "Ġconclusion": 4869,
  "Ġfactors": 4870,
  "Ġadvent": 4871,
  "Ġbillion": 4872,
  "Ġcondition": 4873,
  "Ġanimal": 4874,
  "ĠRecords": 4875,
  "ylv": 4876,
  "inger": 4877,
  "Ġactor": 4878,
  "Ġplaces": 4879,
  "Ġportion": 4880,
  "-4": 4881,
  "ĠSil": 4882,
  "Ġelse": 4883,
  "Ġenemy": 4884,
  "ĠMod": 4885,
  "anes": 4886,
  "Ġkilomet": 4887,
  "Ġclimate": 4888,
  "Ġsevent": 4889,
  "Ġvocal": 4890,
  "ota": 4891,
  "Ġexpect": 4892,
  "Ġattempts": 4893,
  "Ġfocused": 4894,
  "Ġteacher": 4895,
  "Ġfamilies": 4896,
  "Ġconver": 4897,
  "Ġdream": 4898,
  "Ġgained": 4899,
  "ressive": 4900,
  "Ġbroke": 4901,
  "Ġpasseng": 4902,
  "Ġfounded": 4903,
  "Ġcomputer": 4904,
  "Ġaim": 4905,
  "Ġsav": 4906,
  "Ġfear": 4907,
  "Ġhabit": 4908,
  "-H": 4909,
  "Ġteach": 4910,
  "ĠSecret": 4911,
  "omy": 4912,
  "Ġexcept": 4913,
  "Äĩ": 4914,
  "Ġprepar": 4915,
  "iders": 4916,
  "Ġreports": 4917,
  "Ġimproved": 4918,
  "thur": 4919,
  "Ġcharge": 4920,
  "Ġeffectively": 4921,
  "ifications": 4922,
  "ĠDet": 4923,
  "Ġhero": 4924,
  "ĠFoot": 4925,
  "iano": 4926,
  "ĠWind": 4927,
  "yles": 4928,
  "illery": 4929,
  "TV": 4930,
  "ĠCommission": 4931,
  "fficient": 4932,
  "Ġgar": 4933,
  "ĠManc": 4934,
  "Ġcomfort": 4935,
  "Ġtwice": 4936,
  "anna": 4937,
  "ĠGames": 4938,
  "Ġplanet": 4939,
  "Ġjump": 4940,
  "ĠJones": 4941,
  "Ġsymbol": 4942,
  "bur": 4943,
  "Ġimages": 4944,
  "Ġindic": 4945,
  "Ġones": 4946,
  "ieutenant": 4947,
  "Ġcode": 4948,
  "Ġleaders": 4949,
  "ĠSwed": 4950,
  "Ġcapture": 4951,
  "ĠAcademy": 4952,
  "Ġsafety": 4953,
  "Ġmis": 4954,
  "Ġopin": 4955,
  "Ġinterested": 4956,
  "Ġ179": 4957,
  "ĠCreek": 4958,
  "ĠStone": 4959,
  "ĠStan": 4960,
  "Ġachieve": 4961,
  "Ġhistorical": 4962,
  "Ġtrial": 4963,
  "ĠFour": 4964,
  "ĠSystem": 4965,
  "Ġmagn": 4966,
  "Ġox": 4967,
  "ĠKenn": 4968,
  "ĠAlso": 4969,
  "prise": 4970,
  "Ġacting": 4971,
  "Ġpassage": 4972,
  "ĠCommittee": 4973,
  "Ġpowers": 4974,
  "Ġcalling": 4975,
  "edd": 4976,
  "Ġhol": 4977,
  "Ġreform": 4978,
  "ersey": 4979,
  "ĠBoston": 4980,
  "Ġchoose": 4981,
  "Ġsatisf": 4982,
  "Ġreact": 4983,
  "Ġalongside": 4984,
  "Ġmist": 4985,
  "Ġpassing": 4986,
  "lam": 4987,
  "stein": 4988,
  "chest": 4989,
  "ĠAp": 4990,
  "ĠWork": 4991,
  "Ġbrown": 4992,
  "Ġchick": 4993,
  "book": 4994,
  "-P": 4995,
  "clus": 4996,
  "Ġsurrounding": 4997,
  "ĠItaly": 4998,
  "under": 4999,
  "Ġsuggests": 5000,
  "Ġborder": 5001,
  "Ġexplore": 5002,
  "ĠOp": 5003,
  "Ġinnov": 5004,
  "ĠDen": 5005,
  "Ġsupply": 5006,
  "ĠTen": 5007,
  "ĠInfantry": 5008,
  "Ġ39": 5009,
  "ĠParliament": 5010,
  "Ġdivided": 5011,
  "ĠDevelop": 5012,
  "Ġprompt": 5013,
  "ĠSouthern": 5014,
  "Ġheavily": 5015,
  "hedul": 5016,
  "Ġfix": 5017,
  "Ġmaster": 5018,
  "Ġbuy": 5019,
  "Ġescape": 5020,
  "ĠJeff": 5021,
  "ĠGeorg": 5022,
  "ĠProv": 5023,
  "Ġ181": 5024,
  "Ġtheory": 5025,
  "ĠForm": 5026,
  "Ġsought": 5027,
  "ĠLand": 5028,
  "Ġbill": 5029,
  "Ġobserved": 5030,
  "Ġpaint": 5031,
  "kin": 5032,
  "Ġx": 5033,
  "Ġcert": 5034,
  "Ġidentified": 5035,
  "Ġlaws": 5036,
  "vest": 5037,
  "Ġintellig": 5038,
  "Ġaccident": 5039,
  "Ġdoub": 5040,
  "Ġremember": 5041,
  "Ġstreet": 5042,
  "ĠArab": 5043,
  "Ġcouldn": 5044,
  "Ġfuel": 5045,
  "min": 5046,
  "illy": 5047,
  "onn": 5048,
  "ĠCrit": 5049,
  "Ar": 5050,
  "ading": 5051,
  "Ġexperienced": 5052,
  "ĠId": 5053,
  "ym": 5054,
  "Ġhun": 5055,
  "Ġvess": 5056,
  "Ġcontemporary": 5057,
  "Ġlabel": 5058,
  "Ġtrou": 5059,
  "ĠLo": 5060,
  "la": 5061,
  "amm": 5062,
  "Ġdress": 5063,
  "-D": 5064,
  "ĠPrince": 5065,
  "Ġopportunities": 5066,
  "ĠMadonna": 5067,
  "Ġreaching": 5068,
  "ĠEach": 5069,
  "Ġmainly": 5070,
  "Ġ182": 5071,
  "Åį": 5072,
  "Ġcyclone": 5073,
  "Ġexplained": 5074,
  "azz": 5075,
  "Ġeconomy": 5076,
  "Ġtransferred": 5077,
  "Ġwaters": 5078,
  "ĠAre": 5079,
  "Ġinjury": 5080,
  "aine": 5081,
  "ĠBridge": 5082,
  "Ġgives": 5083,
  "Ġsweet": 5084,
  "Ġhealthy": 5085,
  "acement": 5086,
  "Ġarms": 5087,
  "cers": 5088,
  "ifically": 5089,
  "rich": 5090,
  "itan": 5091,
  "Ġdoor": 5092,
  "AR": 5093,
  "Ġunc": 5094,
  "Ġcounty": 5095,
  "Ġweapons": 5096,
  "Ġstruck": 5097,
  "Ġgreatest": 5098,
  "ĠFred": 5099,
  "Ġinstrument": 5100,
  "ĠOtt": 5101,
  "ĠMiddle": 5102,
  "Ġgain": 5103,
  "Ġfollows": 5104,
  "Ġdecre": 5105,
  "Ġnegot": 5106,
  "Ġspeech": 5107,
  "Ġpropos": 5108,
  "ansion": 5109,
  "Ġcommunities": 5110,
  "quarters": 5111,
  "Ġharm": 5112,
  "Ġglobal": 5113,
  "Ġweak": 5114,
  "town": 5115,
  "Ġ42": 5116,
  "Ġstone": 5117,
  "Ġeat": 5118,
  "Ġhomes": 5119,
  "Ġshell": 5120,
  "Ġconcluded": 5121,
  "Ġapprec": 5122,
  "Ġstream": 5123,
  "ĠJoseph": 5124,
  "Ġfa": 5125,
  "olt": 5126,
  "vis": 5127,
  "Ġcaught": 5128,
  "Ġrob": 5129,
  "Ġtail": 5130,
  "Ġemp": 5131,
  "Ġhall": 5132,
  "mitted": 5133,
  "ayer": 5134,
  "Ġrom": 5135,
  "Ġschedul": 5136,
  "Ġselect": 5137,
  "uous": 5138,
  "ias": 5139,
  "ĠAmericans": 5140,
  "ĠLee": 5141,
  "hew": 5142,
  "ĠColumb": 5143,
  "Ġdistrict": 5144,
  "Ġmurder": 5145,
  "ĠIreland": 5146,
  "ĠOnce": 5147,
  "Ġmetres": 5148,
  "ĠGra": 5149,
  "Ġfigures": 5150,
  "oured": 5151,
  "ĠBBC": 5152,
  "Ġfavorite": 5153,
  "orses": 5154,
  "ĠLife": 5155,
  "Ġsort": 5156,
  "ĠEll": 5157,
  "ĠSeries": 5158,
  "ĠHor": 5159,
  "Ġemployees": 5160,
  "Ġera": 5161,
  "Ġexec": 5162,
  "ĠSant": 5163,
  "Ġagg": 5164,
  "But": 5165,
  "Ġbra": 5166,
  "Ġfrequently": 5167,
  "ĠLine": 5168,
  "Ġrecover": 5169,
  "ĠTop": 5170,
  "Ġexpressed": 5171,
  "eing": 5172,
  "inner": 5173,
  "ĠManchester": 5174,
  "-sc": 5175,
  "Ġcells": 5176,
  "Ġshape": 5177,
  "Ġworldwide": 5178,
  "Ġresc": 5179,
  "ĠChief": 5180,
  "ola": 5181,
  "ĠSaint": 5182,
  "Ġpilot": 5183,
  "Ġsexual": 5184,
  "Ġweaken": 5185,
  "Ġcitiz": 5186,
  "'ve": 5187,
  "Ġast": 5188,
  "Ġlaunch": 5189,
  "Ġchallenge": 5190,
  "rance": 5191,
  "Ġcaptain": 5192,
  "Ġdetermined": 5193,
  "Ġstrate": 5194,
  "Ġuniversity": 5195,
  "hi": 5196,
  "Ġload": 5197,
  "inet": 5198,
  "ĠCharl": 5199,
  "Ġstrategy": 5200,
  "Ġquite": 5201,
  "ĠRy": 5202,
  "Ġaffect": 5203,
  "utation": 5204,
  "ĠVan": 5205,
  "Ġpeaked": 5206,
  "-le": 5207,
  "adel": 5208,
  "eway": 5209,
  "aming": 5210,
  "Ġnavig": 5211,
  "Ġconfirmed": 5212,
  "Ġorganizations": 5213,
  "Ġtrip": 5214,
  "Ġgoes": 5215,
  "king": 5216,
  "abeth": 5217,
  "Write": 5218,
  "orped": 5219,
  "Ġtoward": 5220,
  "Ġ48": 5221,
  "Ġ120": 5222,
  "ricket": 5223,
  "Ġchance": 5224,
  "mission": 5225,
  "15": 5226,
  "ĠOxford": 5227,
  "Ġiron": 5228,
  "Ġcurrently": 5229,
  "Ġcatch": 5230,
  "Ġvac": 5231,
  "uls": 5232,
  "Ġprominent": 5233,
  "phy": 5234,
  "Ġpremi": 5235,
  "perial": 5236,
  "Ġpun": 5237,
  "ĠJul": 5238,
  "Ġalbums": 5239,
  "Ġsets": 5240,
  "ĠCaptain": 5241,
  "ĠDirect": 5242,
  "Ġplanning": 5243,
  "tainment": 5244,
  "ĠDev": 5245,
  "iences": 5246,
  "ructure": 5247,
  "ĠValley": 5248,
  "pping": 5249,
  "Ġroles": 5250,
  "Ġdrop": 5251,
  "Ġpret": 5252,
  "ella": 5253,
  "ĠMem": 5254,
  "ĠSub": 5255,
  "Ġsuccessfully": 5256,
  "And": 5257,
  "Ġfilled": 5258,
  "unte": 5259,
  "Ġdetailed": 5260,
  "Ġreading": 5261,
  "ĠLittle": 5262,
  "osaur": 5263,
  "Ġleadership": 5264,
  "Ġclaims": 5265,
  "Ġoccasion": 5266,
  "ucky": 5267,
  "Ġflavor": 5268,
  "rael": 5269,
  "icious": 5270,
  "ĠBrad": 5271,
  "AF": 5272,
  "Ġversions": 5273,
  "rat": 5274,
  "Ġproved": 5275,
  "Ġrang": 5276,
  "uman": 5277,
  "ĠThree": 5278,
  "Ġchosen": 5279,
  "Ġrepresented": 5280,
  "ĠShow": 5281,
  "Ġunf": 5282,
  "haps": 5283,
  "Ġenvironmental": 5284,
  "Ġrecently": 5285,
  "ĠBat": 5286,
  "Ġdial": 5287,
  "-G": 5288,
  "HL": 5289,
  "Ġseasons": 5290,
  "lers": 5291,
  "ĠImp": 5292,
  "-like": 5293,
  "water": 5294,
  "apers": 5295,
  "ĠWay": 5296,
  "Ġyellow": 5297,
  "Ġhear": 5298,
  "Ġet": 5299,
  "arp": 5300,
  "Ġscoring": 5301,
  "onent": 5302,
  "Ġdoesn": 5303,
  "Ġcreation": 5304,
  "Ġeth": 5305,
  "amin": 5306,
  "ĠBattalion": 5307,
  "Ġfan": 5308,
  "edom": 5309,
  "sylv": 5310,
  "Ġtun": 5311,
  "Ġofficially": 5312,
  "Ġfat": 5313,
  "eld": 5314,
  "ipl": 5315,
  "ctions": 5316,
  "Ġreducing": 5317,
  "ĠJoe": 5318,
  "Ġcapacity": 5319,
  "Ġcommonly": 5320,
  "Ġstraight": 5321,
  "That": 5322,
  "Ġpromoted": 5323,
  "Ġseems": 5324,
  "Ġbroken": 5325,
  "####": 5326,
  "ĠLight": 5327,
  "Ġ55": 5328,
  "aven": 5329,
  "ĠAvenue": 5330,
  "eper": 5331,
  "iration": 5332,
  "iations": 5333,
  "Ġbelief": 5334,
  "?ĊĊ": 5335,
  "Ġminute": 5336,
  "Ġnormal": 5337,
  "gend": 5338,
  "Ġcompar": 5339,
  "Ġsafe": 5340,
  "Ġstock": 5341,
  "Ġphil": 5342,
  "Ġfellow": 5343,
  "Ġvisited": 5344,
  "Ġends": 5345,
  "ented": 5346,
  "Ġexecutive": 5347,
  "Ġrise": 5348,
  "Ġglass": 5349,
  "stitution": 5350,
  "Ġinstall": 5351,
  "Ġsubsequent": 5352,
  "Ġlimit": 5353,
  "Ġvehicles": 5354,
  "ĠEliz": 5355,
  "ĠConf": 5356,
  "Ġsalt": 5357,
  "uses": 5358,
  "Ġowned": 5359,
  "ĠEntertainment": 5360,
  "mes": 5361,
  "Ġpainting": 5362,
  "Ġdesignated": 5363,
  "ifying": 5364,
  "Ġformation": 5365,
  "Ġsenior": 5366,
  "ĠSand": 5367,
  "Ġsplit": 5368,
  "ĠHarrison": 5369,
  "pool": 5370,
  "Ġfashion": 5371,
  "edition": 5372,
  "ĠÎ": 5373,
  "Ġillust": 5374,
  "Ġsecure": 5375,
  "outs": 5376,
  "igg": 5377,
  "Ġseemed": 5378,
  "Ġregions": 5379,
  "Ġexact": 5380,
  "itors": 5381,
  "Ġmethods": 5382,
  "ĠRam": 5383,
  "Ġdegree": 5384,
  "Ġdetermine": 5385,
  "ĠArm": 5386,
  "aylor": 5387,
  "Ġinnings": 5388,
  "ĠFre": 5389,
  "-yard": 5390,
  "Ġreturning": 5391,
  "ĠCatholic": 5392,
  "Ġready": 5393,
  "Ġremark": 5394,
  "ĠEvery": 5395,
  "Ġdefend": 5396,
  "Ġkick": 5397,
  "aud": 5398,
  "oma": 5399,
  "Ġinteresting": 5400,
  "Ġcars": 5401,
  "ĠSarah": 5402,
  "Ġsnow": 5403,
  "ĠCre": 5404,
  "BA": 5405,
  "Ġfinding": 5406,
  "irty": 5407,
  "Ġcreative": 5408,
  "Ġsignificantly": 5409,
  "Ġguest": 5410,
  "anda": 5411,
  "Ġimpl": 5412,
  "Ġhighlight": 5413,
  "Ġturns": 5414,
  "zen": 5415,
  "estic": 5416,
  "Ġdesigns": 5417,
  "ĠPerson": 5418,
  "```": 5419,
  "hol": 5420,
  "ighth": 5421,
  "Ġsumm": 5422,
  "Ġsmooth": 5423,
  "Ġconnection": 5424,
  "ĠMat": 5425,
  "ĠNorthern": 5426,
  "Ġreception": 5427,
  "ĠGal": 5428,
  "aga": 5429,
  "Ġbelong": 5430,
  "Ġnaval": 5431,
  "Ġpric": 5432,
  "ĠRay": 5433,
  "Ġapplication": 5434,
  "ĠSund": 5435,
  "Ġdefense": 5436,
  "Ġring": 5437,
  "standing": 5438,
  "ĠÐ": 5439,
  "Ġ{Ċ": 5440,
  "ĠStephen": 5441,
  "ĠHal": 5442,
  "-5": 5443,
  "ĠAlb": 5444,
  "ĠChristmas": 5445,
  "Ġtitled": 5446,
  "Ġshortly": 5447,
  "Ġflu": 5448,
  "ĠIll": 5449,
  "Ġcontest": 5450,
  "ounger": 5451,
  "Ġapparent": 5452,
  "Ġelev": 5453,
  "stone": 5454,
  "ava": 5455,
  "Ġur": 5456,
  "AT": 5457,
  "Ġguard": 5458,
  "ĠBre": 5459,
  "Ġmotiv": 5460,
  "-re": 5461,
  "idden": 5462,
  "ĠDutch": 5463,
  "Ġrow": 5464,
  "Ġattrib": 5465,
  "ture": 5466,
  "Ġappearances": 5467,
  "Ġbasis": 5468,
  "Ġdescribes": 5469,
  "Ġsout": 5470,
  "Ġtherefore": 5471,
  "Ġhonor": 5472,
  "ĠWeek": 5473,
  "Ġment": 5474,
  "rows": 5475,
  "Ġinvasion": 5476,
  "Ġagreement": 5477,
  "ĠDistrict": 5478,
  "Ġsevere": 5479,
  "atures": 5480,
  "ĠPop": 5481,
  "ĠLiber": 5482,
  "Ġalternative": 5483,
  "ĠVictoria": 5484,
  "ĠCivil": 5485,
  "Ġlosing": 5486,
  "time": 5487,
  "ickets": 5488,
  "Ġagricult": 5489,
  "cks": 5490,
  "othing": 5491,
  "ĠInstitute": 5492,
  "Ġstations": 5493,
  "Ġmuseum": 5494,
  "While": 5495,
  "Ġadvantage": 5496,
  "Ġtorped": 5497,
  "Ġlaid": 5498,
  "pris": 5499,
  "ĠDi": 5500,
  "Ġachieved": 5501,
  "Ġ47": 5502,
  "ĠHistor": 5503,
  "Ġappropri": 5504,
  "ĠCroat": 5505,
  "ĠLive": 5506,
  "Ġdepth": 5507,
  "Ġtermin": 5508,
  "Ġholding": 5509,
  "ĠBrigade": 5510,
  "Ġfirm": 5511,
  "ocated": 5512,
  "Ġsixth": 5513,
  "sylvania": 5514,
  "imens": 5515,
  "ilding": 5516,
  "Ġ65": 5517,
  "ĠBlue": 5518,
  "Ġunknown": 5519,
  "Ġcris": 5520,
  "rot": 5521,
  "Ġchair": 5522,
  "ãĤ": 5523,
  "FA": 5524,
  "Ġpurchase": 5525,
  "Ġnominated": 5526,
  "Ġorders": 5527,
  "Ġkg": 5528,
  "Ġcontributed": 5529,
  "Ġheight": 5530,
  "Ġbodies": 5531,
  "Ġentertain": 5532,
  "ĠRegiment": 5533,
  "ĠLike": 5534,
  "ĠHolly": 5535,
  "Ġfinish": 5536,
  "Ġauthority": 5537,
  "Ġcolors": 5538,
  "Ġorganized": 5539,
  "Ġconsequ": 5540,
  "ĠSenate": 5541,
  "ĠHome": 5542,
  "ĠProdu": 5543,
  "Ġsac": 5544,
  "Ġhousehold": 5545,
  "rif": 5546,
  "Ġ41": 5547,
  "ĠFleet": 5548,
  "ishes": 5549,
  "Ġincident": 5550,
  "Ġspring": 5551,
  "-century": 5552,
  "ĠTem": 5553,
  "Ġrealized": 5554,
  "Ġmodels": 5555,
  "iÄĩ": 5556,
  "Ġsurre": 5557,
  "embly": 5558,
  "azing": 5559,
  "ĠOcean": 5560,
  "Ġstrategies": 5561,
  "ĠDaniel": 5562,
  "isters": 5563,
  "ĠFar": 5564,
  "Ġinh": 5565,
  "Ġidentity": 5566,
  "Ġoptim": 5567,
  "Ġmouth": 5568,
  "Ġstructures": 5569,
  "Ġflying": 5570,
  "Ġbalance": 5571,
  "Ġcolumn": 5572,
  "ockey": 5573,
  "ĠRos": 5574,
  "term": 5575,
  "Ġju": 5576,
  "Ġsoundtrack": 5577,
  "ĠGovernment": 5578,
  "ĠBecause": 5579,
  "Ġfailure": 5580,
  "Ġadjust": 5581,
  "amber": 5582,
  "Ġfinds": 5583,
  "Ġlocations": 5584,
  "Ġterritory": 5585,
  "Ġ600": 5586,
  "Ġrich": 5587,
  "ographer": 5588,
  "Ġconcerns": 5589,
  "ĠFestival": 5590,
  "ĠJud": 5591,
  "Ġdelay": 5592,
  "Ġextensive": 5593,
  "ĠYoung": 5594,
  "gian": 5595,
  "ĠAsia": 5596,
  "Ġargued": 5597,
  "Ġurban": 5598,
  "ĠEastern": 5599,
  "apes": 5600,
  "ĠNight": 5601,
  "Ġvote": 5602,
  "ĠJon": 5603,
  "Ġshel": 5604,
  "ĠFootball": 5605,
  "eption": 5606,
  "Ġtransportation": 5607,
  "Ġtall": 5608,
  "Ġ44": 5609,
  "Ġatmosphere": 5610,
  "ato": 5611,
  "otic": 5612,
  "Ġdecor": 5613,
  "âĢĻt": 5614,
  "eller": 5615,
  "Ġcombination": 5616,
  "Ġdeploy": 5617,
  "Ġtournament": 5618,
  "place": 5619,
  "Ġvalues": 5620,
  "ordin": 5621,
  "Ġdrink": 5622,
  "Ġstanding": 5623,
  "iments": 5624,
  "ĠRet": 5625,
  "Ġdedicated": 5626,
  "Ġengaged": 5627,
  "iner": 5628,
  "ĠScottish": 5629,
  "Ġeditor": 5630,
  "Ġcalls": 5631,
  "Ġnewspaper": 5632,
  "ĠHa": 5633,
  "ĠDun": 5634,
  "Ġnative": 5635,
  "TC": 5636,
  "ĠHurricane": 5637,
  "-L": 5638,
  "Ġaspects": 5639,
  "Ġaccompan": 5640,
  "Ġcarbon": 5641,
  "Ġcasual": 5642,
  "Ġmountain": 5643,
  "Ġsilver": 5644,
  "Ġpage": 5645,
  "Ġprotection": 5646,
  "ĠFe": 5647,
  "Ġemail": 5648,
  "Ã¨": 5649,
  "Ġsport": 5650,
  "Ġwing": 5651,
  "ĠNorm": 5652,
  "isms": 5653,
  "Ġtherap": 5654,
  "Ġisol": 5655,
  "Ġchose": 5656,
  "Ġabandoned": 5657,
  "-inch": 5658,
  "Ġanyone": 5659,
  "Ġartillery": 5660,
  "ura": 5661,
  "acks": 5662,
  "ads": 5663,
  "Ġexisting": 5664,
  "ĠPeople": 5665,
  "Ġ52": 5666,
  "Ġdescription": 5667,
  "ĠCarolina": 5668,
  "Ġago": 5669,
  "Ġsail": 5670,
  "och": 5671,
  "pton": 5672,
  "Ġcream": 5673,
  "Ġreign": 5674,
  "Ġconsisted": 5675,
  "ĠDam": 5676,
  "imp": 5677,
  "erts": 5678,
  "Ġbutter": 5679,
  "ii": 5680,
  "intend": 5681,
  "ĠAdmiral": 5682,
  "eless": 5683,
  "Ġobjects": 5684,
  "Ġspecifically": 5685,
  "Ġlabor": 5686,
  "ĠAtt": 5687,
  "ampion": 5688,
  "ĠCat": 5689,
  "ĠBefore": 5690,
  "-sp": 5691,
  "Ġactors": 5692,
  "ĠJac": 5693,
  "Ġdebuted": 5694,
  "iveness": 5695,
  "zil": 5696,
  "Ġspect": 5697,
  "ĠThrough": 5698,
  "Ġwealth": 5699,
  "Ġhorses": 5700,
  "icket": 5701,
  "kins": 5702,
  "Ġbrain": 5703,
  "ĠSeveral": 5704,
  "Ġadopted": 5705,
  "ĠMike": 5706,
  "Ġaired": 5707,
  "Ġsupporting": 5708,
  "kes": 5709,
  "Ġaw": 5710,
  "Ġreality": 5711,
  "ĠPers": 5712,
  "Ġdifference": 5713,
  "elve": 5714,
  "attle": 5715,
  "Ġbass": 5716,
  "ĠTaylor": 5717,
  "ĠGuard": 5718,
  "Ġwrong": 5719,
  "iro": 5720,
  "Ġenjoyed": 5721,
  "ĠElizabeth": 5722,
  "Ġengagement": 5723,
  "Ġsingles": 5724,
  "ba": 5725,
  "ĠPolish": 5726,
  "Ġpasses": 5727,
  "Ġrainfall": 5728,
  "Ġassault": 5729,
  "Ġprepared": 5730,
  "-T": 5731,
  "Ġhumans": 5732,
  "Ġwave": 5733,
  "Ġ46": 5734,
  "asketball": 5735,
  "inning": 5736,
  "ĠMov": 5737,
  "Ġassess": 5738,
  "umes": 5739,
  "Ġ43": 5740,
  "Ġsequence": 5741,
  "Ġbeauty": 5742,
  "ĠEven": 5743,
  "Ġcloud": 5744,
  "Ġnewly": 5745,
  "Ġcriticized": 5746,
  "Ġfacilities": 5747,
  "Ġlat": 5748,
  "Ġrecipe": 5749,
  "\"\"": 5750,
  "ĠOf": 5751,
  "Ġcenturies": 5752,
  "Ġsites": 5753,
  "Ġviews": 5754,
  "asks": 5755,
  "ĠMarsh": 5756,
  "Ġcoal": 5757,
  "Ġedge": 5758,
  "ĠRog": 5759,
  "Ġfruit": 5760,
  "Ġmeasures": 5761,
  "Ġsky": 5762,
  "ĠUl": 5763,
  "Ġroof": 5764,
  "-th": 5765,
  "Ġvan": 5766,
  "chers": 5767,
  "Ġstick": 5768,
  "acter": 5769,
  "Overall": 5770,
  "upp": 5771,
  "iana": 5772,
  "ĠBond": 5773,
  "Ġpossibly": 5774,
  "orters": 5775,
  "ĠHard": 5776,
  "ĠCard": 5777,
  "Ġtrend": 5778,
  "Ġce": 5779,
  "Ġcouncil": 5780,
  "ĠGirl": 5781,
  "Ġmut": 5782,
  "opping": 5783,
  "Ġaid": 5784,
  "Ġliterature": 5785,
  "ulpt": 5786,
  "ĠAndrew": 5787,
  "ĠPen": 5788,
  "Ġnotable": 5789,
  "ĠBey": 5790,
  "Ġmaintained": 5791,
  "Ġunp": 5792,
  "ĠFurther": 5793,
  "orship": 5794,
  "ĠFam": 5795,
  "ĠRom": 5796,
  "oh": 5797,
  "Ġpul": 5798,
  "Ġstret": 5799,
  "ĠSpain": 5800,
  "ĠBoard": 5801,
  "ĠHy": 5802,
  "ĠIsrael": 5803,
  "icy": 5804,
  "rehens": 5805,
  "Ġyounger": 5806,
  "ĠDuke": 5807,
  "eanwhile": 5808,
  "Ġsauce": 5809,
  "orough": 5810,
  "era": 5811,
  "Ġperforming": 5812,
  "ĠField": 5813,
  "Ġec": 5814,
  "Ġclosely": 5815,
  "Ġvo": 5816,
  "box": 5817,
  "Ġdriving": 5818,
  "Ġgarden": 5819,
  "Ġpatterns": 5820,
  "Ġbright": 5821,
  "Ġstring": 5822,
  "ĠCorn": 5823,
  "ĠGall": 5824,
  "Ġcab": 5825,
  "verse": 5826,
  "ĠElect": 5827,
  "Ġwasn": 5828,
  "Ġingredients": 5829,
  "Ġopposition": 5830,
  "oted": 5831,
  "Ġadministration": 5832,
  "Ġrival": 5833,
  "Ġ64": 5834,
  "lines": 5835,
  "ĠIrish": 5836,
  "ĠOs": 5837,
  "ĠStorm": 5838,
  "Ġarrang": 5839,
  "Ġbought": 5840,
  "Ġnarrow": 5841,
  "Ġliber": 5842,
  "Ġnortheast": 5843,
  "ĠRussia": 5844,
  "Ġrules": 5845,
  "Ġfought": 5846,
  "Ġtone": 5847,
  "-R": 5848,
  "Ġreasons": 5849,
  "stream": 5850,
  "ĠBru": 5851,
  "Ġplatforms": 5852,
  "Ġequal": 5853,
  "friend": 5854,
  "duc": 5855,
  "ĠGovernor": 5856,
  "Ġathlet": 5857,
  "Ġrot": 5858,
  "ĠResearch": 5859,
  "Ġphr": 5860,
  "Ġrailway": 5861,
  "Ġrear": 5862,
  "ĠWilson": 5863,
  "Ġmissing": 5864,
  "Ġstopped": 5865,
  "zer": 5866,
  "Ġapart": 5867,
  "Ġsolo": 5868,
  "tar": 5869,
  "Ġscientific": 5870,
  "Ġselection": 5871,
  "Ġparticipated": 5872,
  "Ġauthorities": 5873,
  "itter": 5874,
  "inth": 5875,
  "Ġexcell": 5876,
  "So": 5877,
  "ĠEnd": 5878,
  "Ġdepict": 5879,
  "orage": 5880,
  "ĠHarry": 5881,
  "ĠStudios": 5882,
  "Ġformat": 5883,
  "Ġproducers": 5884,
  "Ġentirely": 5885,
  "Ġgovernor": 5886,
  "Ġrepeated": 5887,
  "onc": 5888,
  "ĠRod": 5889,
  "ĠLew": 5890,
  "ĠOb": 5891,
  "isa": 5892,
  "Ġemerg": 5893,
  "Although": 5894,
  "ĠNow": 5895,
  "Ġregarding": 5896,
  ".C": 5897,
  "Ġconnected": 5898,
  "Ġhistorian": 5899,
  "These": 5900,
  "Ġha": 5901,
  "Ġstrike": 5902,
  "Ġwounded": 5903,
  "Ġsession": 5904,
  "ĠCD": 5905,
  "uting": 5906,
  "Ġfile": 5907,
  "ipping": 5908,
  "Ġboat": 5909,
  "ushing": 5910,
  "Ġnuclear": 5911,
  "care": 5912,
  "gers": 5913,
  "ĠRel": 5914,
  "Ġsinging": 5915,
  "gu": 5916,
  "Ġcommit": 5917,
  "Ġengaging": 5918,
  "respond": 5919,
  "ĠCoast": 5920,
  "ĠCastle": 5921,
  "cript": 5922,
  "Ġanx": 5923,
  "Ġexpansion": 5924,
  "Ġdiam": 5925,
  "Ġrestaurant": 5926,
  "elly": 5927,
  "ĠChild": 5928,
  "Ġproperties": 5929,
  "Ĥ¬": 5930,
  "ĠWater": 5931,
  "Ġclasses": 5932,
  "Ġtower": 5933,
  "Ġextrem": 5934,
  "Ġphone": 5935,
  "Ġcontained": 5936,
  "ographic": 5937,
  "Ġshall": 5938,
  "Ġspeak": 5939,
  "Ġopposed": 5940,
  "ĠBeat": 5941,
  "ĠHomer": 5942,
  "ĠTrans": 5943,
  "Ġclassic": 5944,
  "Ġresistance": 5945,
  "entially": 5946,
  "ocked": 5947,
  "itled": 5948,
  "ĠFantasy": 5949,
  "Ġslowly": 5950,
  "Ġbowl": 5951,
  "ĠJenn": 5952,
  "ĠIslands": 5953,
  "Ġmemory": 5954,
  "ker": 5955,
  "Ġwitness": 5956,
  "Ġjoint": 5957,
  "Ġwaste": 5958,
  "ima": 5959,
  "-6": 5960,
  "Ġdiet": 5961,
  "Ġpolicies": 5962,
  "Ġbottom": 5963,
  "Ġexception": 5964,
  "Ġperman": 5965,
  "Ġletters": 5966,
  "Ġhelping": 5967,
  "\",": 5968,
  "Ġcart": 5969,
  "Ġban": 5970,
  "Ġmotor": 5971,
  "Ġstarts": 5972,
  "Jo": 5973,
  "ora": 5974,
  "ĠSound": 5975,
  "Ġsad": 5976,
  "ĠPlan": 5977,
  "ĠAlexander": 5978,
  "ĠMah": 5979,
  "Ġexpanded": 5980,
  "Ġiniti": 5981,
  "Ġkilling": 5982,
  "war": 5983,
  "Ġlanding": 5984,
  "From": 5985,
  "ĠThen": 5986,
  "Ġmanage": 5987,
  "agonist": 5988,
  "ĠTropical": 5989,
  "Ġroads": 5990,
  "gn": 5991,
  "uzz": 5992,
  "Ġremind": 5993,
  "Ġgranted": 5994,
  "ĠHung": 5995,
  "Ġretired": 5996,
  "Ġrhy": 5997,
  "Ġwatched": 5998,
  "rant": 5999,
  "Ġ}": 6000,
  "Ġguide": 6001,
  "Ġign": 6002,
  "ologies": 6003,
  "Ġrecognized": 6004,
  "Ġoperated": 6005,
  "ĠBackground": 6006,
  "ĠPennsylvania": 6007,
  "Ġpros": 6008,
  "Ġdismiss": 6009,
  "Ġsustainable": 6010,
  "isers": 6011,
  "ĠWild": 6012,
  "Ġselling": 6013,
  "Ġsom": 6014,
  "ĠJersey": 6015,
  "ĠPublic": 6016,
  "uration": 6017,
  "ĠAlbert": 6018,
  "orted": 6019,
  "Ġphilos": 6020,
  "Ġmobile": 6021,
  "uable": 6022,
  "aked": 6023,
  "Ġcomedy": 6024,
  "ĠSquare": 6025,
  "Ġfeedback": 6026,
  "Ġrates": 6027,
  "denly": 6028,
  "Ġcommittee": 6029,
  "cious": 6030,
  "jo": 6031,
  "Ġefficient": 6032,
  "Ġ<": 6033,
  "vements": 6034,
  "Ġrelevant": 6035,
  "ĠRevolution": 6036,
  "Ġpersonnel": 6037,
  "Ġcheese": 6038,
  "estion": 6039,
  "Ġfired": 6040,
  "Ġacademic": 6041,
  "ĠProt": 6042,
  "Ġemotions": 6043,
  "ĠLind": 6044,
  "ĠCub": 6045,
  "ĠIS": 6046,
  "Ġmotion": 6047,
  "Ġregarded": 6048,
  "ĠTechn": 6049,
  "Ġincome": 6050,
  "Ġbag": 6051,
  "ĠLy": 6052,
  "-off": 6053,
  "Ġmicro": 6054,
  "According": 6055,
  "Ġdrama": 6056,
  "Ġinterests": 6057,
  "Ġtaste": 6058,
  "Ġislands": 6059,
  "Ġnote": 6060,
  "ĠRepublican": 6061,
  "/2": 6062,
  "ES": 6063,
  "ĠHead": 6064,
  "Ġbasic": 6065,
  "Ġpartner": 6066,
  "oli": 6067,
  "ĠFrancisco": 6068,
  "ER": 6069,
  "Ġcamera": 6070,
  "She": 6071,
  "vin": 6072,
  "ns": 6073,
  "wise": 6074,
  "ĠMid": 6075,
  "Ġtend": 6076,
  "Ġexplain": 6077,
  "char": 6078,
  "ĠBrazil": 6079,
  "issions": 6080,
  "Ġincreasingly": 6081,
  "encies": 6082,
  "Ġexchange": 6083,
  "Ġmyth": 6084,
  "met": 6085,
  "Ġconsists": 6086,
  "ceived": 6087,
  "ĠOffice": 6088,
  "Ġelimin": 6089,
  "Ġlands": 6090,
  "Ġregularly": 6091,
  "ĠAllied": 6092,
  "Ġconsecutive": 6093,
  "Ġfilming": 6094,
  "omic": 6095,
  "Ġparalle": 6096,
  "Ġfiction": 6097,
  "roduction": 6098,
  "ĠThough": 6099,
  "Ġeggs": 6100,
  "Ġsculpt": 6101,
  "Ġupgr": 6102,
  "-7": 6103,
  "ĠChart": 6104,
  "Ġexplos": 6105,
  "ugh": 6106,
  "Ġpersp": 6107,
  "Ġoffensive": 6108,
  "ĠJour": 6109,
  "ĠRh": 6110,
  "Ġdish": 6111,
  "Ġreputation": 6112,
  "-term": 6113,
  "ods": 6114,
  "Ġsell": 6115,
  "ompl": 6116,
  "onel": 6117,
  "Ġawards": 6118,
  "oral": 6119,
  "ali": 6120,
  "rets": 6121,
  "ĠBul": 6122,
  "Ġven": 6123,
  "Ġceremony": 6124,
  "coming": 6125,
  "Ġmo": 6126,
  "Ġscale": 6127,
  "ester": 6128,
  "Ġlooks": 6129,
  "Ġcitizens": 6130,
  "Ġdevices": 6131,
  "ked": 6132,
  "Ġevac": 6133,
  "Ġobserv": 6134,
  "anth": 6135,
  "Ġfly": 6136,
  "chen": 6137,
  "gent": 6138,
  "Ġremove": 6139,
  "-9": 6140,
  "ĠBas": 6141,
  "Ġfranch": 6142,
  "Ġpartn": 6143,
  "enses": 6144,
  "Ġobt": 6145,
  "asp": 6146,
  "ĠBart": 6147,
  "Ġrecru": 6148,
  "Ġunivers": 6149,
  "Ġacquired": 6150,
  "Ġdetail": 6151,
  "Ġmedium": 6152,
  "Ġhypothes": 6153,
  "ĠWrit": 6154,
  "Ġfeelings": 6155,
  "Ġhotel": 6156,
  "inity": 6157,
  "Ġseat": 6158,
  "Ġcauses": 6159,
  "adelph": 6160,
  "oln": 6161,
  "ocal": 6162,
  "Ġrecommended": 6163,
  "Ġpurchased": 6164,
  "ĠHealth": 6165,
  "Ġintensity": 6166,
  "Ġpicture": 6167,
  "',": 6168,
  "ologist": 6169,
  "Ġhappened": 6170,
  "osis": 6171,
  ")ĊĊ": 6172,
  "oday": 6173,
  "Ġestate": 6174,
  "umin": 6175,
  "Ġlic": 6176,
  "ĠTech": 6177,
  "ĠPot": 6178,
  "Ġtitles": 6179,
  "ĠPress": 6180,
  "Ġunus": 6181,
  "Ġ178": 6182,
  "ĠOperation": 6183,
  "ĠMir": 6184,
  "ingly": 6185,
  "Ġgall": 6186,
  "ĠInstead": 6187,
  "ĠJane": 6188,
  "ĠTurn": 6189,
  "ĠVol": 6190,
  "itage": 6191,
  "-the": 6192,
  "Ġbriefly": 6193,
  "ĠMen": 6194,
  "Ġscholars": 6195,
  "Ġoperating": 6196,
  "Ġrejected": 6197,
  "ĠKorean": 6198,
  "Ġcancer": 6199,
  "Ġdevice": 6200,
  "Ġtouchdown": 6201,
  "Ġreceiving": 6202,
  "ĠProg": 6203,
  "Ġindustrial": 6204,
  "adelphia": 6205,
  "ĠDevelopment": 6206,
  "Sh": 6207,
  "En": 6208,
  "Ġcorrespond": 6209,
  "Ġfil": 6210,
  "Ġnob": 6211,
  "aph": 6212,
  "Ġloyal": 6213,
  "Ġ202": 6214,
  "ĠAsh": 6215,
  "Ġcore": 6216,
  "ao": 6217,
  "Ġ177": 6218,
  "ĠMD": 6219,
  "Ġcloser": 6220,
  "lim": 6221,
  "ĠBank": 6222,
  "Ġfunding": 6223,
  "Ġexcited": 6224,
  "weet": 6225,
  "Ġremov": 6226,
  "Ġcoff": 6227,
  "ĠSher": 6228,
  "break": 6229,
  "ĠPrime": 6230,
  "iency": 6231,
  "ĠJes": 6232,
  "Ġfilmed": 6233,
  "ĠMot": 6234,
  "ĠVen": 6235,
  "ĠSocial": 6236,
  "Ġtact": 6237,
  "istan": 6238,
  "ĠConn": 6239,
  "ĠWho": 6240,
  "Ã¢": 6241,
  "reets": 6242,
  "Ġprotein": 6243,
  "Re": 6244,
  "merican": 6245,
  "rence": 6246,
  "200": 6247,
  "Ġkit": 6248,
  "Ġvolunte": 6249,
  "Ġsoul": 6250,
  "Ġstyles": 6251,
  "Ġflo": 6252,
  "Ġyourself": 6253,
  "18": 6254,
  "Ġvolume": 6255,
  "ĠPoint": 6256,
  "Ġarchitecture": 6257,
  "ĠWW": 6258,
  "ĠArthur": 6259,
  "ĠOhio": 6260,
  "Ġinvolves": 6261,
  "Ġvisitors": 6262,
  "ĠGeorgia": 6263,
  "ua": 6264,
  "ĠBroad": 6265,
  "ĠPo": 6266,
  "ĠSom": 6267,
  "Ġsquadron": 6268,
  "Ġthinking": 6269,
  "Ġ|": 6270,
  "Ġ800": 6271,
  "Ġlandsc": 6272,
  "Ġ97": 6273,
  "achel": 6274,
  "exp": 6275,
  "Ġorchest": 6276,
  "va": 6277,
  "ashed": 6278,
  "Ġdistribution": 6279,
  "Ġexercise": 6280,
  "ĠSecretary": 6281,
  "Ġarmed": 6282,
  "Ġtwelve": 6283,
  "Ġfields": 6284,
  "Ġleads": 6285,
  "Ġturning": 6286,
  "Ġvideos": 6287,
  "ĠSup": 6288,
  "ĠPhiladelphia": 6289,
  "riendly": 6290,
  "Ġcorner": 6291,
  "Ġshowing": 6292,
  "Ġreplace": 6293,
  "Ġaccompl": 6294,
  "Ġperhaps": 6295,
  "eral": 6296,
  "Ġbranch": 6297,
  "Ġreaction": 6298,
  "Ġfavour": 6299,
  "Ġsteel": 6300,
  "asure": 6301,
  "Ġhydro": 6302,
  "ĠSS": 6303,
  "orus": 6304,
  "Ġpiano": 6305,
  "Ġconference": 6306,
  "ĠEp": 6307,
  "ĠTro": 6308,
  "Ġweb": 6309,
  "Ġgets": 6310,
  "Ġalle": 6311,
  "ĠDoctor": 6312,
  "Sp": 6313,
  "Following": 6314,
  "-and": 6315,
  "rons": 6316,
  "Ġscheduled": 6317,
  "Ġdifferences": 6318,
  "Ġparties": 6319,
  "Ġcontaining": 6320,
  "oir": 6321,
  "ĠReception": 6322,
  "Ġgenre": 6323,
  "Ġsurrender": 6324,
  "hem": 6325,
  "Ġrapidly": 6326,
  "Ġcrossing": 6327,
  "Ġsupplies": 6328,
  "Ġtrav": 6329,
  "Ġwithdraw": 6330,
  "adow": 6331,
  "Ġprotected": 6332,
  "Ġ54": 6333,
  "ĠCy": 6334,
  "Ġopinion": 6335,
  "Ġvary": 6336,
  "struction": 6337,
  "AC": 6338,
  "han": 6339,
  "Ġheadquarters": 6340,
  "Ġpopularity": 6341,
  "iverpool": 6342,
  "ĠRome": 6343,
  "ĠClark": 6344,
  "Ġneighbor": 6345,
  "eler": 6346,
  "Ġrenewable": 6347,
  "then": 6348,
  "Ġ53": 6349,
  "Ġinstance": 6350,
  "Ġintelligence": 6351,
  "ĠReview": 6352,
  "Ġarrival": 6353,
  "Ġaccompanied": 6354,
  "osa": 6355,
  "Ġcomposition": 6356,
  "Ġutil": 6357,
  "FL": 6358,
  "ĠColumbia": 6359,
  "Ġinternal": 6360,
  "una": 6361,
  "Ġextract": 6362,
  "incoln": 6363,
  "Ġsummary": 6364,
  "Ġshooting": 6365,
  "Ġsurvey": 6366,
  "uccess": 6367,
  "Ġacid": 6368,
  "Ġreturns": 6369,
  "Ġwalking": 6370,
  "ĠJewish": 6371,
  "Ġhang": 6372,
  "ĠCommon": 6373,
  "dule": 6374,
  "Ġbands": 6375,
  "Ġcollected": 6376,
  "Ġmoder": 6377,
  "Ġresemb": 6378,
  "ano": 6379,
  "apore": 6380,
  "ĠMake": 6381,
  "ĠUN": 6382,
  "iger": 6383,
  "ĠWars": 6384,
  "wall": 6385,
  "Ġresident": 6386,
  "Ġtechnical": 6387,
  "imet": 6388,
  "Ġsud": 6389,
  "unning": 6390,
  "ĠBrook": 6391,
  "ilton": 6392,
  "Ġkilometres": 6393,
  "Ġbattery": 6394,
  "Ġevening": 6395,
  "avalry": 6396,
  "burgh": 6397,
  "Ġsugar": 6398,
  "ĠDark": 6399,
  "Ġassistance": 6400,
  "Ġsessions": 6401,
  "Ġviolence": 6402,
  "otes": 6403,
  "sey": 6404,
  "Ġinterchange": 6405,
  "rep": 6406,
  "ĠLar": 6407,
  "Ġinvestigation": 6408,
  "ĠSteve": 6409,
  "heim": 6410,
  "Ġsolution": 6411,
  "Ġcraft": 6412,
  "Ġapplied": 6413,
  "Ġ160": 6414,
  "ĠInt": 6415,
  "ĠNever": 6416,
  "ĠEduc": 6417,
  "Ġgradually": 6418,
  "ĠCambridge": 6419,
  "Ġagent": 6420,
  "going": 6421,
  "urance": 6422,
  "ĠMul": 6423,
  "Ġflooding": 6424,
  "ĠDisney": 6425,
  "Ġmerch": 6426,
  "Ġswim": 6427,
  "ĠMic": 6428,
  "Ġocean": 6429,
  "laim": 6430,
  "Ġchicken": 6431,
  "iat": 6432,
  "Ġwearing": 6433,
  "Ġtrail": 6434,
  "ĠHollywood": 6435,
  "restling": 6436,
  "Ġmixture": 6437,
  "ĠAlbum": 6438,
  "Ġcharts": 6439,
  "ĠHon": 6440,
  "Ġinfantry": 6441,
  "Ġ56": 6442,
  "11": 6443,
  "Ġdescribe": 6444,
  "Ð¾": 6445,
  "Ġexclus": 6446,
  "Ġapproached": 6447,
  "osure": 6448,
  "Ġadvice": 6449,
  "ocol": 6450,
  "Ġcrop": 6451,
  "-r": 6452,
  "-8": 6453,
  "ĠDie": 6454,
  "Ġrac": 6455,
  "intendo": 6456,
  "awa": 6457,
  "cover": 6458,
  "Ġfaith": 6459,
  "Ġtele": 6460,
  "itely": 6461,
  "Ġrecognition": 6462,
  "Ġserves": 6463,
  "Ġyouth": 6464,
  "Ġwatching": 6465,
  "Ġwants": 6466,
  "Ġtrains": 6467,
  "ĠIndust": 6468,
  "Ġgenus": 6469,
  "Ġintroduction": 6470,
  "ĠCommand": 6471,
  "Ġtesting": 6472,
  "Ġdefensive": 6473,
  "Ġmig": 6474,
  "Ġcomprehens": 6475,
  "Ġ250": 6476,
  "Ġgone": 6477,
  "Ġsolid": 6478,
  "Ġcriticism": 6479,
  "onym": 6480,
  "ĠOlympic": 6481,
  "ĠColl": 6482,
  "Ġengage": 6483,
  "Ġflat": 6484,
  "ĠHay": 6485,
  "Ġretire": 6486,
  "Ġseventh": 6487,
  "tenance": 6488,
  "ĠJr": 6489,
  "ĠLincoln": 6490,
  "ĠSpecial": 6491,
  "Ġoverl": 6492,
  "unior": 6493,
  ".5": 6494,
  "ĠProf": 6495,
  "Ġcooking": 6496,
  "Ġheads": 6497,
  "Ġstages": 6498,
  "Ġvegetables": 6499,
  "ules": 6500,
  "ĠLab": 6501,
  "Ġliked": 6502,
  ");Ċ": 6503,
  "ĠCur": 6504,
  "ĠHit": 6505,
  "Ġshowc": 6506,
  "Ġwonder": 6507,
  "Ġ57": 6508,
  "Ġpitch": 6509,
  "Ġsurpris": 6510,
  "ĠWat": 6511,
  "tic": 6512,
  "ommod": 6513,
  "Ġnorthwest": 6514,
  "hus": 6515,
  "Ġcomic": 6516,
  "ewhere": 6517,
  "uties": 6518,
  "Ġcapable": 6519,
  "eline": 6520,
  "Ġlosses": 6521,
  "opher": 6522,
  "asty": 6523,
  "Ġsubstant": 6524,
  "ĠGulf": 6525,
  "ĠBurn": 6526,
  "ĠEarl": 6527,
  "agues": 6528,
  "etts": 6529,
  "Ġactress": 6530,
  "Ġdrawn": 6531,
  "ĠOrder": 6532,
  "Station": 6533,
  "Ġfunds": 6534,
  "If": 6535,
  "ĠDemocratic": 6536,
  "Ġengines": 6537,
  "ĠSingapore": 6538,
  "ader": 6539,
  "ideo": 6540,
  "ĠOrigin": 6541,
  "Ġ85": 6542,
  "ĠGil": 6543,
  "bar": 6544,
  "ĠJean": 6545,
  "Ġbear": 6546,
  "Ġmanner": 6547,
  "ĠTam": 6548,
  "zant": 6549,
  "Ġtorpedo": 6550,
  "organ": 6551,
  "Ġdrew": 6552,
  "asters": 6553,
  "ĠGi": 6554,
  "ĠKen": 6555,
  "ĠSummer": 6556,
  "Ġfine": 6557,
  "ĠPu": 6558,
  "ector": 6559,
  "Ġoffering": 6560,
  "ĠShort": 6561,
  "Ġparallel": 6562,
  "Ġflowers": 6563,
  "bing": 6564,
  "ĠHun": 6565,
  "Ġrelief": 6566,
  "Ġdownload": 6567,
  "ira": 6568,
  "Ġcommissioned": 6569,
  "Ġtool": 6570,
  "Ġtransition": 6571,
  "Ġproposal": 6572,
  "Ġstood": 6573,
  "ãģ": 6574,
  "ĠNintendo": 6575,
  "Ġexcellent": 6576,
  "Ġsoil": 6577,
  "Ġmeat": 6578,
  "Ġappeal": 6579,
  "Ġappropriate": 6580,
  "Ġowner": 6581,
  "ĠStand": 6582,
  "ĠSunday": 6583,
  "Ġexistence": 6584,
  "ĠCook": 6585,
  "agan": 6586,
  "ĠLiverpool": 6587,
  "aka": 6588,
  "yer": 6589,
  "Ġshark": 6590,
  "Ġkingdom": 6591,
  "athan": 6592,
  "Ġexpedition": 6593,
  "Ġalign": 6594,
  "ossible": 6595,
  "Ġoutput": 6596,
  "Ġthrow": 6597,
  "Ġpromotion": 6598,
  "icit": 6599,
  "ivered": 6600,
  "ĠProduction": 6601,
  "Ġuseful": 6602,
  "Ġbond": 6603,
  "ĠScience": 6604,
  "cknow": 6605,
  "Ġearn": 6606,
  "25": 6607,
  "ĠEst": 6608,
  "Ġcrime": 6609,
  "ĠChap": 6610,
  "Ġviewed": 6611,
  "ician": 6612,
  "ĠBalt": 6613,
  "Ġbeach": 6614,
  "Ġchemical": 6615,
  "Ġic": 6616,
  "Ġcarrying": 6617,
  "Ġoccas": 6618,
  "Ġsmiled": 6619,
  "Ġlibrary": 6620,
  "Ġtechnique": 6621,
  "Ġhired": 6622,
  "Ġnor": 6623,
  "Ġrevolution": 6624,
  "Ġgather": 6625,
  "Ġrural": 6626,
  "Ġdescend": 6627,
  "Ġdeck": 6628,
  "ĠDown": 6629,
  "Ġcampaigns": 6630,
  "Ġol": 6631,
  "Ġguid": 6632,
  "Ġeld": 6633,
  "arsh": 6634,
  "Ġquant": 6635,
  "mouth": 6636,
  "ĠFall": 6637,
  "Ġneut": 6638,
  "-ch": 6639,
  "ĠSyd": 6640,
  "iform": 6641,
  "-on": 6642,
  "Ġrebu": 6643,
  "mun": 6644,
  "ĠConference": 6645,
  "ĠBrian": 6646,
  "ĠMain": 6647,
  "Ġstudied": 6648,
  "rations": 6649,
  "ĠMos": 6650,
  "olut": 6651,
  "Ġpolitics": 6652,
  "Ġtasks": 6653,
  "Ġcricket": 6654,
  "Ġpublication": 6655,
  "Ġdepending": 6656,
  "Ġgrass": 6657,
  "Ġvir": 6658,
  "achus": 6659,
  "Ġsympt": 6660,
  "ogether": 6661,
  "ĠOur": 6662,
  "Ġty": 6663,
  "Ġ51": 6664,
  "Ġmovements": 6665,
  "Ġmoments": 6666,
  "Ġsteam": 6667,
  "Ġcommitted": 6668,
  "Ġstorage": 6669,
  "Ġsemi": 6670,
  "ses": 6671,
  "John": 6672,
  "ĠEmperor": 6673,
  "ĠPlayStation": 6674,
  "hered": 6675,
  "ĠByzant": 6676,
  "Ġdefence": 6677,
  "Ġdepend": 6678,
  "They": 6679,
  "idges": 6680,
  "Ġ76": 6681,
  "ĠGolden": 6682,
  "Ġsolar": 6683,
  "Ġunl": 6684,
  "ĠOk": 6685,
  "ĠKa": 6686,
  "Ġdangerous": 6687,
  "Ġapplications": 6688,
  "Ġvent": 6689,
  "ĠGro": 6690,
  "ĠLady": 6691,
  "Ġessay": 6692,
  "Ġshut": 6693,
  "roud": 6694,
  "ibb": 6695,
  "Ġinjured": 6696,
  "ĠAnderson": 6697,
  "ĠGrant": 6698,
  "after": 6699,
  "ĠTy": 6700,
  "ivals": 6701,
  "Ġdepartment": 6702,
  "Ġemployed": 6703,
  "ĠRadio": 6704,
  "ĠSet": 6705,
  "ĠWalk": 6706,
  "Ġvul": 6707,
  "Ġbaseball": 6708,
  "Ġextremely": 6709,
  "Ġride": 6710,
  "Ġspend": 6711,
  "Ġsecondary": 6712,
  "Ġproceed": 6713,
  "Ġtowns": 6714,
  "ĠMiller": 6715,
  "-of": 6716,
  "Ġapproved": 6717,
  "Ġpepper": 6718,
  "ila": 6719,
  "sole": 6720,
  "ĠMu": 6721,
  "Ġabilities": 6722,
  "encing": 6723,
  "ĠArts": 6724,
  "Despite": 6725,
  "ko": 6726,
  "uations": 6727,
  "Ġbattalion": 6728,
  "ĠDaily": 6729,
  "thes": 6730,
  "Ġcandidate": 6731,
  "icine": 6732,
  "ĠSus": 6733,
  "ĠSpring": 6734,
  "Ġcopy": 6735,
  "Ġresponsibility": 6736,
  "bell": 6737,
  "Ġfrag": 6738,
  "Ġfreedom": 6739,
  "unicip": 6740,
  "ĠRailway": 6741,
  "ĠFound": 6742,
  "ĠBad": 6743,
  "Ġbrothers": 6744,
  "Ġconsult": 6745,
  "ĠNick": 6746,
  "Ġroughly": 6747,
  "ĠRol": 6748,
  "Ġfranchise": 6749,
  "Ġmap": 6750,
  "Ġevolution": 6751,
  "weight": 6752,
  "Ġbenefit": 6753,
  "ĠJan": 6754,
  "orporation": 6755,
  "Is": 6756,
  "ĠBell": 6757,
  "Ġdelivered": 6758,
  "ropol": 6759,
  "Ġacknow": 6760,
  "-friendly": 6761,
  "ĠLewis": 6762,
  "Ġdates": 6763,
  "Ġaccommod": 6764,
  "issance": 6765,
  "lets": 6766,
  "ĠOlympics": 6767,
  "Ġraise": 6768,
  "BS": 6769,
  "Ġhypothesis": 6770,
  "ĠFair": 6771,
  "ĠPrem": 6772,
  "Ġcontrolled": 6773,
  "Ġrecommendations": 6774,
  "rastructure": 6775,
  "Ġresear": 6776,
  "Ġinspiration": 6777,
  "Ġpartnership": 6778,
  "ati": 6779,
  "rell": 6780,
  "eor": 6781,
  "oves": 6782,
  "Ġenhance": 6783,
  "Ġpages": 6784,
  "Ġrequires": 6785,
  "ca": 6786,
  "ĠFire": 6787,
  "ĠSR": 6788,
  "Ġdecline": 6789,
  "Ġregister": 6790,
  "achusetts": 6791,
  "Ġcrucial": 6792,
  "ensus": 6793,
  "Ġconverted": 6794,
  "Ġsquad": 6795,
  "Ġauth": 6796,
  "Ġamazing": 6797,
  "rating": 6798,
  "ĠWomen": 6799,
  "Ġsections": 6800,
  "ĠNHL": 6801,
  "Ġgameplay": 6802,
  "Ġpull": 6803,
  "Ġreligion": 6804,
  "uct": 6805,
  "Ġcrimin": 6806,
  "Ġproducing": 6807,
  "Ġacts": 6808,
  "Ġalt": 6809,
  "ĠĠĠĠĠĠĠĠĠĠĠ": 6810,
  "olec": 6811,
  "ĠWhe": 6812,
  "iller": 6813,
  "emies": 6814,
  "Ġdistingu": 6815,
  "ĠProject": 6816,
  "Ġlap": 6817,
  "lav": 6818,
  "Ã¸": 6819,
  "Ġprotagonist": 6820,
  "ĠMedia": 6821,
  "ĠSupreme": 6822,
  "ĠDavis": 6823,
  "ĠâĪ": 6824,
  "theless": 6825,
  "atre": 6826,
  "olutely": 6827,
  "ĠPict": 6828,
  "Ġsegment": 6829,
  "ais": 6830,
  "Ġundert": 6831,
  "Un": 6832,
  "Ġexpert": 6833,
  "Ġwindow": 6834,
  "Ġvaluable": 6835,
  "ĠCarey": 6836,
  "Ġsurrounded": 6837,
  "ĠSix": 6838,
  "po": 6839,
  "Ġwait": 6840,
  "Ġdesire": 6841,
  "ĠBal": 6842,
  "Ġmeters": 6843,
  "Ġvehicle": 6844,
  "ĠBern": 6845,
  "Ġmort": 6846,
  "Ġburied": 6847,
  "bound": 6848,
  "mb": 6849,
  "Ġcollaboration": 6850,
  "ĠNorway": 6851,
  "ĠPhilipp": 6852,
  "ĠSerb": 6853,
  "Ġansw": 6854,
  "ĠNap": 6855,
  "Ġsight": 6856,
  "oard": 6857,
  "ĠHan": 6858,
  "ĠStation": 6859,
  "Ġdefined": 6860,
  "Ġhits": 6861,
  "100": 6862,
  "ĠPrinc": 6863,
  "Ġvon": 6864,
  "Ġblow": 6865,
  "Ġkeeping": 6866,
  "Ġstadium": 6867,
  "ĠMassachusetts": 6868,
  "Ġresponded": 6869,
  "Ġrelax": 6870,
  "ĠOnly": 6871,
  "Ġadapted": 6872,
  "ĠGermans": 6873,
  "Ġcharged": 6874,
  "Ġcircum": 6875,
  "Ã¡n": 6876,
  "Ġcinem": 6877,
  "ternal": 6878,
  "uts": 6879,
  "Ðµ": 6880,
  "Ġoccupied": 6881,
  "ĠBeach": 6882,
  "Ġeasier": 6883,
  "Ġ99": 6884,
  "Ġkid": 6885,
  "Ġnick": 6886,
  "Ġspons": 6887,
  "gor": 6888,
  "ĠLes": 6889,
  "Ġdomestic": 6890,
  "ĠKim": 6891,
  "Ġformal": 6892,
  "Ġpoly": 6893,
  "Ġcasualties": 6894,
  "Ġafford": 6895,
  "Ġmilk": 6896,
  "nic": 6897,
  "rum": 6898,
  "ĠBall": 6899,
  "onia": 6900,
  "ĠSydney": 6901,
  "Ġspok": 6902,
  "Ġdecades": 6903,
  "Ġhandle": 6904,
  "AN": 6905,
  "ĠKentucky": 6906,
  "Ġcomments": 6907,
  "ĠAirport": 6908,
  "ĠMaria": 6909,
  "Ġdecisions": 6910,
  "Ġentrance": 6911,
  "ĠAnna": 6912,
  "Ġarray": 6913,
  "Ġblend": 6914,
  "Ġdeclined": 6915,
  "Ġdisappoint": 6916,
  "Ġnarrative": 6917,
  "gal": 6918,
  "Ð°": 6919,
  "Ġbringing": 6920,
  "ĠIndepend": 6921,
  "ĠSa": 6922,
  "iliar": 6923,
  "Ġemerged": 6924,
  "ordan": 6925,
  "Ġtank": 6926,
  "ĠWalter": 6927,
  "Ġenl": 6928,
  "Ġstoryline": 6929,
  "Ġthousands": 6930,
  "orders": 6931,
  "onald": 6932,
  "Ġoccurs": 6933,
  "Answer": 6934,
  "Ġreaders": 6935,
  "rett": 6936,
  "related": 6937,
  "Ġmassive": 6938,
  "Ġcoastal": 6939,
  "oga": 6940,
  "ivalent": 6941,
  "Ġuncle": 6942,
  "oster": 6943,
  "Ġsupposed": 6944,
  "Ġ59": 6945,
  "ĠDream": 6946,
  "Ġcharges": 6947,
  "Ġhealthcare": 6948,
  "Ġschedule": 6949,
  "Ġspending": 6950,
  "Ġinner": 6951,
  "Ġroutes": 6952,
  "erted": 6953,
  "ĠOffic": 6954,
  "hat": 6955,
  "Ġunsuccess": 6956,
  "Ġ95": 6957,
  "Ġactual": 6958,
  "ĠBand": 6959,
  "ĠBase": 6960,
  "eman": 6961,
  "Ġchanging": 6962,
  "oncÃ©": 6963,
  "oys": 6964,
  "Ġ77": 6965,
  "Ġpatients": 6966,
  "quality": 6967,
  "Ġanxiety": 6968,
  "thm": 6969,
  "Ġintersection": 6970,
  "ĠAri": 6971,
  "Ġrevenue": 6972,
  "rof": 6973,
  "Ġdeaths": 6974,
  "riers": 6975,
  "ĠGer": 6976,
  "Ġtruth": 6977,
  "Ġpretty": 6978,
  "aware": 6979,
  "ĠHMS": 6980,
  "Ġchain": 6981,
  "Ġlanguages": 6982,
  "Ġsor": 6983,
  "osite": 6984,
  "ranean": 6985,
  "Ġbreath": 6986,
  "Ġstreets": 6987,
  "math": 6988,
  "Ġcampus": 6989,
  "Ġmaintenance": 6990,
  "Ġlisten": 6991,
  "Ġdie": 6992,
  "Ġinstalled": 6993,
  "ieval": 6994,
  "lude": 6995,
  "Ġdecade": 6996,
  "All": 6997,
  "ĠPower": 6998,
  "Ġconstitution": 6999,
  "ĠLieutenant": 7000,
  "ordon": 7001,
  "Ġindependence": 7002,
  "host": 7003,
  "osh": 7004,
  "Ġdescript": 7005,
  "Ġfict": 7006,
  "ĠUpon": 7007,
  "Ġcredit": 7008,
  "Ġnest": 7009,
  "Ġneck": 7010,
  "ja": 7011,
  "yself": 7012,
  "Ġarrested": 7013,
  "Ġcited": 7014,
  "Ġsettlement": 7015,
  "arr": 7016,
  "ela": 7017,
  "ĠKir": 7018,
  "andy": 7019,
  "Ġboats": 7020,
  "ĠRoss": 7021,
  "Ġpicked": 7022,
  "where": 7023,
  "201": 7024,
  "Ġfeels": 7025,
  "Ġgenerate": 7026,
  "Ġparticipate": 7027,
  "\"Ċ": 7028,
  "Ġentry": 7029,
  "Ġstruggle": 7030,
  "Ġfoss": 7031,
  "ĠBor": 7032,
  "Ġeval": 7033,
  "Ġimproving": 7034,
  "Ġlb": 7035,
  "No": 7036,
  "Ġaccounts": 7037,
  "Ġadults": 7038,
  "Ġsymptoms": 7039,
  "Ġlegs": 7040,
  "Ġthreatened": 7041,
  "Ex": 7042,
  "-level": 7043,
  "ĠAD": 7044,
  "Ġgirls": 7045,
  "ĠAbb": 7046,
  "ĠNaz": 7047,
  "Ġmounted": 7048,
  "Ġthoughts": 7049,
  "Ġwides": 7050,
  "-0": 7051,
  "Ġwinner": 7052,
  "ĠToday": 7053,
  "hire": 7054,
  "inton": 7055,
  "Ġtaught": 7056,
  "Ġzone": 7057,
  "Ġcomprehensive": 7058,
  "Ġseeing": 7059,
  "Ġaer": 7060,
  "Ġsole": 7061,
  "abled": 7062,
  "Ġ58": 7063,
  "Ġ66": 7064,
  "Ġinvestment": 7065,
  "Ġearliest": 7066,
  "Ġprofession": 7067,
  "Ġconqu": 7068,
  "ĠBowl": 7069,
  "ĠSel": 7070,
  "Ġgeneration": 7071,
  "Ġpopulations": 7072,
  "ĠAmong": 7073,
  "Ġrenamed": 7074,
  "ĠPass": 7075,
  "Ġfal": 7076,
  "Ġpossess": 7077,
  "Ġarranged": 7078,
  "Ġconstant": 7079,
  "Ġinformed": 7080,
  "Ġstandards": 7081,
  "pread": 7082,
  "Ġinvited": 7083,
  "Ġsubs": 7084,
  "\".": 7085,
  "-by": 7086,
  "worth": 7087,
  "ĠBarb": 7088,
  "ĠMeanwhile": 7089,
  "Ġmeets": 7090,
  "Ġencourage": 7091,
  "Ġrooms": 7092,
  "Ġmoves": 7093,
  "Ġsustained": 7094,
  "Ġretail": 7095,
  "Ġuniverse": 7096,
  "Ġcoffee": 7097,
  "Ġinstructions": 7098,
  "Ġsubmar": 7099,
  "ĠOttoman": 7100,
  "âĤ¬": 7101,
  "Ġincorporated": 7102,
  "Ġ74": 7103,
  "Be": 7104,
  "insula": 7105,
  "rams": 7106,
  "ĠJay": 7107,
  "Ġspoke": 7108,
  "Ġsucceeded": 7109,
  "Ġ67": 7110,
  "Ġinvolving": 7111,
  "Ġliterary": 7112,
  "Ġhill": 7113,
  "Ġpossibility": 7114,
  "Ġobst": 7115,
  "Ġcategory": 7116,
  "ador": 7117,
  "Ġdishes": 7118,
  "ansas": 7119,
  "fulness": 7120,
  "Ġdynam": 7121,
  "Ġintense": 7122,
  "Ġwings": 7123,
  "istol": 7124,
  "ĠCape": 7125,
  "ĠPortug": 7126,
  "ĠMoon": 7127,
  "ĠPoland": 7128,
  "ĠIV": 7129,
  "ophy": 7130,
  "Ġpatient": 7131,
  "Ġteen": 7132,
  "Ġpure": 7133,
  "Ġbasketball": 7134,
  "ĠKorea": 7135,
  "ĠAC": 7136,
  "Ġoverse": 7137,
  "-min": 7138,
  "Ġlasted": 7139,
  "Ġpromoting": 7140,
  "ĠName": 7141,
  "Ġposted": 7142,
  "Ġphase": 7143,
  "bro": 7144,
  "iot": 7145,
  "igen": 7146,
  "Ġconcerned": 7147,
  "Ġlake": 7148,
  "ĠEngine": 7149,
  "gon": 7150,
  "edding": 7151,
  "leton": 7152,
  "ĠGreg": 7153,
  "Ġcrash": 7154,
  "Ġham": 7155,
  "Ġinjuries": 7156,
  "Ġpractical": 7157,
  "Ġsentences": 7158,
  "Ġmissed": 7159,
  "Ġbiggest": 7160,
  "Ġcredited": 7161,
  "ĠWell": 7162,
  "inois": 7163,
  "ourage": 7164,
  "real": 7165,
  "Ġadopt": 7166,
  "Ġhuge": 7167,
  "Ġregional": 7168,
  "Ġwalked": 7169,
  "Ġ700": 7170,
  "Äģ": 7171,
  "Ġchallenging": 7172,
  "ĠBudd": 7173,
  "Ġwel": 7174,
  "mann": 7175,
  "ogle": 7176,
  "Ġreserve": 7177,
  "ighters": 7178,
  "Ġmusicians": 7179,
  "body": 7180,
  "Ġstands": 7181,
  "ece": 7182,
  "Ġ72": 7183,
  "ĠBeyoncÃ©": 7184,
  "ĠCE": 7185,
  "Ġbread": 7186,
  "Ġsolutions": 7187,
  "Ġkids": 7188,
  "ipe": 7189,
  "Ġabsor": 7190,
  "Ġmode": 7191,
  "Ġsees": 7192,
  "Ġru": 7193,
  "Ġtypical": 7194,
  "iley": 7195,
  "Ġpounds": 7196,
  "Ġexcess": 7197,
  "Ġexercises": 7198,
  "Ġoverw": 7199,
  "Ġsuggestions": 7200,
  "Ġinterpret": 7201,
  "rov": 7202,
  "Ġgross": 7203,
  "ĠVietnam": 7204,
  "Ġscheme": 7205,
  "bl": 7206,
  "ĠCirc": 7207,
  "Ġdebate": 7208,
  "Ġstayed": 7209,
  "Å¡": 7210,
  "ĠCult": 7211,
  "Ġreferences": 7212,
  "16": 7213,
  "Ġinfrastructure": 7214,
  "ĠTony": 7215,
  "Ġconvin": 7216,
  "iversary": 7217,
  "Ġvision": 7218,
  "ĠJustice": 7219,
  "Ġcrown": 7220,
  "Ġacres": 7221,
  "Ġfaster": 7222,
  "Ġrefers": 7223,
  "Ġflew": 7224,
  "Ġforg": 7225,
  "rees": 7226,
  "uan": 7227,
  "Ġpredict": 7228,
  "Ġasking": 7229,
  "Ġtables": 7230,
  "abil": 7231,
  "ĠRhod": 7232,
  "Ġindicated": 7233,
  "Ġrose": 7234,
  "ta": 7235,
  "Ġemergency": 7236,
  "Ġpassion": 7237,
  "ilation": 7238,
  "Ġrequirements": 7239,
  "acc": 7240,
  "ĠBon": 7241,
  "ĠEducation": 7242,
  "ĠSpace": 7243,
  "Ġastron": 7244,
  "aki": 7245,
  "inals": 7246,
  "lan": 7247,
  "ĠMoore": 7248,
  "'d": 7249,
  "Ġtries": 7250,
  "IN": 7251,
  "ĠIndones": 7252,
  "Ġ62": 7253,
  "Ġperspective": 7254,
  "wich": 7255,
  "Ġplayoff": 7256,
  "-American": 7257,
  "ĠJournal": 7258,
  "Ġenemies": 7259,
  "Ġhousing": 7260,
  "-J": 7261,
  "ĠMcG": 7262,
  "-N": 7263,
  "ĠHart": 7264,
  "ĠTurk": 7265,
  "Ġoutd": 7266,
  "Ġvolcan": 7267,
  "rm": 7268,
  "Ġ63": 7269,
  "Ġwaves": 7270,
  "Ġwrites": 7271,
  "iterranean": 7272,
  "aired": 7273,
  "Ġsurvived": 7274,
  "ĠAge": 7275,
  "Ġdestruction": 7276,
  "ĠDesign": 7277,
  "Ġdescribing": 7278,
  "Ġholds": 7279,
  "ĠâĪĴ": 7280,
  "iege": 7281,
  "ĠStadium": 7282,
  "Ġgoods": 7283,
  "ĠDue": 7284,
  "Ġpersonality": 7285,
  "ĠStew": 7286,
  "ĠForest": 7287,
  "Ġsale": 7288,
  "hetic": 7289,
  "Ġcycle": 7290,
  "ĠDirector": 7291,
  "Ġdiscovery": 7292,
  "arlic": 7293,
  "ĠDig": 7294,
  "ĠTheatre": 7295,
  "psons": 7296,
  "Ġadvertising": 7297,
  "Ġprincipal": 7298,
  "Ġfacing": 7299,
  "Ġreviewer": 7300,
  "ĠAnth": 7301,
  "Ġwidespread": 7302,
  "ĠAbout": 7303,
  "ĠImperial": 7304,
  "iday": 7305,
  "Ġportrayed": 7306,
  "Ġquiet": 7307,
  "ĠVar": 7308,
  "Ġsurvive": 7309,
  "Ġsam": 7310,
  "ĠJesus": 7311,
  "ĠRyan": 7312,
  "Ġtemple": 7313,
  "Ġopera": 7314,
  "Ġretreat": 7315,
  "ache": 7316,
  "Ġcul": 7317,
  "Ġconvey": 7318,
  "Ġweakened": 7319,
  "Ġwilling": 7320,
  "ĠTar": 7321,
  "Ġcharacteristics": 7322,
  "Ġsubst": 7323,
  "ervative": 7324,
  "iy": 7325,
  "ĠEric": 7326,
  "Ġdoctor": 7327,
  "Ġsurviv": 7328,
  "Ġshop": 7329,
  "Ġcompris": 7330,
  "Ġton": 7331,
  "Ġfestival": 7332,
  "Ġsuitable": 7333,
  "Ġsignificance": 7334,
  "Ġsoutheast": 7335,
  "ello": 7336,
  "night": 7337,
  "ĠVill": 7338,
  "lee": 7339,
  "Ġshif": 7340,
  "ĠWhit": 7341,
  "ĠRose": 7342,
  "ĠMaryland": 7343,
  "Ġbaby": 7344,
  "Ġdisturb": 7345,
  "Ġwars": 7346,
  "Ġmales": 7347,
  "aret": 7348,
  "ĠJordan": 7349,
  "-W": 7350,
  "ito": 7351,
  "Ġthin": 7352,
  "formation": 7353,
  "Ġcovers": 7354,
  "bourne": 7355,
  "ĠSimpsons": 7356,
  "Ġpreced": 7357,
  "Ġotherwise": 7358,
  "iece": 7359,
  "Ġduty": 7360,
  "rates": 7361,
  "Ġfolk": 7362,
  "Ġarc": 7363,
  "Ġwaiting": 7364,
  "ĠTa": 7365,
  "Ġroutine": 7366,
  "ione": 7367,
  "pty": 7368,
  ".,": 7369,
  "itable": 7370,
  "Ġ73": 7371,
  "Ġpoetry": 7372,
  "Ġsector": 7373,
  "Ġentitled": 7374,
  "Ġmyself": 7375,
  "Ġretained": 7376,
  "IA": 7377,
  "ĠInit": 7378,
  "GN": 7379,
  "Ġpassengers": 7380,
  "ĠConfeder": 7381,
  "ÅĤ": 7382,
  "Ġrice": 7383,
  "life": 7384,
  "ortion": 7385,
  "Ġhidden": 7386,
  "ĠMediterranean": 7387,
  "Ġlose": 7388,
  "phone": 7389,
  "Ġprisoners": 7390,
  "evin": 7391,
  "ĠColonel": 7392,
  "Ġprepare": 7393,
  "ĠAdam": 7394,
  "Ġchildhood": 7395,
  "Ġdialogue": 7396,
  "bec": 7397,
  "Ġduties": 7398,
  "ĠGram": 7399,
  "ĠNaval": 7400,
  "Ġaccused": 7401,
  "Ġvulner": 7402,
  "Ġfactor": 7403,
  "ĠKong": 7404,
  "ĠFinally": 7405,
  "Ġdipl": 7406,
  "aws": 7407,
  "ĠCra": 7408,
  "Ġopposite": 7409,
  "Ġruled": 7410,
  "Ġ87": 7411,
  "ĠSongs": 7412,
  "ĠColor": 7413,
  "ĠMaster": 7414,
  "Ġobtained": 7415,
  "col": 7416,
  "Ġattached": 7417,
  "Ġfram": 7418,
  "Ġfalling": 7419,
  "ĠKat": 7420,
  "ĠStaff": 7421,
  "Ġsufficient": 7422,
  "Ġconsisting": 7423,
  "Ġdifficulty": 7424,
  "ez": 7425,
  "Ġadmitted": 7426,
  "aug": 7427,
  "Ġclothing": 7428,
  "Ġfasc": 7429,
  "Ġhip": 7430,
  "ĠTransport": 7431,
  "Ġlegend": 7432,
  "Ġtemperatures": 7433,
  "ĠMarc": 7434,
  "ĠMemorial": 7435,
  "Ġshots": 7436,
  "ĠKey": 7437,
  "abilities": 7438,
  "ĠNic": 7439,
  "Ġprey": 7440,
  "ĠVideo": 7441,
  "Ġdelivery": 7442,
  "Ġnone": 7443,
  "Ġpermanent": 7444,
  "Ġcontroversy": 7445,
  "Ġextension": 7446,
  "Ġimplemented": 7447,
  "Ġclubs": 7448,
  "ĠCa": 7449,
  "Ġliqu": 7450,
  "Ġcomposer": 7451,
  "Ġstrengthen": 7452,
  "apped": 7453,
  "Ġ110": 7454,
  "ĠIra": 7455,
  "ban": 7456,
  "ĠMTV": 7457,
  "ĠDeath": 7458,
  ".m": 7459,
  "Ġcrossed": 7460,
  "Ġenthus": 7461,
  "Ġsettled": 7462,
  "Ġfictional": 7463,
  "Ġpersu": 7464,
  "Ġdelicious": 7465,
  "-minute": 7466,
  "14": 7467,
  "olly": 7468,
  "Ġunusual": 7469,
  "Ġvessels": 7470,
  "entle": 7471,
  "Ġspiritual": 7472,
  "Ġromantic": 7473,
  "cho": 7474,
  "Ġinstruments": 7475,
  "Ġseeking": 7476,
  "ĠMexican": 7477,
  "Ã³n": 7478,
  "ĠNether": 7479,
  "Ġcontribute": 7480,
  "Ġsurprise": 7481,
  "ĠSupp": 7482,
  "ĠWeb": 7483,
  "Ġowners": 7484,
  "Ġpremise": 7485,
  "ĠIslam": 7486,
  "Ġplane": 7487,
  "ubb": 7488,
  "Ġoldest": 7489,
  "RA": 7490,
  "Ġtalking": 7491,
  "Ġvoted": 7492,
  "Ġgrounds": 7493,
  "Ġfemales": 7494,
  "IS": 7495,
  "oming": 7496,
  "resents": 7497,
  "roc": 7498,
  "senal": 7499,
  "ĠAst": 7500,
  "Ġclassical": 7501,
  "ygen": 7502,
  "ĠVis": 7503,
  "Ġmedal": 7504,
  "ĠAlf": 7505,
  "Ġneighborhood": 7506,
  "inder": 7507,
  "ĠHou": 7508,
  "Ġfreeway": 7509,
  "Ġshares": 7510,
  "Ġflex": 7511,
  "uis": 7512,
  "Ġknots": 7513,
  "Ġmolec": 7514,
  "Ġarts": 7515,
  "Ġremainder": 7516,
  "ĠFace": 7517,
  "Ġlandfall": 7518,
  "Ġregiment": 7519,
  "Ġsitting": 7520,
  "cles": 7521,
  "Ġhal": 7522,
  "Ġbot": 7523,
  "Ġconsiderable": 7524,
  "Ġtorn": 7525,
  "Ġtanks": 7526,
  "Ġtruly": 7527,
  "Ġbreaking": 7528,
  "Ġfer": 7529,
  "Ġphotograph": 7530,
  "Ġgrown": 7531,
  "Ġspin": 7532,
  "Ġalleged": 7533,
  "aya": 7534,
  "Ġentering": 7535,
  "Ġengineering": 7536,
  "Ġtied": 7537,
  "ami": 7538,
  "Ġcolour": 7539,
  "ĠUr": 7540,
  "elson": 7541,
  "ptions": 7542,
  "Ġlayer": 7543,
  "Ġvalid": 7544,
  "Ġdoct": 7545,
  "Ġdriver": 7546,
  "Ġweapon": 7547,
  "ĠOrgan": 7548,
  "Ġflour": 7549,
  "erto": 7550,
  "no": 7551,
  "Ġprocesses": 7552,
  "Ġmir": 7553,
  "Ġvast": 7554,
  "wan": 7555,
  "Ġwarning": 7556,
  "Ġmargin": 7557,
  "Ġadventure": 7558,
  "Ġperiods": 7559,
  "Ġteaching": 7560,
  "Ġparliament": 7561,
  "Ġpenal": 7562,
  "athy": 7563,
  "Ġ130": 7564,
  "ĠMountain": 7565,
  "ĠNetwork": 7566,
  "chang": 7567,
  "uro": 7568,
  "Ġfunctions": 7569,
  "ĠPit": 7570,
  "Ġoccasionally": 7571,
  "Ġovercome": 7572,
  "state": 7573,
  "Ġbes": 7574,
  "icing": 7575,
  "rete": 7576,
  "Ġsentiment": 7577,
  "Ġtechnologies": 7578,
  "Ġbehavi": 7579,
  "ĠAlan": 7580,
  "ĠProfess": 7581,
  "Ġaudio": 7582,
  "wick": 7583,
  "Ġ175": 7584,
  "Ġequivalent": 7585,
  "Ġideal": 7586,
  "Ġalco": 7587,
  "Ġbelieves": 7588,
  "à¸": 7589,
  "ĠLast": 7590,
  "ĠRhodes": 7591,
  "ON": 7592,
  "Ġlies": 7593,
  "ĠRoy": 7594,
  "Ġminister": 7595,
  "western": 7596,
  "ĠLisa": 7597,
  "Ġencouraged": 7598,
  "Ġgraphics": 7599,
  "Ġrepresents": 7600,
  "Ġsimpl": 7601,
  "olve": 7602,
  "ĠSav": 7603,
  "Ġproced": 7604,
  "ĠGordon": 7605,
  "Ġblog": 7606,
  "Ġdens": 7607,
  "Ġstores": 7608,
  "Ġbom": 7609,
  "Ġdiagn": 7610,
  "Ġnomination": 7611,
  "Ġcong": 7612,
  "Ġdiverse": 7613,
  "acles": 7614,
  "oup": 7615,
  "Ġheaded": 7616,
  "Ġequipped": 7617,
  "Ġfur": 7618,
  "Ġsupporters": 7619,
  "urday": 7620,
  "ĠFord": 7621,
  "Ġavo": 7622,
  "Ġimmig": 7623,
  "Ġobl": 7624,
  "Ġstronger": 7625,
  "Ġdeleg": 7626,
  "Ġencountered": 7627,
  "?\"ĊĊ": 7628,
  "Ġintention": 7629,
  "ĠFamily": 7630,
  "ĠGib": 7631,
  "hedral": 7632,
  "Ġnice": 7633,
  "elle": 7634,
  "iva": 7635,
  "rane": 7636,
  "Ġprices": 7637,
  "Ġfacility": 7638,
  "Ġpushed": 7639,
  "ĠTreat": 7640,
  "Ġscen": 7641,
  "Ġillness": 7642,
  "Ġvirtual": 7643,
  "oven": 7644,
  "Ġseparated": 7645,
  "ĠSimon": 7646,
  "Ġgenerated": 7647,
  "Ġdowntown": 7648,
  "Ġpig": 7649,
  "Ġprotest": 7650,
  "ĠBir": 7651,
  "ĠMerc": 7652,
  "Ġmagic": 7653,
  "ials": 7654,
  "ĠBa": 7655,
  "Ġrecalled": 7656,
  "Ġreplacement": 7657,
  "Ġwooden": 7658,
  "Ġgreatly": 7659,
  "Ġreinforce": 7660,
  "ĠGet": 7661,
  "Ġproud": 7662,
  "Ġhistoric": 7663,
  "Ġhosted": 7664,
  "Ġhoped": 7665,
  "Ġshore": 7666,
  "Ġsouthwest": 7667,
  "oz": 7668,
  "Ġgal": 7669,
  "ĠMeg": 7670,
  "Ġbreeding": 7671,
  "Ġjobs": 7672,
  "BN": 7673,
  "print": 7674,
  "ĠApple": 7675,
  "Ġsurf": 7676,
  "ĠGen": 7677,
  "ĠUlt": 7678,
  "Ġoverwhel": 7679,
  "har": 7680,
  "ogen": 7681,
  "ĠAdams": 7682,
  "ĠConstitution": 7683,
  "Ġdollars": 7684,
  "Ġsmart": 7685,
  "inations": 7686,
  "ĠOverall": 7687,
  "Ġeducational": 7688,
  "ĠLow": 7689,
  "Ġmaintaining": 7690,
  "Ġsed": 7691,
  "Ġtag": 7692,
  "oto": 7693,
  "Ã±": 7694,
  "onies": 7695,
  "Ġplate": 7696,
  "roid": 7697,
  "Ġinvolvement": 7698,
  "lyn": 7699,
  "ĠIllinois": 7700,
  "ĠTimmy": 7701,
  "Ġmissions": 7702,
  "regon": 7703,
  "Ġalive": 7704,
  "flow": 7705,
  "using": 7706,
  "Ġ$<<": 7707,
  "Ġcreatures": 7708,
  "Ġrated": 7709,
  "OS": 7710,
  "Ġcrisis": 7711,
  "ĠConstant": 7712,
  "ĠNorwe": 7713,
  "ĠPlot": 7714,
  "Ġimpossible": 7715,
  "phoon": 7716,
  "ĠArgent": 7717,
  "!ĊĊ": 7718,
  "ĠNBA": 7719,
  "oking": 7720,
  "ĠIndiana": 7721,
  "ĠLeon": 7722,
  "wing": 7723,
  "Ġmilit": 7724,
  "gorith": 7725,
  "active": 7726,
  "nce": 7727,
  "Ġdenied": 7728,
  "orous": 7729,
  "li": 7730,
  "ĠMcK": 7731,
  "ĠMicro": 7732,
  "orrow": 7733,
  "ĠBusiness": 7734,
  "Ġrepair": 7735,
  "Ġtests": 7736,
  "ĠBry": 7737,
  "ĠFederal": 7738,
  "ĠGlob": 7739,
  "ji": 7740,
  "ĠDougl": 7741,
  "Ġcompletion": 7742,
  "ĠRain": 7743,
  "Ġconversation": 7744,
  "heastern": 7745,
  "onto": 7746,
  "Ġcanc": 7747,
  "ĠHamilton": 7748,
  "asts": 7749,
  "Ġestablishment": 7750,
  "Ġscientists": 7751,
  "ĠAssembly": 7752,
  "ĠHand": 7753,
  "ulating": 7754,
  "Ġexpensive": 7755,
  "ĠFrid": 7756,
  "Ġkne": 7757,
  "ĠSimilar": 7758,
  "acked": 7759,
  "Ġmine": 7760,
  "Ġassociation": 7761,
  "Of": 7762,
  "veland": 7763,
  "Ġimmediate": 7764,
  "atically": 7765,
  "Ġassumed": 7766,
  "Ġdeparture": 7767,
  "ĠAk": 7768,
  "ĠJacob": 7769,
  "emed": 7770,
  "Ġprovince": 7771,
  "ĠChannel": 7772,
  "irds": 7773,
  "Ġeating": 7774,
  "Ġ79": 7775,
  "Ġagree": 7776,
  "Ġderived": 7777,
  "ĠTake": 7778,
  "Ġspaces": 7779,
  "ĠMulder": 7780,
  "Ġhearing": 7781,
  "ĠAndy": 7782,
  "ĠSab": 7783,
  "Ġpush": 7784,
  "ĠHoward": 7785,
  "Ġoperate": 7786,
  "Ġacclaim": 7787,
  "ibilities": 7788,
  "ĠCart": 7789,
  "ĠAP": 7790,
  "Ġawareness": 7791,
  "Ġnoting": 7792,
  "Ġcertified": 7793,
  "ĠMilitary": 7794,
  "Ġworst": 7795,
  "Ġgiant": 7796,
  "Ġtherapy": 7797,
  "ĠVII": 7798,
  "ĠPur": 7799,
  "Ġsan": 7800,
  "Ġstrongly": 7801,
  "/4": 7802,
  "Ġpin": 7803,
  "ĠSweden": 7804,
  "word": 7805,
  "Ġstead": 7806,
  "usic": 7807,
  "###": 7808,
  "ĠCab": 7809,
  "Ġindustries": 7810,
  "Ġupdated": 7811,
  "Ġwet": 7812,
  "rav": 7813,
  "ĠSky": 7814,
  "Ð¸": 7815,
  "ĠSingles": 7816,
  "Ġash": 7817,
  "ĠKennedy": 7818,
  "Ġlandscape": 7819,
  "ĠMagazine": 7820,
  "Ġoutbreak": 7821,
  "ĠIv": 7822,
  "Ġturb": 7823,
  "Ġsharp": 7824,
  "Ġalien": 7825,
  "estyle": 7826,
  "imited": 7827,
  "ĠHug": 7828,
  "ĠSports": 7829,
  "Ġfrust": 7830,
  "aza": 7831,
  "ureau": 7832,
  "ĠPear": 7833,
  "Ġaccurate": 7834,
  "ĠBang": 7835,
  "Ġinterior": 7836,
  "Ġacknowled": 7837,
  "Ġgift": 7838,
  "ĠDNA": 7839,
  "Ġcirculation": 7840,
  "Ġgarlic": 7841,
  "ocolate": 7842,
  "rim": 7843,
  "ĠBos": 7844,
  "ĠCop": 7845,
  "Ġtrained": 7846,
  "Ġcomfortable": 7847,
  "Ġratings": 7848,
  "----": 7849,
  "Ġancest": 7850,
  "Ġchampion": 7851,
  "Ġsuffering": 7852,
  "Please": 7853,
  "Ġvisible": 7854,
  "Ġwine": 7855,
  "imb": 7856,
  "Ġlatest": 7857,
  "ardens": 7858,
  "isp": 7859,
  "noon": 7860,
  "Ġrescue": 7861,
  "Ġrepresenting": 7862,
  "ĠNations": 7863,
  "Äĥ": 7864,
  "rors": 7865,
  "yard": 7866,
  "osaurus": 7867,
  "Ġclients": 7868,
  "Ġincl": 7869,
  "orney": 7870,
  "Ġfinishing": 7871,
  "Ġreserv": 7872,
  "Ġspeaking": 7873,
  "ĠSaturday": 7874,
  "Ġincred": 7875,
  "Ġbegun": 7876,
  "Ġneither": 7877,
  "13": 7878,
  "Ġreco": 7879,
  "ĠScient": 7880,
  "Ġmemorial": 7881,
  "Ġrub": 7882,
  "Ġsharing": 7883,
  "Ġveter": 7884,
  "BI": 7885,
  "lights": 7886,
  "Ġasks": 7887,
  "aria": 7888,
  "ĠIraq": 7889,
  "Ġbat": 7890,
  "Ġchannel": 7891,
  "Ġremix": 7892,
  "Ġhat": 7893,
  "Ġ78": 7894,
  "ĠUTC": 7895,
  "Ġdating": 7896,
  "Ġnoticed": 7897,
  "ĠMars": 7898,
  "Ġattributed": 7899,
  "Cl": 7900,
  "ĠThird": 7901,
  "Ph": 7902,
  "Ġairport": 7903,
  "Ġsigns": 7904,
  "ĠOregon": 7905,
  "Ġpatrol": 7906,
  "Ġrum": 7907,
  "borne": 7908,
  "ĠØ": 7909,
  "Ġlinked": 7910,
  "Ġspr": 7911,
  "Since": 7912,
  "hemat": 7913,
  "ĠAcc": 7914,
  "Qu": 7915,
  "ĠGill": 7916,
  "ĠPak": 7917,
  "ĠDer": 7918,
  "Ġsons": 7919,
  "ĠNorwegian": 7920,
  "icide": 7921,
  "Ġextreme": 7922,
  "ĠFeder": 7923,
  "oked": 7924,
  "oles": 7925,
  "ĠBrand": 7926,
  "Ġconsistent": 7927,
  "Ġstrip": 7928,
  "Ġtemporary": 7929,
  "rus": 7930,
  "Ġcourses": 7931,
  "evelop": 7932,
  "Ġvotes": 7933,
  "rooms": 7934,
  "Ġcryst": 7935,
  "-St": 7936,
  "ĠKevin": 7937,
  "ennis": 7938,
  "ĠCentre": 7939,
  "ĠGun": 7940,
  "Ġtheatre": 7941,
  "Ġrelative": 7942,
  "Ġentertainment": 7943,
  "Ġjudge": 7944,
  "ĠHo": 7945,
  "ĠEs": 7946,
  "Ġapply": 7947,
  "Ġ89": 7948,
  "Ġdocumentary": 7949,
  "Ġ82": 7950,
  "ĠEmily": 7951,
  "Ġexplan": 7952,
  "uv": 7953,
  "Ġcourts": 7954,
  "Ġdefinitely": 7955,
  "Ġhabitat": 7956,
  "Ġindicate": 7957,
  "ewhat": 7958,
  "uster": 7959,
  "ĠAnton": 7960,
  "Ġboys": 7961,
  "Ġuncertain": 7962,
  "-10": 7963,
  "Ġadvoc": 7964,
  "Ġarmor": 7965,
  "Ġblocks": 7966,
  "Ġnotice": 7967,
  "Con": 7968,
  "Ġclassified": 7969,
  "Ġstretch": 7970,
  "apping": 7971,
  "Ġanticip": 7972,
  "Ġeru": 7973,
  "ĠBush": 7974,
  "ĠDrag": 7975,
  "Ġille": 7976,
  "ĠHawai": 7977,
  "ĠMorgan": 7978,
  "Ġanimated": 7979,
  "Ġeighth": 7980,
  "Ġmulti": 7981,
  "Ġthirty": 7982,
  "Ġweekend": 7983,
  "elsh": 7984,
  "Ġalgorith": 7985,
  "Ġmood": 7986,
  "with": 7987,
  "ĠBruce": 7988,
  "Ġbrigade": 7989,
  "Ġjoy": 7990,
  "ĠAR": 7991,
  "Ġouter": 7992,
  "ĠStanley": 7993,
  "Ġwedding": 7994,
  "aints": 7995,
  "iens": 7996,
  "ĠConc": 7997,
  "Ġencounter": 7998,
  "opes": 7999,
  "ĠCleveland": 8000,
  "Ġconvent": 8001,
  "Ġmodified": 8002,
  "Ġintent": 8003,
  "Ġdated": 8004,
  "Ġtranslation": 8005,
  "Ġretirement": 8006,
  "Ġsequel": 8007,
  "Ġpregn": 8008,
  "Ġteeth": 8009,
  "aire": 8010,
  "Ġsailed": 8011,
  "Ġ68": 8012,
  "ĠHitler": 8013,
  ".g": 8014,
  "Ġdiscussed": 8015,
  "asted": 8016,
  "ye": 8017,
  "ĠDouglas": 8018,
  "Ġattracted": 8019,
  "Ġdrawing": 8020,
  "Ġauthors": 8021,
  "Ġefficiency": 8022,
  "-E": 8023,
  "ĠAz": 8024,
  "Ġargument": 8025,
  "eries": 8026,
  "nold": 8027,
  "ĠFA": 8028,
  "Ġpainted": 8029,
  "Ġinvent": 8030,
  "ĠSpe": 8031,
  "Ġgrav": 8032,
  "Ġmyst": 8033,
  "Ġvictims": 8034,
  "ĠLenn": 8035,
  "ĠEver": 8036,
  "Ġsurviving": 8037,
  "fire": 8038,
  "Ġfill": 8039,
  "ĠÃĹ": 8040,
  "EC": 8041,
  "MA": 8042,
  "point": 8043,
  "ĠSud": 8044,
  "agle": 8045,
  "ĠAud": 8046,
  "Your": 8047,
  "zing": 8048,
  "Ġaspect": 8049,
  "Ġlongest": 8050,
  "Ġpulled": 8051,
  "Ġstable": 8052,
  "ĠFoundation": 8053,
  "ĠFreder": 8054,
  "ĠWeekly": 8055,
  "Ġrequested": 8056,
  "oyd": 8057,
  "yo": 8058,
  "ĠNetherlands": 8059,
  "Ġassemb": 8060,
  "Ġelectronic": 8061,
  "aze": 8062,
  "Ġfab": 8063,
  "ĠHoly": 8064,
  "...": 8065,
  "Ġpaintings": 8066,
  "itle": 8067,
  "ĠRaj": 8068,
  "Ġinfluences": 8069,
  "acle": 8070,
  "Ġdistributed": 8071,
  "Ġmeditation": 8072,
  "ĠFree": 8073,
  "Ġerror": 8074,
  "Ġoxygen": 8075,
  "ĠPolice": 8076,
  "ĠUt": 8077,
  "Ġincorporate": 8078,
  "Ġinfluential": 8079,
  "Ġinstitutions": 8080,
  "AAF": 8081,
  "uther": 8082,
  "ĠAsian": 8083,
  "ĠFriday": 8084,
  "ĠPhilip": 8085,
  "ĠRolling": 8086,
  "ĠTemple": 8087,
  "ĠBeatles": 8088,
  "Ġaimed": 8089,
  "Ġannounce": 8090,
  "Ġarticles": 8091,
  "Ġvert": 8092,
  "Ġclassification": 8093,
  "Ġrecovered": 8094,
  "ĠExt": 8095,
  "Ġ69": 8096,
  "-foot": 8097,
  "ĠFame": 8098,
  "Ġminimum": 8099,
  "Ġpreferred": 8100,
  "ĠBi": 8101,
  "Ġmedieval": 8102,
  "rans": 8103,
  "aska": 8104,
  "Ġadaptation": 8105,
  "Ġartwork": 8106,
  "ĠDog": 8107,
  "Ġclearly": 8108,
  "Ġphen": 8109,
  "ĠBarn": 8110,
  "ĠRun": 8111,
  "Ġabsence": 8112,
  "ĠToronto": 8113,
  "Ġboil": 8114,
  "rix": 8115,
  "ĠReal": 8116,
  "Ġraces": 8117,
  "ĠPhill": 8118,
  "ĠPier": 8119,
  "Ġexpression": 8120,
  "reck": 8121,
  "wen": 8122,
  "Ġbath": 8123,
  "ĠJason": 8124,
  "Ġdisaster": 8125,
  "-known": 8126,
  "Ġcontributions": 8127,
  "ĠIGN": 8128,
  "Ġrelie": 8129,
  "Ġwal": 8130,
  "olph": 8131,
  "Ġhappen": 8132,
  "Ġpictures": 8133,
  "ĠâĢĿ": 8134,
  "ĠLabor": 8135,
  "ĠYe": 8136,
  "ĠTok": 8137,
  "Ġ96": 8138,
  "aver": 8139,
  "arked": 8140,
  "Ġelectricity": 8141,
  "oen": 8142,
  "Ġminimal": 8143,
  "Ġpurposes": 8144,
  "ĠOpen": 8145,
  "Ġpraise": 8146,
  "spec": 8147,
  "Ġdegrees": 8148,
  "Ġfalls": 8149,
  "Some": 8150,
  "apse": 8151,
  "Ġ98": 8152,
  "ĠNich": 8153,
  "Ġpercentage": 8154,
  "Ġrestrict": 8155,
  "rait": 8156,
  "Ġhug": 8157,
  "Ġrestored": 8158,
  "Ġforming": 8159,
  ".\"Ċ": 8160,
  "Ġauthen": 8161,
  "ĠBetween": 8162,
  "sewhere": 8163,
  "ĠScully": 8164,
  "Ġcoc": 8165,
  "Ġwins": 8166,
  "rine": 8167,
  "ĠWWE": 8168,
  "ĠBah": 8169,
  "ĠRow": 8170,
  "Ġcontinuing": 8171,
  "Ġsituations": 8172,
  "ooking": 8173,
  "pon": 8174,
  "Ġwindows": 8175,
  "Ġunderst": 8176,
  "ĠEle": 8177,
  "ĠNC": 8178,
  "Ġloop": 8179,
  "Ġtreated": 8180,
  "ĠRoger": 8181,
  "Ġclothes": 8182,
  "Ġcriminal": 8183,
  "Ġsynthes": 8184,
  "ĠCorporation": 8185,
  "Ġmeal": 8186,
  "ĠHospital": 8187,
  "Ġcomponents": 8188,
  "Ġdemol": 8189,
  "icians": 8190,
  "Ġconvinced": 8191,
  "ogy": 8192,
  "Ġdocuments": 8193,
  "Ġlanded": 8194,
  "ĠPremier": 8195,
  "Another": 8196,
  "ĠBristol": 8197,
  "Ġchorus": 8198,
  "ompson": 8199,
  "Ġprogramme": 8200,
  "ĠFive": 8201,
  "Ġdepicted": 8202,
  "ĠMarg": 8203,
  "Ġlegislation": 8204,
  "Ġelabor": 8205,
  "Ġ88": 8206,
  "ĠSn": 8207,
  "Ġbon": 8208,
  "Ġsuperior": 8209,
  "Sc": 8210,
  "ĠFinn": 8211,
  "rome": 8212,
  "Ġaudiences": 8213,
  "Ġaboard": 8214,
  "Ġpointed": 8215,
  "Ġsomewhat": 8216,
  "ĠMatthew": 8217,
  "Ġwickets": 8218,
  "rip": 8219,
  "ucks": 8220,
  "ĠPC": 8221,
  "Ġplus": 8222,
  "Ġafternoon": 8223,
  "Ġflash": 8224,
  "itzer": 8225,
  "ĠLibrary": 8226,
  "ĠMom": 8227,
  "gery": 8228,
  "ĠByzantine": 8229,
  "Ġfishing": 8230,
  "Ġunion": 8231,
  "agre": 8232,
  "etime": 8233,
  "ĠHin": 8234,
  "Ġclin": 8235,
  "Ġdinner": 8236,
  "aved": 8237,
  "Ġcommanded": 8238,
  "Ġtelling": 8239,
  "ĠGoogle": 8240,
  "Ġimagery": 8241,
  "Ġconfident": 8242,
  "Ġfamiliar": 8243,
  "âĢĶ": 8244,
  "ĠCas": 8245,
  "ĠIron": 8246,
  "ĠOak": 8247,
  "ultane": 8248,
  "Ã§": 8249,
  "ĠHeart": 8250,
  "Ġanniversary": 8251,
  "omot": 8252,
  "Ġexposed": 8253,
  "ĠNelson": 8254,
  "Ġhundreds": 8255,
  "Ġ170": 8256,
  "ĠNFL": 8257,
  "Ġhoney": 8258,
  "ĠStory": 8259,
  "Ġconsp": 8260,
  "erg": 8261,
  "urches": 8262,
  "ĠLanc": 8263,
  "Ġmountains": 8264,
  "ĠAllen": 8265,
  "mates": 8266,
  "However": 8267,
  "Ġske": 8268,
  "bre": 8269,
  "Ġ140": 8270,
  "ĠAnne": 8271,
  "ĠMit": 8272,
  "Ġdivisions": 8273,
  "Ġped": 8274,
  "Ġpoems": 8275,
  "Ġpool": 8276,
  "Ġcooper": 8277,
  "Ġseeds": 8278,
  "roit": 8279,
  "Ġaccessible": 8280,
  "ĠMorris": 8281,
  "ĠNob": 8282,
  "ĠISBN": 8283,
  "Ġrhythm": 8284,
  "ĠWelsh": 8285,
  "ĠJews": 8286,
  "Ġanimation": 8287,
  "Ġimpressed": 8288,
  "Ġrefuge": 8289,
  "ĠMond": 8290,
  "Ġfurn": 8291,
  "DS": 8292,
  "acent": 8293,
  "ĠNar": 8294,
  "Ġchest": 8295,
  "Ġpenalty": 8296,
  "ĠSanta": 8297,
  "Ġongoing": 8298,
  "writer": 8299,
  "ĠBelg": 8300,
  "ĠPatrick": 8301,
  "Ġpresidential": 8302,
  "Ġfrequent": 8303,
  "ĠGreece": 8304,
  "Ġboost": 8305,
  "Ġdriven": 8306,
  "Ġengineer": 8307,
  "Ġnoise": 8308,
  "Ġtoll": 8309,
  "Ġterminus": 8310,
  "Ġmunicip": 8311,
  "24": 8312,
  "err": 8313,
  "Ġassign": 8314,
  "anny": 8315,
  "ĠJess": 8316,
  "ĠDean": 8317,
  "Ġmoral": 8318,
  "ĠBenn": 8319,
  "ĠUSA": 8320,
  "Ġtrials": 8321,
  "ĠCritical": 8322,
  "Ġdissip": 8323,
  "Ġtomat": 8324,
  "ĠKelly": 8325,
  "Ġclaiming": 8326,
  "-play": 8327,
  "Ġenters": 8328,
  "Ġresolution": 8329,
  "orting": 8330,
  "ĠProgram": 8331,
  "igins": 8332,
  "roke": 8333,
  "ĠWinter": 8334,
  "Ġattempting": 8335,
  "Ġdogs": 8336,
  "-out": 8337,
  "ĠHouston": 8338,
  ".A": 8339,
  "start": 8340,
  "ĠAgain": 8341,
  "Ġelections": 8342,
  "Ġfoundation": 8343,
  "Ġhistorians": 8344,
  "Ġpowder": 8345,
  "emor": 8346,
  "Ġcoins": 8347,
  "Ġdiplom": 8348,
  "ĠBerlin": 8349,
  "ĠThus": 8350,
  "Ġmonarch": 8351,
  "ĠArsenal": 8352,
  "ĠPow": 8353,
  "ĠDor": 8354,
  "Ġchapter": 8355,
  "Ġster": 8356,
  "rac": 8357,
  "Ġinhabit": 8358,
  "Ġlaugh": 8359,
  "ĠPalace": 8360,
  "Ġcoordin": 8361,
  "Ġhurt": 8362,
  "wealth": 8363,
  "ĠLi": 8364,
  "Ġchairman": 8365,
  "Ġterror": 8366,
  "Ġreader": 8367,
  "Ġunn": 8368,
  "ologists": 8369,
  "owa": 8370,
  "Ġmarkets": 8371,
  "Ġpump": 8372,
  "Ġmush": 8373,
  "Ġstruggled": 8374,
  "ĠTelevision": 8375,
  "Ġpredecess": 8376,
  "ĠBrother": 8377,
  "Ġdanger": 8378,
  "oslav": 8379,
  "power": 8380,
  "ĠDomin": 8381,
  "umph": 8382,
  "Ġphrase": 8383,
  "ĠPuerto": 8384,
  "ronze": 8385,
  "Ġmit": 8386,
  "alo": 8387,
  "ĠOd": 8388,
  "Ġexposure": 8389,
  "Ġtexture": 8390,
  "obile": 8391,
  "Ġcompete": 8392,
  "Ġdub": 8393,
  "Ġdecide": 8394,
  "____": 8395,
  "Ġempty": 8396,
  "Ġ//": 8397,
  "Ġproperly": 8398,
  "orporate": 8399,
  "ĠChron": 8400,
  "Ġagency": 8401,
  "ribed": 8402,
  "Ġ176": 8403,
  "ĠJam": 8404,
  "Ġcavalry": 8405,
  "Ġjustice": 8406,
  "Ġstrange": 8407,
  "teenth": 8408,
  "Ġeleven": 8409,
  "Ġ93": 8410,
  "ĠRobinson": 8411,
  "attered": 8412,
  "Ġdispl": 8413,
  "Ġphotos": 8414,
  "iary": 8415,
  "-free": 8416,
  "Ġsubjects": 8417,
  "Ġparticipants": 8418,
  "earing": 8419,
  "Ġthrone": 8420,
  "Ġdelayed": 8421,
  "emet": 8422,
  "urd": 8423,
  "Ġoffices": 8424,
  "CA": 8425,
  "achment": 8426,
  "acon": 8427,
  "Ġ61": 8428,
  "ropolitan": 8429,
  "Ġsaved": 8430,
  "Ġdesired": 8431,
  "Ġpassenger": 8432,
  "issue": 8433,
  "Ġdeter": 8434,
  "rior": 8435,
  "Ġcarefully": 8436,
  "ĠMarine": 8437,
  "Ġappearing": 8438,
  "rolled": 8439,
  "ĠProm": 8440,
  "Ġarrangement": 8441,
  "ÑĤ": 8442,
  "Ġloud": 8443,
  "-quality": 8444,
  "icks": 8445,
  "backs": 8446,
  "Ġtransp": 8447,
  "ĠTru": 8448,
  "(\"": 8449,
  "fare": 8450,
  "Ġembr": 8451,
  "Wow": 8452,
  "acre": 8453,
  "Ġcolonial": 8454,
  "Ġexactly": 8455,
  "Ġevolved": 8456,
  "Ġdismissed": 8457,
  "Ġhunting": 8458,
  "Ġpremiere": 8459,
  "Ġuniform": 8460,
  "Ġ84": 8461,
  "Ġmoderate": 8462,
  "Ġtopic": 8463,
  "Ġcircumst": 8464,
  "ĠDesc": 8465,
  "Ġmemor": 8466,
  "Ġrivers": 8467,
  "ĠAdvent": 8468,
  "Ġstir": 8469,
  "Ġarchae": 8470,
  "Ġgate": 8471,
  "Ġsecured": 8472,
  "Ġsubt": 8473,
  "storm": 8474,
  "ĠTal": 8475,
  "Ġconfidence": 8476,
  "Ġagents": 8477,
  "Ġextent": 8478,
  "ĠRang": 8479,
  "Ġsurvivors": 8480,
  "Ġvisiting": 8481,
  "burn": 8482,
  "otype": 8483,
  "Ġdetect": 8484,
  "Ġfootage": 8485,
  "Ġstem": 8486,
  "Ġfulf": 8487,
  "Ġboss": 8488,
  "Ġdeeper": 8489,
  "ĠDE": 8490,
  "ĠCall": 8491,
  "Ġjazz": 8492,
  "Ġreleases": 8493,
  "Ġsick": 8494,
  "uma": 8495,
  "-shaped": 8496,
  "Ġconsidering": 8497,
  "soft": 8498,
  "Ġoutl": 8499,
  "emetery": 8500,
  "Ġbatting": 8501,
  "Ġfro": 8502,
  "Ġtraveled": 8503,
  "Ġartistic": 8504,
  "Ġdifficulties": 8505,
  "ĠCarter": 8506,
  "Ġisolated": 8507,
  "Ġtie": 8508,
  "ĠBishop": 8509,
  "Ġapartment": 8510,
  "Ġmand": 8511,
  "bal": 8512,
  "ishment": 8513,
  "ĠBab": 8514,
  "Ġcruiser": 8515,
  "Ġreun": 8516,
  "Ġtalent": 8517,
  "Ġlists": 8518,
  "Ġconven": 8519,
  "ework": 8520,
  "Ġshift": 8521,
  "ĠTurkish": 8522,
  "Ġinnovative": 8523,
  "ieties": 8524,
  "Ġdepos": 8525,
  "á»": 8526,
  "ĠThompson": 8527,
  "Ġbelt": 8528,
  "Ġdisplayed": 8529,
  "Ġolive": 8530,
  "Ġreveals": 8531,
  "anta": 8532,
  "Ġresearchers": 8533,
  "rator": 8534,
  "Ġkitchen": 8535,
  "ĠÅ": 8536,
  "ĠRa": 8537,
  "Ġtea": 8538,
  "rust": 8539,
  "ĠTower": 8540,
  "Ġimprovement": 8541,
  "Ġcolony": 8542,
  "Ġremote": 8543,
  "Ġtraditions": 8544,
  "()": 8545,
  "bra": 8546,
  "sk": 8547,
  "Ġalcohol": 8548,
  "ĠCO": 8549,
  "arth": 8550,
  "ĠCR": 8551,
  "arant": 8552,
  "ĠCry": 8553,
  "Ġcompetitive": 8554,
  "Ġflank": 8555,
  "agu": 8556,
  "Ġplastic": 8557,
  "itional": 8558,
  "Ġnovels": 8559,
  "Ġà": 8560,
  "Ġtoys": 8561,
  "amps": 8562,
  "annels": 8563,
  "ĠDetroit": 8564,
  "Ġrit": 8565,
  "ĠSin": 8566,
  "Ġcommunicate": 8567,
  "mith": 8568,
  "Ġmovies": 8569,
  "ĠAuthor": 8570,
  "Ġfled": 8571,
  "ĠCooper": 8572,
  "Ġnerv": 8573,
  "itate": 8574,
  "ĠDick": 8575,
  "Ġwire": 8576,
  "urer": 8577,
  "ĠHarris": 8578,
  "Ġdeemed": 8579,
  "Ġwider": 8580,
  "ĠRussell": 8581,
  "Ġafterwards": 8582,
  "ĠExpress": 8583,
  "ĠCru": 8584,
  "Ġcrosses": 8585,
  "otten": 8586,
  "comes": 8587,
  "Ġopponents": 8588,
  "ections": 8589,
  "oust": 8590,
  "ĠSwedish": 8591,
  "Ġdrums": 8592,
  "Ġjournalist": 8593,
  "icop": 8594,
  "itting": 8595,
  "ĠHend": 8596,
  "ĠTrib": 8597,
  "Ġattacking": 8598,
  "-air": 8599,
  "Ġbattleships": 8600,
  "Ġbreaks": 8601,
  "Ġremn": 8602,
  "Ġcarrier": 8603,
  "ĠCz": 8604,
  "Ġagricultural": 8605,
  "Ġcards": 8606,
  "Ġcoin": 8607,
  "Ġinher": 8608,
  "Ġlighting": 8609,
  "Ġrising": 8610,
  "Ġconsequences": 8611,
  "Ġreplied": 8612,
  "eping": 8613,
  "Ġisn": 8614,
  "pan": 8615,
  "Ġemotion": 8616,
  "ĠFront": 8617,
  "ĠObs": 8618,
  "Ġdat": 8619,
  "expected": 8620,
  "Ġsubstantial": 8621,
  "was": 8622,
  "ĠAnthony": 8623,
  "Ġevil": 8624,
  "Ġfighter": 8625,
  "urrent": 8626,
  "ĠArmen": 8627,
  "Ġcontroversial": 8628,
  "ĠChildren": 8629,
  "ĠParker": 8630,
  "ivan": 8631,
  "Ġax": 8632,
  "izon": 8633,
  "Ġlob": 8634,
  "ĠNorman": 8635,
  "ĠColorado": 8636,
  "Ġcharacterized": 8637,
  "Ġfitted": 8638,
  "Ġinsights": 8639,
  "Ġprosp": 8640,
  "ategory": 8641,
  "Ġnickn": 8642,
  "Ġrender": 8643,
  "ensions": 8644,
  "Ġseats": 8645,
  "sea": 8646,
  "ĠCould": 8647,
  "Ġbombard": 8648,
  "urally": 8649,
  "Ġdesigner": 8650,
  "athered": 8651,
  "gus": 8652,
  "Ġassass": 8653,
  "Ġcovering": 8654,
  "iami": 8655,
  "Ġdeployed": 8656,
  "Ġjoining": 8657,
  "Ġpublisher": 8658,
  "ĠRecording": 8659,
  "Ġtough": 8660,
  "Ġinstitution": 8661,
  "FC": 8662,
  "ĠModern": 8663,
  "ĠWy": 8664,
  "Ġincreases": 8665,
  "ĠHuman": 8666,
  "ĠTs": 8667,
  "Ġ86": 8668,
  "Ġrig": 8669,
  "Ġtargets": 8670,
  "ctic": 8671,
  "ĠKnow": 8672,
  "ĠCommonwealth": 8673,
  "Ġdies": 8674,
  "Ġresidential": 8675,
  "17": 8676,
  "ĠTrack": 8677,
  "Ġconservation": 8678,
  "Ġguests": 8679,
  "Ġsummar": 8680,
  "Ġcoverage": 8681,
  "Ġincorporating": 8682,
  "Ġreward": 8683,
  "Ġ94": 8684,
  "ĠStart": 8685,
  "Ġnet": 8686,
  "Ġscar": 8687,
  "]Ċ": 8688,
  "mad": 8689,
  "Ġtight": 8690,
  "aching": 8691,
  "gie": 8692,
  "Ġfalse": 8693,
  "Ġstuff": 8694,
  "ĠPy": 8695,
  "Ġamounts": 8696,
  "Ġathletes": 8697,
  "Ġpremiered": 8698,
  "unc": 8699,
  "Ã©e": 8700,
  "Ġexisted": 8701,
  "Ġconnections": 8702,
  "Ġexecuted": 8703,
  "Ġca": 8704,
  "Ġrecovery": 8705,
  "Ġtension": 8706,
  "orious": 8707,
  "ĠComb": 8708,
  "Ġskill": 8709,
  "ĠSomet": 8710,
  "Ġtoy": 8711,
  "ecraft": 8712,
  "fe": 8713,
  "atever": 8714,
  "ĠSilver": 8715,
  "Ġdrove": 8716,
  "Ġalter": 8717,
  "Ġconcrete": 8718,
  "ulous": 8719,
  "Ġfitness": 8720,
  "ounced": 8721,
  "Ġformerly": 8722,
  "ocation": 8723,
  "sters": 8724,
  "irts": 8725,
  "ixon": 8726,
  "Ġsatell": 8727,
  "Ġodd": 8728,
  "hr": 8729,
  "Ġgentle": 8730,
  "ellect": 8731,
  "ifer": 8732,
  "TA": 8733,
  "formula": 8734,
  "Ġbran": 8735,
  "Ġclar": 8736,
  "Ġtopics": 8737,
  "PA": 8738,
  "ifies": 8739,
  "Ġninth": 8740,
  "Ġpron": 8741,
  "Ġterritories": 8742,
  "ĠRen": 8743,
  "equ": 8744,
  "ĠLyn": 8745,
  "Ġlights": 8746,
  "Ġmeetings": 8747,
  "-season": 8748,
  "Ġcandidates": 8749,
  "Ġ--": 8750,
  "ĠContin": 8751,
  "ĠWright": 8752,
  "Ġfewer": 8753,
  "anner": 8754,
  "claim": 8755,
  "ĠMach": 8756,
  "Ġmamm": 8757,
  "Ġmessages": 8758,
  "Ġdistract": 8759,
  "ĠMuslim": 8760,
  "itud": 8761,
  "rang": 8762,
  "Ġcoat": 8763,
  "rient": 8764,
  "Ġapparently": 8765,
  "Ġbeliefs": 8766,
  "Ġdecides": 8767,
  "Ġdivor": 8768,
  "ĠIdent": 8769,
  "ĠNBC": 8770,
  "Ġfaces": 8771,
  "Ġneutral": 8772,
  "Ġunsuccessful": 8773,
  "Ġliquid": 8774,
  "hatt": 8775,
  "Ġprime": 8776,
  "ogan": 8777,
  "ĠBou": 8778,
  "iac": 8779,
  "Ġ900": 8780,
  "Ġcolleagues": 8781,
  "Ġearthqu": 8782,
  "ĠShortly": 8783,
  "ĠYan": 8784,
  "Ġscenar": 8785,
  "Ġsimultane": 8786,
  "ĠBuilding": 8787,
  "lie": 8788,
  "Ġtot": 8789,
  "Ġtranslated": 8790,
  "obi": 8791,
  "pet": 8792,
  "Ġoven": 8793,
  "ĠStock": 8794,
  "Ġmile": 8795,
  "Ġswitch": 8796,
  "endment": 8797,
  "inking": 8798,
  "Ġwhereas": 8799,
  "Ġ92": 8800,
  "enh": 8801,
  "Ġsucceed": 8802,
  "Ġtruck": 8803,
  "-life": 8804,
  "ĠWin": 8805,
  "Ġadds": 8806,
  "Ġracing": 8807,
  "Ġaccompany": 8808,
  "ĠIndians": 8809,
  "ĠPA": 8810,
  "Ġprogramming": 8811,
  "Based": 8812,
  "ĠMelbourne": 8813,
  "ĠNiel": 8814,
  "Ġframe": 8815,
  "Ġposts": 8816,
  "Ġpotentially": 8817,
  "Ġalleg": 8818,
  "Ġdisrupt": 8819,
  "Ġinstruction": 8820,
  "aron": 8821,
  "Ġreportedly": 8822,
  "ĠUSS": 8823,
  "Ġconversion": 8824,
  "Ġshopping": 8825,
  "ĠTwitter": 8826,
  "Ġunexpected": 8827,
  "Ġcultures": 8828,
  "Ġusage": 8829,
  "-game": 8830,
  "Ġlegacy": 8831,
  "Ġnegotiations": 8832,
  "Ġsurvival": 8833,
  "ĠMas": 8834,
  "ĠVice": 8835,
  "Ġrailroad": 8836,
  "Ġsuccessor": 8837,
  "Ġtub": 8838,
  "Ġvessel": 8839,
  "Ġchannels": 8840,
  "alities": 8841,
  "oons": 8842,
  "ugby": 8843,
  "ĠClinton": 8844,
  "ĠBatman": 8845,
  "Ġbirthday": 8846,
  "Ġgenetic": 8847,
  "ruption": 8848,
  "ĠNative": 8849,
  "Ġcurren": 8850,
  "Ġwish": 8851,
  "Ġconvection": 8852,
  "Ġdrugs": 8853,
  "Ġhorror": 8854,
  "utt": 8855,
  "ĠAdv": 8856,
  "ibbean": 8857,
  "nings": 8858,
  "unes": 8859,
  "axon": 8860,
  "itated": 8861,
  "Ġtrouble": 8862,
  "Ġunlike": 8863,
  "contin": 8864,
  "otton": 8865,
  "Ġcomparison": 8866,
  "Ġexploring": 8867,
  "bles": 8868,
  "Ġconsumption": 8869,
  "Ġfunny": 8870,
  "Ġreduction": 8871,
  "Ġdanc": 8872,
  "imore": 8873,
  "-scale": 8874,
  "uscript": 8875,
  "ĠAlice": 8876,
  "ĠCommander": 8877,
  "Ġensuring": 8878,
  "Ġposit": 8879,
  "Ġconscious": 8880,
  "Ġfixed": 8881,
  "Ġpy": 8882,
  "appy": 8883,
  "inces": 8884,
  "ints": 8885,
  "ĠRachel": 8886,
  "-K": 8887,
  "ocking": 8888,
  "ĠCharlie": 8889,
  "Le": 8890,
  "ois": 8891,
  "Ġrebell": 8892,
  "Ġsiege": 8893,
  "Ġmedicine": 8894,
  "Ġnormally": 8895,
  "Ġpursue": 8896,
  "Ġmonit": 8897,
  "ilty": 8898,
  "ĠWarner": 8899,
  "ĠMrs": 8900,
  "Ġputting": 8901,
  "econd": 8902,
  "Ġcutting": 8903,
  "ĠEvent": 8904,
  "Ġapproval": 8905,
  "Ġelder": 8906,
  "Ġnations": 8907,
  "Ġorganic": 8908,
  "Ġcultiv": 8909,
  "Ġgolden": 8910,
  "Ġconvention": 8911,
  "otal": 8912,
  "Ġconcerts": 8913,
  "Ġmemories": 8914,
  "Ġpermission": 8915,
  "orph": 8916,
  "-related": 8917,
  "fish": 8918,
  "Ġappointment": 8919,
  "Ġmanufacturing": 8920,
  "Ġrepresentative": 8921,
  "ME": 8922,
  "Ġfollowers": 8923,
  "rants": 8924,
  "ĠPerform": 8925,
  "Ġforests": 8926,
  "Ġbanks": 8927,
  "Ġscared": 8928,
  "aping": 8929,
  "Ġmyster": 8930,
  "Ġstatistics": 8931,
  "eenth": 8932,
  "=<<": 8933,
  "Ġpreparation": 8934,
  "Ġresign": 8935,
  "Ġvalley": 8936,
  "-style": 8937,
  "CC": 8938,
  "ĠRey": 8939,
  "father": 8940,
  "ĠMP": 8941,
  "ĠXbox": 8942,
  "ificial": 8943,
  "-hour": 8944,
  "ĠDigital": 8945,
  "ĠDave": 8946,
  "ĠSeattle": 8947,
  "ika": 8948,
  "ĠGarden": 8949,
  "ĠTrust": 8950,
  "Ġstruggles": 8951,
  "Ġid": 8952,
  "ĠPope": 8953,
  "ĠUnivers": 8954,
  "Ġagriculture": 8955,
  "Ġchoices": 8956,
  "Ġkiss": 8957,
  "Ġvital": 8958,
  "ĠMort": 8959,
  "Ġloan": 8960,
  "olas": 8961,
  "Ġangry": 8962,
  "Ġethnic": 8963,
  "Ġlowest": 8964,
  "Ġfold": 8965,
  "ĠMiami": 8966,
  "-cont": 8967,
  "Ġcalm": 8968,
  "Ġcircumstances": 8969,
  "Ġcreates": 8970,
  "ĠArk": 8971,
  "Ġtracking": 8972,
  "Ġcollaps": 8973,
  "Ġindicates": 8974,
  "igenous": 8975,
  "Ġimpressive": 8976,
  "inction": 8977,
  "Ġbridges": 8978,
  "Ġverse": 8979,
  "-one": 8980,
  "ugoslav": 8981,
  "Ġstudying": 8982,
  "Here": 8983,
  "ĠLin": 8984,
  "iche": 8985,
  "ĠCroatian": 8986,
  "ĠFacebook": 8987,
  "Ġprofessor": 8988,
  "Ġ83": 8989,
  "ID": 8990,
  "ĠHotel": 8991,
  "ĠBulgar": 8992,
  "Ġdri": 8993,
  "Ġcompleting": 8994,
  "Ġheritage": 8995,
  "olving": 8996,
  "ĠMix": 8997,
  "ĠRoberts": 8998,
  "Ġexit": 8999,
  "izz": 9000,
  "Ġpersonalized": 9001,
  "Ġprevented": 9002,
  "Ġpace": 9003,
  "Ġrocks": 9004,
  "ographical": 9005,
  "usal": 9006,
  "Ġunderw": 9007,
  "Ġwore": 9008,
  "osy": 9009,
  "Ġemissions": 9010,
  "Ð½": 9011,
  "ĠAustria": 9012,
  "ĠHell": 9013,
  "ĠCaribbean": 9014,
  "Ġimpacts": 9015,
  "imeter": 9016,
  "ĠMinistry": 9017,
  "Ġlistening": 9018,
  "ĠAff": 9019,
  "ĠGri": 9020,
  "mate": 9021,
  "ĠPrincess": 9022,
  "Ġcenters": 9023,
  "OT": 9024,
  "ĠCS": 9025,
  "Ġdiscussion": 9026,
  "Ġexplo": 9027,
  "-ray": 9028,
  "ĠBed": 9029,
  "Ġdancing": 9030,
  "Ġvice": 9031,
  "mph": 9032,
  "Ġresigned": 9033,
  "ĠSamuel": 9034,
  "ĠĠĠĠĠĠĠĠĠĠĠĠĠĠĠĠ": 9035,
  "Ġpuzz": 9036,
  "ĠGuy": 9037,
  "rin": 9038,
  "Ġtempor": 9039,
  "ivia": 9040,
  "don": 9041,
  "ĠEnergy": 9042,
  "ĠTherefore": 9043,
  "OR": 9044,
  "ÑĢ": 9045,
  "ĠSomers": 9046,
  "Ġunderground": 9047,
  "da": 9048,
  "Ġcommemor": 9049,
  "Ġbattleship": 9050,
  "Ġmainstream": 9051,
  "abama": 9052,
  "Ġclosing": 9053,
  "US": 9054,
  "Ġadvis": 9055,
  "Ġjur": 9056,
  "ĠChamber": 9057,
  "Ġaged": 9058,
  "ori": 9059,
  "Ġnewspapers": 9060,
  "ĠMurray": 9061,
  "Ġrarely": 9062,
  "ĠOt": 9063,
  "ĠKnight": 9064,
  "ĠHindu": 9065,
  "iking": 9066,
  "Ġformally": 9067,
  "ĠStat": 9068,
  "Ġanalyze": 9069,
  "Ġchurches": 9070,
  "Ġnotably": 9071,
  "olis": 9072,
  "ĠConstruction": 9073,
  "Ġwheel": 9074,
  "ĠPolit": 9075,
  "Ġrecordings": 9076,
  "Ġyield": 9077,
  "iture": 9078,
  "ĠStewart": 9079,
  "Ġlect": 9080,
  "Ġstrategic": 9081,
  "Ġphoto": 9082,
  "Ġsymp": 9083,
  "-he": 9084,
  "aft": 9085,
  "ĠWithin": 9086,
  "Ġdefended": 9087,
  "Ġgarrison": 9088,
  "Ġchocolate": 9089,
  "Ġpreferences": 9090,
  "Ġacceler": 9091,
  "Ġcommitment": 9092,
  "Ġexplains": 9093,
  "wa": 9094,
  "Ġmurd": 9095,
  "Ġneighb": 9096,
  "list": 9097,
  "Ġusual": 9098,
  "ĠUnlike": 9099,
  "Ġovers": 9100,
  "Ġcomplement": 9101,
  "atoes": 9102,
  "ls": 9103,
  "Lily": 9104,
  "Ġgay": 9105,
  "Ġlisting": 9106,
  "Ġreaches": 9107,
  "ĠEvans": 9108,
  "ĠExper": 9109,
  "Ġben": 9110,
  "Ġfarmers": 9111,
  "Ġsituated": 9112,
  "quir": 9113,
  "ĠKar": 9114,
  "Ġconsole": 9115,
  "Ġprohib": 9116,
  "Ġreflected": 9117,
  "berry": 9118,
  "ĠDiego": 9119,
  "Ġchronic": 9120,
  "Ġroots": 9121,
  "ĠRick": 9122,
  "ĠĠĠĠĠ": 9123,
  "Ġprol": 9124,
  "Ġthrew": 9125,
  "sts": 9126,
  "Ġimprison": 9127,
  "Ġinstrumental": 9128,
  "ĠBol": 9129,
  "ĠChampionships": 9130,
  "ĠMind": 9131,
  "Ġcareful": 9132,
  "Ġyes": 9133,
  ",âĢĿ": 9134,
  "haust": 9135,
  "Ġgang": 9136,
  "Ġjunior": 9137,
  "Ġrisks": 9138,
  "Ġjew": 9139,
  "Ġmarks": 9140,
  "Ġtort": 9141,
  "ĠStev": 9142,
  "Ġeffectiveness": 9143,
  "Ġridge": 9144,
  "ĠCroatia": 9145,
  "aks": 9146,
  "chell": 9147,
  "Ġexciting": 9148,
  "okes": 9149,
  "Ġhole": 9150,
  "ĠKhan": 9151,
  "ĠAdminist": 9152,
  "ĠQueens": 9153,
  "Ġbell": 9154,
  "ĠRAAF": 9155,
  "Ġorange": 9156,
  "ĠAround": 9157,
  "ĠBaltimore": 9158,
  "ĠCountry": 9159,
  "Ġstarred": 9160,
  "angle": 9161,
  "Ġelectron": 9162,
  "ĠDC": 9163,
  "Ġforecast": 9164,
  "elines": 9165,
  "ĠBilly": 9166,
  "Ġconstantly": 9167,
  "Ġimprovements": 9168,
  "ĠRAF": 9169,
  "Ġfra": 9170,
  "Ġphenomen": 9171,
  "oda": 9172,
  "Ġmarry": 9173,
  "acts": 9174,
  "ĠRon": 9175,
  "Ġbare": 9176,
  "Ġoccasions": 9177,
  "Ġhelicop": 9178,
  "Ġfest": 9179,
  "ĠYugoslav": 9180,
  "Ġmart": 9181,
  "Ġdramatic": 9182,
  "Ġexternal": 9183,
  "ĠCrown": 9184,
  "ĠFurthermore": 9185,
  "Ġthereafter": 9186,
  "ibl": 9187,
  "ĠBased": 9188,
  "ĠInternet": 9189,
  "ĠML": 9190,
  "ĠStr": 9191,
  "Ġpayment": 9192,
  "ĠRaw": 9193,
  "Ġlocomot": 9194,
  "Ġreven": 9195,
  "Ġintercept": 9196,
  "Ġmanuscript": 9197,
  "Ġfocusing": 9198,
  "Ġfriendship": 9199,
  "Ġtribute": 9200,
  "Ġgathered": 9201,
  "Ġhockey": 9202,
  "ĠHans": 9203,
  "ĠIowa": 9204,
  "ĠLev": 9205,
  "Ġrounds": 9206,
  "lete": 9207,
  "oa": 9208,
  "owned": 9209,
  "ĠBan": 9210,
  "Ġcontinu": 9211,
  "agraph": 9212,
  "azon": 9213,
  "borough": 9214,
  "jamin": 9215,
  "struct": 9216,
  "ĠPlace": 9217,
  "Ġmathemat": 9218,
  "ĠKu": 9219,
  "Ġtack": 9220,
  "ĠDead": 9221,
  "ĠList": 9222,
  "Ġintellect": 9223,
  "xual": 9224,
  "ĠLane": 9225,
  "Ġjuice": 9226,
  "ĠLate": 9227,
  "Ġmanaging": 9228,
  "ĠMcD": 9229,
  "ĠDiv": 9230,
  "<end": 9231,
  "<start": 9232,
  "eneral": 9233,
  "Ġdiseases": 9234,
  "Ġfascin": 9235,
  "ĠCategory": 9236,
  "-hand": 9237,
  "ouri": 9238,
  "ĠAle": 9239,
  "ĠEconom": 9240,
  "ĠSpears": 9241,
  "Ġpartially": 9242,
  "ĠMississ": 9243,
  "ĠObama": 9244,
  "Ġcollapse": 9245,
  "Ġpartly": 9246,
  "amese": 9247,
  "ĠMarshall": 9248,
  "Ġbats": 9249,
  "Ġexecut": 9250,
  "Ġrestric": 9251,
  "Ġsignal": 9252,
  "ĠBuff": 9253,
  "Ġadministrative": 9254,
  "Thank": 9255,
  "ĠNat": 9256,
  "ĠShakes": 9257,
  "Ġsuicide": 9258,
  "ED": 9259,
  "Ġdemands": 9260,
  "ĠYes": 9261,
  "Ġgrade": 9262,
  "ilst": 9263,
  "Ġdiameter": 9264,
  "Ġstorms": 9265,
  "Ġfeud": 9266,
  "ante": 9267,
  "Ġhouseholds": 9268,
  "Ġmal": 9269,
  "Ġpoison": 9270,
  "Ġsuggesting": 9271,
  "bow": 9272,
  "Ä±": 9273,
  "ĠMalays": 9274,
  "Ġarrive": 9275,
  "ĠNielsen": 9276,
  "Ġforget": 9277,
  "Ġmonument": 9278,
  "Ġorb": 9279,
  "Ġstruggling": 9280,
  "Ġemphasis": 9281,
  "Ġmac": 9282,
  "ĠDance": 9283,
  "ĠâĢĺ": 9284,
  "ĠErn": 9285,
  "ĠAh": 9286,
  "Ġflower": 9287,
  "ĠReturn": 9288,
  "Ġteachers": 9289,
  "ullivan": 9290,
  "ĠGab": 9291,
  "ĠIce": 9292,
  "Ġdebt": 9293,
  "agen": 9294,
  "ĠAlabama": 9295,
  "ĠHorn": 9296,
  "ridge": 9297,
  "ĠGiants": 9298,
  "ĠSon": 9299,
  "Ġbaking": 9300,
  "eign": 9301,
  "ĠCommunity": 9302,
  "ĠGaga": 9303,
  "Ġdynasty": 9304,
  "!\"ĊĊ": 9305,
  "inding": 9306,
  "ĠNev": 9307,
  "Ġprompted": 9308,
  "```ĊĊ": 9309,
  "IV": 9310,
  "ĠHold": 9311,
  "Ġunw": 9312,
  "lah": 9313,
  "onymous": 9314,
  "Ġdeparted": 9315,
  "Ġmatters": 9316,
  "ĠCanal": 9317,
  "Ġmarch": 9318,
  "Ġpossession": 9319,
  "Ġtactics": 9320,
  "Ġdominated": 9321,
  "ĠForces": 9322,
  "Ġloyalty": 9323,
  "Ġsurgery": 9324,
  "Ġcontrols": 9325,
  "-a": 9326,
  "odge": 9327,
  "Ġoperational": 9328,
  "tery": 9329,
  "Ġobtain": 9330,
  "ĠRelease": 9331,
  "Ġcertainly": 9332,
  "Ġpairs": 9333,
  "ĠAmy": 9334,
  "ĠNevertheless": 9335,
  "Ġadjacent": 9336,
  "Ġgovernments": 9337,
  "Ġshipping": 9338,
  "Ġappreciate": 9339,
  "forced": 9340,
  "Ñģ": 9341,
  "Ġaf": 9342,
  "Ġcrops": 9343,
  "Ġmanip": 9344,
  "Ġviolent": 9345,
  "Ġwond": 9346,
  "ĠRepresent": 9347,
  "ĠUSD": 9348,
  "Ġforcing": 9349,
  "ĠCost": 9350,
  "ĠHeavy": 9351,
  "Ġdispute": 9352,
  "Ġemployee": 9353,
  "Ġsuddenly": 9354,
  "rous": 9355,
  "Ġanch": 9356,
  "Ġpromised": 9357,
  "Ġownership": 9358,
  "IT": 9359,
  "die": 9360,
  "peare": 9361,
  "ĠAlong": 9362,
  "ĠIndustry": 9363,
  "ĠRoc": 9364,
  "flu": 9365,
  "Ġfrequency": 9366,
  "agram": 9367,
  "Ġdevelopers": 9368,
  "ĠFal": 9369,
  "ĠMun": 9370,
  "eland": 9371,
  "Ġfighters": 9372,
  "Ġ360": 9373,
  "ĠAnglo": 9374,
  "Ġattending": 9375,
  "ĠLennon": 9376,
  "atherine": 9377,
  "Ġstrict": 9378,
  "ĠCold": 9379,
  "ĠMess": 9380,
  "rak": 9381,
  "Äį": 9382,
  "Ġoutcomes": 9383,
  "Ġvillages": 9384,
  "Ġdeeply": 9385,
  "Ġobjective": 9386,
  "Ġshield": 9387,
  ".e": 9388,
  "ĠWing": 9389,
  "Ġbacter": 9390,
  "Ġcomponent": 9391,
  "Ġwithdrew": 9392,
  "igate": 9393,
  "ĠFrederick": 9394,
  "ĠSmall": 9395,
  "Ġwealthy": 9396,
  "ĠAlbums": 9397,
  "Ġtheater": 9398,
  "dale": 9399,
  "ĠArea": 9400,
  "ĠCzech": 9401,
  "Ġconvoy": 9402,
  "Ġobvious": 9403,
  "zona": 9404,
  "ĠMario": 9405,
  "ĠServices": 9406,
  "Ġexplanation": 9407,
  "Ġpublicly": 9408,
  "Ġelsewhere": 9409,
  "Ġgod": 9410,
  "hattan": 9411,
  "Ġconcentration": 9412,
  "Ġsubmarine": 9413,
  "Ġtrends": 9414,
  "nessee": 9415,
  "Ġcub": 9416,
  "ĠLaure": 9417,
  "idae": 9418,
  "izer": 9419,
  "ppers": 9420,
  "Ġ09": 9421,
  "ĠWriting": 9422,
  "ĠCamer": 9423,
  "Ġreconst": 9424,
  "Ġtalks": 9425,
  "ĠMinnes": 9426,
  "Ġfiled": 9427,
  "ĠIran": 9428,
  "Ġflights": 9429,
  "ĠAS": 9430,
  "leased": 9431,
  "Ġshells": 9432,
  "isk": 9433,
  "ĠLawrence": 9434,
  "Ġexhaust": 9435,
  "Ġprecip": 9436,
  "Ġcelebrated": 9437,
  "Ġfallen": 9438,
  "Ġmagical": 9439,
  "Ġphotography": 9440,
  "Ġpresentation": 9441,
  "ĠPlayer": 9442,
  "Ġlots": 9443,
  "Ġsoph": 9444,
  "Ġswimming": 9445,
  "Ġreviewers": 9446,
  "Ġindicating": 9447,
  "Ġknowing": 9448,
  "Ġpanel": 9449,
  "ĠInn": 9450,
  "ques": 9451,
  "Ġchopped": 9452,
  "Ġoutf": 9453,
  "Ġdefinition": 9454,
  "Ġhighlights": 9455,
  "ĠConsider": 9456,
  "ĠHorse": 9457,
  "ĠKansas": 9458,
  "Ġfinale": 9459,
  "oom": 9460,
  "Ġapproaches": 9461,
  "Ġthir": 9462,
  "Ġupgraded": 9463,
  "]ĊĊ": 9464,
  "Ġabuse": 9465,
  "Ġsigning": 9466,
  "Ġbases": 9467,
  "Ġseed": 9468,
  "lock": 9469,
  "encer": 9470,
  "Ġcurious": 9471,
  "Ġexhibition": 9472,
  "Ġraid": 9473,
  "ĠRub": 9474,
  "ĠSoph": 9475,
  "Ġexpectations": 9476,
  "andal": 9477,
  "eu": 9478,
  "ghan": 9479,
  "Ġacted": 9480,
  "Ġclient": 9481,
  "Ġradar": 9482,
  "Ġgrat": 9483,
  "osm": 9484,
  "ĠMichel": 9485,
  "Ġcake": 9486,
  "Ġvivid": 9487,
  "ĠDur": 9488,
  "ĠShel": 9489,
  "ĠSomerset": 9490,
  "Ġdemonstrated": 9491,
  "Ad": 9492,
  "ĠEgyptian": 9493,
  "Ġrepairs": 9494,
  "Ġspecimens": 9495,
  "Ġcircle": 9496,
  "Ġinaug": 9497,
  "Ġprocessing": 9498,
  "ĠTreaty": 9499,
  "Ġgram": 9500,
  "Ġnutrit": 9501,
  "Ġrecre": 9502,
  "Ġunderstood": 9503,
  "adi": 9504,
  "Ġknows": 9505,
  "ĠRoll": 9506,
  "ĠSenator": 9507,
  "Ġhandling": 9508,
  "Ġstatue": 9509,
  "ugg": 9510,
  "Ġguidance": 9511,
  "Ġinvolve": 9512,
  "Ġsurge": 9513,
  "found": 9514,
  "ĠVinc": 9515,
  "Ġbehalf": 9516,
  "Ġemployment": 9517,
  "Ġmeasured": 9518,
  "ĠHamp": 9519,
  "ĠKal": 9520,
  "Ġprinciples": 9521,
  "LC": 9522,
  "Ġmoon": 9523,
  "Ġoccupation": 9524,
  "ippi": 9525,
  "ĠBros": 9526,
  "Ġinteractive": 9527,
  "uda": 9528,
  "Ġmoist": 9529,
  "Ġseriously": 9530,
  "ĠHu": 9531,
  "Ġjack": 9532,
  "olves": 9533,
  "ĠHind": 9534,
  "essed": 9535,
  "ĠBelgium": 9536,
  "ĠFI": 9537,
  "ĠPrior": 9538,
  "Ġcanal": 9539,
  "Ġcredits": 9540,
  "Ġcruisers": 9541,
  "Ġspan": 9542,
  "Ġsupports": 9543,
  "born": 9544,
  "ĠHem": 9545,
  "ĠBeg": 9546,
  "ĠMicrosoft": 9547,
  "Ġfocuses": 9548,
  "ĠNash": 9549,
  "Ġcra": 9550,
  "Ġsending": 9551,
  "Ġsample": 9552,
  "Ġscholar": 9553,
  "Ġtargeted": 9554,
  "ĠHong": 9555,
  "Ġdistinctive": 9556,
  "Ġrefere": 9557,
  "fast": 9558,
  "ĠCreate": 9559,
  "Ġmonitor": 9560,
  "Ġrestaurants": 9561,
  "hist": 9562,
  "inum": 9563,
  "Ġmusician": 9564,
  "uary": 9565,
  "Ġpapers": 9566,
  "Ġbone": 9567,
  "Ġbypass": 9568,
  "Ġdrivers": 9569,
  "Ġsurprised": 9570,
  "ĠPersonal": 9571,
  "Ġbacking": 9572,
  "Ġvictories": 9573,
  "ĠThroughout": 9574,
  "Ġpap": 9575,
  "ateful": 9576,
  "ĠWindows": 9577,
  "Ġfounder": 9578,
  "Ġpink": 9579,
  "Ġweigh": 9580,
  "ĠEmma": 9581,
  "ĠSnow": 9582,
  "ĠTennessee": 9583,
  "Ġcous": 9584,
  "Ġthorough": 9585,
  "Ġfacil": 9586,
  "ĠAnim": 9587,
  "ĠArizona": 9588,
  "ĠLas": 9589,
  "ĠTrek": 9590,
  "Ġstriking": 9591,
  "PS": 9592,
  "ested": 9593,
  "yler": 9594,
  "Ġbranches": 9595,
  "Ġcategories": 9596,
  "Ġopponent": 9597,
  "Ġoutdoor": 9598,
  "Ġtravelled": 9599,
  "Ġtwin": 9600,
  "ĠManhattan": 9601,
  "Ġcreature": 9602,
  "Ġphilosophy": 9603,
  "Ġsubmitted": 9604,
  "//": 9605,
  "iti": 9606,
  "shore": 9607,
  "Ġcuis": 9608,
  "Ġdoubt": 9609,
  "Ġgrab": 9610,
  "Ġinsurance": 9611,
  "Ġstatements": 9612,
  "ĠNon": 9613,
  "Ġvariations": 9614,
  "ski": 9615,
  "velt": 9616,
  "Ġinterpre": 9617,
  "roduct": 9618,
  "ĠHills": 9619,
  "bsolutely": 9620,
  "Given": 9621,
  "zed": 9622,
  "ĠFranklin": 9623,
  "Ġarriving": 9624,
  "Ġholiday": 9625,
  "icking": 9626,
  "ĠDal": 9627,
  "ĠShakespeare": 9628,
  "ĠYanke": 9629,
  "ĠBlood": 9630,
  "Ġcogn": 9631,
  "Ġenthusi": 9632,
  "urring": 9633,
  "Ġinhabitants": 9634,
  "away": 9635,
  "imize": 9636,
  "ĠNapole": 9637,
  "Ġvulnerable": 9638,
  "inea": 9639,
  "ĠBenjamin": 9640,
  "ĠChristopher": 9641,
  "Ġgap": 9642,
  "Ġguarant": 9643,
  "ĠPeninsula": 9644,
  "Ġconflicts": 9645,
  "Ġovert": 9646,
  "owed": 9647,
  "Ġlem": 9648,
  "Ġreplacing": 9649,
  "New": 9650,
  "Ġhumor": 9651,
  "Ġnavigate": 9652,
  "ĠManagement": 9653,
  "ĠCole": 9654,
  "ĠRand": 9655,
  "Ġdeliber": 9656,
  "Ġtunnel": 9657,
  "Ġdrinking": 9658,
  "ĠAlfred": 9659,
  "ĠMinnesota": 9660,
  ".âĢĿ": 9661,
  "Ġcasting": 9662,
  "Ġhab": 9663,
  "uters": 9664,
  "Ġfuneral": 9665,
  "ĠMedal": 9666,
  "ĠWalker": 9667,
  "Ġcriticised": 9668,
  "Ġmultipl": 9669,
  "ĠPubl": 9670,
  "Ġshr": 9671,
  "ĠGilbert": 9672,
  "Ġsoup": 9673,
  "asant": 9674,
  "raid": 9675,
  "Ġbay": 9676,
  "ĠBanks": 9677,
  "Se": 9678,
  "imm": 9679,
  "ĠGrammy": 9680,
  "Ġlimits": 9681,
  "Ġrestoration": 9682,
  "Ġsubsc": 9683,
  "grad": 9684,
  "Ġclimb": 9685,
  "ĠBox": 9686,
  "ĠPalest": 9687,
  "Ġticket": 9688,
  "Ġabund": 9689,
  "Ġconfront": 9690,
  "erk": 9691,
  "ĠMes": 9692,
  "Ġdiscovers": 9693,
  "onial": 9694,
  "Ġguilty": 9695,
  "Ġrand": 9696,
  "etch": 9697,
  "ĠVI": 9698,
  "Ġprinted": 9699,
  "ĠSimp": 9700,
  "Ġdreams": 9701,
  "Ġretain": 9702,
  "Ġsettings": 9703,
  "Ġmindfulness": 9704,
  "-k": 9705,
  "sky": 9706,
  "ĠFriend": 9707,
  "\"I": 9708,
  "-part": 9709,
  "ĠLucas": 9710,
  "Ġdemocr": 9711,
  "Ġeliminated": 9712,
  "Ġhook": 9713,
  "ĠLam": 9714,
  "Ġfavorable": 9715,
  "Ġ}Ċ": 9716,
  "ĠSalt": 9717,
  "Ġciting": 9718,
  "Ġvirus": 9719,
  "ĠDisc": 9720,
  "ĠGuide": 9721,
  "enger": 9722,
  "Ġattendance": 9723,
  "Ġreliable": 9724,
  "ĠWrestling": 9725,
  "Ġamongst": 9726,
  "Ġtribes": 9727,
  "ht": 9728,
  "ĠBull": 9729,
  "Ġbones": 9730,
  "Ġexplosion": 9731,
  "Ġsuperv": 9732,
  "Ġcharity": 9733,
  "Ġconcepts": 9734,
  "Ġdesert": 9735,
  "Ġstability": 9736,
  "Ġprofile": 9737,
  "Ġturrets": 9738,
  "Ġ08": 9739,
  "Ġalignment": 9740,
  "Ġfiring": 9741,
  "Ġmaybe": 9742,
  "Ġregistered": 9743,
  "Ġvs": 9744,
  "ĠConnect": 9745,
  "ĠGuardian": 9746,
  "Ġartificial": 9747,
  "Ġdevast": 9748,
  "ĠWolf": 9749,
  "-step": 9750,
  "olid": 9751,
  "ĠIan": 9752,
  "Ġpalace": 9753,
  "):": 9754,
  "ige": 9755,
  "ĠInvest": 9756,
  "ĠNazi": 9757,
  "Ġfossil": 9758,
  "aro": 9759,
  "oosevelt": 9760,
  "ova": 9761,
  "ĠBeck": 9762,
  "Ġsuspended": 9763,
  "namese": 9764,
  "Ġaffairs": 9765,
  "ĠPortland": 9766,
  "Ġcargo": 9767,
  "Ġexclusive": 9768,
  "Ġhull": 9769,
  "Ġratio": 9770,
  "ĠOm": 9771,
  "SP": 9772,
  "My": 9773,
  "ĠKit": 9774,
  "Ġassists": 9775,
  "Ġspotted": 9776,
  "rawn": 9777,
  "Ġinvestigate": 9778,
  "Ġbeneath": 9779,
  "Ġcock": 9780,
  "Ġfabric": 9781,
  "Ġtreaty": 9782,
  "Ġemperor": 9783,
  "rapped": 9784,
  "ĠJosh": 9785,
  "ĠTun": 9786,
  "Ġspac": 9787,
  "-ex": 9788,
  "onnaissance": 9789,
  "ĠLad": 9790,
  "ĠPhilippines": 9791,
  "ĠSimpson": 9792,
  "Ġscre": 9793,
  "Em": 9794,
  "Ġrid": 9795,
  "Ġsalad": 9796,
  "ĠTag": 9797,
  "ĠProduct": 9798,
  "Ġtender": 9799,
  "ethe": 9800,
  "ĠBuck": 9801,
  "ĠHockey": 9802,
  "Ġdressed": 9803,
  "Ġparish": 9804,
  "Ġranging": 9805,
  "ĠAthlet": 9806,
  "Ġperceived": 9807,
  "Ġfoods": 9808,
  "Ġmuscle": 9809,
  "TS": 9810,
  "ĠTownship": 9811,
  "Ġextend": 9812,
  "estone": 9813,
  "Ġ125": 9814,
  "ĠJohnny": 9815,
  "Ġcompeted": 9816,
  "Ġdust": 9817,
  "Ġdestroyers": 9818,
  "anguage": 9819,
  "Ġaffair": 9820,
  "ģĦ": 9821,
  "ĠNAS": 9822,
  "Ġshorter": 9823,
  "sex": 9824,
  "-war": 9825,
  "Ġparent": 9826,
  "Ġsup": 9827,
  "Ġpreserved": 9828,
  "itals": 9829,
  "Ġdominant": 9830,
  "ĠGate": 9831,
  "Ġprove": 9832,
  "Ġtravels": 9833,
  "rage": 9834,
  "Ġvertical": 9835,
  "Ġreluct": 9836,
  "rene": 9837,
  "Ġorbit": 9838,
  "Ġbrings": 9839,
  "Ġpover": 9840,
  "Ġwrest": 9841,
  ";ĊĊ": 9842,
  "âĢĻre": 9843,
  "ĠSeason": 9844,
  "Ġmixing": 9845,
  "Ġsolve": 9846,
  "lahoma": 9847,
  "Ġfifteen": 9848,
  "Ġlinks": 9849,
  "Ġupcoming": 9850,
  "Or": 9851,
  "Ġfactory": 9852,
  "Ġmentions": 9853,
  "Ġpoverty": 9854,
  "ĠBureau": 9855,
  "ĠLl": 9856,
  "Ġrandom": 9857,
  "Ġvictim": 9858,
  "ĠMississippi": 9859,
  "Ġshear": 9860,
  "incial": 9861,
  "Ġghost": 9862,
  "Ġtraveling": 9863,
  "Let": 9864,
  "eling": 9865,
  "Ġurg": 9866,
  "Ġenvironments": 9867,
  "Ġresidence": 9868,
  "idal": 9869,
  "ĠLegacy": 9870,
  "Ind": 9871,
  "Ġinteractions": 9872,
  "gate": 9873,
  "Ġattitude": 9874,
  "Ġgro": 9875,
  "ĠMissouri": 9876,
  "Ġplain": 9877,
  "Ġshoulder": 9878,
  "Ġimplementation": 9879,
  "Ġpilots": 9880,
  "pha": 9881,
  "ĠBlues": 9882,
  "Ġdesignation": 9883,
  "ĠHud": 9884,
  "ĠAustralians": 9885,
  "Ġsubsid": 9886,
  "ĠDenmark": 9887,
  "thel": 9888,
  "ĠSteven": 9889,
  "ĠFund": 9890,
  "ĠPersian": 9891,
  "Ġdirectors": 9892,
  "Ġhonour": 9893,
  "Ġinternet": 9894,
  "Ġrab": 9895,
  "IC": 9896,
  "omes": 9897,
  "helm": 9898,
  "Ġcircuit": 9899,
  "Ġspeaker": 9900,
  "ĠMonday": 9901,
  "ĠTokyo": 9902,
  "ĠRoosevelt": 9903,
  "ĠVietnamese": 9904,
  "Ġearning": 9905,
  "Ġ165": 9906,
  "ĠKings": 9907,
  "ĠLouisiana": 9908,
  "aun": 9909,
  "ateur": 9910,
  "Ġdefeating": 9911,
  "Ġprofit": 9912,
  "ĠFarm": 9913,
  "-mile": 9914,
  "alions": 9915,
  "ĠRemember": 9916,
  "Ġ350": 9917,
  "Ġtut": 9918,
  "Ġvel": 9919,
  "orer": 9920,
  "ylan": 9921,
  "ĠSoon": 9922,
  "Ġstake": 9923,
  "Ġvenue": 9924,
  "Ġaside": 9925,
  "Ġque": 9926,
  "Ġbid": 9927,
  "Ġinsects": 9928,
  "Ġconnecting": 9929,
  "Ġmarine": 9930,
  "Ġproductivity": 9931,
  "Ġreson": 9932,
  "Ġpoorly": 9933,
  "Ġdiscip": 9934,
  "hu": 9935,
  "ĠPhoen": 9936,
  "ashes": 9937,
  "dy": 9938,
  "munition": 9939,
  "ĠFried": 9940,
  "Ġplanets": 9941,
  "rank": 9942,
  "ĠSuch": 9943,
  "Ġprofessionals": 9944,
  "Ġskull": 9945,
  "ĠHero": 9946,
  "Ġmines": 9947,
  "ĠRest": 9948,
  "Ġdad": 9949,
  "Ġterrain": 9950,
  "esign": 9951,
  "Ġtrading": 9952,
  "odore": 9953,
  "Ġsank": 9954,
  "Ø§": 9955,
  "Ġreveal": 9956,
  "isd": 9957,
  "Ġinteraction": 9958,
  "inister": 9959,
  "ĠBrun": 9960,
  "onth": 9961,
  "ĠLith": 9962,
  "Ġsequences": 9963,
  "len": 9964,
  "ĠHistoric": 9965,
  "that": 9966,
  "cription": 9967,
  "oil": 9968,
  "Ãº": 9969,
  "Ġcod": 9970,
  "Ġcelebrate": 9971,
  "Ġresumed": 9972,
  "week": 9973,
  "ĠLook": 9974,
  "Ġindeed": 9975,
  "Ð¾Ð": 9976,
  "Ġcash": 9977,
  "Ġpup": 9978,
  ".2": 9979,
  "Ġpreparing": 9980,
  "Ġargues": 9981,
  "Ġcow": 9982,
  "ĠGray": 9983,
  "mi": 9984,
  "ĠJimmy": 9985,
  "ĠKarl": 9986,
  "Ġbulk": 9987,
  "Ġforty": 9988,
  "atus": 9989,
  "ĠTan": 9990,
  "idency": 9991,
  "Ġbusy": 9992,
  "Ġuncom": 9993,
  "ĠMargaret": 9994,
  "Ġranks": 9995,
  "Ġsynd": 9996,
  "ardo": 9997,
  "Ġbrill": 9998,
  "Ġexperts": 9999,
  "Ġtours": 10000,
  "ĠRu": 10001,
  "Ġpredomin": 10002,
  "Ġstaying": 10003,
  "istent": 10004,
  "Ġ91": 10005,
  "ĠSony": 10006,
  "Ġcomprom": 10007,
  "Ġdiamond": 10008,
  "ancell": 10009,
  "Ġdecrease": 10010,
  "Ġinitiatives": 10011,
  "Ġparagraph": 10012,
  "Ġroot": 10013,
  "Ġanswers": 10014,
  "Ġcompens": 10015,
  "Ġmining": 10016,
  "Ġpersonally": 10017,
  "-long": 10018,
  "ĠAlexand": 10019,
  "Ġprize": 10020,
  "Ġassisted": 10021,
  "brid": 10022,
  "Ġtor": 10023,
  "Ġvisits": 10024,
  "Now": 10025,
  "uese": 10026,
  "Ġsoldier": 10027,
  "fly": 10028,
  "Ġ07": 10029,
  "Ġ164": 10030,
  "Ġlux": 10031,
  "ĠBh": 10032,
  "Ġobstacles": 10033,
  "Ġrepeatedly": 10034,
  "Ġabol": 10035,
  "Ġfruits": 10036,
  "Ġtickets": 10037,
  "Ġvibr": 10038,
  "ĠDest": 10039,
  "ĠRab": 10040,
  "ĠOklahoma": 10041,
  "Ġcrust": 10042,
  "Ġboundaries": 10043,
  "Ġcolonies": 10044,
  "ĠDepression": 10045,
  "Ġpriorit": 10046,
  "Ġrecipes": 10047,
  "ĠCow": 10048,
  "ĠIndependent": 10049,
  "Ġescaped": 10050,
  "AL": 10051,
  "icity": 10052,
  "roph": 10053,
  "sequently": 10054,
  "vironment": 10055,
  "Ġaccum": 10056,
  "Ġallies": 10057,
  "Ġsatellite": 10058,
  "-per": 10059,
  "occ": 10060,
  "Ġstim": 10061,
  "ĠPakistan": 10062,
  "Ġhoping": 10063,
  "ĠMack": 10064,
  "Ġforth": 10065,
  "Ġtemporarily": 10066,
  "anted": 10067,
  "species": 10068,
  "Ġalliance": 10069,
  "Ġ71": 10070,
  "ĠMaybe": 10071,
  "enson": 10072,
  "ĠRace": 10073,
  "iph": 10074,
  "ĠHave": 10075,
  "Ġduration": 10076,
  "Ġtriple": 10077,
  "Ġvisually": 10078,
  "tics": 10079,
  "Ġdealing": 10080,
  "Ġdisplays": 10081,
  "Ġfeather": 10082,
  "Ġweekly": 10083,
  "ĠABC": 10084,
  "ĠMother": 10085,
  "ĠMontreal": 10086,
  "ĠNag": 10087,
  "ĠSecurity": 10088,
  "ĠCampbell": 10089,
  "Ġammunition": 10090,
  "ocket": 10091,
  "Ġbike": 10092,
  "agers": 10093,
  "edia": 10094,
  "Ġelaborate": 10095,
  "Ġrevers": 10096,
  "Ġorigins": 10097,
  "Ġtox": 10098,
  "elli": 10099,
  "itzerland": 10100,
  "plete": 10101,
  "Ġfert": 10102,
  "Ġsunk": 10103,
  "ĠMitchell": 10104,
  "Through": 10105,
  "otion": 10106,
  "Ġfifty": 10107,
  "Tube": 10108,
  "ĠIns": 10109,
  "Ġmerc": 10110,
  "itudes": 10111,
  "ĠWard": 10112,
  "igation": 10113,
  "ĠCher": 10114,
  "ĠPed": 10115,
  "Ġsimultaneously": 10116,
  "Ġtip": 10117,
  "ĠHaving": 10118,
  "Ġchamber": 10119,
  "Ġfault": 10120,
  "-v": 10121,
  "ĠCuba": 10122,
  "Ġetc": 10123,
  "Ġtenth": 10124,
  "Ġmans": 10125,
  "Ġfier": 10126,
  "Ġmini": 10127,
  "Ġplacing": 10128,
  "Ġlifestyle": 10129,
  "Ġillegal": 10130,
  "umble": 10131,
  "ĠFa": 10132,
  "ĠKeep": 10133,
  "inian": 10134,
  "ĠKurt": 10135,
  "Ġexecution": 10136,
  "ĠLabour": 10137,
  "Ġvari": 10138,
  "anium": 10139,
  "His": 10140,
  "Ġrealistic": 10141,
  "ĠDra": 10142,
  "Ġhorn": 10143,
  "Ġdisorder": 10144,
  "tha": 10145,
  "âĢĵ": 10146,
  "ĠJoh": 10147,
  "Ġbadly": 10148,
  "ĠFlight": 10149,
  "ĠRap": 10150,
  "Ġimmers": 10151,
  "Ġrevised": 10152,
  "Ġfant": 10153,
  "Ġspoken": 10154,
  "Ġcaps": 10155,
  "-person": 10156,
  "ĠCampaign": 10157,
  "Ġshelter": 10158,
  "Ġworn": 10159,
  "olen": 10160,
  "iox": 10161,
  "part": 10162,
  "rings": 10163,
  "Ġcompilation": 10164,
  "Ġcuts": 10165,
  "Ġpackage": 10166,
  "Ġworksh": 10167,
  "Ġgust": 10168,
  "roduced": 10169,
  "ĠWarren": 10170,
  "Ġjudg": 10171,
  "Could": 10172,
  "Ġgrey": 10173,
  "Ġlemon": 10174,
  "oving": 10175,
  "Ġruling": 10176,
  "Ġdiscount": 10177,
  "lar": 10178,
  "odox": 10179,
  "Ġfastest": 10180,
  "Ġriders": 10181,
  "ni": 10182,
  "ĠSpir": 10183,
  "Ġsorry": 10184,
  "Before": 10185,
  "annon": 10186,
  "ĠWhy": 10187,
  "Ġalternate": 10188,
  "rose": 10189,
  "ĠCut": 10190,
  "Ġelectrical": 10191,
  "Ġestablishing": 10192,
  "-man": 10193,
  "ĠGraham": 10194,
  "Ġdemonstrate": 10195,
  "Ġheading": 10196,
  "Ġseverely": 10197,
  "Ġlin": 10198,
  "Ġlessons": 10199,
  "Ġremembered": 10200,
  "Ġthanks": 10201,
  "Ġbronze": 10202,
  "ĠÃĨ": 10203,
  "-being": 10204,
  "ĠWhere": 10205,
  "Ġdim": 10206,
  "eared": 10207,
  "ĠRing": 10208,
  "bu": 10209,
  "Add": 10210,
  "lessly": 10211,
  "osystem": 10212,
  "uating": 10213,
  "ww": 10214,
  "Ġease": 10215,
  "Ġinterviews": 10216,
  "Ġpale": 10217,
  "Ġpredicted": 10218,
  "Ġmotivated": 10219,
  "OC": 10220,
  "Ġboundary": 10221,
  "Ġsurve": 10222,
  "-selling": 10223,
  "ĠRico": 10224,
  "ĠVeg": 10225,
  "Ġserial": 10226,
  "ĠMagn": 10227,
  "Ġcondem": 10228,
  "Ġenable": 10229,
  "Ġparks": 10230,
  "Ġtraded": 10231,
  "bled": 10232,
  "emen": 10233,
  "ĠChel": 10234,
  "Ġhide": 10235,
  "ĠÄ": 10236,
  "Ġages": 10237,
  "Ġjunction": 10238,
  "Ġsearching": 10239,
  "Ġwalks": 10240,
  "Ġcompounds": 10241,
  "Ġtaxes": 10242,
  "Ġgarn": 10243,
  "Ġpill": 10244,
  "Ġparticipation": 10245,
  "Ġpitched": 10246,
  "Ġsisters": 10247,
  "itis": 10248,
  "Ġrecy": 10249,
  "azines": 10250,
  "fers": 10251,
  "ĠDw": 10252,
  "Ġbombers": 10253,
  "ĠBaby": 10254,
  "Ġinterpretation": 10255,
  "Ġoriginated": 10256,
  "Ġpip": 10257,
  "Ġtourism": 10258,
  "Ġ05": 10259,
  "Ġdescriptions": 10260,
  "Ġfract": 10261,
  "Ġinterface": 10262,
  "Ġmysterious": 10263,
  "Ġvic": 10264,
  "Read": 10265,
  "atched": 10266,
  "Ġaest": 10267,
  "Ġcooked": 10268,
  "Ġles": 10269,
  "Ġshowcase": 10270,
  "Ġpione": 10271,
  "Ġaffili": 10272,
  "Ġarchitectural": 10273,
  "aughters": 10274,
  "iracy": 10275,
  "ĠInterstate": 10276,
  "Many": 10277,
  "ĠNik": 10278,
  "Ġdensity": 10279,
  "Ã©s": 10280,
  "ĠHarv": 10281,
  "ĠEP": 10282,
  "Ġmaneu": 10283,
  "Ġtouring": 10284,
  "Ġaggressive": 10285,
  "ĠSue": 10286,
  "ĠTamil": 10287,
  "Ġmachines": 10288,
  "Ġplatinum": 10289,
  "Ġpromotional": 10290,
  "ĠSwitzerland": 10291,
  "Ġcoaching": 10292,
  "Ġmelody": 10293,
  "igs": 10294,
  "Ġdollar": 10295,
  "ĠImpact": 10296,
  "ĠTechnology": 10297,
  "Ġcancelled": 10298,
  "Ġobjectives": 10299,
  "Ġvariable": 10300,
  "bishop": 10301,
  "ĠChand": 10302,
  "Ġdin": 10303,
  "Ġexplicit": 10304,
  "Ġobservations": 10305,
  "Ġrecognised": 10306,
  "Ġupset": 10307,
  "kay": 10308,
  "ĠSullivan": 10309,
  "Ġlie": 10310,
  "ĠAfghan": 10311,
  "ĠMedical": 10312,
  "ĠRan": 10313,
  "ĠYouTube": 10314,
  "Ġpublishing": 10315,
  "Ne": 10316,
  "eton": 10317,
  "Ġgray": 10318,
  "-lane": 10319,
  "Us": 10320,
  "ĠPrize": 10321,
  "Ġradiation": 10322,
  "Ġsacrif": 10323,
  "otyp": 10324,
  "Ġdistant": 10325,
  "Ġgender": 10326,
  "Ġraising": 10327,
  "ĠMS": 10328,
  "Ġski": 10329,
  "Absolutely": 10330,
  "uz": 10331,
  "ËĪ": 10332,
  "ĠGrey": 10333,
  "ĠLink": 10334,
  "terior": 10335,
  "ĠWed": 10336,
  "Ġrepresentation": 10337,
  "AD": 10338,
  "enna": 10339,
  "Ġ06": 10340,
  "ĠCob": 10341,
  "ĠLang": 10342,
  "ĠPhys": 10343,
  "Ġaftermath": 10344,
  "Ġannouncement": 10345,
  "Ġbonus": 10346,
  "Ġhosts": 10347,
  "Two": 10348,
  "antha": 10349,
  "rod": 10350,
  "Ġsculpture": 10351,
  "Ġenforce": 10352,
  "Ġrebuilt": 10353,
  "Ġslaves": 10354,
  "ĠRailroad": 10355,
  "Ġgif": 10356,
  "Ġorchestra": 10357,
  "Ġexcav": 10358,
  "Ġmerchant": 10359,
  "Ġrespective": 10360,
  "ĠRat": 10361,
  "Ġlacked": 10362,
  "oker": 10363,
  "ĠPap": 10364,
  "Ġcuisine": 10365,
  "Ġpod": 10366,
  "luded": 10367,
  "owered": 10368,
  "oria": 10369,
  "oustic": 10370,
  "regation": 10371,
  "ĠKirk": 10372,
  "ĠPortuguese": 10373,
  "Ġimperial": 10374,
  "Ġqualified": 10375,
  "Ġlieutenant": 10376,
  "ficial": 10377,
  "ĠMaya": 10378,
  "Ġtex": 10379,
  "Ġconfirm": 10380,
  "hand": 10381,
  "ĠDylan": 10382,
  "ĠMaur": 10383,
  "ĠRecord": 10384,
  "Ġcontinuous": 10385,
  "Ġvoiced": 10386,
  "Ġ105": 10387,
  "ĠTel": 10388,
  "Ġgraduated": 10389,
  "Ġrenov": 10390,
  "car": 10391,
  "Ġpollution": 10392,
  "otte": 10393,
  "ĠDonald": 10394,
  "ĠUsing": 10395,
  "reated": 10396,
  "Ġ81": 10397,
  "Ġbreathing": 10398,
  "Ġarrangements": 10399,
  "Ġportions": 10400,
  "Ġrestricted": 10401,
  "ista": 10402,
  "jan": 10403,
  "ĠPitts": 10404,
  "Ġaffordable": 10405,
  "Ġempire": 10406,
  "AP": 10407,
  "ags": 10408,
  "words": 10409,
  "Ġclock": 10410,
  "Ġfears": 10411,
  "aying": 10412,
  "mers": 10413,
  "Ġbutton": 10414,
  "Ġconfron": 10415,
  "Ġdistinguished": 10416,
  "Ġfantasy": 10417,
  "Ġprev": 10418,
  "Ġwhatever": 10419,
  "ĠDemocrats": 10420,
  "Ġhydrogen": 10421,
  "Fin": 10422,
  "Ġcups": 10423,
  "Ġmature": 10424,
  "Ġpublications": 10425,
  "eria": 10426,
  "ĠFederation": 10427,
  "Ġitem": 10428,
  "Ġnurs": 10429,
  "Ġdisagre": 10430,
  "Ġtrapped": 10431,
  "OK": 10432,
  "MI": 10433,
  "Tom": 10434,
  "mund": 10435,
  "Ġformula": 10436,
  "Ġphotographs": 10437,
  "Ġtested": 10438,
  "Ġfilter": 10439,
  "aux": 10440,
  "irates": 10441,
  "ĠSimilarly": 10442,
  "Ġconservative": 10443,
  "Ġcrews": 10444,
  "Ġgardens": 10445,
  "Ġnominations": 10446,
  "Ġrealize": 10447,
  "Ġsang": 10448,
  "Ġsatisfaction": 10449,
  "Ġber": 10450,
  "Ġlawyer": 10451,
  "Ġshapes": 10452,
  "Ġ101": 10453,
  "Ġscores": 10454,
  "ĠAny": 10455,
  "ĠEdge": 10456,
  "ĠInitially": 10457,
  "Ġdynamic": 10458,
  "Ġinitiative": 10459,
  "Ġlayers": 10460,
  "writing": 10461,
  "anton": 10462,
  "ĠClar": 10463,
  "Ġranking": 10464,
  "Ġnose": 10465,
  "Ġerrors": 10466,
  "Ġplayoffs": 10467,
  "folk": 10468,
  "ĠSche": 10469,
  "ĠNatural": 10470,
  "Ġburning": 10471,
  "Ġsq": 10472,
  "eding": 10473,
  "ĠExpl": 10474,
  "ĠJuan": 10475,
  "ĠRef": 10476,
  "Ġdarkness": 10477,
  "ĠPlease": 10478,
  "aders": 10479,
  "ulty": 10480,
  "ĠTraining": 10481,
  ".00": 10482,
  "agh": 10483,
  "iar": 10484,
  "Ġimpression": 10485,
  "Ġsamples": 10486,
  "ĠAtlanta": 10487,
  "Ġbowling": 10488,
  "Ġexperiments": 10489,
  "Ġwreck": 10490,
  "Ġmonitoring": 10491,
  "agger": 10492,
  "ĠAy": 10493,
  "icut": 10494,
  "ĠLat": 10495,
  "Ġdestination": 10496,
  "Ġkings": 10497,
  "ĠProp": 10498,
  "Ġclosest": 10499,
  "Ġremnants": 10500,
  "Ġsubstitute": 10501,
  "Ġbold": 10502,
  "Ġpropag": 10503,
  "Ġworry": 10504,
  "artney": 10505,
  "stan": 10506,
  "ĠTry": 10507,
  "ĠThose": 10508,
  "Ġcompliment": 10509,
  "Ġinnovation": 10510,
  "Ġmainland": 10511,
  "Ġpromise": 10512,
  "ĠEns": 10513,
  "Most": 10514,
  "holders": 10515,
  "ng": 10516,
  "Å«": 10517,
  "ĠDS": 10518,
  "Ġsheet": 10519,
  "Ġsignature": 10520,
  "ĠCyr": 10521,
  "Ġthreats": 10522,
  "ĠConfederate": 10523,
  "ĠEff": 10524,
  "Ġcounties": 10525,
  "Ġdemanded": 10526,
  "Ġintensified": 10527,
  "ĠLucy": 10528,
  "ĠTogether": 10529,
  "Ġsung": 10530,
  "ĠHalo": 10531,
  "Ġcha": 10532,
  "Ġflagship": 10533,
  "Ġlasting": 10534,
  "Ġpartners": 10535,
  "ĠPil": 10536,
  "Ġflavors": 10537,
  "Ġunless": 10538,
  "Ġsecretary": 10539,
  "Ġlanes": 10540,
  "uki": 10541,
  "igious": 10542,
  "ĠSE": 10543,
  "ĠTon": 10544,
  "Ġcontribution": 10545,
  "Ġharsh": 10546,
  "pent": 10547,
  ".D": 10548,
  "Ġbrick": 10549,
  "oca": 10550,
  "Ġwished": 10551,
  "Her": 10552,
  "ĠSeven": 10553,
  "Ġachieving": 10554,
  "Ġpolar": 10555,
  "axy": 10556,
  "ĠDragon": 10557,
  "ĠPhoenix": 10558,
  "Ġboot": 10559,
  "Ġcreativity": 10560,
  "Ġhes": 10561,
  "Ġ173": 10562,
  "ĠRights": 10563,
  "ensively": 10564,
  "Ġcoinc": 10565,
  "mented": 10566,
  "Ġfilling": 10567,
  "Ġimplementing": 10568,
  "mingham": 10569,
  "ĠRidge": 10570,
  "Ġcancel": 10571,
  "Ġreverse": 10572,
  "Ġuniversities": 10573,
  "rise": 10574,
  "ĠFood": 10575,
  "Ġcounsel": 10576,
  "Ġrelation": 10577,
  "ĠDrive": 10578,
  "ĠLaur": 10579,
  "Ġports": 10580,
  "ĠHungary": 10581,
  "Ġcreator": 10582,
  "Ġdoors": 10583,
  "Ġrehe": 10584,
  "Ġreactions": 10585,
  "Ġwoods": 10586,
  "ouses": 10587,
  "Ġnetworks": 10588,
  "keeper": 10589,
  "ĠIndies": 10590,
  "ĠMountains": 10591,
  "Ġhorizon": 10592,
  "apolis": 10593,
  "Ġà¤": 10594,
  "ĠAM": 10595,
  "ĠAdministration": 10596,
  "Ġbombs": 10597,
  "Ġexploration": 10598,
  "izza": 10599,
  "uits": 10600,
  "Ġcomed": 10601,
  "Ġrecognize": 10602,
  "Ġguitarist": 10603,
  "Ġlift": 10604,
  "ĠBarry": 10605,
  "Ġannually": 10606,
  "Other": 10607,
  "ĠPay": 10608,
  "abase": 10609,
  "boy": 10610,
  "ĠNeg": 10611,
  "Ġinland": 10612,
  "Ġshoes": 10613,
  "Ġwouldn": 10614,
  "ĠJake": 10615,
  "Ġbelieving": 10616,
  "arted": 10617,
  "cru": 10618,
  "imen": 10619,
  "ĠCycl": 10620,
  "Ġchallenged": 10621,
  "Ġdense": 10622,
  "Ġfee": 10623,
  "Ġqueen": 10624,
  "rible": 10625,
  "ĠManu": 10626,
  "Ġgene": 10627,
  "Ġinsisted": 10628,
  "Ġreferring": 10629,
  "makers": 10630,
  "ĠBible": 10631,
  "Ġarrives": 10632,
  "Ġbehaviour": 10633,
  "Ġcivilian": 10634,
  "Ġmembership": 10635,
  "Pl": 10636,
  "Thanks": 10637,
  "boards": 10638,
  "ĠAustrian": 10639,
  "ĠIdentify": 10640,
  "ĠJonathan": 10641,
  "ĠMovie": 10642,
  "ĠSoul": 10643,
  "tario": 10644,
  "Ġtissue": 10645,
  "-Star": 10646,
  "ĠLiz": 10647,
  "Ġpsychological": 10648,
  "-pound": 10649,
  "ĠPerry": 10650,
  "Ġexplaining": 10651,
  "Ġmagazines": 10652,
  "Ġow": 10653,
  "Ġpatron": 10654,
  "Ġstored": 10655,
  "Ã¼r": 10656,
  "Ġblind": 10657,
  "Ġquarterback": 10658,
  "ulum": 10659,
  "Ġbuying": 10660,
  "Ġexperimental": 10661,
  "Ġremoval": 10662,
  "Several": 10663,
  "Ġearthquake": 10664,
  "beat": 10665,
  "Ġlunch": 10666,
  "pled": 10667,
  "ĠKl": 10668,
  "ĠLem": 10669,
  "Ġrecall": 10670,
  "Ġresil": 10671,
  "venth": 10672,
  "Ġwhilst": 10673,
  "90": 10674,
  "Ġfounding": 10675,
  "Ġmilitia": 10676,
  "ptic": 10677,
  "ĠVi": 10678,
  "ĠWor": 10679,
  "Ġarmored": 10680,
  "amental": 10681,
  "run": 10682,
  "Ġ115": 10683,
  "ĠBaseball": 10684,
  "ĠSweet": 10685,
  "Ġsimilarly": 10686,
  "Ġvaried": 10687,
  "covered": 10688,
  "ĠEventually": 10689,
  "ĠMong": 10690,
  "ĠTerrit": 10691,
  "Ġconfig": 10692,
  "Ġnat": 10693,
  "###Ċ": 10694,
  "ĠDyn": 10695,
  "orne": 10696,
  "ĠDall": 10697,
  "aters": 10698,
  "avel": 10699,
  "uction": 10700,
  "ĠBeng": 10701,
  "Ġpredators": 10702,
  "Ġriding": 10703,
  "Ġaims": 10704,
  "Ġunclear": 10705,
  "Ġdiver": 10706,
  "Ġlandmark": 10707,
  "Ġ174": 10708,
  "ĠChristianity": 10709,
  "Ġcombine": 10710,
  "Ġsmile": 10711,
  "outing": 10712,
  "riors": 10713,
  "ĠAmazon": 10714,
  "Ġecosystem": 10715,
  "Ġflows": 10716,
  "Ġgrateful": 10717,
  "ait": 10718,
  "vereign": 10719,
  "Ġhopes": 10720,
  "ikely": 10721,
  "ĠNext": 10722,
  "ĠChoose": 10723,
  "Ġexists": 10724,
  "Ġvoices": 10725,
  "text": 10726,
  "Ġmenu": 10727,
  "rup": 10728,
  "Ġmayor": 10729,
  "Ġsurpass": 10730,
  "Ġstops": 10731,
  "ĠMurphy": 10732,
  "Ġcarriers": 10733,
  "Ġdeterior": 10734,
  "Ġelig": 10735,
  "rik": 10736,
  "ursday": 10737,
  "ĠMik": 10738,
  "ĠMosc": 10739,
  "Ġintric": 10740,
  "Ġlock": 10741,
  "ĠLost": 10742,
  "Ġbull": 10743,
  "Ġdelimited": 10744,
  "Ġmild": 10745,
  "alph": 10746,
  "gi": 10747,
  "uesday": 10748,
  "ĠMarie": 10749,
  "Ġacknowledged": 10750,
  "Ġtexts": 10751,
  "rock": 10752,
  "Ġappealing": 10753,
  "Ġconventional": 10754,
  "ĠOriginal": 10755,
  "ĠAnaly": 10756,
  "ĠMarket": 10757,
  "Ġmechanical": 10758,
  "],": 10759,
  "ĠEdin": 10760,
  "ĠPars": 10761,
  "ĠProfessor": 10762,
  "Ġgenres": 10763,
  "Ġsmoke": 10764,
  "ĠAbbey": 10765,
  "Ġanth": 10766,
  "Ġjurisd": 10767,
  "Ġmeals": 10768,
  "Ġvolumes": 10769,
  "ĠHop": 10770,
  "ĠLex": 10771,
  "Ġintervention": 10772,
  "bel": 10773,
  "Ġforever": 10774,
  "eps": 10775,
  "ĠCheck": 10776,
  "ĠFat": 10777,
  "ĠLocal": 10778,
  "Ġimpacted": 10779,
  "35": 10780,
  "luding": 10781,
  "Ġ172": 10782,
  "ĠAbd": 10783,
  "ĠTracy": 10784,
  "ecution": 10785,
  "eded": 10786,
  "Ġrepresentatives": 10787,
  "asm": 10788,
  "ihanna": 10789,
  "Ġaltered": 10790,
  "Ġintegrated": 10791,
  "Ġoverseas": 10792,
  "ĠMand": 10793,
  "Ġnervous": 10794,
  "Am": 10795,
  "ensed": 10796,
  "ĠAld": 10797,
  "ĠOntario": 10798,
  "Ġarmies": 10799,
  "Ġdonated": 10800,
  "Ġpredecessor": 10801,
  "Ġlearns": 10802,
  "Ġrestore": 10803,
  "*2": 10804,
  "Ġ168": 10805,
  "itarian": 10806,
  "ĠHann": 10807,
  "Ġagencies": 10808,
  "Ġpositively": 10809,
  "ĠFel": 10810,
  "ĠType": 10811,
  "Ġradical": 10812,
  "Ġtransported": 10813,
  "aser": 10814,
  "ĠBroadway": 10815,
  "ĠPeace": 10816,
  "Ġafraid": 10817,
  "Ġbeam": 10818,
  "Ġwebsites": 10819,
  "ĠDeb": 10820,
  "Ġpupp": 10821,
  "atty": 10822,
  "Ġaccuracy": 10823,
  "Ġlad": 10824,
  "asting": 10825,
  "din": 10826,
  "ĠAT": 10827,
  "Ġaddressed": 10828,
  "Ġincent": 10829,
  "Ġtherm": 10830,
  "utter": 10831,
  "Ġaudition": 10832,
  "Ġweakness": 10833,
  "ĠLess": 10834,
  "Ġsovereign": 10835,
  "Ġworship": 10836,
  "ikes": 10837,
  "ĠGoth": 10838,
  "Ġneighbour": 10839,
  "Ġwake": 10840,
  "Ġrib": 10841,
  "Ġ155": 10842,
  "ĠUniversal": 10843,
  "Ġopens": 10844,
  "ĠAnc": 10845,
  "ĠLt": 10846,
  "ĠPlayers": 10847,
  "Ġexceed": 10848,
  "Ġgraduate": 10849,
  "hard": 10850,
  "lem": 10851,
  "ĠSyria": 10852,
  "Ġaqu": 10853,
  "Ġapproaching": 10854,
  "ĠFif": 10855,
  "ĠRena": 10856,
  "Ġcopper": 10857,
  "ĠMaj": 10858,
  "Ġdivers": 10859,
  "Ġtape": 10860,
  "Ġyard": 10861,
  "Ġencl": 10862,
  "Ġgenu": 10863,
  "adesh": 10864,
  "gged": 10865,
  "Ġportrayal": 10866,
  "aste": 10867,
  "ĠBobby": 10868,
  "ascar": 10869,
  "Ġguy": 10870,
  "Ġscrap": 10871,
  "Ġsettlers": 10872,
  "Ġprovision": 10873,
  "-star": 10874,
  "Ġmerely": 10875,
  "ĠDub": 10876,
  "Ġarmament": 10877,
  "Ġassembly": 10878,
  "ĠWol": 10879,
  "ĠWilhelm": 10880,
  "Ġthunder": 10881,
  "Ġtooth": 10882,
  "-con": 10883,
  "Ġfindings": 10884,
  "Ġphysics": 10885,
  "ouver": 10886,
  "Ġkiller": 10887,
  "pert": 10888,
  "ĠEdinburgh": 10889,
  "Ġknee": 10890,
  "Ġranges": 10891,
  "Ġ,Ċ": 10892,
  "Ġblues": 10893,
  "!Ċ": 10894,
  "-col": 10895,
  "iffer": 10896,
  "nesday": 10897,
  "Ġdisl": 10898,
  "-20": 10899,
  "Ġreconnaissance": 10900,
  "ĠFem": 10901,
  "ĠLear": 10902,
  "Ġfeeding": 10903,
  "Ġlung": 10904,
  "Ġrebellion": 10905,
  "Ġsubspecies": 10906,
  "affe": 10907,
  "fle": 10908,
  "ĠBaker": 10909,
  "ĠJoy": 10910,
  "ĠPa": 10911,
  "ĠForeign": 10912,
  "Ġmask": 10913,
  "utton": 10914,
  "ĠEdwards": 10915,
  "ĠPract": 10916,
  "Ġachievements": 10917,
  "Ġproteins": 10918,
  "ĠNear": 10919,
  "Ġdece": 10920,
  "à¥": 10921,
  "ĠBeaut": 10922,
  "ĠReserve": 10923,
  "Ġelevation": 10924,
  "Ġmemorable": 10925,
  "Ġburned": 10926,
  "warf": 10927,
  "ĠEth": 10928,
  "ĠGirls": 10929,
  "ĠHarvey": 10930,
  "Ġcompound": 10931,
  "Ġlegit": 10932,
  "-prof": 10933,
  "arks": 10934,
  "ometric": 10935,
  "Ġcognitive": 10936,
  "Ġswing": 10937,
  "bi": 10938,
  "ĠHawaii": 10939,
  "Ġgratitude": 10940,
  "Ġnorthward": 10941,
  "anger": 10942,
  "ĠNa": 10943,
  "Ġrect": 10944,
  "iper": 10945,
  "itched": 10946,
  "Ġauthentic": 10947,
  "Ġcommentary": 10948,
  "Ġcrack": 10949,
  "Ġune": 10950,
  "ĠSle": 10951,
  "Ġvolunteers": 10952,
  "TW": 10953,
  "ĠDelaware": 10954,
  "ĠOpp": 10955,
  "Ġhumanity": 10956,
  "ĠEnvironment": 10957,
  "Ġaccidentally": 10958,
  "Ġmystery": 10959,
  "roat": 10960,
  "Ġdecreased": 10961,
  "Ġgenerations": 10962,
  "ĠBoys": 10963,
  "ĠIndonesia": 10964,
  "abs": 10965,
  "case": 10966,
  "Ġdesper": 10967,
  "Ġstrengthened": 10968,
  "Ġbeef": 10969,
  "Ġjury": 10970,
  "Ġmillions": 10971,
  "Ġsymbols": 10972,
  "Ġtopped": 10973,
  "uming": 10974,
  "ĠBernard": 10975,
  "ĠSign": 10976,
  "ricks": 10977,
  "Ġsustainability": 10978,
  "isition": 10979,
  "ĠWorks": 10980,
  "Ġcam": 10981,
  "Ġremarked": 10982,
  "itement": 10983,
  "Ġfate": 10984,
  "Ġvine": 10985,
  "lain": 10986,
  "ulates": 10987,
  "ultan": 10988,
  "ĠGary": 10989,
  "Ġbrilliant": 10990,
  "Ġhitting": 10991,
  "Ġshock": 10992,
  "Ġuncon": 10993,
  "```Ċ": 10994,
  "Ġchoosing": 10995,
  "Ġorganisation": 10996,
  "Ġvoy": 10997,
  "ocy": 10998,
  "ĠJerry": 10999,
  "ĠOliver": 11000,
  "akh": 11001,
  "Ġaccommodate": 11002,
  "Ġautobi": 11003,
  "Ġproof": 11004,
  "Ġproduces": 11005,
  "Ġsteep": 11006,
  "ĠDa": 11007,
  "Ġcarries": 11008,
  "Ġglac": 11009,
  "gs": 11010,
  "never": 11011,
  "ĠKeith": 11012,
  "ĠLib": 11013,
  "Ġbombing": 11014,
  "75": 11015,
  "Ġbars": 11016,
  "orient": 11017,
  "ĠHey": 11018,
  "Ġmythology": 11019,
  "Ġsalary": 11020,
  "Ġworse": 11021,
  "Ġparticles": 11022,
  "Ġreporting": 11023,
  "-18": 11024,
  "Ġconfusion": 11025,
  "Ġexpenses": 11026,
  "Ġglad": 11027,
  "Ġ166": 11028,
  "Ġfisher": 11029,
  "Rec": 11030,
  "Ġdevelopments": 11031,
  "Ġprinting": 11032,
  "ĠQuestion": 11033,
  "Ġblank": 11034,
  "Ġcompeting": 11035,
  "Ġho": 11036,
  "ĠTommy": 11037,
  "Ġwrestling": 11038,
  "eta": 11039,
  "ĠBirmingham": 11040,
  "Ġtubes": 11041,
  "ĠLeslie": 11042,
  "ĠSug": 11043,
  "ĠWayne": 11044,
  "Ġattained": 11045,
  "Ġbiographer": 11046,
  "Ġsupern": 11047,
  "ĠSymph": 11048,
  "Ġ152": 11049,
  "Ġdrain": 11050,
  "Ġoffense": 11051,
  "ĠAustin": 11052,
  "ĠEnterprise": 11053,
  "race": 11054,
  "Ġtap": 11055,
  "ĠYankees": 11056,
  "Ġoutcome": 11057,
  "outed": 11058,
  "ĠGene": 11059,
  "Ġdefending": 11060,
  "Ġscattered": 11061,
  "ĠNCAA": 11062,
  "ĠTurkey": 11063,
  "ĠMuch": 11064,
  "Ġleaf": 11065,
  "Ġpeaking": 11066,
  "ĠBomb": 11067,
  "ĠRihanna": 11068,
  "ĠThursday": 11069,
  "Ġavailability": 11070,
  "Ġconvert": 11071,
  "Ġyoungest": 11072,
  "ussion": 11073,
  "Ġ163": 11074,
  "Ġbatteries": 11075,
  "ĠKr": 11076,
  "ĠTob": 11077,
  "ĠTol": 11078,
  "Ġstepped": 11079,
  "oting": 11080,
  "ĠConnecticut": 11081,
  "ĠShaw": 11082,
  "rama": 11083,
  "ĠMission": 11084,
  "ĠTodd": 11085,
  "ĠTransportation": 11086,
  "Ġclouds": 11087,
  "-Ch": 11088,
  "je": 11089,
  "Ġwestward": 11090,
  "hammad": 11091,
  "upiter": 11092,
  "ĠFinland": 11093,
  "ĠTrump": 11094,
  "Ġoverwhelming": 11095,
  "Ġpermitted": 11096,
  "arry": 11097,
  "Ġconcentrated": 11098,
  "-point": 11099,
  "ĠWithout": 11100,
  "Ġbattalions": 11101,
  "Ġequally": 11102,
  "ancouver": 11103,
  "ĠGallery": 11104,
  "ĠGrace": 11105,
  "ĠMcM": 11106,
  "asa": 11107,
  "ĠSaf": 11108,
  "Ġbeats": 11109,
  "Ġdemolished": 11110,
  "ĠBath": 11111,
  "Ġcommunications": 11112,
  "Ġenlisted": 11113,
  "Ġopinions": 11114,
  "-for": 11115,
  "AM": 11116,
  "ĠTuesday": 11117,
  "ĠMarvel": 11118,
  "Ġvoting": 11119,
  "-Files": 11120,
  "ĠEy": 11121,
  "Ġpartial": 11122,
  "Ġrestrictions": 11123,
  "Ġscr": 11124,
  "Ġarmour": 11125,
  "Ġlifetime": 11126,
  "ĠHope": 11127,
  "eli": 11128,
  "isting": 11129,
  "ĠPle": 11130,
  "ums": 11131,
  "ĠCass": 11132,
  "ĠKer": 11133,
  "ĠSpart": 11134,
  "Ġcollapsed": 11135,
  "Ġfailing": 11136,
  "Ġpersons": 11137,
  "ded": 11138,
  "Ġdetermination": 11139,
  ".0": 11140,
  "=\"": 11141,
  "aja": 11142,
  "ĠCommer": 11143,
  "Ġduo": 11144,
  "Ġevident": 11145,
  "Ġtransformed": 11146,
  "onica": 11147,
  "Ġ04": 11148,
  "ĠLion": 11149,
  "ĠMint": 11150,
  "ĠTig": 11151,
  "Ġparking": 11152,
  "ĠPearl": 11153,
  "Ġcapabilities": 11154,
  "Ġrely": 11155,
  "Ġupl": 11156,
  "py": 11157,
  "ĠHeritage": 11158,
  "ĠMoscow": 11159,
  "Ġsupplement": 11160,
  "ĠSi": 11161,
  "Ġballs": 11162,
  "through": 11163,
  "Ġdebris": 11164,
  "Ġenabled": 11165,
  "-15": 11166,
  "ĠVillage": 11167,
  "Ġacoustic": 11168,
  "Ġecho": 11169,
  "ĠEnc": 11170,
  "ĠIslamic": 11171,
  "Ġcousin": 11172,
  "Ġlocally": 11173,
  "Ġparam": 11174,
  "Ġsword": 11175,
  "leans": 11176,
  "Ġplates": 11177,
  "Ġproductions": 11178,
  "Ġsensitive": 11179,
  "Ġtheatrical": 11180,
  "Ġtyphoon": 11181,
  "Ġwithdrawal": 11182,
  "Ġunlikely": 11183,
  "atra": 11184,
  "terbury": 11185,
  "Ġaerial": 11186,
  "Ġhighways": 11187,
  "Ġregime": 11188,
  "ĠCEO": 11189,
  "Ġholes": 11190,
  "Ġinitiated": 11191,
  "-def": 11192,
  "Ġcave": 11193,
  "ĠGriff": 11194,
  "Ġdeals": 11195,
  "Ġedited": 11196,
  "illes": 11197,
  "Ġcontributing": 11198,
  "ĠArnold": 11199,
  "Ġcoup": 11200,
  "Ġindex": 11201,
  "abet": 11202,
  "Ġnit": 11203,
  "bes": 11204,
  "ĠMadag": 11205,
  "-making": 11206,
  "nik": 11207,
  "ĠAgency": 11208,
  "ĠCelt": 11209,
  "Ġcher": 11210,
  "Ġstones": 11211,
  "ĠMonte": 11212,
  "Ġbrands": 11213,
  "Ġlegislature": 11214,
  "Ġstrongest": 11215,
  "aman": 11216,
  "ĠSout": 11217,
  "ĠSwiss": 11218,
  "Ġvit": 11219,
  "immer": 11220,
  "ĠLegend": 11221,
  "Ġfiles": 11222,
  "-month": 11223,
  "auc": 11224,
  "ĠHudson": 11225,
  "Ġdaughters": 11226,
  "Ġdelight": 11227,
  "Ġcorporate": 11228,
  "Ġdict": 11229,
  "ĠSig": 11230,
  "Ġendors": 11231,
  "Ġmad": 11232,
  "Ġremoving": 11233,
  "Ġborrow": 11234,
  "ricts": 11235,
  "ĠArgentina": 11236,
  "Ġnavy": 11237,
  "strong": 11238,
  "Ġfinance": 11239,
  "Ġstunning": 11240,
  "thon": 11241,
  "Ġtheore": 11242,
  "Ġcamps": 11243,
  "Ġnavigation": 11244,
  "olar": 11245,
  "ĠDiam": 11246,
  "ĠVancouver": 11247,
  "Ġinstallation": 11248,
  "Ġ109": 11249,
  "ĠReport": 11250,
  "Ġresource": 11251,
  "ĠAndre": 11252,
  "Ġgear": 11253,
  "Ġpriority": 11254,
  "ĠHampshire": 11255,
  "Ġpm": 11256,
  "ĠDefence": 11257,
  "Ġinnoc": 11258,
  "ĠÎ¼": 11259,
  "-law": 11260,
  "ĠSpirit": 11261,
  "Ġmuscles": 11262,
  "Ġquestioned": 11263,
  "Ġangle": 11264,
  "umbled": 11265,
[...]
